unsigned char converted_UOS_BEARING_8k_converted_model_512_UOS_BEARING_8k_model_512_int8_tflite[] = {
  0x20, 0x00, 0x00, 0x00, 0x54, 0x46, 0x4c, 0x33, 0x00, 0x00, 0x00, 0x00,
  0x14, 0x00, 0x20, 0x00, 0x1c, 0x00, 0x18, 0x00, 0x14, 0x00, 0x10, 0x00,
  0x0c, 0x00, 0x00, 0x00, 0x08, 0x00, 0x04, 0x00, 0x14, 0x00, 0x00, 0x00,
  0x1c, 0x00, 0x00, 0x00, 0x80, 0x00, 0x00, 0x00, 0xd8, 0x00, 0x00, 0x00,
  0x84, 0x22, 0x00, 0x00, 0x94, 0x22, 0x00, 0x00, 0x98, 0x77, 0x01, 0x00,
  0x03, 0x00, 0x00, 0x00, 0x01, 0x00, 0x00, 0x00, 0x04, 0x00, 0x00, 0x00,
  0xe6, 0xac, 0xff, 0xff, 0x0c, 0x00, 0x00, 0x00, 0x1c, 0x00, 0x00, 0x00,
  0x38, 0x00, 0x00, 0x00, 0x0f, 0x00, 0x00, 0x00, 0x73, 0x65, 0x72, 0x76,
  0x69, 0x6e, 0x67, 0x5f, 0x64, 0x65, 0x66, 0x61, 0x75, 0x6c, 0x74, 0x00,
  0x01, 0x00, 0x00, 0x00, 0x04, 0x00, 0x00, 0x00, 0x9c, 0xff, 0xff, 0xff,
  0xc2, 0x01, 0x00, 0x00, 0x04, 0x00, 0x00, 0x00, 0x06, 0x00, 0x00, 0x00,
  0x6f, 0x75, 0x74, 0x70, 0x75, 0x74, 0x00, 0x00, 0x01, 0x00, 0x00, 0x00,
  0x04, 0x00, 0x00, 0x00, 0xb2, 0xb0, 0xff, 0xff, 0x04, 0x00, 0x00, 0x00,
  0x05, 0x00, 0x00, 0x00, 0x69, 0x6e, 0x70, 0x75, 0x74, 0x00, 0x00, 0x00,
  0x02, 0x00, 0x00, 0x00, 0x34, 0x00, 0x00, 0x00, 0x04, 0x00, 0x00, 0x00,
  0xdc, 0xff, 0xff, 0xff, 0xc5, 0x01, 0x00, 0x00, 0x04, 0x00, 0x00, 0x00,
  0x13, 0x00, 0x00, 0x00, 0x43, 0x4f, 0x4e, 0x56, 0x45, 0x52, 0x53, 0x49,
  0x4f, 0x4e, 0x5f, 0x4d, 0x45, 0x54, 0x41, 0x44, 0x41, 0x54, 0x41, 0x00,
  0x08, 0x00, 0x0c, 0x00, 0x08, 0x00, 0x04, 0x00, 0x08, 0x00, 0x00, 0x00,
  0xc4, 0x01, 0x00, 0x00, 0x04, 0x00, 0x00, 0x00, 0x13, 0x00, 0x00, 0x00,
  0x6d, 0x69, 0x6e, 0x5f, 0x72, 0x75, 0x6e, 0x74, 0x69, 0x6d, 0x65, 0x5f,
  0x76, 0x65, 0x72, 0x73, 0x69, 0x6f, 0x6e, 0x00, 0xc6, 0x01, 0x00, 0x00,
  0xa8, 0x21, 0x00, 0x00, 0xa0, 0x21, 0x00, 0x00, 0x8c, 0x21, 0x00, 0x00,
  0x64, 0x21, 0x00, 0x00, 0x44, 0x21, 0x00, 0x00, 0x28, 0x21, 0x00, 0x00,
  0x14, 0x21, 0x00, 0x00, 0xf4, 0x20, 0x00, 0x00, 0xd8, 0x20, 0x00, 0x00,
  0xb8, 0x20, 0x00, 0x00, 0x90, 0x20, 0x00, 0x00, 0x70, 0x20, 0x00, 0x00,
  0x54, 0x20, 0x00, 0x00, 0x34, 0x20, 0x00, 0x00, 0x18, 0x20, 0x00, 0x00,
  0xf8, 0x1f, 0x00, 0x00, 0xf0, 0x1f, 0x00, 0x00, 0xd8, 0x1f, 0x00, 0x00,
  0xb8, 0x1f, 0x00, 0x00, 0x78, 0x1f, 0x00, 0x00, 0x48, 0x1f, 0x00, 0x00,
  0xf8, 0x1c, 0x00, 0x00, 0xc8, 0x1c, 0x00, 0x00, 0x78, 0x1c, 0x00, 0x00,
  0x60, 0x1c, 0x00, 0x00, 0x48, 0x1c, 0x00, 0x00, 0x30, 0x1c, 0x00, 0x00,
  0x18, 0x1c, 0x00, 0x00, 0x00, 0x1c, 0x00, 0x00, 0xe8, 0x1b, 0x00, 0x00,
  0xd0, 0x1b, 0x00, 0x00, 0xb8, 0x1b, 0x00, 0x00, 0xa0, 0x1b, 0x00, 0x00,
  0x70, 0x1b, 0x00, 0x00, 0x20, 0x1b, 0x00, 0x00, 0x08, 0x1b, 0x00, 0x00,
  0xf0, 0x1a, 0x00, 0x00, 0xd8, 0x1a, 0x00, 0x00, 0xc0, 0x1a, 0x00, 0x00,
  0xa8, 0x1a, 0x00, 0x00, 0x90, 0x1a, 0x00, 0x00, 0x78, 0x1a, 0x00, 0x00,
  0x60, 0x1a, 0x00, 0x00, 0x48, 0x1a, 0x00, 0x00, 0x18, 0x1a, 0x00, 0x00,
  0xc8, 0x19, 0x00, 0x00, 0xb0, 0x19, 0x00, 0x00, 0x98, 0x19, 0x00, 0x00,
  0x80, 0x19, 0x00, 0x00, 0x68, 0x19, 0x00, 0x00, 0x50, 0x19, 0x00, 0x00,
  0x38, 0x19, 0x00, 0x00, 0x20, 0x19, 0x00, 0x00, 0x08, 0x19, 0x00, 0x00,
  0xf0, 0x18, 0x00, 0x00, 0xc0, 0x18, 0x00, 0x00, 0x70, 0x18, 0x00, 0x00,
  0x58, 0x18, 0x00, 0x00, 0x30, 0x18, 0x00, 0x00, 0x08, 0x18, 0x00, 0x00,
  0xe0, 0x17, 0x00, 0x00, 0xb8, 0x17, 0x00, 0x00, 0x90, 0x17, 0x00, 0x00,
  0x68, 0x17, 0x00, 0x00, 0x40, 0x17, 0x00, 0x00, 0x18, 0x17, 0x00, 0x00,
  0xe8, 0x16, 0x00, 0x00, 0x98, 0x16, 0x00, 0x00, 0x80, 0x16, 0x00, 0x00,
  0x30, 0x16, 0x00, 0x00, 0xe0, 0x15, 0x00, 0x00, 0x90, 0x15, 0x00, 0x00,
  0x40, 0x15, 0x00, 0x00, 0xf0, 0x14, 0x00, 0x00, 0xa0, 0x14, 0x00, 0x00,
  0x50, 0x14, 0x00, 0x00, 0x00, 0x14, 0x00, 0x00, 0xd0, 0x13, 0x00, 0x00,
  0x80, 0x13, 0x00, 0x00, 0x68, 0x13, 0x00, 0x00, 0x18, 0x13, 0x00, 0x00,
  0xc8, 0x12, 0x00, 0x00, 0x78, 0x12, 0x00, 0x00, 0x28, 0x12, 0x00, 0x00,
  0xd8, 0x11, 0x00, 0x00, 0x88, 0x11, 0x00, 0x00, 0x38, 0x11, 0x00, 0x00,
  0xe8, 0x10, 0x00, 0x00, 0xb8, 0x10, 0x00, 0x00, 0x68, 0x10, 0x00, 0x00,
  0x50, 0x10, 0x00, 0x00, 0x00, 0x10, 0x00, 0x00, 0xb0, 0x0f, 0x00, 0x00,
  0x60, 0x0f, 0x00, 0x00, 0x10, 0x0f, 0x00, 0x00, 0xc0, 0x0e, 0x00, 0x00,
  0x70, 0x0e, 0x00, 0x00, 0x20, 0x0e, 0x00, 0x00, 0x0c, 0x0e, 0x00, 0x00,
  0x04, 0x0e, 0x00, 0x00, 0xfc, 0x0d, 0x00, 0x00, 0xf4, 0x0d, 0x00, 0x00,
  0xec, 0x0d, 0x00, 0x00, 0xe4, 0x0d, 0x00, 0x00, 0xdc, 0x0d, 0x00, 0x00,
  0xd4, 0x0d, 0x00, 0x00, 0xcc, 0x0d, 0x00, 0x00, 0xc4, 0x0d, 0x00, 0x00,
  0xbc, 0x0d, 0x00, 0x00, 0xb4, 0x0d, 0x00, 0x00, 0xac, 0x0d, 0x00, 0x00,
  0xa4, 0x0d, 0x00, 0x00, 0x9c, 0x0d, 0x00, 0x00, 0x94, 0x0d, 0x00, 0x00,
  0x8c, 0x0d, 0x00, 0x00, 0x84, 0x0d, 0x00, 0x00, 0x7c, 0x0d, 0x00, 0x00,
  0x74, 0x0d, 0x00, 0x00, 0x6c, 0x0d, 0x00, 0x00, 0x64, 0x0d, 0x00, 0x00,
  0x5c, 0x0d, 0x00, 0x00, 0x54, 0x0d, 0x00, 0x00, 0x4c, 0x0d, 0x00, 0x00,
  0x44, 0x0d, 0x00, 0x00, 0x3c, 0x0d, 0x00, 0x00, 0x34, 0x0d, 0x00, 0x00,
  0x2c, 0x0d, 0x00, 0x00, 0x24, 0x0d, 0x00, 0x00, 0x1c, 0x0d, 0x00, 0x00,
  0x14, 0x0d, 0x00, 0x00, 0x0c, 0x0d, 0x00, 0x00, 0x04, 0x0d, 0x00, 0x00,
  0xfc, 0x0c, 0x00, 0x00, 0xf4, 0x0c, 0x00, 0x00, 0xec, 0x0c, 0x00, 0x00,
  0xe4, 0x0c, 0x00, 0x00, 0xdc, 0x0c, 0x00, 0x00, 0xd4, 0x0c, 0x00, 0x00,
  0xcc, 0x0c, 0x00, 0x00, 0xc4, 0x0c, 0x00, 0x00, 0xbc, 0x0c, 0x00, 0x00,
  0xb4, 0x0c, 0x00, 0x00, 0xac, 0x0c, 0x00, 0x00, 0xa4, 0x0c, 0x00, 0x00,
  0x9c, 0x0c, 0x00, 0x00, 0x94, 0x0c, 0x00, 0x00, 0x8c, 0x0c, 0x00, 0x00,
  0x84, 0x0c, 0x00, 0x00, 0x7c, 0x0c, 0x00, 0x00, 0x74, 0x0c, 0x00, 0x00,
  0x6c, 0x0c, 0x00, 0x00, 0x64, 0x0c, 0x00, 0x00, 0x5c, 0x0c, 0x00, 0x00,
  0x54, 0x0c, 0x00, 0x00, 0x04, 0x0c, 0x00, 0x00, 0xd4, 0x0b, 0x00, 0x00,
  0xc4, 0x09, 0x00, 0x00, 0xbc, 0x09, 0x00, 0x00, 0xb4, 0x09, 0x00, 0x00,
  0xac, 0x09, 0x00, 0x00, 0xa4, 0x09, 0x00, 0x00, 0x9c, 0x09, 0x00, 0x00,
  0x94, 0x09, 0x00, 0x00, 0x8c, 0x09, 0x00, 0x00, 0x84, 0x09, 0x00, 0x00,
  0x7c, 0x09, 0x00, 0x00, 0x74, 0x09, 0x00, 0x00, 0x6c, 0x09, 0x00, 0x00,
  0x64, 0x09, 0x00, 0x00, 0x5c, 0x09, 0x00, 0x00, 0x54, 0x09, 0x00, 0x00,
  0x4c, 0x09, 0x00, 0x00, 0x44, 0x09, 0x00, 0x00, 0x3c, 0x09, 0x00, 0x00,
  0x34, 0x09, 0x00, 0x00, 0x2c, 0x09, 0x00, 0x00, 0x24, 0x09, 0x00, 0x00,
  0x1c, 0x09, 0x00, 0x00, 0x14, 0x09, 0x00, 0x00, 0x0c, 0x09, 0x00, 0x00,
  0x04, 0x09, 0x00, 0x00, 0xfc, 0x08, 0x00, 0x00, 0xf4, 0x08, 0x00, 0x00,
  0xec, 0x08, 0x00, 0x00, 0xe4, 0x08, 0x00, 0x00, 0xdc, 0x08, 0x00, 0x00,
  0xd4, 0x08, 0x00, 0x00, 0xcc, 0x08, 0x00, 0x00, 0xc4, 0x08, 0x00, 0x00,
  0xbc, 0x08, 0x00, 0x00, 0xb4, 0x08, 0x00, 0x00, 0xac, 0x08, 0x00, 0x00,
  0xa4, 0x08, 0x00, 0x00, 0x9c, 0x08, 0x00, 0x00, 0x94, 0x08, 0x00, 0x00,
  0x8c, 0x08, 0x00, 0x00, 0x84, 0x08, 0x00, 0x00, 0x7c, 0x08, 0x00, 0x00,
  0x74, 0x08, 0x00, 0x00, 0x6c, 0x08, 0x00, 0x00, 0x64, 0x08, 0x00, 0x00,
  0x5c, 0x08, 0x00, 0x00, 0x54, 0x08, 0x00, 0x00, 0x4c, 0x08, 0x00, 0x00,
  0x44, 0x08, 0x00, 0x00, 0x3c, 0x08, 0x00, 0x00, 0x34, 0x08, 0x00, 0x00,
  0x2c, 0x08, 0x00, 0x00, 0x24, 0x08, 0x00, 0x00, 0x1c, 0x08, 0x00, 0x00,
  0x14, 0x08, 0x00, 0x00, 0x0c, 0x08, 0x00, 0x00, 0x04, 0x08, 0x00, 0x00,
  0xfc, 0x07, 0x00, 0x00, 0xf4, 0x07, 0x00, 0x00, 0xec, 0x07, 0x00, 0x00,
  0xe4, 0x07, 0x00, 0x00, 0xdc, 0x07, 0x00, 0x00, 0xd4, 0x07, 0x00, 0x00,
  0xcc, 0x07, 0x00, 0x00, 0xc4, 0x07, 0x00, 0x00, 0xbc, 0x07, 0x00, 0x00,
  0xb4, 0x07, 0x00, 0x00, 0xac, 0x07, 0x00, 0x00, 0xa4, 0x07, 0x00, 0x00,
  0x9c, 0x07, 0x00, 0x00, 0x94, 0x07, 0x00, 0x00, 0x8c, 0x07, 0x00, 0x00,
  0x84, 0x07, 0x00, 0x00, 0x7c, 0x07, 0x00, 0x00, 0x74, 0x07, 0x00, 0x00,
  0x6c, 0x07, 0x00, 0x00, 0x64, 0x07, 0x00, 0x00, 0x5c, 0x07, 0x00, 0x00,
  0x54, 0x07, 0x00, 0x00, 0x4c, 0x07, 0x00, 0x00, 0x44, 0x07, 0x00, 0x00,
  0x3c, 0x07, 0x00, 0x00, 0x34, 0x07, 0x00, 0x00, 0x2c, 0x07, 0x00, 0x00,
  0x24, 0x07, 0x00, 0x00, 0x1c, 0x07, 0x00, 0x00, 0x14, 0x07, 0x00, 0x00,
  0x0c, 0x07, 0x00, 0x00, 0x04, 0x07, 0x00, 0x00, 0xfc, 0x06, 0x00, 0x00,
  0xf4, 0x06, 0x00, 0x00, 0xec, 0x06, 0x00, 0x00, 0xe4, 0x06, 0x00, 0x00,
  0xdc, 0x06, 0x00, 0x00, 0xd4, 0x06, 0x00, 0x00, 0xcc, 0x06, 0x00, 0x00,
  0xc4, 0x06, 0x00, 0x00, 0xbc, 0x06, 0x00, 0x00, 0xb4, 0x06, 0x00, 0x00,
  0xac, 0x06, 0x00, 0x00, 0xa4, 0x06, 0x00, 0x00, 0x9c, 0x06, 0x00, 0x00,
  0x94, 0x06, 0x00, 0x00, 0x8c, 0x06, 0x00, 0x00, 0x84, 0x06, 0x00, 0x00,
  0x7c, 0x06, 0x00, 0x00, 0x74, 0x06, 0x00, 0x00, 0x6c, 0x06, 0x00, 0x00,
  0x64, 0x06, 0x00, 0x00, 0x5c, 0x06, 0x00, 0x00, 0x54, 0x06, 0x00, 0x00,
  0x4c, 0x06, 0x00, 0x00, 0x44, 0x06, 0x00, 0x00, 0x3c, 0x06, 0x00, 0x00,
  0x34, 0x06, 0x00, 0x00, 0x2c, 0x06, 0x00, 0x00, 0x24, 0x06, 0x00, 0x00,
  0x1c, 0x06, 0x00, 0x00, 0x14, 0x06, 0x00, 0x00, 0x0c, 0x06, 0x00, 0x00,
  0x04, 0x06, 0x00, 0x00, 0xfc, 0x05, 0x00, 0x00, 0xf4, 0x05, 0x00, 0x00,
  0xec, 0x05, 0x00, 0x00, 0xe4, 0x05, 0x00, 0x00, 0xdc, 0x05, 0x00, 0x00,
  0xd4, 0x05, 0x00, 0x00, 0xcc, 0x05, 0x00, 0x00, 0xc4, 0x05, 0x00, 0x00,
  0xbc, 0x05, 0x00, 0x00, 0xb4, 0x05, 0x00, 0x00, 0xac, 0x05, 0x00, 0x00,
  0xa4, 0x05, 0x00, 0x00, 0x9c, 0x05, 0x00, 0x00, 0x94, 0x05, 0x00, 0x00,
  0x8c, 0x05, 0x00, 0x00, 0x84, 0x05, 0x00, 0x00, 0x7c, 0x05, 0x00, 0x00,
  0x74, 0x05, 0x00, 0x00, 0x6c, 0x05, 0x00, 0x00, 0x64, 0x05, 0x00, 0x00,
  0x5c, 0x05, 0x00, 0x00, 0x54, 0x05, 0x00, 0x00, 0x4c, 0x05, 0x00, 0x00,
  0x44, 0x05, 0x00, 0x00, 0x3c, 0x05, 0x00, 0x00, 0x34, 0x05, 0x00, 0x00,
  0x2c, 0x05, 0x00, 0x00, 0x24, 0x05, 0x00, 0x00, 0x1c, 0x05, 0x00, 0x00,
  0x14, 0x05, 0x00, 0x00, 0x0c, 0x05, 0x00, 0x00, 0x04, 0x05, 0x00, 0x00,
  0xfc, 0x04, 0x00, 0x00, 0xf4, 0x04, 0x00, 0x00, 0xec, 0x04, 0x00, 0x00,
  0xe4, 0x04, 0x00, 0x00, 0xdc, 0x04, 0x00, 0x00, 0xd4, 0x04, 0x00, 0x00,
  0xcc, 0x04, 0x00, 0x00, 0xc4, 0x04, 0x00, 0x00, 0xbc, 0x04, 0x00, 0x00,
  0xb4, 0x04, 0x00, 0x00, 0xac, 0x04, 0x00, 0x00, 0xa4, 0x04, 0x00, 0x00,
  0x9c, 0x04, 0x00, 0x00, 0x94, 0x04, 0x00, 0x00, 0x8c, 0x04, 0x00, 0x00,
  0x84, 0x04, 0x00, 0x00, 0x7c, 0x04, 0x00, 0x00, 0x74, 0x04, 0x00, 0x00,
  0x6c, 0x04, 0x00, 0x00, 0x64, 0x04, 0x00, 0x00, 0x5c, 0x04, 0x00, 0x00,
  0x54, 0x04, 0x00, 0x00, 0x4c, 0x04, 0x00, 0x00, 0x44, 0x04, 0x00, 0x00,
  0x3c, 0x04, 0x00, 0x00, 0x34, 0x04, 0x00, 0x00, 0x2c, 0x04, 0x00, 0x00,
  0x24, 0x04, 0x00, 0x00, 0x1c, 0x04, 0x00, 0x00, 0x14, 0x04, 0x00, 0x00,
  0x0c, 0x04, 0x00, 0x00, 0x04, 0x04, 0x00, 0x00, 0xfc, 0x03, 0x00, 0x00,
  0xf4, 0x03, 0x00, 0x00, 0xec, 0x03, 0x00, 0x00, 0xe4, 0x03, 0x00, 0x00,
  0xdc, 0x03, 0x00, 0x00, 0xd4, 0x03, 0x00, 0x00, 0xcc, 0x03, 0x00, 0x00,
  0xc4, 0x03, 0x00, 0x00, 0xbc, 0x03, 0x00, 0x00, 0xb4, 0x03, 0x00, 0x00,
  0xac, 0x03, 0x00, 0x00, 0xa4, 0x03, 0x00, 0x00, 0x9c, 0x03, 0x00, 0x00,
  0x94, 0x03, 0x00, 0x00, 0x8c, 0x03, 0x00, 0x00, 0x84, 0x03, 0x00, 0x00,
  0x7c, 0x03, 0x00, 0x00, 0x74, 0x03, 0x00, 0x00, 0x6c, 0x03, 0x00, 0x00,
  0x64, 0x03, 0x00, 0x00, 0x5c, 0x03, 0x00, 0x00, 0x54, 0x03, 0x00, 0x00,
  0x4c, 0x03, 0x00, 0x00, 0x44, 0x03, 0x00, 0x00, 0x3c, 0x03, 0x00, 0x00,
  0x34, 0x03, 0x00, 0x00, 0x2c, 0x03, 0x00, 0x00, 0x24, 0x03, 0x00, 0x00,
  0x1c, 0x03, 0x00, 0x00, 0x14, 0x03, 0x00, 0x00, 0x0c, 0x03, 0x00, 0x00,
  0x04, 0x03, 0x00, 0x00, 0xfc, 0x02, 0x00, 0x00, 0xf4, 0x02, 0x00, 0x00,
  0xec, 0x02, 0x00, 0x00, 0xe4, 0x02, 0x00, 0x00, 0xdc, 0x02, 0x00, 0x00,
  0xd4, 0x02, 0x00, 0x00, 0xcc, 0x02, 0x00, 0x00, 0xc4, 0x02, 0x00, 0x00,
  0xbc, 0x02, 0x00, 0x00, 0xb4, 0x02, 0x00, 0x00, 0xac, 0x02, 0x00, 0x00,
  0xa4, 0x02, 0x00, 0x00, 0x9c, 0x02, 0x00, 0x00, 0x94, 0x02, 0x00, 0x00,
  0x8c, 0x02, 0x00, 0x00, 0x84, 0x02, 0x00, 0x00, 0x7c, 0x02, 0x00, 0x00,
  0x74, 0x02, 0x00, 0x00, 0x6c, 0x02, 0x00, 0x00, 0x64, 0x02, 0x00, 0x00,
  0x5c, 0x02, 0x00, 0x00, 0x54, 0x02, 0x00, 0x00, 0x4c, 0x02, 0x00, 0x00,
  0x44, 0x02, 0x00, 0x00, 0x3c, 0x02, 0x00, 0x00, 0x34, 0x02, 0x00, 0x00,
  0x2c, 0x02, 0x00, 0x00, 0x24, 0x02, 0x00, 0x00, 0x1c, 0x02, 0x00, 0x00,
  0x14, 0x02, 0x00, 0x00, 0x0c, 0x02, 0x00, 0x00, 0x04, 0x02, 0x00, 0x00,
  0xfc, 0x01, 0x00, 0x00, 0xf4, 0x01, 0x00, 0x00, 0xec, 0x01, 0x00, 0x00,
  0xe4, 0x01, 0x00, 0x00, 0xdc, 0x01, 0x00, 0x00, 0xd4, 0x01, 0x00, 0x00,
  0xcc, 0x01, 0x00, 0x00, 0xc4, 0x01, 0x00, 0x00, 0xbc, 0x01, 0x00, 0x00,
  0xb4, 0x01, 0x00, 0x00, 0xac, 0x01, 0x00, 0x00, 0xa4, 0x01, 0x00, 0x00,
  0x9c, 0x01, 0x00, 0x00, 0x94, 0x01, 0x00, 0x00, 0x8c, 0x01, 0x00, 0x00,
  0x84, 0x01, 0x00, 0x00, 0x7c, 0x01, 0x00, 0x00, 0x74, 0x01, 0x00, 0x00,
  0x6c, 0x01, 0x00, 0x00, 0x64, 0x01, 0x00, 0x00, 0x5c, 0x01, 0x00, 0x00,
  0x54, 0x01, 0x00, 0x00, 0x4c, 0x01, 0x00, 0x00, 0x44, 0x01, 0x00, 0x00,
  0x3c, 0x01, 0x00, 0x00, 0x34, 0x01, 0x00, 0x00, 0x2c, 0x01, 0x00, 0x00,
  0x24, 0x01, 0x00, 0x00, 0x1c, 0x01, 0x00, 0x00, 0x14, 0x01, 0x00, 0x00,
  0x0c, 0x01, 0x00, 0x00, 0x04, 0x01, 0x00, 0x00, 0xfc, 0x00, 0x00, 0x00,
  0xf4, 0x00, 0x00, 0x00, 0xec, 0x00, 0x00, 0x00, 0xe4, 0x00, 0x00, 0x00,
  0xdc, 0x00, 0x00, 0x00, 0xd4, 0x00, 0x00, 0x00, 0xcc, 0x00, 0x00, 0x00,
  0xc4, 0x00, 0x00, 0x00, 0xbc, 0x00, 0x00, 0x00, 0xb4, 0x00, 0x00, 0x00,
  0xac, 0x00, 0x00, 0x00, 0xa4, 0x00, 0x00, 0x00, 0x9c, 0x00, 0x00, 0x00,
  0x94, 0x00, 0x00, 0x00, 0x8c, 0x00, 0x00, 0x00, 0x6c, 0x00, 0x00, 0x00,
  0x04, 0x00, 0x00, 0x00, 0x3e, 0xb8, 0xff, 0xff, 0x04, 0x00, 0x00, 0x00,
  0x58, 0x00, 0x00, 0x00, 0x0c, 0x00, 0x00, 0x00, 0x08, 0x00, 0x0e, 0x00,
  0x08, 0x00, 0x04, 0x00, 0x08, 0x00, 0x00, 0x00, 0x10, 0x00, 0x00, 0x00,
  0x28, 0x00, 0x00, 0x00, 0x00, 0x00, 0x06, 0x00, 0x08, 0x00, 0x04, 0x00,
  0x06, 0x00, 0x00, 0x00, 0x04, 0x00, 0x00, 0x00, 0x01, 0x00, 0x00, 0x00,
  0xeb, 0x03, 0x00, 0x00, 0x00, 0x00, 0x0a, 0x00, 0x10, 0x00, 0x0c, 0x00,
  0x08, 0x00, 0x04, 0x00, 0x0a, 0x00, 0x00, 0x00, 0x01, 0x00, 0x00, 0x00,
  0x02, 0x00, 0x00, 0x00, 0x04, 0x00, 0x00, 0x00, 0x06, 0x00, 0x00, 0x00,
  0x32, 0x2e, 0x31, 0x33, 0x2e, 0x30, 0x00, 0x00, 0xa2, 0xb8, 0xff, 0xff,
  0x04, 0x00, 0x00, 0x00, 0x10, 0x00, 0x00, 0x00, 0x32, 0x2e, 0x35, 0x2e,
  0x30, 0x00, 0x00, 0x00, 0x00, 0x00, 0x00, 0x00, 0x00, 0x00, 0x00, 0x00,
  0x04, 0x91, 0xfe, 0xff, 0x08, 0x91, 0xfe, 0xff, 0x0c, 0x91, 0xfe, 0xff,
  0x10, 0x91, 0xfe, 0xff, 0x14, 0x91, 0xfe, 0xff, 0x18, 0x91, 0xfe, 0xff,
  0x1c, 0x91, 0xfe, 0xff, 0x20, 0x91, 0xfe, 0xff, 0x24, 0x91, 0xfe, 0xff,
  0x28, 0x91, 0xfe, 0xff, 0x2c, 0x91, 0xfe, 0xff, 0x30, 0x91, 0xfe, 0xff,
  0x34, 0x91, 0xfe, 0xff, 0x38, 0x91, 0xfe, 0xff, 0x3c, 0x91, 0xfe, 0xff,
  0x40, 0x91, 0xfe, 0xff, 0x44, 0x91, 0xfe, 0xff, 0x48, 0x91, 0xfe, 0xff,
  0x4c, 0x91, 0xfe, 0xff, 0x50, 0x91, 0xfe, 0xff, 0x54, 0x91, 0xfe, 0xff,
  0x58, 0x91, 0xfe, 0xff, 0x5c, 0x91, 0xfe, 0xff, 0x60, 0x91, 0xfe, 0xff,
  0x64, 0x91, 0xfe, 0xff, 0x68, 0x91, 0xfe, 0xff, 0x6c, 0x91, 0xfe, 0xff,
  0x70, 0x91, 0xfe, 0xff, 0x74, 0x91, 0xfe, 0xff, 0x78, 0x91, 0xfe, 0xff,
  0x7c, 0x91, 0xfe, 0xff, 0x80, 0x91, 0xfe, 0xff, 0x84, 0x91, 0xfe, 0xff,
  0x88, 0x91, 0xfe, 0xff, 0x8c, 0x91, 0xfe, 0xff, 0x90, 0x91, 0xfe, 0xff,
  0x94, 0x91, 0xfe, 0xff, 0x98, 0x91, 0xfe, 0xff, 0x9c, 0x91, 0xfe, 0xff,
  0xa0, 0x91, 0xfe, 0xff, 0xa4, 0x91, 0xfe, 0xff, 0xa8, 0x91, 0xfe, 0xff,
  0xac, 0x91, 0xfe, 0xff, 0xb0, 0x91, 0xfe, 0xff, 0xb4, 0x91, 0xfe, 0xff,
  0xb8, 0x91, 0xfe, 0xff, 0xbc, 0x91, 0xfe, 0xff, 0xc0, 0x91, 0xfe, 0xff,
  0xc4, 0x91, 0xfe, 0xff, 0xc8, 0x91, 0xfe, 0xff, 0xcc, 0x91, 0xfe, 0xff,
  0xd0, 0x91, 0xfe, 0xff, 0xd4, 0x91, 0xfe, 0xff, 0xd8, 0x91, 0xfe, 0xff,
  0xdc, 0x91, 0xfe, 0xff, 0xe0, 0x91, 0xfe, 0xff, 0xe4, 0x91, 0xfe, 0xff,
  0xe8, 0x91, 0xfe, 0xff, 0xec, 0x91, 0xfe, 0xff, 0xf0, 0x91, 0xfe, 0xff,
  0xf4, 0x91, 0xfe, 0xff, 0xf8, 0x91, 0xfe, 0xff, 0xfc, 0x91, 0xfe, 0xff,
  0x00, 0x92, 0xfe, 0xff, 0x04, 0x92, 0xfe, 0xff, 0x08, 0x92, 0xfe, 0xff,
  0x0c, 0x92, 0xfe, 0xff, 0x10, 0x92, 0xfe, 0xff, 0x14, 0x92, 0xfe, 0xff,
  0x18, 0x92, 0xfe, 0xff, 0x1c, 0x92, 0xfe, 0xff, 0x20, 0x92, 0xfe, 0xff,
  0x24, 0x92, 0xfe, 0xff, 0x28, 0x92, 0xfe, 0xff, 0x2c, 0x92, 0xfe, 0xff,
  0x30, 0x92, 0xfe, 0xff, 0x34, 0x92, 0xfe, 0xff, 0x38, 0x92, 0xfe, 0xff,
  0x3c, 0x92, 0xfe, 0xff, 0x40, 0x92, 0xfe, 0xff, 0x44, 0x92, 0xfe, 0xff,
  0x48, 0x92, 0xfe, 0xff, 0x4c, 0x92, 0xfe, 0xff, 0x50, 0x92, 0xfe, 0xff,
  0x54, 0x92, 0xfe, 0xff, 0x58, 0x92, 0xfe, 0xff, 0x5c, 0x92, 0xfe, 0xff,
  0x60, 0x92, 0xfe, 0xff, 0x64, 0x92, 0xfe, 0xff, 0x68, 0x92, 0xfe, 0xff,
  0x6c, 0x92, 0xfe, 0xff, 0x70, 0x92, 0xfe, 0xff, 0x74, 0x92, 0xfe, 0xff,
  0x78, 0x92, 0xfe, 0xff, 0x7c, 0x92, 0xfe, 0xff, 0x80, 0x92, 0xfe, 0xff,
  0x84, 0x92, 0xfe, 0xff, 0x88, 0x92, 0xfe, 0xff, 0x8c, 0x92, 0xfe, 0xff,
  0x90, 0x92, 0xfe, 0xff, 0x94, 0x92, 0xfe, 0xff, 0x98, 0x92, 0xfe, 0xff,
  0x9c, 0x92, 0xfe, 0xff, 0xa0, 0x92, 0xfe, 0xff, 0xa4, 0x92, 0xfe, 0xff,
  0xa8, 0x92, 0xfe, 0xff, 0xac, 0x92, 0xfe, 0xff, 0xb0, 0x92, 0xfe, 0xff,
  0xb4, 0x92, 0xfe, 0xff, 0xb8, 0x92, 0xfe, 0xff, 0xbc, 0x92, 0xfe, 0xff,
  0xc0, 0x92, 0xfe, 0xff, 0xc4, 0x92, 0xfe, 0xff, 0xc8, 0x92, 0xfe, 0xff,
  0xcc, 0x92, 0xfe, 0xff, 0xd0, 0x92, 0xfe, 0xff, 0xd4, 0x92, 0xfe, 0xff,
  0xd8, 0x92, 0xfe, 0xff, 0xdc, 0x92, 0xfe, 0xff, 0xe0, 0x92, 0xfe, 0xff,
  0xe4, 0x92, 0xfe, 0xff, 0xe8, 0x92, 0xfe, 0xff, 0xec, 0x92, 0xfe, 0xff,
  0xf0, 0x92, 0xfe, 0xff, 0xf4, 0x92, 0xfe, 0xff, 0xf8, 0x92, 0xfe, 0xff,
  0xfc, 0x92, 0xfe, 0xff, 0x00, 0x93, 0xfe, 0xff, 0x04, 0x93, 0xfe, 0xff,
  0x08, 0x93, 0xfe, 0xff, 0x0c, 0x93, 0xfe, 0xff, 0x10, 0x93, 0xfe, 0xff,
  0x14, 0x93, 0xfe, 0xff, 0x18, 0x93, 0xfe, 0xff, 0x1c, 0x93, 0xfe, 0xff,
  0x20, 0x93, 0xfe, 0xff, 0x24, 0x93, 0xfe, 0xff, 0x28, 0x93, 0xfe, 0xff,
  0x2c, 0x93, 0xfe, 0xff, 0x30, 0x93, 0xfe, 0xff, 0x34, 0x93, 0xfe, 0xff,
  0x38, 0x93, 0xfe, 0xff, 0x3c, 0x93, 0xfe, 0xff, 0x40, 0x93, 0xfe, 0xff,
  0x44, 0x93, 0xfe, 0xff, 0x48, 0x93, 0xfe, 0xff, 0x4c, 0x93, 0xfe, 0xff,
  0x50, 0x93, 0xfe, 0xff, 0x54, 0x93, 0xfe, 0xff, 0x58, 0x93, 0xfe, 0xff,
  0x5c, 0x93, 0xfe, 0xff, 0x60, 0x93, 0xfe, 0xff, 0x64, 0x93, 0xfe, 0xff,
  0x68, 0x93, 0xfe, 0xff, 0x6c, 0x93, 0xfe, 0xff, 0x70, 0x93, 0xfe, 0xff,
  0x74, 0x93, 0xfe, 0xff, 0x78, 0x93, 0xfe, 0xff, 0x7c, 0x93, 0xfe, 0xff,
  0x80, 0x93, 0xfe, 0xff, 0x84, 0x93, 0xfe, 0xff, 0x88, 0x93, 0xfe, 0xff,
  0x8c, 0x93, 0xfe, 0xff, 0x90, 0x93, 0xfe, 0xff, 0x94, 0x93, 0xfe, 0xff,
  0x98, 0x93, 0xfe, 0xff, 0x9c, 0x93, 0xfe, 0xff, 0xa0, 0x93, 0xfe, 0xff,
  0xa4, 0x93, 0xfe, 0xff, 0xa8, 0x93, 0xfe, 0xff, 0xac, 0x93, 0xfe, 0xff,
  0xb0, 0x93, 0xfe, 0xff, 0xb4, 0x93, 0xfe, 0xff, 0xb8, 0x93, 0xfe, 0xff,
  0xbc, 0x93, 0xfe, 0xff, 0xc0, 0x93, 0xfe, 0xff, 0xc4, 0x93, 0xfe, 0xff,
  0xc8, 0x93, 0xfe, 0xff, 0xcc, 0x93, 0xfe, 0xff, 0xd0, 0x93, 0xfe, 0xff,
  0xd4, 0x93, 0xfe, 0xff, 0xd8, 0x93, 0xfe, 0xff, 0xdc, 0x93, 0xfe, 0xff,
  0xe0, 0x93, 0xfe, 0xff, 0xe4, 0x93, 0xfe, 0xff, 0xe8, 0x93, 0xfe, 0xff,
  0xec, 0x93, 0xfe, 0xff, 0xf0, 0x93, 0xfe, 0xff, 0xf4, 0x93, 0xfe, 0xff,
  0xf8, 0x93, 0xfe, 0xff, 0xfc, 0x93, 0xfe, 0xff, 0x00, 0x94, 0xfe, 0xff,
  0x04, 0x94, 0xfe, 0xff, 0x08, 0x94, 0xfe, 0xff, 0x0c, 0x94, 0xfe, 0xff,
  0x10, 0x94, 0xfe, 0xff, 0x14, 0x94, 0xfe, 0xff, 0x18, 0x94, 0xfe, 0xff,
  0x1c, 0x94, 0xfe, 0xff, 0x20, 0x94, 0xfe, 0xff, 0x24, 0x94, 0xfe, 0xff,
  0x28, 0x94, 0xfe, 0xff, 0x2c, 0x94, 0xfe, 0xff, 0x30, 0x94, 0xfe, 0xff,
  0x34, 0x94, 0xfe, 0xff, 0x38, 0x94, 0xfe, 0xff, 0x3c, 0x94, 0xfe, 0xff,
  0x40, 0x94, 0xfe, 0xff, 0x44, 0x94, 0xfe, 0xff, 0x48, 0x94, 0xfe, 0xff,
  0x4c, 0x94, 0xfe, 0xff, 0x50, 0x94, 0xfe, 0xff, 0x54, 0x94, 0xfe, 0xff,
  0x58, 0x94, 0xfe, 0xff, 0x5c, 0x94, 0xfe, 0xff, 0x60, 0x94, 0xfe, 0xff,
  0x64, 0x94, 0xfe, 0xff, 0x68, 0x94, 0xfe, 0xff, 0x6c, 0x94, 0xfe, 0xff,
  0x70, 0x94, 0xfe, 0xff, 0x74, 0x94, 0xfe, 0xff, 0x78, 0x94, 0xfe, 0xff,
  0x7c, 0x94, 0xfe, 0xff, 0x80, 0x94, 0xfe, 0xff, 0x84, 0x94, 0xfe, 0xff,
  0x88, 0x94, 0xfe, 0xff, 0x8c, 0x94, 0xfe, 0xff, 0x90, 0x94, 0xfe, 0xff,
  0x94, 0x94, 0xfe, 0xff, 0x98, 0x94, 0xfe, 0xff, 0x9c, 0x94, 0xfe, 0xff,
  0xa0, 0x94, 0xfe, 0xff, 0xa4, 0x94, 0xfe, 0xff, 0xa8, 0x94, 0xfe, 0xff,
  0xac, 0x94, 0xfe, 0xff, 0xb0, 0x94, 0xfe, 0xff, 0xb4, 0x94, 0xfe, 0xff,
  0xb8, 0x94, 0xfe, 0xff, 0xbc, 0x94, 0xfe, 0xff, 0xc0, 0x94, 0xfe, 0xff,
  0xc4, 0x94, 0xfe, 0xff, 0xc8, 0x94, 0xfe, 0xff, 0xcc, 0x94, 0xfe, 0xff,
  0xd0, 0x94, 0xfe, 0xff, 0xd4, 0x94, 0xfe, 0xff, 0xd8, 0x94, 0xfe, 0xff,
  0xdc, 0x94, 0xfe, 0xff, 0xe0, 0x94, 0xfe, 0xff, 0xe4, 0x94, 0xfe, 0xff,
  0xe8, 0x94, 0xfe, 0xff, 0xec, 0x94, 0xfe, 0xff, 0xf0, 0x94, 0xfe, 0xff,
  0xf4, 0x94, 0xfe, 0xff, 0xf8, 0x94, 0xfe, 0xff, 0xfc, 0x94, 0xfe, 0xff,
  0x00, 0x95, 0xfe, 0xff, 0x04, 0x95, 0xfe, 0xff, 0x08, 0x95, 0xfe, 0xff,
  0x0c, 0x95, 0xfe, 0xff, 0x10, 0x95, 0xfe, 0xff, 0x14, 0x95, 0xfe, 0xff,
  0x18, 0x95, 0xfe, 0xff, 0x1c, 0x95, 0xfe, 0xff, 0x20, 0x95, 0xfe, 0xff,
  0x24, 0x95, 0xfe, 0xff, 0x28, 0x95, 0xfe, 0xff, 0x2c, 0x95, 0xfe, 0xff,
  0x30, 0x95, 0xfe, 0xff, 0x34, 0x95, 0xfe, 0xff, 0x38, 0x95, 0xfe, 0xff,
  0x3c, 0x95, 0xfe, 0xff, 0x40, 0x95, 0xfe, 0xff, 0x44, 0x95, 0xfe, 0xff,
  0x48, 0x95, 0xfe, 0xff, 0x4c, 0x95, 0xfe, 0xff, 0x50, 0x95, 0xfe, 0xff,
  0x54, 0x95, 0xfe, 0xff, 0x58, 0x95, 0xfe, 0xff, 0x5c, 0x95, 0xfe, 0xff,
  0x60, 0x95, 0xfe, 0xff, 0x64, 0x95, 0xfe, 0xff, 0x68, 0x95, 0xfe, 0xff,
  0x6c, 0x95, 0xfe, 0xff, 0x70, 0x95, 0xfe, 0xff, 0x74, 0x95, 0xfe, 0xff,
  0x78, 0x95, 0xfe, 0xff, 0x7c, 0x95, 0xfe, 0xff, 0x80, 0x95, 0xfe, 0xff,
  0x84, 0x95, 0xfe, 0xff, 0x88, 0x95, 0xfe, 0xff, 0x8c, 0x95, 0xfe, 0xff,
  0x90, 0x95, 0xfe, 0xff, 0x94, 0x95, 0xfe, 0xff, 0x98, 0x95, 0xfe, 0xff,
  0x9c, 0x95, 0xfe, 0xff, 0x5a, 0xbd, 0xff, 0xff, 0x04, 0x00, 0x00, 0x00,
  0x00, 0x02, 0x00, 0x00, 0xf6, 0x0e, 0x13, 0xe2, 0xe4, 0x25, 0xeb, 0xf3,
  0x21, 0xf2, 0xe7, 0x06, 0xe7, 0xe8, 0xf6, 0x26, 0xe5, 0xda, 0x35, 0xd5,
  0xe1, 0x34, 0x24, 0xbf, 0x19, 0x41, 0xb2, 0x16, 0x7f, 0xcc, 0xb8, 0x6d,
  0x11, 0xb5, 0x19, 0x52, 0xb9, 0xf2, 0x6f, 0xea, 0xbd, 0x7b, 0x09, 0x89,
  0x42, 0x44, 0xc2, 0xe1, 0x6a, 0xe9, 0xd0, 0x2b, 0x1a, 0xe9, 0xf1, 0x35,
  0xea, 0xec, 0x25, 0xdf, 0xeb, 0x13, 0x0c, 0xdc, 0x1a, 0x12, 0x14, 0x26,
  0x03, 0xff, 0x1d, 0xf4, 0xfc, 0xfa, 0xf4, 0xf0, 0x0b, 0xf1, 0xdc, 0xfb,
  0xeb, 0xce, 0xe8, 0xfb, 0xe3, 0xcf, 0x09, 0xf6, 0xdb, 0xfe, 0xfe, 0xd7,
  0xf3, 0xfe, 0xdb, 0x0e, 0x1e, 0x05, 0xfa, 0x22, 0x11, 0x01, 0x26, 0x37,
  0x14, 0x3e, 0x64, 0x49, 0x24, 0x5d, 0x67, 0x14, 0x55, 0x7f, 0x45, 0x4d,
  0x65, 0x51, 0x40, 0x5c, 0x5e, 0x11, 0x2e, 0x25, 0x12, 0x19, 0x19, 0xfd,
  0xe4, 0xe9, 0xe6, 0xf4, 0xf5, 0xe7, 0xd9, 0xef, 0xdb, 0xd6, 0xf3, 0x01,
  0x0a, 0xf4, 0xd3, 0xd9, 0xef, 0xe5, 0xe0, 0x0f, 0x00, 0xe8, 0xfb, 0x08,
  0xe8, 0x27, 0x1b, 0x08, 0x1c, 0x2e, 0x3f, 0x2d, 0x54, 0x3f, 0xfe, 0x57,
  0x42, 0x44, 0x65, 0x7f, 0x5e, 0x54, 0x7a, 0x76, 0x51, 0x5c, 0x74, 0x74,
  0x50, 0x56, 0x5a, 0x2f, 0x4a, 0x47, 0x01, 0x02, 0x13, 0x0d, 0xfa, 0x06,
  0x14, 0xbf, 0xda, 0xcf, 0xc9, 0x0e, 0x4a, 0xaf, 0x23, 0x21, 0xd9, 0xb9,
  0xfb, 0x39, 0xeb, 0x0d, 0x2a, 0x05, 0xe5, 0x19, 0x27, 0xc7, 0xdf, 0x3f,
  0xc3, 0xb7, 0x16, 0x47, 0xbe, 0xe5, 0xfb, 0xf4, 0xc4, 0xea, 0x2c, 0xc1,
  0xf8, 0x1d, 0xe4, 0x81, 0x0a, 0x12, 0xd2, 0x01, 0x0c, 0xcb, 0xad, 0xeb,
  0x1b, 0xc3, 0xc7, 0xee, 0x0d, 0xe6, 0xd6, 0x06, 0xd9, 0xdd, 0xfa, 0xfc,
  0xe8, 0x0e, 0x17, 0x07, 0xf5, 0x01, 0xf0, 0x05, 0xf1, 0xf8, 0xec, 0xe5,
  0xf1, 0x18, 0xfe, 0xea, 0x0e, 0xff, 0xf0, 0x13, 0x11, 0xc7, 0x1e, 0x1a,
  0xb2, 0x39, 0xe7, 0xd2, 0x37, 0xe8, 0xab, 0x5c, 0x3d, 0x83, 0xf9, 0x1a,
  0x99, 0x7f, 0xf1, 0xa0, 0x03, 0xff, 0x40, 0xd8, 0xcc, 0x08, 0xc5, 0xe5,
  0x1c, 0xbf, 0xe8, 0xf2, 0x39, 0xb3, 0x45, 0xfc, 0xbe, 0x27, 0xf8, 0x0d,
  0xfe, 0xea, 0xf5, 0xe5, 0xe4, 0xf7, 0xfc, 0x08, 0xf2, 0x12, 0xed, 0x19,
  0xff, 0xe8, 0xe0, 0xd9, 0xd7, 0xb7, 0xbc, 0xb8, 0x99, 0x81, 0x9d, 0x98,
  0x85, 0xa4, 0xb2, 0x88, 0xaa, 0xa3, 0xad, 0xb2, 0xdb, 0xcf, 0xc5, 0xda,
  0xdb, 0x09, 0xff, 0xe1, 0xe9, 0x08, 0x01, 0xff, 0x05, 0xed, 0x19, 0x2d,
  0xfb, 0xfb, 0x22, 0x2e, 0x1c, 0x04, 0x16, 0x05, 0x10, 0xf3, 0x09, 0x14,
  0x14, 0xf0, 0x05, 0x08, 0x03, 0x11, 0xfe, 0x0e, 0x1e, 0x1a, 0x1d, 0x24,
  0x1e, 0x21, 0x06, 0x33, 0x18, 0xcd, 0xeb, 0x1d, 0xe6, 0x0e, 0x24, 0xdf,
  0xf5, 0x24, 0xd9, 0x08, 0x48, 0xba, 0xe3, 0x5d, 0xba, 0xe2, 0x46, 0xf9,
  0xd0, 0x50, 0xf9, 0x81, 0x60, 0x15, 0x87, 0x53, 0x13, 0x86, 0x58, 0xfb,
  0x8c, 0x32, 0x15, 0x99, 0x59, 0x2c, 0x96, 0x55, 0x20, 0xb6, 0x38, 0xf4,
  0xfb, 0x27, 0xe7, 0x06, 0x22, 0xeb, 0x19, 0x0d, 0xdb, 0x14, 0xe0, 0xd8,
  0x10, 0x0f, 0xe9, 0xf0, 0x05, 0xdb, 0x04, 0x0c, 0x30, 0x1d, 0x26, 0x2f,
  0x25, 0x1b, 0x27, 0x36, 0x3c, 0x08, 0x12, 0x22, 0x43, 0xea, 0x27, 0x69,
  0xe0, 0xd8, 0x4d, 0x01, 0xff, 0x1d, 0x48, 0xf6, 0xf7, 0x10, 0x15, 0x20,
  0x26, 0x33, 0x1b, 0x1e, 0x06, 0x38, 0x2f, 0xed, 0x65, 0x2b, 0xed, 0x58,
  0x79, 0xf3, 0x33, 0x59, 0xe8, 0x40, 0x43, 0x12, 0x4d, 0x3b, 0x27, 0x43,
  0x2b, 0x3f, 0x35, 0x7b, 0x13, 0x7f, 0x6f, 0xfe, 0x2b, 0x3b, 0xe6, 0xef,
  0x66, 0xbf, 0xff, 0xff, 0x04, 0x00, 0x00, 0x00, 0x20, 0x00, 0x00, 0x00,
  0xa4, 0x00, 0x00, 0x00, 0xf0, 0x0c, 0x00, 0x00, 0x86, 0xe7, 0xff, 0xff,
  0x26, 0xc9, 0xff, 0xff, 0xa8, 0xfd, 0xff, 0xff, 0x79, 0x25, 0x00, 0x00,
  0x04, 0xf9, 0xff, 0xff, 0xec, 0xf6, 0xff, 0xff, 0x92, 0xbf, 0xff, 0xff,
  0x04, 0x00, 0x00, 0x00, 0x3f, 0x00, 0x00, 0x00, 0xed, 0xde, 0xef, 0xf7,
  0xf5, 0x13, 0x05, 0x05, 0x12, 0x0a, 0xfc, 0xf5, 0xfa, 0xe9, 0xf5, 0xf1,
  0x00, 0x14, 0x0f, 0x2b, 0xf9, 0x06, 0xe7, 0x03, 0xdd, 0x18, 0xc8, 0x7f,
  0xc7, 0x6e, 0x17, 0x39, 0x29, 0x21, 0x13, 0x03, 0xff, 0xec, 0xf4, 0xe8,
  0xf3, 0xf5, 0x02, 0x0a, 0x0d, 0x0e, 0x1d, 0x10, 0x16, 0xf7, 0xfd, 0xeb,
  0xe3, 0xef, 0xde, 0xe9, 0xfa, 0x00, 0x08, 0x0d, 0x03, 0x01, 0xff, 0x00,
  0x24, 0x98, 0xfe, 0xff, 0x28, 0x98, 0xfe, 0xff, 0x2c, 0x98, 0xfe, 0xff,
  0x30, 0x98, 0xfe, 0xff, 0x34, 0x98, 0xfe, 0xff, 0x38, 0x98, 0xfe, 0xff,
  0x3c, 0x98, 0xfe, 0xff, 0x40, 0x98, 0xfe, 0xff, 0x44, 0x98, 0xfe, 0xff,
  0x48, 0x98, 0xfe, 0xff, 0x4c, 0x98, 0xfe, 0xff, 0x50, 0x98, 0xfe, 0xff,
  0x54, 0x98, 0xfe, 0xff, 0x58, 0x98, 0xfe, 0xff, 0x5c, 0x98, 0xfe, 0xff,
  0x60, 0x98, 0xfe, 0xff, 0x64, 0x98, 0xfe, 0xff, 0x68, 0x98, 0xfe, 0xff,
  0x6c, 0x98, 0xfe, 0xff, 0x70, 0x98, 0xfe, 0xff, 0x74, 0x98, 0xfe, 0xff,
  0x78, 0x98, 0xfe, 0xff, 0x7c, 0x98, 0xfe, 0xff, 0x80, 0x98, 0xfe, 0xff,
  0x84, 0x98, 0xfe, 0xff, 0x88, 0x98, 0xfe, 0xff, 0x8c, 0x98, 0xfe, 0xff,
  0x90, 0x98, 0xfe, 0xff, 0x94, 0x98, 0xfe, 0xff, 0x98, 0x98, 0xfe, 0xff,
  0x9c, 0x98, 0xfe, 0xff, 0xa0, 0x98, 0xfe, 0xff, 0xa4, 0x98, 0xfe, 0xff,
  0xa8, 0x98, 0xfe, 0xff, 0xac, 0x98, 0xfe, 0xff, 0xb0, 0x98, 0xfe, 0xff,
  0xb4, 0x98, 0xfe, 0xff, 0xb8, 0x98, 0xfe, 0xff, 0xbc, 0x98, 0xfe, 0xff,
  0xc0, 0x98, 0xfe, 0xff, 0xc4, 0x98, 0xfe, 0xff, 0xc8, 0x98, 0xfe, 0xff,
  0xcc, 0x98, 0xfe, 0xff, 0xd0, 0x98, 0xfe, 0xff, 0xd4, 0x98, 0xfe, 0xff,
  0xd8, 0x98, 0xfe, 0xff, 0xdc, 0x98, 0xfe, 0xff, 0xe0, 0x98, 0xfe, 0xff,
  0xe4, 0x98, 0xfe, 0xff, 0xe8, 0x98, 0xfe, 0xff, 0xec, 0x98, 0xfe, 0xff,
  0xf0, 0x98, 0xfe, 0xff, 0xf4, 0x98, 0xfe, 0xff, 0xf8, 0x98, 0xfe, 0xff,
  0xfc, 0x98, 0xfe, 0xff, 0xba, 0xc0, 0xff, 0xff, 0x04, 0x00, 0x00, 0x00,
  0x04, 0x00, 0x00, 0x00, 0x00, 0x00, 0x00, 0x00, 0xca, 0xc0, 0xff, 0xff,
  0x04, 0x00, 0x00, 0x00, 0x3f, 0x00, 0x00, 0x00, 0x81, 0xaf, 0xd7, 0xeb,
  0xf9, 0xff, 0xfc, 0xfb, 0x10, 0x10, 0x05, 0xf1, 0xfc, 0x04, 0x04, 0x06,
  0x14, 0x00, 0xff, 0xfd, 0x07, 0x10, 0x22, 0x40, 0x49, 0x41, 0x10, 0xbe,
  0xb1, 0xbe, 0xe8, 0x19, 0x0f, 0x11, 0x0b, 0xf5, 0x00, 0xf7, 0xf8, 0xd1,
  0xc2, 0xb9, 0xaf, 0xbb, 0xce, 0xdb, 0xd8, 0xde, 0xf5, 0x03, 0x05, 0x0b,
  0x03, 0xf0, 0xf5, 0xf9, 0x02, 0x10, 0x06, 0x0a, 0xf8, 0xeb, 0xe4, 0x00,
  0x16, 0xc1, 0xff, 0xff, 0x04, 0x00, 0x00, 0x00, 0x3f, 0x00, 0x00, 0x00,
  0x12, 0xf7, 0xe1, 0xd1, 0xe1, 0xfc, 0x10, 0x1c, 0x24, 0x24, 0x08, 0x0a,
  0x06, 0xfb, 0x18, 0x0c, 0x11, 0xfc, 0xfa, 0xd7, 0xce, 0xb1, 0xe2, 0xe1,
  0xd5, 0xf3, 0x0b, 0x01, 0x29, 0x15, 0xef, 0xdc, 0xba, 0x8c, 0xa2, 0x81,
  0xce, 0xe2, 0xec, 0xfe, 0x04, 0x09, 0x05, 0xf2, 0xdf, 0xd3, 0xcf, 0xfb,
  0x10, 0x20, 0x29, 0x1d, 0x24, 0x05, 0xee, 0xfa, 0xe4, 0x07, 0x1b, 0x04,
  0xf6, 0xeb, 0xdb, 0x00, 0x62, 0xc1, 0xff, 0xff, 0x04, 0x00, 0x00, 0x00,
  0x3f, 0x00, 0x00, 0x00, 0xcf, 0xdf, 0xff, 0x0f, 0xf0, 0xfc, 0xfa, 0xe7,
  0xe4, 0xe3, 0xd7, 0xe2, 0xfa, 0x33, 0x35, 0x12, 0x7f, 0x30, 0x20, 0x62,
  0xf9, 0x08, 0x18, 0xff, 0x06, 0x0a, 0xfe, 0xc8, 0xb5, 0xe6, 0xee, 0xef,
  0x01, 0x0a, 0x02, 0x0c, 0x05, 0x09, 0x03, 0xf9, 0xf0, 0xfa, 0xf5, 0xe7,
  0xd3, 0xf9, 0x05, 0x02, 0xf4, 0xe3, 0xd6, 0xe5, 0xf8, 0xdf, 0xf1, 0xea,
  0xe3, 0x08, 0x32, 0x4e, 0xe9, 0x25, 0x50, 0x00, 0xae, 0xc1, 0xff, 0xff,
  0x04, 0x00, 0x00, 0x00, 0x3f, 0x00, 0x00, 0x00, 0x0d, 0x20, 0x03, 0x2c,
  0xda, 0x39, 0x09, 0x01, 0x19, 0xfe, 0xb1, 0xce, 0xb7, 0xae, 0xed, 0xe4,
  0x35, 0x3e, 0xfa, 0x38, 0x0f, 0xf5, 0x3a, 0xcb, 0x17, 0x81, 0xac, 0x88,
  0xa5, 0xaf, 0xae, 0xfe, 0xd4, 0x31, 0x1c, 0x0b, 0x05, 0xf3, 0xfa, 0xfc,
  0xf8, 0x2e, 0x21, 0x42, 0x3a, 0x32, 0x2a, 0x2f, 0xe5, 0x0b, 0xdb, 0xe2,
  0xea, 0xdf, 0xe3, 0xe2, 0x19, 0x38, 0xfc, 0x18, 0x35, 0x03, 0x02, 0x00,
  0xfa, 0xc1, 0xff, 0xff, 0x04, 0x00, 0x00, 0x00, 0x3f, 0x00, 0x00, 0x00,
  0x02, 0x03, 0x15, 0x16, 0xfe, 0xc7, 0x9c, 0xd2, 0x01, 0xf8, 0xf3, 0xf4,
  0xfb, 0x0f, 0x06, 0xee, 0x00, 0x26, 0x4b, 0x34, 0x02, 0xdf, 0xea, 0x0e,
  0xfc, 0xd6, 0xdf, 0x01, 0x07, 0xeb, 0xc8, 0xdb, 0x07, 0x1a, 0x1d, 0x11,
  0x0c, 0x05, 0x04, 0x09, 0x01, 0x10, 0x11, 0x14, 0x16, 0x0f, 0xfe, 0xd1,
  0x97, 0x81, 0xb7, 0x04, 0x0b, 0xfc, 0xfc, 0x02, 0x0c, 0xfa, 0xf3, 0x09,
  0x19, 0x22, 0xf7, 0x00, 0x46, 0xc2, 0xff, 0xff, 0x04, 0x00, 0x00, 0x00,
  0x3f, 0x00, 0x00, 0x00, 0x47, 0xfb, 0xd8, 0xed, 0x11, 0xf0, 0xec, 0xe1,
  0xe5, 0xc4, 0xcc, 0xd5, 0xbd, 0xc0, 0xde, 0x17, 0xa7, 0x31, 0x29, 0x03,
  0xa8, 0x03, 0x90, 0x11, 0xe1, 0x05, 0xdf, 0x22, 0x44, 0xb6, 0x7f, 0xcd,
  0x04, 0x30, 0xdc, 0xe8, 0xe8, 0xf3, 0xf3, 0x12, 0x16, 0x40, 0xb4, 0xea,
  0xa5, 0xa1, 0xac, 0xbb, 0x1e, 0x01, 0x3a, 0xfe, 0x23, 0xf3, 0xf6, 0xbb,
  0xda, 0xc2, 0xe2, 0xb2, 0xe6, 0xc9, 0x20, 0x00, 0x92, 0xc2, 0xff, 0xff,
  0x04, 0x00, 0x00, 0x00, 0x3f, 0x00, 0x00, 0x00, 0x24, 0x24, 0x1c, 0x09,
  0xb4, 0xa1, 0x99, 0xca, 0xd0, 0xf5, 0xd7, 0xe7, 0xce, 0xd8, 0xab, 0xc7,
  0xe3, 0xfd, 0x07, 0x19, 0x34, 0x20, 0x24, 0xf6, 0x12, 0xfd, 0xf3, 0xf6,
  0xfd, 0x01, 0x2a, 0xe3, 0x18, 0x20, 0x24, 0xfd, 0xf1, 0xce, 0xd1, 0xb8,
  0x92, 0xbe, 0xb2, 0xbc, 0xcd, 0xce, 0xb3, 0xcb, 0xdd, 0xd3, 0xd3, 0xdc,
  0xdf, 0xc3, 0x99, 0x81, 0xa5, 0xa5, 0xb8, 0xda, 0x00, 0x09, 0x39, 0x00,
  0xde, 0xc2, 0xff, 0xff, 0x04, 0x00, 0x00, 0x00, 0x08, 0x00, 0x00, 0x00,
  0xb9, 0xad, 0x7f, 0x84, 0xcb, 0x80, 0xb4, 0xdf, 0xf2, 0xc2, 0xff, 0xff,
  0x04, 0x00, 0x00, 0x00, 0x40, 0x00, 0x00, 0x00, 0x01, 0x81, 0xe2, 0x05,
  0x1e, 0xf0, 0x14, 0x08, 0x02, 0x81, 0x26, 0xe7, 0x02, 0x2e, 0xf9, 0x1b,
  0x84, 0x7f, 0x65, 0x50, 0x3e, 0xd0, 0x9f, 0x21, 0xee, 0xc1, 0x56, 0x0d,
  0x9a, 0xb1, 0x2d, 0x7f, 0xdb, 0x1f, 0xd0, 0x3b, 0x81, 0xd7, 0xf3, 0xe6,
  0xe4, 0xc8, 0x96, 0xe6, 0xcc, 0x38, 0xe9, 0x81, 0x7f, 0xe8, 0x5b, 0xbf,
  0x08, 0xcb, 0x34, 0xe4, 0xdb, 0xd6, 0x1f, 0xde, 0xf7, 0x81, 0x03, 0xc7,
  0x3e, 0xc3, 0xff, 0xff, 0x04, 0x00, 0x00, 0x00, 0x20, 0x00, 0x00, 0x00,
  0xf1, 0xea, 0xff, 0xff, 0xf7, 0xfb, 0xff, 0xff, 0x21, 0xf2, 0xff, 0xff,
  0x5c, 0xf5, 0xff, 0xff, 0x7c, 0x17, 0x00, 0x00, 0xd2, 0x19, 0x00, 0x00,
  0x92, 0xed, 0xff, 0xff, 0xb7, 0x0a, 0x00, 0x00, 0x6a, 0xc3, 0xff, 0xff,
  0x04, 0x00, 0x00, 0x00, 0x3f, 0x00, 0x00, 0x00, 0xad, 0xca, 0xc7, 0xce,
  0xcc, 0xf1, 0xe9, 0x1b, 0xea, 0x13, 0xd5, 0xd8, 0xae, 0x87, 0x95, 0x8c,
  0xbf, 0xa5, 0x10, 0x24, 0x02, 0x00, 0xed, 0x01, 0x01, 0xf4, 0x04, 0xfb,
  0x27, 0x03, 0x3e, 0x19, 0x2c, 0xee, 0x11, 0xc6, 0xd3, 0xb0, 0xf4, 0x8c,
  0x14, 0x85, 0x02, 0xa2, 0x81, 0xdd, 0xc5, 0x16, 0xcc, 0x1e, 0xcc, 0x03,
  0xd6, 0xdd, 0x13, 0xca, 0xcb, 0xb3, 0xbb, 0x94, 0xac, 0x08, 0xf9, 0x00,
  0xb6, 0xc3, 0xff, 0xff, 0x04, 0x00, 0x00, 0x00, 0x3f, 0x00, 0x00, 0x00,
  0xd9, 0xfb, 0xdd, 0xf8, 0xe5, 0xe5, 0xe1, 0xf7, 0x12, 0x11, 0x02, 0x02,
  0xfb, 0xf1, 0xe6, 0xfa, 0xec, 0xe7, 0x02, 0xec, 0x02, 0xe1, 0xee, 0xbd,
  0x85, 0x81, 0x9b, 0xdc, 0x0b, 0x0f, 0x1f, 0x37, 0x07, 0xdd, 0xbe, 0xae,
  0xdb, 0xc3, 0xec, 0xd7, 0x28, 0x16, 0x2f, 0x24, 0x0a, 0xf0, 0xdb, 0xdc,
  0xcf, 0xf8, 0x0a, 0x24, 0x17, 0x13, 0xe1, 0xcd, 0xb6, 0xc2, 0xce, 0x03,
  0xfb, 0x23, 0x2e, 0x00, 0x02, 0xc4, 0xff, 0xff, 0x04, 0x00, 0x00, 0x00,
  0x3f, 0x00, 0x00, 0x00, 0xd2, 0xeb, 0xf1, 0xe2, 0x04, 0x04, 0x10, 0xd9,
  0xd0, 0xcf, 0xbc, 0xa9, 0x8a, 0x81, 0xac, 0xa7, 0xe2, 0xe6, 0xe4, 0xf0,
  0xf8, 0xf1, 0xfb, 0xf1, 0xf3, 0x19, 0x17, 0x13, 0x41, 0x3b, 0x5c, 0x57,
  0x5f, 0x3d, 0x37, 0x36, 0x2e, 0x20, 0x0d, 0x1e, 0xff, 0xf4, 0xb8, 0xc9,
  0xd5, 0xe4, 0xe2, 0xe5, 0x0d, 0x14, 0x07, 0x08, 0xf1, 0xbd, 0xaa, 0xa8,
  0xd8, 0xd6, 0x09, 0xcd, 0xf2, 0xe4, 0x20, 0x00, 0x4e, 0xc4, 0xff, 0xff,
  0x04, 0x00, 0x00, 0x00, 0x3f, 0x00, 0x00, 0x00, 0xa1, 0x96, 0xc1, 0xc3,
  0xd1, 0xed, 0xe3, 0xed, 0x09, 0x1b, 0x2d, 0x48, 0x48, 0x58, 0x1c, 0x18,
  0x13, 0x03, 0xe8, 0xc4, 0xc6, 0xe9, 0x0e, 0x3d, 0x06, 0x14, 0x11, 0x1b,
  0x00, 0xe7, 0xb5, 0xaa, 0xc9, 0xb9, 0xd4, 0xdf, 0xce, 0xd8, 0xb8, 0x94,
  0xa0, 0x81, 0xaf, 0x94, 0xcf, 0xbe, 0xd8, 0xf5, 0xed, 0xfc, 0x1f, 0x0f,
  0x22, 0x2c, 0x31, 0x2d, 0x1a, 0x20, 0x16, 0xf5, 0xe1, 0xe9, 0xe7, 0x00,
  0x9a, 0xc4, 0xff, 0xff, 0x04, 0x00, 0x00, 0x00, 0x3f, 0x00, 0x00, 0x00,
  0xfa, 0xe2, 0xe6, 0x19, 0x13, 0x1e, 0x2b, 0x33, 0x2e, 0x08, 0xfd, 0xf4,
  0xeb, 0xea, 0xfa, 0xb5, 0xca, 0xc0, 0x96, 0xca, 0x81, 0xea, 0xe1, 0xcf,
  0xf0, 0xd0, 0xf2, 0x04, 0xfa, 0x16, 0x1e, 0x16, 0xfe, 0x0c, 0xce, 0xe6,
  0xd0, 0xf6, 0x9e, 0x12, 0xc2, 0x13, 0xeb, 0x1b, 0xf8, 0x1c, 0xeb, 0xf7,
  0x08, 0xfd, 0x18, 0x14, 0x09, 0xfa, 0xfd, 0xdb, 0xd6, 0xd9, 0xed, 0xd5,
  0xd5, 0xd1, 0xce, 0x00, 0xe6, 0xc4, 0xff, 0xff, 0x04, 0x00, 0x00, 0x00,
  0x3f, 0x00, 0x00, 0x00, 0xed, 0xeb, 0xc7, 0xcd, 0xf4, 0x11, 0x35, 0x4c,
  0x5a, 0x46, 0x21, 0xfb, 0xdf, 0xfd, 0xee, 0x29, 0x3d, 0x4b, 0x5d, 0x5a,
  0x7f, 0x58, 0x3b, 0x55, 0x3a, 0x21, 0x1f, 0x28, 0x1a, 0x09, 0xf8, 0x03,
  0xf0, 0xfd, 0xf0, 0xf5, 0x0e, 0xf8, 0x10, 0xef, 0xfe, 0xf8, 0xff, 0x0b,
  0xff, 0xfd, 0xe5, 0xec, 0xcf, 0xd4, 0xd1, 0xcc, 0xe2, 0xce, 0xc0, 0xef,
  0xec, 0xea, 0xfc, 0xf0, 0xe7, 0xfc, 0xf4, 0x00, 0x32, 0xc5, 0xff, 0xff,
  0x04, 0x00, 0x00, 0x00, 0x3f, 0x00, 0x00, 0x00, 0xea, 0xf7, 0xfc, 0xfd,
  0xf8, 0x02, 0x03, 0x0b, 0x05, 0x04, 0x01, 0x03, 0xef, 0x04, 0xef, 0x05,
  0xfe, 0x04, 0xf9, 0x22, 0x08, 0x25, 0x0b, 0x1a, 0xf6, 0xfc, 0xd4, 0xde,
  0xa6, 0xac, 0x81, 0xaa, 0xab, 0xde, 0xc6, 0xe4, 0xf1, 0x06, 0x07, 0x10,
  0xfd, 0xfa, 0xf4, 0xfe, 0xf4, 0xf9, 0xfc, 0x07, 0xfe, 0x0d, 0xf7, 0xfc,
  0x08, 0x01, 0x0c, 0x07, 0x05, 0xfe, 0xfd, 0x02, 0xff, 0x0a, 0x05, 0x00,
  0x7e, 0xc5, 0xff, 0xff, 0x04, 0x00, 0x00, 0x00, 0x3f, 0x00, 0x00, 0x00,
  0xfd, 0xfa, 0xf6, 0xf4, 0xef, 0x09, 0x07, 0x0d, 0x14, 0x13, 0x11, 0x20,
  0x30, 0x18, 0x32, 0xfe, 0x2a, 0xee, 0x2e, 0x10, 0x61, 0x44, 0x7f, 0x5d,
  0x71, 0x3f, 0x50, 0x1e, 0x20, 0x10, 0x0d, 0x07, 0x34, 0x12, 0x2a, 0x1e,
  0x02, 0x18, 0xf9, 0x2d, 0x04, 0x27, 0x09, 0x2f, 0x13, 0x2c, 0x43, 0x0a,
  0x45, 0xf9, 0x47, 0xe4, 0x21, 0xfd, 0x1f, 0xe1, 0xed, 0xfb, 0x02, 0x09,
  0x1b, 0x1b, 0x25, 0x00, 0xca, 0xc5, 0xff, 0xff, 0x04, 0x00, 0x00, 0x00,
  0x08, 0x00, 0x00, 0x00, 0x0f, 0x7f, 0x00, 0xd9, 0x2a, 0xac, 0x3f, 0x80,
  0xde, 0xc5, 0xff, 0xff, 0x04, 0x00, 0x00, 0x00, 0x40, 0x00, 0x00, 0x00,
  0x81, 0x45, 0x38, 0xed, 0xbe, 0xf8, 0xb6, 0x18, 0x81, 0xe8, 0xcb, 0xf7,
  0xb1, 0x13, 0xbb, 0xef, 0xaf, 0x7f, 0x51, 0x3a, 0xce, 0x15, 0x36, 0x2c,
  0x50, 0xf6, 0xb6, 0x0e, 0x2e, 0xdb, 0x81, 0x23, 0x53, 0x7f, 0x14, 0x2e,
  0xee, 0xd5, 0xba, 0x42, 0x03, 0x61, 0xab, 0x7f, 0xed, 0x31, 0xf4, 0xf1,
  0xdd, 0x17, 0xf1, 0x16, 0x20, 0xb6, 0x18, 0x7f, 0x81, 0x25, 0xc2, 0x33,
  0x06, 0xc7, 0x34, 0xf3, 0x2a, 0xc6, 0xff, 0xff, 0x04, 0x00, 0x00, 0x00,
  0x20, 0x00, 0x00, 0x00, 0x0c, 0x0a, 0x00, 0x00, 0x90, 0x1c, 0x00, 0x00,
  0xb1, 0xd6, 0xff, 0xff, 0x9f, 0x0a, 0x00, 0x00, 0xde, 0xf5, 0xff, 0xff,
  0xe7, 0xf4, 0xff, 0xff, 0xf5, 0xe2, 0xff, 0xff, 0xff, 0xf7, 0xff, 0xff,
  0x56, 0xc6, 0xff, 0xff, 0x04, 0x00, 0x00, 0x00, 0x3f, 0x00, 0x00, 0x00,
  0x42, 0x53, 0x43, 0x2c, 0x47, 0x54, 0x37, 0x3a, 0x16, 0x12, 0xf2, 0xe4,
  0xc3, 0xf2, 0xd8, 0x23, 0xd4, 0x28, 0x0b, 0x1a, 0x20, 0x06, 0x55, 0xd6,
  0x68, 0xf2, 0x52, 0x5a, 0x3c, 0x45, 0x30, 0x18, 0x11, 0x21, 0x32, 0x04,
  0x30, 0x1c, 0x5b, 0x15, 0x4a, 0xfd, 0x47, 0x37, 0x3f, 0x20, 0x53, 0x4a,
  0x4f, 0x7f, 0x09, 0x29, 0xe4, 0x41, 0x09, 0x5b, 0xf7, 0x56, 0x1e, 0x3b,
  0x09, 0x4b, 0x65, 0x00, 0xa2, 0xc6, 0xff, 0xff, 0x04, 0x00, 0x00, 0x00,
  0x3f, 0x00, 0x00, 0x00, 0xa2, 0xb4, 0xb1, 0xcd, 0xb7, 0xd7, 0xc0, 0xc3,
  0xc7, 0xc5, 0xc8, 0xe7, 0x14, 0x11, 0xec, 0xc6, 0xc5, 0x9e, 0xae, 0xdc,
  0xca, 0xf5, 0xf5, 0xfa, 0xeb, 0xfb, 0xf3, 0x0c, 0xff, 0x1f, 0x14, 0x0f,
  0xe7, 0xdb, 0xd9, 0xa9, 0x97, 0xb4, 0xb2, 0x02, 0xbd, 0xe3, 0xb1, 0xcb,
  0xb7, 0xf4, 0xba, 0xd8, 0xae, 0x81, 0x99, 0xae, 0xb1, 0xe8, 0x0b, 0x3c,
  0x1c, 0x13, 0xe2, 0xd6, 0xc5, 0xc0, 0xce, 0x00, 0xee, 0xc6, 0xff, 0xff,
  0x04, 0x00, 0x00, 0x00, 0x3f, 0x00, 0x00, 0x00, 0xe6, 0xea, 0xd0, 0xe8,
  0xf2, 0xe3, 0xeb, 0xff, 0x15, 0x04, 0x1f, 0x16, 0x1c, 0x2f, 0x0a, 0x10,
  0xe6, 0xee, 0xe0, 0xe0, 0xce, 0xd0, 0x84, 0xc5, 0x8c, 0x9a, 0xae, 0xea,
  0xce, 0xf5, 0xcf, 0x0d, 0xe4, 0x25, 0x09, 0x40, 0x20, 0x23, 0x23, 0x2c,
  0x08, 0x13, 0x01, 0xe3, 0xf0, 0xd5, 0xe7, 0xed, 0xc4, 0xe4, 0xef, 0xe5,
  0xd5, 0xce, 0xb4, 0x98, 0x81, 0xb4, 0x9a, 0xb0, 0xc6, 0xe2, 0xef, 0x00,
  0x3a, 0xc7, 0xff, 0xff, 0x04, 0x00, 0x00, 0x00, 0x3f, 0x00, 0x00, 0x00,
  0x3d, 0x2a, 0x0d, 0xd1, 0xd6, 0xc7, 0xad, 0xb2, 0xce, 0xb2, 0xc7, 0xd7,
  0x06, 0x0f, 0x05, 0x1a, 0x0f, 0x10, 0xee, 0xc0, 0xb1, 0xb1, 0x86, 0xa3,
  0xcc, 0xbf, 0xd5, 0x09, 0x1c, 0xed, 0x0c, 0x22, 0x2e, 0x4f, 0x65, 0x67,
  0x6a, 0x59, 0x62, 0x3d, 0x3c, 0x0c, 0x0d, 0xdd, 0xe0, 0xe7, 0xcb, 0xbe,
  0xab, 0xaf, 0xa2, 0x99, 0xb3, 0xb8, 0xd6, 0x00, 0x04, 0x2e, 0x38, 0x19,
  0xf8, 0xcf, 0x81, 0x00, 0x86, 0xc7, 0xff, 0xff, 0x04, 0x00, 0x00, 0x00,
  0x3f, 0x00, 0x00, 0x00, 0xf9, 0xe6, 0xd9, 0xe0, 0xda, 0xd4, 0xa9, 0xb3,
  0x95, 0x95, 0x81, 0x83, 0xa1, 0xb9, 0xe6, 0xe9, 0xf2, 0xf2, 0xf0, 0xed,
  0x01, 0xfe, 0x27, 0x16, 0x16, 0x09, 0x09, 0xed, 0xfa, 0xcd, 0xde, 0xd8,
  0xde, 0xdb, 0xe1, 0xf2, 0xcc, 0xc8, 0xeb, 0xe5, 0xe6, 0xef, 0xf2, 0xe9,
  0xee, 0xe2, 0xe1, 0xf7, 0xef, 0x0b, 0x0a, 0x18, 0x2b, 0x24, 0x1b, 0x18,
  0xf6, 0xf8, 0xee, 0xe3, 0xf4, 0xe4, 0xd6, 0x00, 0xd2, 0xc7, 0xff, 0xff,
  0x04, 0x00, 0x00, 0x00, 0x3f, 0x00, 0x00, 0x00, 0x37, 0x27, 0x0d, 0x0b,
  0xfe, 0xf8, 0x0d, 0x1d, 0x2e, 0x16, 0x26, 0xfe, 0xd7, 0xd2, 0xc4, 0xcf,
  0xf8, 0x29, 0x2b, 0x27, 0x19, 0x0e, 0xd6, 0xb7, 0xc1, 0xc6, 0x10, 0x3d,
  0x58, 0x7f, 0x3a, 0x0d, 0x0b, 0xe5, 0xd8, 0xdb, 0x16, 0x4b, 0x55, 0x6e,
  0x46, 0x45, 0x22, 0xf1, 0xe9, 0xdc, 0xe3, 0x12, 0x56, 0x51, 0x5a, 0x3d,
  0x43, 0x21, 0xe5, 0xcc, 0xcd, 0xf2, 0x0e, 0x36, 0x61, 0x51, 0x4d, 0x00,
  0x1e, 0xc8, 0xff, 0xff, 0x04, 0x00, 0x00, 0x00, 0x3f, 0x00, 0x00, 0x00,
  0xf3, 0xe4, 0xed, 0xf3, 0xe7, 0xe4, 0xd8, 0xe3, 0xdc, 0xff, 0x1f, 0x06,
  0x43, 0x09, 0xf9, 0xd7, 0xbf, 0xb9, 0xc6, 0xea, 0xf0, 0xf1, 0xed, 0x10,
  0x19, 0x19, 0x39, 0x16, 0x08, 0xd7, 0xa8, 0x91, 0x83, 0x8c, 0x95, 0xe6,
  0xcb, 0x06, 0x11, 0x19, 0x20, 0x02, 0xfc, 0xee, 0xdb, 0xca, 0xde, 0x07,
  0xfd, 0x15, 0x06, 0xe4, 0x01, 0xf8, 0x20, 0xe4, 0xe8, 0xd7, 0xb5, 0x9f,
  0x9f, 0x8c, 0x81, 0x00, 0x6a, 0xc8, 0xff, 0xff, 0x04, 0x00, 0x00, 0x00,
  0x3f, 0x00, 0x00, 0x00, 0xcc, 0xb8, 0xcb, 0xbd, 0xd3, 0xe8, 0xea, 0x2b,
  0xe5, 0x03, 0xf2, 0x10, 0x03, 0x46, 0x33, 0x2e, 0x41, 0x27, 0x48, 0x6c,
  0x6d, 0x7f, 0x5b, 0x45, 0x2c, 0x2e, 0x2c, 0x06, 0x16, 0x02, 0x10, 0xf1,
  0xf3, 0xe7, 0xd7, 0xd6, 0xca, 0xd3, 0xc6, 0xe2, 0xa0, 0xca, 0xa1, 0xb4,
  0x9e, 0xa3, 0xb7, 0x9e, 0x9e, 0xcd, 0xf4, 0x06, 0x0b, 0x1c, 0x2d, 0x49,
  0x4d, 0x35, 0x34, 0x6c, 0x52, 0x49, 0x69, 0x00, 0xb6, 0xc8, 0xff, 0xff,
  0x04, 0x00, 0x00, 0x00, 0x08, 0x00, 0x00, 0x00, 0x80, 0x63, 0x1e, 0xed,
  0x4a, 0xa1, 0x7f, 0xc3, 0xca, 0xc8, 0xff, 0xff, 0x04, 0x00, 0x00, 0x00,
  0x40, 0x00, 0x00, 0x00, 0xed, 0x07, 0x32, 0xaf, 0x7f, 0x09, 0xe3, 0xd8,
  0x3a, 0x01, 0xe3, 0xb5, 0x7f, 0x58, 0xeb, 0xb7, 0xde, 0x3a, 0xe5, 0x7f,
  0xeb, 0xf4, 0x10, 0x3f, 0x10, 0x1f, 0x20, 0xdf, 0xef, 0x0e, 0x81, 0x16,
  0x34, 0xdb, 0x9f, 0x1d, 0xaa, 0x58, 0x81, 0xf1, 0xcf, 0xdb, 0xee, 0xe3,
  0xfe, 0x7f, 0xee, 0x16, 0xf7, 0xde, 0x48, 0xe3, 0x5a, 0x03, 0x7f, 0x12,
  0xfb, 0xe1, 0xe8, 0xef, 0xfd, 0x7f, 0x11, 0x01, 0x16, 0xc9, 0xff, 0xff,
  0x04, 0x00, 0x00, 0x00, 0x20, 0x00, 0x00, 0x00, 0x64, 0x04, 0x00, 0x00,
  0x96, 0x07, 0x00, 0x00, 0xc7, 0xee, 0xff, 0xff, 0x49, 0x10, 0x00, 0x00,
  0x76, 0x19, 0x00, 0x00, 0x70, 0xfd, 0xff, 0xff, 0x59, 0xf0, 0xff, 0xff,
  0xf3, 0xef, 0xff, 0xff, 0x42, 0xc9, 0xff, 0xff, 0x04, 0x00, 0x00, 0x00,
  0x18, 0x00, 0x00, 0x00, 0x13, 0x0d, 0x2b, 0x2e, 0x0a, 0x08, 0xf2, 0xf4,
  0xe9, 0xdb, 0x18, 0xe3, 0xd1, 0xbd, 0xd9, 0xca, 0xb4, 0x81, 0x19, 0xd8,
  0x03, 0xbb, 0x3f, 0xfa, 0x66, 0xc9, 0xff, 0xff, 0x04, 0x00, 0x00, 0x00,
  0x18, 0x00, 0x00, 0x00, 0x1b, 0xcc, 0x0d, 0xeb, 0xff, 0xc8, 0x0f, 0xb8,
  0xd5, 0x81, 0xa4, 0xed, 0xd5, 0xeb, 0xeb, 0xc5, 0x2e, 0x03, 0xed, 0xd9,
  0xc9, 0xc3, 0xe9, 0xe2, 0x8a, 0xc9, 0xff, 0xff, 0x04, 0x00, 0x00, 0x00,
  0x18, 0x00, 0x00, 0x00, 0x81, 0xc3, 0xaf, 0xc6, 0xde, 0xec, 0xc8, 0x0c,
  0xec, 0xe3, 0xeb, 0xcc, 0xe7, 0xc4, 0xd2, 0xd9, 0xe5, 0xcd, 0xd5, 0xe2,
  0xe2, 0xc9, 0xc4, 0xc1, 0xae, 0xc9, 0xff, 0xff, 0x04, 0x00, 0x00, 0x00,
  0x18, 0x00, 0x00, 0x00, 0xac, 0xb4, 0x92, 0x81, 0xac, 0xd5, 0xfb, 0x0c,
  0x17, 0x19, 0xfd, 0xf2, 0xda, 0xc3, 0xa3, 0xa3, 0xcd, 0xc4, 0xf2, 0xce,
  0xcf, 0x45, 0x06, 0x1a, 0xd2, 0xc9, 0xff, 0xff, 0x04, 0x00, 0x00, 0x00,
  0x18, 0x00, 0x00, 0x00, 0xc6, 0xb0, 0xd4, 0x9f, 0x90, 0xba, 0xfc, 0xd4,
  0xaa, 0xc0, 0xc0, 0xbc, 0xf9, 0xe3, 0xbe, 0xe6, 0xbc, 0xdb, 0xcd, 0xd4,
  0x97, 0xbb, 0xc8, 0x81, 0xf6, 0xc9, 0xff, 0xff, 0x04, 0x00, 0x00, 0x00,
  0x18, 0x00, 0x00, 0x00, 0x57, 0x36, 0x4f, 0x33, 0x16, 0x05, 0x28, 0x06,
  0x3f, 0x32, 0x65, 0x5b, 0x21, 0x21, 0x32, 0xf7, 0x6a, 0x3c, 0x76, 0x40,
  0x40, 0x52, 0x42, 0x7f, 0x1a, 0xca, 0xff, 0xff, 0x04, 0x00, 0x00, 0x00,
  0x18, 0x00, 0x00, 0x00, 0x8c, 0xcb, 0xcd, 0xb5, 0xe0, 0xfa, 0x15, 0x1c,
  0x25, 0x61, 0x29, 0x40, 0xfa, 0x14, 0xce, 0xf6, 0xcb, 0x06, 0x1e, 0x3d,
  0x4e, 0x7f, 0x5f, 0x58, 0x3e, 0xca, 0xff, 0xff, 0x04, 0x00, 0x00, 0x00,
  0x18, 0x00, 0x00, 0x00, 0x72, 0x1b, 0x34, 0x5d, 0x4f, 0x7f, 0x57, 0x57,
  0x0f, 0xdc, 0x18, 0x3c, 0x7e, 0x2d, 0xf7, 0x24, 0x22, 0xf7, 0x2f, 0xe6,
  0x48, 0x4a, 0x5e, 0x24, 0x62, 0xca, 0xff, 0xff, 0x04, 0x00, 0x00, 0x00,
  0x08, 0x00, 0x00, 0x00, 0x21, 0xee, 0x7c, 0x28, 0x7f, 0x80, 0xa2, 0x91,
  0x76, 0xca, 0xff, 0xff, 0x04, 0x00, 0x00, 0x00, 0x40, 0x00, 0x00, 0x00,
  0xc2, 0x11, 0x81, 0x17, 0xfd, 0xdc, 0x07, 0xeb, 0xd1, 0x1f, 0x25, 0xcc,
  0x81, 0x9b, 0xe2, 0xe1, 0x87, 0xee, 0xbe, 0x22, 0x97, 0x34, 0x13, 0x7f,
  0xe8, 0x0c, 0x3e, 0xa3, 0x81, 0x1f, 0xcb, 0xee, 0x52, 0x02, 0x81, 0x05,
  0xab, 0x3b, 0xe2, 0x4e, 0x39, 0x1d, 0x81, 0xf0, 0x13, 0x99, 0xed, 0x9c,
  0xfe, 0x1c, 0x23, 0x81, 0x8a, 0xa8, 0xd1, 0xf7, 0x44, 0x19, 0xd0, 0xdd,
  0xb2, 0x81, 0x98, 0xd8, 0xc2, 0xca, 0xff, 0xff, 0x04, 0x00, 0x00, 0x00,
  0x20, 0x00, 0x00, 0x00, 0x12, 0x27, 0x00, 0x00, 0xf7, 0x2c, 0x00, 0x00,
  0x60, 0x20, 0x00, 0x00, 0x89, 0x16, 0x00, 0x00, 0xae, 0x1b, 0x00, 0x00,
  0x56, 0x31, 0x00, 0x00, 0x95, 0x28, 0x00, 0x00, 0xb2, 0x35, 0x00, 0x00,
  0xee, 0xca, 0xff, 0xff, 0x04, 0x00, 0x00, 0x00, 0x07, 0x00, 0x00, 0x00,
  0x81, 0x01, 0xf8, 0x02, 0x9f, 0xb6, 0xf9, 0x00, 0x02, 0xcb, 0xff, 0xff,
  0x04, 0x00, 0x00, 0x00, 0x07, 0x00, 0x00, 0x00, 0x20, 0x07, 0x1c, 0x15,
  0xf9, 0x69, 0x7f, 0x00, 0x16, 0xcb, 0xff, 0xff, 0x04, 0x00, 0x00, 0x00,
  0x07, 0x00, 0x00, 0x00, 0x3d, 0xb4, 0xa0, 0x08, 0xfa, 0x81, 0xb0, 0x00,
  0x2a, 0xcb, 0xff, 0xff, 0x04, 0x00, 0x00, 0x00, 0x07, 0x00, 0x00, 0x00,
  0x7f, 0x62, 0x10, 0x7a, 0x3d, 0x60, 0x72, 0x00, 0x3e, 0xcb, 0xff, 0xff,
  0x04, 0x00, 0x00, 0x00, 0x07, 0x00, 0x00, 0x00, 0x81, 0xbb, 0x8f, 0x98,
  0xed, 0xd3, 0xef, 0x00, 0x52, 0xcb, 0xff, 0xff, 0x04, 0x00, 0x00, 0x00,
  0x07, 0x00, 0x00, 0x00, 0x65, 0x7f, 0x66, 0x13, 0x15, 0x07, 0x27, 0x00,
  0x66, 0xcb, 0xff, 0xff, 0x04, 0x00, 0x00, 0x00, 0x07, 0x00, 0x00, 0x00,
  0x11, 0x2b, 0x2e, 0xef, 0x3f, 0x1f, 0x7f, 0x00, 0x7a, 0xcb, 0xff, 0xff,
  0x04, 0x00, 0x00, 0x00, 0x07, 0x00, 0x00, 0x00, 0x2e, 0xd5, 0x4a, 0x7f,
  0xf4, 0xa6, 0xba, 0x00, 0x8e, 0xcb, 0xff, 0xff, 0x04, 0x00, 0x00, 0x00,
  0x08, 0x00, 0x00, 0x00, 0x4e, 0xb1, 0x35, 0x80, 0x7f, 0x9f, 0xe1, 0x1b,
  0xa2, 0xcb, 0xff, 0xff, 0x04, 0x00, 0x00, 0x00, 0x40, 0x00, 0x00, 0x00,
  0x13, 0xfb, 0x05, 0x09, 0x00, 0x7f, 0x16, 0x0d, 0xdf, 0xe0, 0xff, 0xef,
  0x9b, 0x7f, 0xf2, 0x10, 0xa3, 0xae, 0xcf, 0xf9, 0xaf, 0xf6, 0xf3, 0x7f,
  0x06, 0x7f, 0xfa, 0x30, 0x05, 0xfe, 0x3e, 0xf8, 0xf1, 0x14, 0xc8, 0x0e,
  0xda, 0xb0, 0xde, 0x81, 0x81, 0x38, 0xe8, 0xf1, 0x81, 0x89, 0xfd, 0x06,
  0x18, 0x6b, 0x44, 0x37, 0x4c, 0x23, 0x7f, 0xa3, 0xd2, 0x7f, 0x20, 0x6d,
  0x0d, 0xbe, 0x7e, 0xb2, 0xee, 0xcb, 0xff, 0xff, 0x04, 0x00, 0x00, 0x00,
  0x20, 0x00, 0x00, 0x00, 0x80, 0xfe, 0xff, 0xff, 0xc7, 0x0e, 0x00, 0x00,
  0x84, 0x22, 0x00, 0x00, 0xee, 0x00, 0x00, 0x00, 0x12, 0x1d, 0x00, 0x00,
  0x50, 0x1d, 0x00, 0x00, 0xc7, 0xe9, 0xff, 0xff, 0x13, 0x05, 0x00, 0x00,
  0x1a, 0xcc, 0xff, 0xff, 0x04, 0x00, 0x00, 0x00, 0x07, 0x00, 0x00, 0x00,
  0x7f, 0x76, 0x29, 0x5e, 0xd8, 0x14, 0xb8, 0x00, 0x2e, 0xcc, 0xff, 0xff,
  0x04, 0x00, 0x00, 0x00, 0x07, 0x00, 0x00, 0x00, 0x30, 0xfd, 0xfd, 0x7f,
  0x4b, 0xff, 0x03, 0x00, 0x42, 0xcc, 0xff, 0xff, 0x04, 0x00, 0x00, 0x00,
  0x07, 0x00, 0x00, 0x00, 0x07, 0x17, 0x3d, 0x3d, 0x7f, 0x40, 0x38, 0x00,
  0x56, 0xcc, 0xff, 0xff, 0x04, 0x00, 0x00, 0x00, 0x07, 0x00, 0x00, 0x00,
  0xfe, 0x15, 0xe4, 0xe3, 0x12, 0x3f, 0x7f, 0x00, 0x6a, 0xcc, 0xff, 0xff,
  0x04, 0x00, 0x00, 0x00, 0x07, 0x00, 0x00, 0x00, 0x7f, 0x6a, 0x0d, 0xe7,
  0x0b, 0xd4, 0xef, 0x00, 0x7e, 0xcc, 0xff, 0xff, 0x04, 0x00, 0x00, 0x00,
  0x07, 0x00, 0x00, 0x00, 0x81, 0xbb, 0x8d, 0xb7, 0x56, 0x3f, 0xfd, 0x00,
  0x92, 0xcc, 0xff, 0xff, 0x04, 0x00, 0x00, 0x00, 0x07, 0x00, 0x00, 0x00,
  0xd3, 0xf3, 0xb6, 0x7f, 0x6f, 0xfa, 0x11, 0x00, 0xa6, 0xcc, 0xff, 0xff,
  0x04, 0x00, 0x00, 0x00, 0x07, 0x00, 0x00, 0x00, 0xbe, 0xef, 0x1b, 0x7f,
  0x61, 0x15, 0xe0, 0x00, 0xba, 0xcc, 0xff, 0xff, 0x04, 0x00, 0x00, 0x00,
  0x08, 0x00, 0x00, 0x00, 0x01, 0x80, 0xce, 0x1c, 0x2b, 0x7f, 0x33, 0x90,
  0xce, 0xcc, 0xff, 0xff, 0x04, 0x00, 0x00, 0x00, 0x40, 0x00, 0x00, 0x00,
  0x19, 0x7f, 0xc2, 0xc0, 0xd8, 0xb7, 0x2a, 0x06, 0xf7, 0x16, 0x7f, 0x05,
  0x4f, 0xaf, 0xc1, 0x01, 0x04, 0xdb, 0xb6, 0x65, 0x35, 0x07, 0x38, 0x81,
  0xd9, 0x04, 0x19, 0x34, 0xd0, 0x34, 0x62, 0x7f, 0x3f, 0xb8, 0x81, 0xc0,
  0x86, 0x29, 0xf4, 0xf1, 0xe5, 0xac, 0x44, 0xd5, 0x7f, 0xf6, 0xef, 0xda,
  0xb0, 0xc4, 0x13, 0x7f, 0x11, 0x31, 0xf6, 0x70, 0x07, 0xf7, 0xd0, 0x7f,
  0xd7, 0x2e, 0x33, 0x5d, 0x1a, 0xcd, 0xff, 0xff, 0x04, 0x00, 0x00, 0x00,
  0x20, 0x00, 0x00, 0x00, 0x18, 0x15, 0x00, 0x00, 0xb7, 0x08, 0x00, 0x00,
  0xd1, 0x22, 0x00, 0x00, 0xd0, 0x18, 0x00, 0x00, 0x4e, 0x0a, 0x00, 0x00,
  0xc1, 0x07, 0x00, 0x00, 0xac, 0xcc, 0xff, 0xff, 0x38, 0x08, 0x00, 0x00,
  0x46, 0xcd, 0xff, 0xff, 0x04, 0x00, 0x00, 0x00, 0x07, 0x00, 0x00, 0x00,
  0xb7, 0xd8, 0xed, 0xee, 0x04, 0x56, 0x7f, 0x00, 0x5a, 0xcd, 0xff, 0xff,
  0x04, 0x00, 0x00, 0x00, 0x07, 0x00, 0x00, 0x00, 0x07, 0xc5, 0x9f, 0x81,
  0xac, 0xcd, 0x00, 0x00, 0x6e, 0xcd, 0xff, 0xff, 0x04, 0x00, 0x00, 0x00,
  0x07, 0x00, 0x00, 0x00, 0xd1, 0x61, 0x2a, 0x1e, 0xc1, 0x81, 0x81, 0x00,
  0x82, 0xcd, 0xff, 0xff, 0x04, 0x00, 0x00, 0x00, 0x07, 0x00, 0x00, 0x00,
  0x08, 0xea, 0x81, 0xc5, 0x87, 0xf9, 0xde, 0x00, 0x96, 0xcd, 0xff, 0xff,
  0x04, 0x00, 0x00, 0x00, 0x07, 0x00, 0x00, 0x00, 0xc8, 0x7e, 0x7f, 0x2e,
  0xed, 0xd8, 0x7d, 0x00, 0xaa, 0xcd, 0xff, 0xff, 0x04, 0x00, 0x00, 0x00,
  0x07, 0x00, 0x00, 0x00, 0x0c, 0x4a, 0x7f, 0x2a, 0xe0, 0xe3, 0xef, 0x00,
  0xbe, 0xcd, 0xff, 0xff, 0x04, 0x00, 0x00, 0x00, 0x07, 0x00, 0x00, 0x00,
  0xea, 0xd7, 0xd6, 0x74, 0x7f, 0x0e, 0x14, 0x00, 0xd2, 0xcd, 0xff, 0xff,
  0x04, 0x00, 0x00, 0x00, 0x07, 0x00, 0x00, 0x00, 0x81, 0x01, 0xc6, 0x01,
  0x6f, 0x49, 0xcb, 0x00, 0xe6, 0xcd, 0xff, 0xff, 0x04, 0x00, 0x00, 0x00,
  0x08, 0x00, 0x00, 0x00, 0x0b, 0x7f, 0x38, 0x39, 0xb1, 0x80, 0x98, 0xe9,
  0xfa, 0xcd, 0xff, 0xff, 0x04, 0x00, 0x00, 0x00, 0x40, 0x00, 0x00, 0x00,
  0x49, 0xe6, 0x81, 0x08, 0x2a, 0xda, 0x09, 0x03, 0xdc, 0xa1, 0xf8, 0x03,
  0x1e, 0x15, 0xdb, 0x81, 0x05, 0x81, 0xbc, 0xcb, 0x25, 0xf5, 0xe0, 0xd8,
  0xfa, 0xf5, 0xa3, 0x9e, 0xbd, 0xad, 0x7f, 0x6a, 0xea, 0x3c, 0x7f, 0xee,
  0xec, 0xbe, 0xf9, 0xe0, 0xce, 0x81, 0x07, 0xaf, 0x66, 0xff, 0xeb, 0x0a,
  0x46, 0x7f, 0x13, 0x2a, 0xeb, 0xa7, 0xc4, 0xf5, 0x7f, 0xc5, 0xdc, 0xf6,
  0x1b, 0xf6, 0xf3, 0xfa, 0x46, 0xce, 0xff, 0xff, 0x04, 0x00, 0x00, 0x00,
  0x20, 0x00, 0x00, 0x00, 0x9b, 0x7f, 0x00, 0x00, 0x96, 0x10, 0x00, 0x00,
  0x54, 0x0f, 0x00, 0x00, 0x7f, 0x2c, 0x00, 0x00, 0x10, 0xf4, 0xff, 0xff,
  0xde, 0x14, 0x00, 0x00, 0x86, 0xf6, 0xff, 0xff, 0x99, 0x05, 0x00, 0x00,
  0x72, 0xce, 0xff, 0xff, 0x04, 0x00, 0x00, 0x00, 0x40, 0x02, 0x00, 0x00,
  0xe7, 0x20, 0x35, 0x08, 0x3f, 0x17, 0xdc, 0xda, 0xe5, 0x16, 0x2b, 0x25,
  0x31, 0x13, 0xe4, 0xf2, 0xb6, 0x0d, 0x29, 0x1b, 0x21, 0x27, 0xe3, 0xd4,
  0xcd, 0x09, 0x36, 0x25, 0x43, 0x35, 0xee, 0xbc, 0xbb, 0x1e, 0x53, 0x1a,
  0x44, 0x40, 0xfd, 0xc8, 0xcd, 0x16, 0x6a, 0x0d, 0x38, 0x44, 0xdb, 0xb4,
  0xb6, 0x00, 0x7b, 0x16, 0x59, 0x6c, 0xdc, 0xc4, 0xb2, 0x2b, 0x7f, 0x06,
  0x45, 0x72, 0xd6, 0xe1, 0xcb, 0x22, 0x6d, 0x0e, 0x51, 0x7f, 0xde, 0xfd,
  0x21, 0xdf, 0xe9, 0xcb, 0xe9, 0xc1, 0xf6, 0x81, 0x05, 0xcd, 0xdc, 0xbe,
  0x05, 0xc2, 0x0d, 0xaf, 0x02, 0xbf, 0xde, 0xd4, 0x12, 0xcd, 0x37, 0xd9,
  0x09, 0xcf, 0xcc, 0xe2, 0x12, 0xc6, 0x51, 0xef, 0x02, 0xe7, 0xd4, 0xe2,
  0x0f, 0xcc, 0x38, 0xdd, 0x17, 0xed, 0xee, 0xdc, 0x0b, 0xbc, 0x34, 0xb7,
  0x0c, 0xf7, 0xec, 0xce, 0x32, 0xbf, 0x4f, 0xad, 0xf9, 0xc4, 0xcf, 0xc7,
  0x34, 0xba, 0x56, 0xc4, 0xe5, 0x91, 0xa3, 0xd4, 0x55, 0xbd, 0x5b, 0xda,
  0x9b, 0x11, 0x0f, 0x28, 0xfe, 0xf5, 0xf1, 0xe7, 0x81, 0xe0, 0x03, 0x29,
  0xff, 0x03, 0x00, 0xee, 0x86, 0xbe, 0x02, 0x1d, 0x14, 0xfe, 0x24, 0x06,
  0x89, 0xad, 0x09, 0x3c, 0xfb, 0xfc, 0x36, 0xf8, 0x82, 0xcd, 0x0a, 0x31,
  0xfe, 0x0b, 0x2b, 0xfe, 0x94, 0xd4, 0x06, 0x1a, 0x01, 0x0a, 0x15, 0xee,
  0xa9, 0xdc, 0xf8, 0x0a, 0x06, 0x08, 0x10, 0xf9, 0x8c, 0xb0, 0xf1, 0x19,
  0x0e, 0xfc, 0x1b, 0xff, 0x82, 0x91, 0xfb, 0x23, 0xfd, 0x06, 0x2a, 0x20,
  0x05, 0x4b, 0x51, 0x0b, 0x35, 0x2a, 0xec, 0xce, 0xe1, 0x31, 0x64, 0x06,
  0x24, 0x30, 0x0f, 0xd5, 0xdb, 0x16, 0x62, 0x10, 0x26, 0x20, 0xfb, 0xf1,
  0xd9, 0x31, 0x54, 0x16, 0x3f, 0x27, 0xf6, 0xdd, 0xfa, 0x3b, 0x6a, 0x17,
  0x31, 0x5a, 0xf2, 0xd3, 0xe8, 0x1a, 0x76, 0x0a, 0x2f, 0x55, 0xd7, 0xc2,
  0xe2, 0x0c, 0x74, 0x17, 0x20, 0x61, 0xe6, 0xd7, 0xf1, 0x1f, 0x7f, 0x05,
  0x1e, 0x7b, 0xef, 0x09, 0xe0, 0x3a, 0x76, 0x15, 0x3b, 0x72, 0xff, 0x20,
  0xe6, 0xfd, 0xf1, 0x66, 0x06, 0x05, 0x05, 0x38, 0xf6, 0x15, 0xef, 0x73,
  0xf6, 0xfb, 0x04, 0x42, 0x02, 0x0a, 0xfb, 0x6e, 0xf9, 0xfd, 0x0c, 0x38,
  0xfe, 0x18, 0x03, 0x69, 0x00, 0xfa, 0x18, 0x23, 0xff, 0x17, 0x02, 0x7f,
  0x06, 0xf2, 0x04, 0x2e, 0x0f, 0x22, 0xfb, 0x58, 0x14, 0xfa, 0x1c, 0x16,
  0x0a, 0x13, 0xfa, 0x46, 0x0d, 0xf6, 0x01, 0x20, 0x02, 0x28, 0x00, 0x42,
  0xff, 0xee, 0xfe, 0x12, 0x03, 0x20, 0x11, 0x4c, 0xff, 0xef, 0xe5, 0xf9,
  0x0c, 0x21, 0x35, 0x06, 0x35, 0x1e, 0xfc, 0xcd, 0xe7, 0x18, 0x49, 0x02,
  0x27, 0x18, 0xfd, 0xe0, 0xea, 0x08, 0x4b, 0x00, 0x1f, 0x19, 0x03, 0xde,
  0xe1, 0x08, 0x4d, 0x04, 0x2c, 0x25, 0x01, 0xe7, 0xea, 0x11, 0x5d, 0x04,
  0x30, 0x3b, 0x0d, 0xde, 0xf2, 0x14, 0x60, 0x09, 0x25, 0x39, 0xf9, 0xda,
  0xe8, 0x0c, 0x63, 0x06, 0x3b, 0x52, 0xf3, 0xdd, 0xd7, 0x0c, 0x75, 0x0a,
  0x26, 0x45, 0xf4, 0xfe, 0xda, 0x1a, 0x5f, 0x13, 0x37, 0x7f, 0x02, 0x0f,
  0x03, 0xf9, 0xff, 0x06, 0x1d, 0xfc, 0x30, 0x20, 0x23, 0x04, 0xfe, 0xfc,
  0x08, 0xf6, 0x16, 0x14, 0x4d, 0x1e, 0xf3, 0xf9, 0xf4, 0xe5, 0x0c, 0x07,
  0x56, 0x27, 0xf1, 0xf1, 0xfd, 0xea, 0x03, 0xfd, 0x56, 0x37, 0xee, 0xf9,
  0x03, 0xe6, 0x09, 0xf7, 0x5c, 0x2f, 0xf3, 0xf6, 0x11, 0xeb, 0x0d, 0xfc,
  0x66, 0x32, 0xeb, 0xf9, 0xfc, 0xea, 0xfe, 0x11, 0x7f, 0x5d, 0xe9, 0x06,
  0xeb, 0xe8, 0x0a, 0x14, 0x7d, 0x58, 0x04, 0xff, 0xda, 0xf0, 0x03, 0x0e,
  0xe7, 0xfc, 0xe8, 0x7f, 0xfc, 0x00, 0x18, 0x38, 0xf3, 0x02, 0xfb, 0x71,
  0x03, 0xf6, 0x0d, 0x23, 0x0d, 0x08, 0xfa, 0x5e, 0x04, 0xea, 0x0d, 0x12,
  0xfb, 0x0c, 0xfb, 0x59, 0x02, 0xe7, 0x12, 0x16, 0xed, 0x0e, 0xf0, 0x59,
  0x0c, 0xe7, 0x0a, 0x14, 0xf2, 0x04, 0xf8, 0x57, 0x02, 0xee, 0x19, 0x21,
  0xfc, 0xfd, 0xf1, 0x43, 0xf9, 0xef, 0x1c, 0x17, 0xfc, 0x0e, 0xf6, 0x5a,
  0xf8, 0xe8, 0x0d, 0x07, 0xf3, 0x12, 0xf5, 0x5d, 0x03, 0xea, 0xf2, 0xf1,
  0xbe, 0xd0, 0xff, 0xff, 0x04, 0x00, 0x00, 0x00, 0x20, 0x00, 0x00, 0x00,
  0x29, 0xce, 0xff, 0xff, 0x35, 0x52, 0x01, 0x00, 0xcf, 0xb7, 0x00, 0x00,
  0x61, 0x51, 0xff, 0xff, 0x22, 0x45, 0xff, 0xff, 0x4d, 0x98, 0xff, 0xff,
  0x4f, 0xaf, 0xff, 0xff, 0xef, 0x9c, 0xff, 0xff, 0xea, 0xd0, 0xff, 0xff,
  0x04, 0x00, 0x00, 0x00, 0x30, 0x00, 0x00, 0x00, 0x37, 0xf9, 0xf9, 0x3d,
  0xd8, 0x4a, 0x08, 0xdb, 0xd7, 0xb2, 0xe5, 0xd6, 0xb4, 0x54, 0x27, 0xad,
  0xa6, 0xc1, 0xa6, 0xbd, 0x73, 0xbf, 0x81, 0x34, 0xce, 0x9a, 0xac, 0xf4,
  0xf2, 0xef, 0x65, 0xcc, 0xb4, 0x3e, 0x6e, 0x0b, 0xdf, 0xee, 0x1f, 0xca,
  0x60, 0xd6, 0xbd, 0x58, 0x0d, 0x2b, 0x72, 0xd5, 0x26, 0xd1, 0xff, 0xff,
  0x04, 0x00, 0x00, 0x00, 0x10, 0x00, 0x00, 0x00, 0x08, 0x00, 0x00, 0x00,
  0xa1, 0x01, 0x00, 0x00, 0xc8, 0xfd, 0xff, 0xff, 0x1e, 0xfd, 0xff, 0xff,
  0x42, 0xd1, 0xff, 0xff, 0x04, 0x00, 0x00, 0x00, 0x08, 0x00, 0x00, 0x00,
  0x01, 0x00, 0x00, 0x00, 0x08, 0x00, 0x00, 0x00, 0x9c, 0xa9, 0xfe, 0xff,
  0x5a, 0xd1, 0xff, 0xff, 0x04, 0x00, 0x00, 0x00, 0x10, 0x00, 0x00, 0x00,
  0x01, 0x00, 0x00, 0x00, 0x01, 0x00, 0x00, 0x00, 0x08, 0x00, 0x00, 0x00,
  0x01, 0x00, 0x00, 0x00, 0x76, 0xd1, 0xff, 0xff, 0x04, 0x00, 0x00, 0x00,
  0x0c, 0x00, 0x00, 0x00, 0x01, 0x00, 0x00, 0x00, 0x08, 0x00, 0x00, 0x00,
  0x08, 0x00, 0x00, 0x00, 0x8e, 0xd1, 0xff, 0xff, 0x04, 0x00, 0x00, 0x00,
  0x10, 0x00, 0x00, 0x00, 0x01, 0x00, 0x00, 0x00, 0x01, 0x00, 0x00, 0x00,
  0x08, 0x00, 0x00, 0x00, 0x08, 0x00, 0x00, 0x00, 0xaa, 0xd1, 0xff, 0xff,
  0x04, 0x00, 0x00, 0x00, 0x0c, 0x00, 0x00, 0x00, 0x01, 0x00, 0x00, 0x00,
  0x08, 0x00, 0x00, 0x00, 0x01, 0x00, 0x00, 0x00, 0xc2, 0xd1, 0xff, 0xff,
  0x04, 0x00, 0x00, 0x00, 0x10, 0x00, 0x00, 0x00, 0x01, 0x00, 0x00, 0x00,
  0x01, 0x00, 0x00, 0x00, 0x50, 0x00, 0x00, 0x00, 0x01, 0x00, 0x00, 0x00,
  0xde, 0xd1, 0xff, 0xff, 0x04, 0x00, 0x00, 0x00, 0x18, 0x00, 0x00, 0x00,
  0x00, 0x00, 0x00, 0x00, 0x00, 0x00, 0x00, 0x00, 0x08, 0x00, 0x00, 0x00,
  0x08, 0x00, 0x00, 0x00, 0x00, 0x00, 0x00, 0x00, 0x00, 0x00, 0x00, 0x00,
  0x02, 0xd2, 0xff, 0xff, 0x04, 0x00, 0x00, 0x00, 0x10, 0x00, 0x00, 0x00,
  0x01, 0x00, 0x00, 0x00, 0x01, 0x00, 0x00, 0x00, 0x40, 0x00, 0x00, 0x00,
  0x08, 0x00, 0x00, 0x00, 0x1e, 0xd2, 0xff, 0xff, 0x04, 0x00, 0x00, 0x00,
  0x0c, 0x00, 0x00, 0x00, 0x01, 0x00, 0x00, 0x00, 0x40, 0x00, 0x00, 0x00,
  0x01, 0x00, 0x00, 0x00, 0x36, 0xd2, 0xff, 0xff, 0x04, 0x00, 0x00, 0x00,
  0x10, 0x00, 0x00, 0x00, 0x01, 0x00, 0x00, 0x00, 0x01, 0x00, 0x00, 0x00,
  0x40, 0x00, 0x00, 0x00, 0x01, 0x00, 0x00, 0x00, 0x52, 0xd2, 0xff, 0xff,
  0x04, 0x00, 0x00, 0x00, 0x04, 0x00, 0x00, 0x00, 0xff, 0xff, 0xff, 0xff,
  0x62, 0xd2, 0xff, 0xff, 0x04, 0x00, 0x00, 0x00, 0x0c, 0x00, 0x00, 0x00,
  0x01, 0x00, 0x00, 0x00, 0x40, 0x00, 0x00, 0x00, 0x08, 0x00, 0x00, 0x00,
  0x7a, 0xd2, 0xff, 0xff, 0x04, 0x00, 0x00, 0x00, 0x10, 0x00, 0x00, 0x00,
  0x01, 0x00, 0x00, 0x00, 0x01, 0x00, 0x00, 0x00, 0x38, 0x02, 0x00, 0x00,
  0x01, 0x00, 0x00, 0x00, 0x96, 0xd2, 0xff, 0xff, 0x04, 0x00, 0x00, 0x00,
  0x18, 0x00, 0x00, 0x00, 0x00, 0x00, 0x00, 0x00, 0x00, 0x00, 0x00, 0x00,
  0x1c, 0x00, 0x00, 0x00, 0x1c, 0x00, 0x00, 0x00, 0x00, 0x00, 0x00, 0x00,
  0x00, 0x00, 0x00, 0x00, 0xba, 0xd2, 0xff, 0xff, 0x04, 0x00, 0x00, 0x00,
  0x04, 0x00, 0x00, 0x00, 0x01, 0x00, 0x00, 0x00, 0x10, 0xab, 0xfe, 0xff,
  0x14, 0xab, 0xfe, 0xff, 0x0f, 0x00, 0x00, 0x00, 0x4d, 0x4c, 0x49, 0x52,
  0x20, 0x43, 0x6f, 0x6e, 0x76, 0x65, 0x72, 0x74, 0x65, 0x64, 0x2e, 0x00,
  0x01, 0x00, 0x00, 0x00, 0x14, 0x00, 0x00, 0x00, 0x00, 0x00, 0x0e, 0x00,
  0x18, 0x00, 0x14, 0x00, 0x10, 0x00, 0x0c, 0x00, 0x08, 0x00, 0x04, 0x00,
  0x0e, 0x00, 0x00, 0x00, 0x14, 0x00, 0x00, 0x00, 0x1c, 0x00, 0x00, 0x00,
  0xc8, 0x30, 0x00, 0x00, 0xcc, 0x30, 0x00, 0x00, 0xd0, 0x30, 0x00, 0x00,
  0x04, 0x00, 0x00, 0x00, 0x6d, 0x61, 0x69, 0x6e, 0x00, 0x00, 0x00, 0x00,
  0xf6, 0x00, 0x00, 0x00, 0x90, 0x30, 0x00, 0x00, 0x60, 0x30, 0x00, 0x00,
  0x20, 0x30, 0x00, 0x00, 0xd0, 0x2f, 0x00, 0x00, 0x9c, 0x2f, 0x00, 0x00,
  0x68, 0x2f, 0x00, 0x00, 0x48, 0x2f, 0x00, 0x00, 0x14, 0x2f, 0x00, 0x00,
  0xf0, 0x2e, 0x00, 0x00, 0xbc, 0x2e, 0x00, 0x00, 0x98, 0x2e, 0x00, 0x00,
  0x64, 0x2e, 0x00, 0x00, 0x40, 0x2e, 0x00, 0x00, 0x1c, 0x2e, 0x00, 0x00,
  0xf8, 0x2d, 0x00, 0x00, 0xc4, 0x2d, 0x00, 0x00, 0xa0, 0x2d, 0x00, 0x00,
  0x6c, 0x2d, 0x00, 0x00, 0x44, 0x2d, 0x00, 0x00, 0xf0, 0x2c, 0x00, 0x00,
  0xc8, 0x2c, 0x00, 0x00, 0x6c, 0x2c, 0x00, 0x00, 0x44, 0x2c, 0x00, 0x00,
  0x04, 0x2c, 0x00, 0x00, 0xdc, 0x2b, 0x00, 0x00, 0xb4, 0x2b, 0x00, 0x00,
  0x74, 0x2b, 0x00, 0x00, 0x4c, 0x2b, 0x00, 0x00, 0x24, 0x2b, 0x00, 0x00,
  0xe4, 0x2a, 0x00, 0x00, 0xbc, 0x2a, 0x00, 0x00, 0x94, 0x2a, 0x00, 0x00,
  0x54, 0x2a, 0x00, 0x00, 0x2c, 0x2a, 0x00, 0x00, 0x04, 0x2a, 0x00, 0x00,
  0xc4, 0x29, 0x00, 0x00, 0x9c, 0x29, 0x00, 0x00, 0x74, 0x29, 0x00, 0x00,
  0x34, 0x29, 0x00, 0x00, 0x0c, 0x29, 0x00, 0x00, 0xe4, 0x28, 0x00, 0x00,
  0xa4, 0x28, 0x00, 0x00, 0x7c, 0x28, 0x00, 0x00, 0x54, 0x28, 0x00, 0x00,
  0x14, 0x28, 0x00, 0x00, 0xec, 0x27, 0x00, 0x00, 0x9c, 0x27, 0x00, 0x00,
  0x64, 0x27, 0x00, 0x00, 0x3c, 0x27, 0x00, 0x00, 0xfc, 0x26, 0x00, 0x00,
  0xc4, 0x26, 0x00, 0x00, 0x9c, 0x26, 0x00, 0x00, 0x48, 0x26, 0x00, 0x00,
  0x20, 0x26, 0x00, 0x00, 0xe0, 0x25, 0x00, 0x00, 0xb8, 0x25, 0x00, 0x00,
  0x90, 0x25, 0x00, 0x00, 0x50, 0x25, 0x00, 0x00, 0x28, 0x25, 0x00, 0x00,
  0x00, 0x25, 0x00, 0x00, 0xc0, 0x24, 0x00, 0x00, 0x98, 0x24, 0x00, 0x00,
  0x70, 0x24, 0x00, 0x00, 0x30, 0x24, 0x00, 0x00, 0x08, 0x24, 0x00, 0x00,
  0xe0, 0x23, 0x00, 0x00, 0xa0, 0x23, 0x00, 0x00, 0x78, 0x23, 0x00, 0x00,
  0x50, 0x23, 0x00, 0x00, 0x10, 0x23, 0x00, 0x00, 0xe8, 0x22, 0x00, 0x00,
  0xc0, 0x22, 0x00, 0x00, 0x80, 0x22, 0x00, 0x00, 0x58, 0x22, 0x00, 0x00,
  0x30, 0x22, 0x00, 0x00, 0xf0, 0x21, 0x00, 0x00, 0xc8, 0x21, 0x00, 0x00,
  0x78, 0x21, 0x00, 0x00, 0x40, 0x21, 0x00, 0x00, 0x18, 0x21, 0x00, 0x00,
  0xd8, 0x20, 0x00, 0x00, 0xa0, 0x20, 0x00, 0x00, 0x78, 0x20, 0x00, 0x00,
  0x24, 0x20, 0x00, 0x00, 0xfc, 0x1f, 0x00, 0x00, 0xbc, 0x1f, 0x00, 0x00,
  0x94, 0x1f, 0x00, 0x00, 0x6c, 0x1f, 0x00, 0x00, 0x2c, 0x1f, 0x00, 0x00,
  0x04, 0x1f, 0x00, 0x00, 0xdc, 0x1e, 0x00, 0x00, 0x9c, 0x1e, 0x00, 0x00,
  0x74, 0x1e, 0x00, 0x00, 0x4c, 0x1e, 0x00, 0x00, 0x0c, 0x1e, 0x00, 0x00,
  0xe4, 0x1d, 0x00, 0x00, 0xbc, 0x1d, 0x00, 0x00, 0x7c, 0x1d, 0x00, 0x00,
  0x54, 0x1d, 0x00, 0x00, 0x2c, 0x1d, 0x00, 0x00, 0xec, 0x1c, 0x00, 0x00,
  0xc4, 0x1c, 0x00, 0x00, 0x9c, 0x1c, 0x00, 0x00, 0x5c, 0x1c, 0x00, 0x00,
  0x34, 0x1c, 0x00, 0x00, 0x0c, 0x1c, 0x00, 0x00, 0xcc, 0x1b, 0x00, 0x00,
  0xa4, 0x1b, 0x00, 0x00, 0x54, 0x1b, 0x00, 0x00, 0x1c, 0x1b, 0x00, 0x00,
  0xf4, 0x1a, 0x00, 0x00, 0xb4, 0x1a, 0x00, 0x00, 0x7c, 0x1a, 0x00, 0x00,
  0x54, 0x1a, 0x00, 0x00, 0x20, 0x1a, 0x00, 0x00, 0xcc, 0x19, 0x00, 0x00,
  0xa4, 0x19, 0x00, 0x00, 0x54, 0x19, 0x00, 0x00, 0x2c, 0x19, 0x00, 0x00,
  0x04, 0x19, 0x00, 0x00, 0xc0, 0x18, 0x00, 0x00, 0x98, 0x18, 0x00, 0x00,
  0x70, 0x18, 0x00, 0x00, 0x2c, 0x18, 0x00, 0x00, 0x04, 0x18, 0x00, 0x00,
  0xdc, 0x17, 0x00, 0x00, 0x98, 0x17, 0x00, 0x00, 0x70, 0x17, 0x00, 0x00,
  0x48, 0x17, 0x00, 0x00, 0x04, 0x17, 0x00, 0x00, 0xdc, 0x16, 0x00, 0x00,
  0xb4, 0x16, 0x00, 0x00, 0x70, 0x16, 0x00, 0x00, 0x48, 0x16, 0x00, 0x00,
  0x20, 0x16, 0x00, 0x00, 0xdc, 0x15, 0x00, 0x00, 0xb4, 0x15, 0x00, 0x00,
  0x8c, 0x15, 0x00, 0x00, 0x48, 0x15, 0x00, 0x00, 0x20, 0x15, 0x00, 0x00,
  0xd0, 0x14, 0x00, 0x00, 0x98, 0x14, 0x00, 0x00, 0x70, 0x14, 0x00, 0x00,
  0x20, 0x14, 0x00, 0x00, 0xf8, 0x13, 0x00, 0x00, 0xa4, 0x13, 0x00, 0x00,
  0x7c, 0x13, 0x00, 0x00, 0x3c, 0x13, 0x00, 0x00, 0x14, 0x13, 0x00, 0x00,
  0xec, 0x12, 0x00, 0x00, 0xac, 0x12, 0x00, 0x00, 0x84, 0x12, 0x00, 0x00,
  0x5c, 0x12, 0x00, 0x00, 0x1c, 0x12, 0x00, 0x00, 0xf4, 0x11, 0x00, 0x00,
  0xcc, 0x11, 0x00, 0x00, 0x8c, 0x11, 0x00, 0x00, 0x64, 0x11, 0x00, 0x00,
  0x3c, 0x11, 0x00, 0x00, 0xfc, 0x10, 0x00, 0x00, 0xd4, 0x10, 0x00, 0x00,
  0xac, 0x10, 0x00, 0x00, 0x6c, 0x10, 0x00, 0x00, 0x44, 0x10, 0x00, 0x00,
  0x1c, 0x10, 0x00, 0x00, 0xdc, 0x0f, 0x00, 0x00, 0xb4, 0x0f, 0x00, 0x00,
  0x8c, 0x0f, 0x00, 0x00, 0x4c, 0x0f, 0x00, 0x00, 0x24, 0x0f, 0x00, 0x00,
  0xd4, 0x0e, 0x00, 0x00, 0x9c, 0x0e, 0x00, 0x00, 0x74, 0x0e, 0x00, 0x00,
  0x34, 0x0e, 0x00, 0x00, 0xfc, 0x0d, 0x00, 0x00, 0xd4, 0x0d, 0x00, 0x00,
  0x80, 0x0d, 0x00, 0x00, 0x58, 0x0d, 0x00, 0x00, 0x18, 0x0d, 0x00, 0x00,
  0xf0, 0x0c, 0x00, 0x00, 0xc8, 0x0c, 0x00, 0x00, 0x88, 0x0c, 0x00, 0x00,
  0x60, 0x0c, 0x00, 0x00, 0x38, 0x0c, 0x00, 0x00, 0xf8, 0x0b, 0x00, 0x00,
  0xd0, 0x0b, 0x00, 0x00, 0xa8, 0x0b, 0x00, 0x00, 0x68, 0x0b, 0x00, 0x00,
  0x40, 0x0b, 0x00, 0x00, 0x18, 0x0b, 0x00, 0x00, 0xd8, 0x0a, 0x00, 0x00,
  0xb0, 0x0a, 0x00, 0x00, 0x88, 0x0a, 0x00, 0x00, 0x48, 0x0a, 0x00, 0x00,
  0x20, 0x0a, 0x00, 0x00, 0xf8, 0x09, 0x00, 0x00, 0xb8, 0x09, 0x00, 0x00,
  0x90, 0x09, 0x00, 0x00, 0x68, 0x09, 0x00, 0x00, 0x28, 0x09, 0x00, 0x00,
  0x00, 0x09, 0x00, 0x00, 0xb0, 0x08, 0x00, 0x00, 0x78, 0x08, 0x00, 0x00,
  0x50, 0x08, 0x00, 0x00, 0x10, 0x08, 0x00, 0x00, 0xd8, 0x07, 0x00, 0x00,
  0xb0, 0x07, 0x00, 0x00, 0x5c, 0x07, 0x00, 0x00, 0x34, 0x07, 0x00, 0x00,
  0xf4, 0x06, 0x00, 0x00, 0xcc, 0x06, 0x00, 0x00, 0xa4, 0x06, 0x00, 0x00,
  0x64, 0x06, 0x00, 0x00, 0x3c, 0x06, 0x00, 0x00, 0x14, 0x06, 0x00, 0x00,
  0xd4, 0x05, 0x00, 0x00, 0xac, 0x05, 0x00, 0x00, 0x84, 0x05, 0x00, 0x00,
  0x44, 0x05, 0x00, 0x00, 0x1c, 0x05, 0x00, 0x00, 0xf4, 0x04, 0x00, 0x00,
  0xb4, 0x04, 0x00, 0x00, 0x8c, 0x04, 0x00, 0x00, 0x64, 0x04, 0x00, 0x00,
  0x24, 0x04, 0x00, 0x00, 0xfc, 0x03, 0x00, 0x00, 0xd4, 0x03, 0x00, 0x00,
  0x94, 0x03, 0x00, 0x00, 0x6c, 0x03, 0x00, 0x00, 0x44, 0x03, 0x00, 0x00,
  0x04, 0x03, 0x00, 0x00, 0xdc, 0x02, 0x00, 0x00, 0x8c, 0x02, 0x00, 0x00,
  0x54, 0x02, 0x00, 0x00, 0x2c, 0x02, 0x00, 0x00, 0xec, 0x01, 0x00, 0x00,
  0xb4, 0x01, 0x00, 0x00, 0x70, 0x01, 0x00, 0x00, 0x48, 0x01, 0x00, 0x00,
  0x10, 0x01, 0x00, 0x00, 0xe8, 0x00, 0x00, 0x00, 0xc4, 0x00, 0x00, 0x00,
  0x80, 0x00, 0x00, 0x00, 0x60, 0x00, 0x00, 0x00, 0x28, 0x00, 0x00, 0x00,
  0x04, 0x00, 0x00, 0x00, 0x7e, 0xd3, 0xff, 0xff, 0x0c, 0x00, 0x00, 0x00,
  0x10, 0x00, 0x00, 0x00, 0x04, 0x00, 0x00, 0x00, 0x01, 0x00, 0x00, 0x00,
  0xc2, 0x01, 0x00, 0x00, 0x01, 0x00, 0x00, 0x00, 0xc1, 0x01, 0x00, 0x00,
  0xde, 0xd3, 0xff, 0xff, 0x14, 0x00, 0x00, 0x00, 0x00, 0x00, 0x00, 0x08,
  0x10, 0x00, 0x00, 0x00, 0x14, 0x00, 0x00, 0x00, 0x0f, 0x00, 0x00, 0x00,
  0x7c, 0xaf, 0xfe, 0xff, 0x01, 0x00, 0x00, 0x00, 0xc1, 0x01, 0x00, 0x00,
  0x03, 0x00, 0x00, 0x00, 0xc0, 0x01, 0x00, 0x00, 0x12, 0x00, 0x00, 0x00,
  0x11, 0x00, 0x00, 0x00, 0xa6, 0xd3, 0xff, 0xff, 0x08, 0x00, 0x00, 0x00,
  0x0c, 0x00, 0x00, 0x00, 0x01, 0x00, 0x00, 0x00, 0xc0, 0x01, 0x00, 0x00,
  0x01, 0x00, 0x00, 0x00, 0xbf, 0x01, 0x00, 0x00, 0x2e, 0xd4, 0xff, 0xff,
  0x14, 0x00, 0x00, 0x00, 0x00, 0x00, 0x00, 0x0a, 0x14, 0x00, 0x00, 0x00,
  0x18, 0x00, 0x00, 0x00, 0x0d, 0x00, 0x00, 0x00, 0x86, 0xd7, 0xff, 0xff,
  0x01, 0x00, 0x00, 0x00, 0x01, 0x00, 0x00, 0x00, 0xbf, 0x01, 0x00, 0x00,
  0x05, 0x00, 0x00, 0x00, 0xbe, 0x01, 0x00, 0x00, 0xa6, 0x00, 0x00, 0x00,
  0xa4, 0x00, 0x00, 0x00, 0xa9, 0x00, 0x00, 0x00, 0xac, 0x00, 0x00, 0x00,
  0x2e, 0xd4, 0xff, 0xff, 0x0c, 0x00, 0x00, 0x00, 0x10, 0x00, 0x00, 0x00,
  0x04, 0x00, 0x00, 0x00, 0x01, 0x00, 0x00, 0x00, 0xbe, 0x01, 0x00, 0x00,
  0x01, 0x00, 0x00, 0x00, 0xbd, 0x01, 0x00, 0x00, 0x4e, 0xd4, 0xff, 0xff,
  0x0c, 0x00, 0x00, 0x00, 0x10, 0x00, 0x00, 0x00, 0x0a, 0x00, 0x00, 0x00,
  0x01, 0x00, 0x00, 0x00, 0xbd, 0x01, 0x00, 0x00, 0x02, 0x00, 0x00, 0x00,
  0xbc, 0x01, 0x00, 0x00, 0x10, 0x00, 0x00, 0x00, 0xb2, 0xd4, 0xff, 0xff,
  0x14, 0x00, 0x00, 0x00, 0x00, 0x00, 0x00, 0x1b, 0x14, 0x00, 0x00, 0x00,
  0x18, 0x00, 0x00, 0x00, 0x06, 0x00, 0x00, 0x00, 0xee, 0xd4, 0xff, 0xff,
  0x00, 0x00, 0x00, 0x01, 0x01, 0x00, 0x00, 0x00, 0xbc, 0x01, 0x00, 0x00,
  0x02, 0x00, 0x00, 0x00, 0xbb, 0x01, 0x00, 0x00, 0x0f, 0x00, 0x00, 0x00,
  0xa6, 0xd4, 0xff, 0xff, 0x0c, 0x00, 0x00, 0x00, 0x10, 0x00, 0x00, 0x00,
  0x0a, 0x00, 0x00, 0x00, 0x01, 0x00, 0x00, 0x00, 0xbb, 0x01, 0x00, 0x00,
  0x02, 0x00, 0x00, 0x00, 0xba, 0x01, 0x00, 0x00, 0x0d, 0x00, 0x00, 0x00,
  0x0a, 0xd5, 0xff, 0xff, 0x14, 0x00, 0x00, 0x00, 0x00, 0x00, 0x00, 0x01,
  0x1c, 0x00, 0x00, 0x00, 0x20, 0x00, 0x00, 0x00, 0x0b, 0x00, 0x00, 0x00,
  0xc8, 0xee, 0xff, 0xff, 0x00, 0x00, 0x00, 0x01, 0x01, 0x00, 0x00, 0x00,
  0x01, 0x00, 0x00, 0x00, 0x01, 0x00, 0x00, 0x00, 0xba, 0x01, 0x00, 0x00,
  0x03, 0x00, 0x00, 0x00, 0xb9, 0x01, 0x00, 0x00, 0x14, 0x00, 0x00, 0x00,
  0x13, 0x00, 0x00, 0x00, 0x4a, 0xd5, 0xff, 0xff, 0x14, 0x00, 0x00, 0x00,
  0x00, 0x00, 0x00, 0x0b, 0x14, 0x00, 0x00, 0x00, 0x18, 0x00, 0x00, 0x00,
  0x0e, 0x00, 0x00, 0x00, 0x86, 0xd5, 0xff, 0xff, 0x00, 0x00, 0x00, 0x01,
  0x01, 0x00, 0x00, 0x00, 0xb9, 0x01, 0x00, 0x00, 0x02, 0x00, 0x00, 0x00,
  0x93, 0x01, 0x00, 0x00, 0xb8, 0x01, 0x00, 0x00, 0x7e, 0xd5, 0xff, 0xff,
  0x14, 0x00, 0x00, 0x00, 0x00, 0x00, 0x00, 0x01, 0x18, 0x00, 0x00, 0x00,
  0x1c, 0x00, 0x00, 0x00, 0x0b, 0x00, 0x00, 0x00, 0x2a, 0xd5, 0xff, 0xff,
  0x01, 0x00, 0x00, 0x00, 0x01, 0x00, 0x00, 0x00, 0x01, 0x00, 0x00, 0x00,
  0xb8, 0x01, 0x00, 0x00, 0x03, 0x00, 0x00, 0x00, 0xb7, 0x01, 0x00, 0x00,
  0x16, 0x00, 0x00, 0x00, 0x15, 0x00, 0x00, 0x00, 0x7a, 0xd5, 0xff, 0xff,
  0x0c, 0x00, 0x00, 0x00, 0x10, 0x00, 0x00, 0x00, 0x0a, 0x00, 0x00, 0x00,
  0x01, 0x00, 0x00, 0x00, 0xb7, 0x01, 0x00, 0x00, 0x02, 0x00, 0x00, 0x00,
  0xb6, 0x01, 0x00, 0x00, 0x0c, 0x00, 0x00, 0x00, 0xde, 0xd5, 0xff, 0xff,
  0x14, 0x00, 0x00, 0x00, 0x00, 0x00, 0x00, 0x0b, 0x14, 0x00, 0x00, 0x00,
  0x18, 0x00, 0x00, 0x00, 0x0e, 0x00, 0x00, 0x00, 0x1a, 0xd6, 0xff, 0xff,
  0x00, 0x00, 0x00, 0x01, 0x01, 0x00, 0x00, 0x00, 0xb6, 0x01, 0x00, 0x00,
  0x02, 0x00, 0x00, 0x00, 0xb5, 0x01, 0x00, 0x00, 0x17, 0x00, 0x00, 0x00,
  0x12, 0xd6, 0xff, 0xff, 0x14, 0x00, 0x00, 0x00, 0x00, 0x00, 0x00, 0x0a,
  0x14, 0x00, 0x00, 0x00, 0x18, 0x00, 0x00, 0x00, 0x0d, 0x00, 0x00, 0x00,
  0x6a, 0xd9, 0xff, 0xff, 0xff, 0xff, 0xff, 0xff, 0x01, 0x00, 0x00, 0x00,
  0xb5, 0x01, 0x00, 0x00, 0x08, 0x00, 0x00, 0x00, 0x9f, 0x01, 0x00, 0x00,
  0xa2, 0x01, 0x00, 0x00, 0xa5, 0x01, 0x00, 0x00, 0xa8, 0x01, 0x00, 0x00,
  0xab, 0x01, 0x00, 0x00, 0xae, 0x01, 0x00, 0x00, 0xb1, 0x01, 0x00, 0x00,
  0xb4, 0x01, 0x00, 0x00, 0x1e, 0xd6, 0xff, 0xff, 0x0c, 0x00, 0x00, 0x00,
  0x10, 0x00, 0x00, 0x00, 0x0a, 0x00, 0x00, 0x00, 0x01, 0x00, 0x00, 0x00,
  0xb4, 0x01, 0x00, 0x00, 0x02, 0x00, 0x00, 0x00, 0xb3, 0x01, 0x00, 0x00,
  0x0b, 0x00, 0x00, 0x00, 0x82, 0xd6, 0xff, 0xff, 0x14, 0x00, 0x00, 0x00,
  0x00, 0x00, 0x00, 0x01, 0x18, 0x00, 0x00, 0x00, 0x1c, 0x00, 0x00, 0x00,
  0x0b, 0x00, 0x00, 0x00, 0x2e, 0xd6, 0xff, 0xff, 0x01, 0x00, 0x00, 0x00,
  0x01, 0x00, 0x00, 0x00, 0x01, 0x00, 0x00, 0x00, 0xb3, 0x01, 0x00, 0x00,
  0x03, 0x00, 0x00, 0x00, 0xb2, 0x01, 0x00, 0x00, 0x18, 0x00, 0x00, 0x00,
  0x98, 0x00, 0x00, 0x00, 0x7e, 0xd6, 0xff, 0xff, 0x0c, 0x00, 0x00, 0x00,
  0x10, 0x00, 0x00, 0x00, 0x0a, 0x00, 0x00, 0x00, 0x01, 0x00, 0x00, 0x00,
  0xb2, 0x01, 0x00, 0x00, 0x02, 0x00, 0x00, 0x00, 0x9c, 0x01, 0x00, 0x00,
  0x0e, 0x00, 0x00, 0x00, 0xa2, 0xd6, 0xff, 0xff, 0x0c, 0x00, 0x00, 0x00,
  0x10, 0x00, 0x00, 0x00, 0x0a, 0x00, 0x00, 0x00, 0x01, 0x00, 0x00, 0x00,
  0xb1, 0x01, 0x00, 0x00, 0x02, 0x00, 0x00, 0x00, 0xb0, 0x01, 0x00, 0x00,
  0x0b, 0x00, 0x00, 0x00, 0x06, 0xd7, 0xff, 0xff, 0x14, 0x00, 0x00, 0x00,
  0x00, 0x00, 0x00, 0x01, 0x18, 0x00, 0x00, 0x00, 0x1c, 0x00, 0x00, 0x00,
  0x0b, 0x00, 0x00, 0x00, 0xb2, 0xd6, 0xff, 0xff, 0x01, 0x00, 0x00, 0x00,
  0x01, 0x00, 0x00, 0x00, 0x01, 0x00, 0x00, 0x00, 0xb0, 0x01, 0x00, 0x00,
  0x03, 0x00, 0x00, 0x00, 0xaf, 0x01, 0x00, 0x00, 0x19, 0x00, 0x00, 0x00,
  0x97, 0x00, 0x00, 0x00, 0x02, 0xd7, 0xff, 0xff, 0x0c, 0x00, 0x00, 0x00,
  0x10, 0x00, 0x00, 0x00, 0x0a, 0x00, 0x00, 0x00, 0x01, 0x00, 0x00, 0x00,
  0xaf, 0x01, 0x00, 0x00, 0x02, 0x00, 0x00, 0x00, 0x9b, 0x01, 0x00, 0x00,
  0x0e, 0x00, 0x00, 0x00, 0x26, 0xd7, 0xff, 0xff, 0x0c, 0x00, 0x00, 0x00,
  0x10, 0x00, 0x00, 0x00, 0x0a, 0x00, 0x00, 0x00, 0x01, 0x00, 0x00, 0x00,
  0xae, 0x01, 0x00, 0x00, 0x02, 0x00, 0x00, 0x00, 0xad, 0x01, 0x00, 0x00,
  0x0b, 0x00, 0x00, 0x00, 0x8a, 0xd7, 0xff, 0xff, 0x14, 0x00, 0x00, 0x00,
  0x00, 0x00, 0x00, 0x01, 0x18, 0x00, 0x00, 0x00, 0x1c, 0x00, 0x00, 0x00,
  0x0b, 0x00, 0x00, 0x00, 0x36, 0xd7, 0xff, 0xff, 0x01, 0x00, 0x00, 0x00,
  0x01, 0x00, 0x00, 0x00, 0x01, 0x00, 0x00, 0x00, 0xad, 0x01, 0x00, 0x00,
  0x03, 0x00, 0x00, 0x00, 0xac, 0x01, 0x00, 0x00, 0x1a, 0x00, 0x00, 0x00,
  0x96, 0x00, 0x00, 0x00, 0x86, 0xd7, 0xff, 0xff, 0x0c, 0x00, 0x00, 0x00,
  0x10, 0x00, 0x00, 0x00, 0x0a, 0x00, 0x00, 0x00, 0x01, 0x00, 0x00, 0x00,
  0xac, 0x01, 0x00, 0x00, 0x02, 0x00, 0x00, 0x00, 0x9a, 0x01, 0x00, 0x00,
  0x0e, 0x00, 0x00, 0x00, 0xaa, 0xd7, 0xff, 0xff, 0x0c, 0x00, 0x00, 0x00,
  0x10, 0x00, 0x00, 0x00, 0x0a, 0x00, 0x00, 0x00, 0x01, 0x00, 0x00, 0x00,
  0xab, 0x01, 0x00, 0x00, 0x02, 0x00, 0x00, 0x00, 0xaa, 0x01, 0x00, 0x00,
  0x0b, 0x00, 0x00, 0x00, 0x0e, 0xd8, 0xff, 0xff, 0x14, 0x00, 0x00, 0x00,
  0x00, 0x00, 0x00, 0x01, 0x18, 0x00, 0x00, 0x00, 0x1c, 0x00, 0x00, 0x00,
  0x0b, 0x00, 0x00, 0x00, 0xba, 0xd7, 0xff, 0xff, 0x01, 0x00, 0x00, 0x00,
  0x01, 0x00, 0x00, 0x00, 0x01, 0x00, 0x00, 0x00, 0xaa, 0x01, 0x00, 0x00,
  0x03, 0x00, 0x00, 0x00, 0xa9, 0x01, 0x00, 0x00, 0x1b, 0x00, 0x00, 0x00,
  0x95, 0x00, 0x00, 0x00, 0x0a, 0xd8, 0xff, 0xff, 0x0c, 0x00, 0x00, 0x00,
  0x10, 0x00, 0x00, 0x00, 0x0a, 0x00, 0x00, 0x00, 0x01, 0x00, 0x00, 0x00,
  0xa9, 0x01, 0x00, 0x00, 0x02, 0x00, 0x00, 0x00, 0x99, 0x01, 0x00, 0x00,
  0x0e, 0x00, 0x00, 0x00, 0x2e, 0xd8, 0xff, 0xff, 0x0c, 0x00, 0x00, 0x00,
  0x10, 0x00, 0x00, 0x00, 0x0a, 0x00, 0x00, 0x00, 0x01, 0x00, 0x00, 0x00,
  0xa8, 0x01, 0x00, 0x00, 0x02, 0x00, 0x00, 0x00, 0xa7, 0x01, 0x00, 0x00,
  0x0b, 0x00, 0x00, 0x00, 0x92, 0xd8, 0xff, 0xff, 0x14, 0x00, 0x00, 0x00,
  0x00, 0x00, 0x00, 0x01, 0x18, 0x00, 0x00, 0x00, 0x1c, 0x00, 0x00, 0x00,
  0x0b, 0x00, 0x00, 0x00, 0x3e, 0xd8, 0xff, 0xff, 0x01, 0x00, 0x00, 0x00,
  0x01, 0x00, 0x00, 0x00, 0x01, 0x00, 0x00, 0x00, 0xa7, 0x01, 0x00, 0x00,
  0x03, 0x00, 0x00, 0x00, 0xa6, 0x01, 0x00, 0x00, 0x1c, 0x00, 0x00, 0x00,
  0x94, 0x00, 0x00, 0x00, 0x8e, 0xd8, 0xff, 0xff, 0x0c, 0x00, 0x00, 0x00,
  0x10, 0x00, 0x00, 0x00, 0x0a, 0x00, 0x00, 0x00, 0x01, 0x00, 0x00, 0x00,
  0xa6, 0x01, 0x00, 0x00, 0x02, 0x00, 0x00, 0x00, 0x98, 0x01, 0x00, 0x00,
  0x0e, 0x00, 0x00, 0x00, 0xb2, 0xd8, 0xff, 0xff, 0x0c, 0x00, 0x00, 0x00,
  0x10, 0x00, 0x00, 0x00, 0x0a, 0x00, 0x00, 0x00, 0x01, 0x00, 0x00, 0x00,
  0xa5, 0x01, 0x00, 0x00, 0x02, 0x00, 0x00, 0x00, 0xa4, 0x01, 0x00, 0x00,
  0x0b, 0x00, 0x00, 0x00, 0x16, 0xd9, 0xff, 0xff, 0x14, 0x00, 0x00, 0x00,
  0x00, 0x00, 0x00, 0x01, 0x18, 0x00, 0x00, 0x00, 0x1c, 0x00, 0x00, 0x00,
  0x0b, 0x00, 0x00, 0x00, 0xc2, 0xd8, 0xff, 0xff, 0x01, 0x00, 0x00, 0x00,
  0x01, 0x00, 0x00, 0x00, 0x01, 0x00, 0x00, 0x00, 0xa4, 0x01, 0x00, 0x00,
  0x03, 0x00, 0x00, 0x00, 0xa3, 0x01, 0x00, 0x00, 0x1d, 0x00, 0x00, 0x00,
  0x93, 0x00, 0x00, 0x00, 0x12, 0xd9, 0xff, 0xff, 0x0c, 0x00, 0x00, 0x00,
  0x10, 0x00, 0x00, 0x00, 0x0a, 0x00, 0x00, 0x00, 0x01, 0x00, 0x00, 0x00,
  0xa3, 0x01, 0x00, 0x00, 0x02, 0x00, 0x00, 0x00, 0x97, 0x01, 0x00, 0x00,
  0x0e, 0x00, 0x00, 0x00, 0x36, 0xd9, 0xff, 0xff, 0x0c, 0x00, 0x00, 0x00,
  0x10, 0x00, 0x00, 0x00, 0x0a, 0x00, 0x00, 0x00, 0x01, 0x00, 0x00, 0x00,
  0xa2, 0x01, 0x00, 0x00, 0x02, 0x00, 0x00, 0x00, 0xa1, 0x01, 0x00, 0x00,
  0x0b, 0x00, 0x00, 0x00, 0x9a, 0xd9, 0xff, 0xff, 0x14, 0x00, 0x00, 0x00,
  0x00, 0x00, 0x00, 0x01, 0x18, 0x00, 0x00, 0x00, 0x1c, 0x00, 0x00, 0x00,
  0x0b, 0x00, 0x00, 0x00, 0x46, 0xd9, 0xff, 0xff, 0x01, 0x00, 0x00, 0x00,
  0x01, 0x00, 0x00, 0x00, 0x01, 0x00, 0x00, 0x00, 0xa1, 0x01, 0x00, 0x00,
  0x03, 0x00, 0x00, 0x00, 0xa0, 0x01, 0x00, 0x00, 0x1e, 0x00, 0x00, 0x00,
  0x92, 0x00, 0x00, 0x00, 0x96, 0xd9, 0xff, 0xff, 0x0c, 0x00, 0x00, 0x00,
  0x10, 0x00, 0x00, 0x00, 0x0a, 0x00, 0x00, 0x00, 0x01, 0x00, 0x00, 0x00,
  0xa0, 0x01, 0x00, 0x00, 0x02, 0x00, 0x00, 0x00, 0x96, 0x01, 0x00, 0x00,
  0x0e, 0x00, 0x00, 0x00, 0xba, 0xd9, 0xff, 0xff, 0x0c, 0x00, 0x00, 0x00,
  0x10, 0x00, 0x00, 0x00, 0x0a, 0x00, 0x00, 0x00, 0x01, 0x00, 0x00, 0x00,
  0x9f, 0x01, 0x00, 0x00, 0x02, 0x00, 0x00, 0x00, 0x9e, 0x01, 0x00, 0x00,
  0x0b, 0x00, 0x00, 0x00, 0x1e, 0xda, 0xff, 0xff, 0x14, 0x00, 0x00, 0x00,
  0x00, 0x00, 0x00, 0x01, 0x18, 0x00, 0x00, 0x00, 0x1c, 0x00, 0x00, 0x00,
  0x0b, 0x00, 0x00, 0x00, 0xca, 0xd9, 0xff, 0xff, 0x01, 0x00, 0x00, 0x00,
  0x01, 0x00, 0x00, 0x00, 0x01, 0x00, 0x00, 0x00, 0x9e, 0x01, 0x00, 0x00,
  0x03, 0x00, 0x00, 0x00, 0x9d, 0x01, 0x00, 0x00, 0x1f, 0x00, 0x00, 0x00,
  0x91, 0x00, 0x00, 0x00, 0x1a, 0xda, 0xff, 0xff, 0x0c, 0x00, 0x00, 0x00,
  0x10, 0x00, 0x00, 0x00, 0x0a, 0x00, 0x00, 0x00, 0x01, 0x00, 0x00, 0x00,
  0x9d, 0x01, 0x00, 0x00, 0x02, 0x00, 0x00, 0x00, 0x95, 0x01, 0x00, 0x00,
  0x0e, 0x00, 0x00, 0x00, 0x7e, 0xda, 0xff, 0xff, 0x14, 0x00, 0x00, 0x00,
  0x00, 0x00, 0x00, 0x23, 0x14, 0x00, 0x00, 0x00, 0x34, 0x00, 0x00, 0x00,
  0x0c, 0x00, 0x00, 0x00, 0xd6, 0xdd, 0xff, 0xff, 0x08, 0x00, 0x00, 0x00,
  0x08, 0x00, 0x00, 0x00, 0x95, 0x01, 0x00, 0x00, 0x96, 0x01, 0x00, 0x00,
  0x97, 0x01, 0x00, 0x00, 0x98, 0x01, 0x00, 0x00, 0x99, 0x01, 0x00, 0x00,
  0x9a, 0x01, 0x00, 0x00, 0x9b, 0x01, 0x00, 0x00, 0x9c, 0x01, 0x00, 0x00,
  0x02, 0x00, 0x00, 0x00, 0x05, 0x00, 0x00, 0x00, 0x94, 0x01, 0x00, 0x00,
  0x8e, 0xda, 0xff, 0xff, 0x0c, 0x00, 0x00, 0x00, 0x10, 0x00, 0x00, 0x00,
  0x0a, 0x00, 0x00, 0x00, 0x01, 0x00, 0x00, 0x00, 0x94, 0x01, 0x00, 0x00,
  0x02, 0x00, 0x00, 0x00, 0x93, 0x01, 0x00, 0x00, 0x0d, 0x00, 0x00, 0x00,
  0xf2, 0xda, 0xff, 0xff, 0x14, 0x00, 0x00, 0x00, 0x00, 0x00, 0x00, 0x0b,
  0x14, 0x00, 0x00, 0x00, 0x18, 0x00, 0x00, 0x00, 0x0e, 0x00, 0x00, 0x00,
  0x2e, 0xdb, 0xff, 0xff, 0x00, 0x00, 0x00, 0x01, 0x01, 0x00, 0x00, 0x00,
  0x93, 0x01, 0x00, 0x00, 0x02, 0x00, 0x00, 0x00, 0x6d, 0x01, 0x00, 0x00,
  0x92, 0x01, 0x00, 0x00, 0x26, 0xdb, 0xff, 0xff, 0x14, 0x00, 0x00, 0x00,
  0x00, 0x00, 0x00, 0x01, 0x18, 0x00, 0x00, 0x00, 0x1c, 0x00, 0x00, 0x00,
  0x0b, 0x00, 0x00, 0x00, 0xd2, 0xda, 0xff, 0xff, 0x01, 0x00, 0x00, 0x00,
  0x01, 0x00, 0x00, 0x00, 0x01, 0x00, 0x00, 0x00, 0x92, 0x01, 0x00, 0x00,
  0x03, 0x00, 0x00, 0x00, 0x91, 0x01, 0x00, 0x00, 0x21, 0x00, 0x00, 0x00,
  0x20, 0x00, 0x00, 0x00, 0x22, 0xdb, 0xff, 0xff, 0x0c, 0x00, 0x00, 0x00,
  0x10, 0x00, 0x00, 0x00, 0x0a, 0x00, 0x00, 0x00, 0x01, 0x00, 0x00, 0x00,
  0x91, 0x01, 0x00, 0x00, 0x02, 0x00, 0x00, 0x00, 0x90, 0x01, 0x00, 0x00,
  0x0c, 0x00, 0x00, 0x00, 0x86, 0xdb, 0xff, 0xff, 0x14, 0x00, 0x00, 0x00,
  0x00, 0x00, 0x00, 0x0b, 0x14, 0x00, 0x00, 0x00, 0x18, 0x00, 0x00, 0x00,
  0x0e, 0x00, 0x00, 0x00, 0xc2, 0xdb, 0xff, 0xff, 0x00, 0x00, 0x00, 0x01,
  0x01, 0x00, 0x00, 0x00, 0x90, 0x01, 0x00, 0x00, 0x02, 0x00, 0x00, 0x00,
  0x8f, 0x01, 0x00, 0x00, 0x22, 0x00, 0x00, 0x00, 0xba, 0xdb, 0xff, 0xff,
  0x14, 0x00, 0x00, 0x00, 0x00, 0x00, 0x00, 0x0a, 0x14, 0x00, 0x00, 0x00,
  0x18, 0x00, 0x00, 0x00, 0x0d, 0x00, 0x00, 0x00, 0x12, 0xdf, 0xff, 0xff,
  0xff, 0xff, 0xff, 0xff, 0x01, 0x00, 0x00, 0x00, 0x8f, 0x01, 0x00, 0x00,
  0x08, 0x00, 0x00, 0x00, 0x79, 0x01, 0x00, 0x00, 0x7c, 0x01, 0x00, 0x00,
  0x7f, 0x01, 0x00, 0x00, 0x82, 0x01, 0x00, 0x00, 0x85, 0x01, 0x00, 0x00,
  0x88, 0x01, 0x00, 0x00, 0x8b, 0x01, 0x00, 0x00, 0x8e, 0x01, 0x00, 0x00,
  0xc6, 0xdb, 0xff, 0xff, 0x0c, 0x00, 0x00, 0x00, 0x10, 0x00, 0x00, 0x00,
  0x0a, 0x00, 0x00, 0x00, 0x01, 0x00, 0x00, 0x00, 0x8e, 0x01, 0x00, 0x00,
  0x02, 0x00, 0x00, 0x00, 0x8d, 0x01, 0x00, 0x00, 0x0b, 0x00, 0x00, 0x00,
  0x2a, 0xdc, 0xff, 0xff, 0x14, 0x00, 0x00, 0x00, 0x00, 0x00, 0x00, 0x01,
  0x18, 0x00, 0x00, 0x00, 0x1c, 0x00, 0x00, 0x00, 0x0b, 0x00, 0x00, 0x00,
  0xd6, 0xdb, 0xff, 0xff, 0x01, 0x00, 0x00, 0x00, 0x01, 0x00, 0x00, 0x00,
  0x01, 0x00, 0x00, 0x00, 0x8d, 0x01, 0x00, 0x00, 0x03, 0x00, 0x00, 0x00,
  0x8c, 0x01, 0x00, 0x00, 0x23, 0x00, 0x00, 0x00, 0x90, 0x00, 0x00, 0x00,
  0x26, 0xdc, 0xff, 0xff, 0x0c, 0x00, 0x00, 0x00, 0x10, 0x00, 0x00, 0x00,
  0x0a, 0x00, 0x00, 0x00, 0x01, 0x00, 0x00, 0x00, 0x8c, 0x01, 0x00, 0x00,
  0x02, 0x00, 0x00, 0x00, 0x76, 0x01, 0x00, 0x00, 0x0e, 0x00, 0x00, 0x00,
  0x4a, 0xdc, 0xff, 0xff, 0x0c, 0x00, 0x00, 0x00, 0x10, 0x00, 0x00, 0x00,
  0x0a, 0x00, 0x00, 0x00, 0x01, 0x00, 0x00, 0x00, 0x8b, 0x01, 0x00, 0x00,
  0x02, 0x00, 0x00, 0x00, 0x8a, 0x01, 0x00, 0x00, 0x0b, 0x00, 0x00, 0x00,
  0xae, 0xdc, 0xff, 0xff, 0x14, 0x00, 0x00, 0x00, 0x00, 0x00, 0x00, 0x01,
  0x18, 0x00, 0x00, 0x00, 0x1c, 0x00, 0x00, 0x00, 0x0b, 0x00, 0x00, 0x00,
  0x5a, 0xdc, 0xff, 0xff, 0x01, 0x00, 0x00, 0x00, 0x01, 0x00, 0x00, 0x00,
  0x01, 0x00, 0x00, 0x00, 0x8a, 0x01, 0x00, 0x00, 0x03, 0x00, 0x00, 0x00,
  0x89, 0x01, 0x00, 0x00, 0x24, 0x00, 0x00, 0x00, 0x8f, 0x00, 0x00, 0x00,
  0xaa, 0xdc, 0xff, 0xff, 0x0c, 0x00, 0x00, 0x00, 0x10, 0x00, 0x00, 0x00,
  0x0a, 0x00, 0x00, 0x00, 0x01, 0x00, 0x00, 0x00, 0x89, 0x01, 0x00, 0x00,
  0x02, 0x00, 0x00, 0x00, 0x75, 0x01, 0x00, 0x00, 0x0e, 0x00, 0x00, 0x00,
  0xce, 0xdc, 0xff, 0xff, 0x0c, 0x00, 0x00, 0x00, 0x10, 0x00, 0x00, 0x00,
  0x0a, 0x00, 0x00, 0x00, 0x01, 0x00, 0x00, 0x00, 0x88, 0x01, 0x00, 0x00,
  0x02, 0x00, 0x00, 0x00, 0x87, 0x01, 0x00, 0x00, 0x0b, 0x00, 0x00, 0x00,
  0x32, 0xdd, 0xff, 0xff, 0x14, 0x00, 0x00, 0x00, 0x00, 0x00, 0x00, 0x01,
  0x18, 0x00, 0x00, 0x00, 0x1c, 0x00, 0x00, 0x00, 0x0b, 0x00, 0x00, 0x00,
  0xde, 0xdc, 0xff, 0xff, 0x01, 0x00, 0x00, 0x00, 0x01, 0x00, 0x00, 0x00,
  0x01, 0x00, 0x00, 0x00, 0x87, 0x01, 0x00, 0x00, 0x03, 0x00, 0x00, 0x00,
  0x86, 0x01, 0x00, 0x00, 0x25, 0x00, 0x00, 0x00, 0x8e, 0x00, 0x00, 0x00,
  0x2e, 0xdd, 0xff, 0xff, 0x0c, 0x00, 0x00, 0x00, 0x10, 0x00, 0x00, 0x00,
  0x0a, 0x00, 0x00, 0x00, 0x01, 0x00, 0x00, 0x00, 0x86, 0x01, 0x00, 0x00,
  0x02, 0x00, 0x00, 0x00, 0x74, 0x01, 0x00, 0x00, 0x0e, 0x00, 0x00, 0x00,
  0x52, 0xdd, 0xff, 0xff, 0x0c, 0x00, 0x00, 0x00, 0x10, 0x00, 0x00, 0x00,
  0x0a, 0x00, 0x00, 0x00, 0x01, 0x00, 0x00, 0x00, 0x85, 0x01, 0x00, 0x00,
  0x02, 0x00, 0x00, 0x00, 0x84, 0x01, 0x00, 0x00, 0x0b, 0x00, 0x00, 0x00,
  0xb6, 0xdd, 0xff, 0xff, 0x14, 0x00, 0x00, 0x00, 0x00, 0x00, 0x00, 0x01,
  0x18, 0x00, 0x00, 0x00, 0x1c, 0x00, 0x00, 0x00, 0x0b, 0x00, 0x00, 0x00,
  0x62, 0xdd, 0xff, 0xff, 0x01, 0x00, 0x00, 0x00, 0x01, 0x00, 0x00, 0x00,
  0x01, 0x00, 0x00, 0x00, 0x84, 0x01, 0x00, 0x00, 0x03, 0x00, 0x00, 0x00,
  0x83, 0x01, 0x00, 0x00, 0x26, 0x00, 0x00, 0x00, 0x8d, 0x00, 0x00, 0x00,
  0xb2, 0xdd, 0xff, 0xff, 0x0c, 0x00, 0x00, 0x00, 0x10, 0x00, 0x00, 0x00,
  0x0a, 0x00, 0x00, 0x00, 0x01, 0x00, 0x00, 0x00, 0x83, 0x01, 0x00, 0x00,
  0x02, 0x00, 0x00, 0x00, 0x73, 0x01, 0x00, 0x00, 0x0e, 0x00, 0x00, 0x00,
  0xd6, 0xdd, 0xff, 0xff, 0x0c, 0x00, 0x00, 0x00, 0x10, 0x00, 0x00, 0x00,
  0x0a, 0x00, 0x00, 0x00, 0x01, 0x00, 0x00, 0x00, 0x82, 0x01, 0x00, 0x00,
  0x02, 0x00, 0x00, 0x00, 0x81, 0x01, 0x00, 0x00, 0x0b, 0x00, 0x00, 0x00,
  0x3a, 0xde, 0xff, 0xff, 0x14, 0x00, 0x00, 0x00, 0x00, 0x00, 0x00, 0x01,
  0x18, 0x00, 0x00, 0x00, 0x1c, 0x00, 0x00, 0x00, 0x0b, 0x00, 0x00, 0x00,
  0xe6, 0xdd, 0xff, 0xff, 0x01, 0x00, 0x00, 0x00, 0x01, 0x00, 0x00, 0x00,
  0x01, 0x00, 0x00, 0x00, 0x81, 0x01, 0x00, 0x00, 0x03, 0x00, 0x00, 0x00,
  0x80, 0x01, 0x00, 0x00, 0x27, 0x00, 0x00, 0x00, 0x8c, 0x00, 0x00, 0x00,
  0x36, 0xde, 0xff, 0xff, 0x0c, 0x00, 0x00, 0x00, 0x10, 0x00, 0x00, 0x00,
  0x0a, 0x00, 0x00, 0x00, 0x01, 0x00, 0x00, 0x00, 0x80, 0x01, 0x00, 0x00,
  0x02, 0x00, 0x00, 0x00, 0x72, 0x01, 0x00, 0x00, 0x0e, 0x00, 0x00, 0x00,
  0x5a, 0xde, 0xff, 0xff, 0x0c, 0x00, 0x00, 0x00, 0x10, 0x00, 0x00, 0x00,
  0x0a, 0x00, 0x00, 0x00, 0x01, 0x00, 0x00, 0x00, 0x7f, 0x01, 0x00, 0x00,
  0x02, 0x00, 0x00, 0x00, 0x7e, 0x01, 0x00, 0x00, 0x0b, 0x00, 0x00, 0x00,
  0xbe, 0xde, 0xff, 0xff, 0x14, 0x00, 0x00, 0x00, 0x00, 0x00, 0x00, 0x01,
  0x18, 0x00, 0x00, 0x00, 0x1c, 0x00, 0x00, 0x00, 0x0b, 0x00, 0x00, 0x00,
  0x6a, 0xde, 0xff, 0xff, 0x01, 0x00, 0x00, 0x00, 0x01, 0x00, 0x00, 0x00,
  0x01, 0x00, 0x00, 0x00, 0x7e, 0x01, 0x00, 0x00, 0x03, 0x00, 0x00, 0x00,
  0x7d, 0x01, 0x00, 0x00, 0x28, 0x00, 0x00, 0x00, 0x8b, 0x00, 0x00, 0x00,
  0xba, 0xde, 0xff, 0xff, 0x0c, 0x00, 0x00, 0x00, 0x10, 0x00, 0x00, 0x00,
  0x0a, 0x00, 0x00, 0x00, 0x01, 0x00, 0x00, 0x00, 0x7d, 0x01, 0x00, 0x00,
  0x02, 0x00, 0x00, 0x00, 0x71, 0x01, 0x00, 0x00, 0x0e, 0x00, 0x00, 0x00,
  0xde, 0xde, 0xff, 0xff, 0x0c, 0x00, 0x00, 0x00, 0x10, 0x00, 0x00, 0x00,
  0x0a, 0x00, 0x00, 0x00, 0x01, 0x00, 0x00, 0x00, 0x7c, 0x01, 0x00, 0x00,
  0x02, 0x00, 0x00, 0x00, 0x7b, 0x01, 0x00, 0x00, 0x0b, 0x00, 0x00, 0x00,
  0x42, 0xdf, 0xff, 0xff, 0x14, 0x00, 0x00, 0x00, 0x00, 0x00, 0x00, 0x01,
  0x18, 0x00, 0x00, 0x00, 0x1c, 0x00, 0x00, 0x00, 0x0b, 0x00, 0x00, 0x00,
  0xee, 0xde, 0xff, 0xff, 0x01, 0x00, 0x00, 0x00, 0x01, 0x00, 0x00, 0x00,
  0x01, 0x00, 0x00, 0x00, 0x7b, 0x01, 0x00, 0x00, 0x03, 0x00, 0x00, 0x00,
  0x7a, 0x01, 0x00, 0x00, 0x29, 0x00, 0x00, 0x00, 0x8a, 0x00, 0x00, 0x00,
  0x3e, 0xdf, 0xff, 0xff, 0x0c, 0x00, 0x00, 0x00, 0x10, 0x00, 0x00, 0x00,
  0x0a, 0x00, 0x00, 0x00, 0x01, 0x00, 0x00, 0x00, 0x7a, 0x01, 0x00, 0x00,
  0x02, 0x00, 0x00, 0x00, 0x70, 0x01, 0x00, 0x00, 0x0e, 0x00, 0x00, 0x00,
  0x62, 0xdf, 0xff, 0xff, 0x0c, 0x00, 0x00, 0x00, 0x10, 0x00, 0x00, 0x00,
  0x0a, 0x00, 0x00, 0x00, 0x01, 0x00, 0x00, 0x00, 0x79, 0x01, 0x00, 0x00,
  0x02, 0x00, 0x00, 0x00, 0x78, 0x01, 0x00, 0x00, 0x0b, 0x00, 0x00, 0x00,
  0xc6, 0xdf, 0xff, 0xff, 0x14, 0x00, 0x00, 0x00, 0x00, 0x00, 0x00, 0x01,
  0x18, 0x00, 0x00, 0x00, 0x1c, 0x00, 0x00, 0x00, 0x0b, 0x00, 0x00, 0x00,
  0x72, 0xdf, 0xff, 0xff, 0x01, 0x00, 0x00, 0x00, 0x01, 0x00, 0x00, 0x00,
  0x01, 0x00, 0x00, 0x00, 0x78, 0x01, 0x00, 0x00, 0x03, 0x00, 0x00, 0x00,
  0x77, 0x01, 0x00, 0x00, 0x2a, 0x00, 0x00, 0x00, 0x89, 0x00, 0x00, 0x00,
  0xc2, 0xdf, 0xff, 0xff, 0x0c, 0x00, 0x00, 0x00, 0x10, 0x00, 0x00, 0x00,
  0x0a, 0x00, 0x00, 0x00, 0x01, 0x00, 0x00, 0x00, 0x77, 0x01, 0x00, 0x00,
  0x02, 0x00, 0x00, 0x00, 0x6f, 0x01, 0x00, 0x00, 0x0e, 0x00, 0x00, 0x00,
  0x26, 0xe0, 0xff, 0xff, 0x14, 0x00, 0x00, 0x00, 0x00, 0x00, 0x00, 0x23,
  0x14, 0x00, 0x00, 0x00, 0x34, 0x00, 0x00, 0x00, 0x0c, 0x00, 0x00, 0x00,
  0x7e, 0xe3, 0xff, 0xff, 0x08, 0x00, 0x00, 0x00, 0x08, 0x00, 0x00, 0x00,
  0x6f, 0x01, 0x00, 0x00, 0x70, 0x01, 0x00, 0x00, 0x71, 0x01, 0x00, 0x00,
  0x72, 0x01, 0x00, 0x00, 0x73, 0x01, 0x00, 0x00, 0x74, 0x01, 0x00, 0x00,
  0x75, 0x01, 0x00, 0x00, 0x76, 0x01, 0x00, 0x00, 0x02, 0x00, 0x00, 0x00,
  0x05, 0x00, 0x00, 0x00, 0x6e, 0x01, 0x00, 0x00, 0x36, 0xe0, 0xff, 0xff,
  0x0c, 0x00, 0x00, 0x00, 0x10, 0x00, 0x00, 0x00, 0x0a, 0x00, 0x00, 0x00,
  0x01, 0x00, 0x00, 0x00, 0x6e, 0x01, 0x00, 0x00, 0x02, 0x00, 0x00, 0x00,
  0x6d, 0x01, 0x00, 0x00, 0x0d, 0x00, 0x00, 0x00, 0x9a, 0xe0, 0xff, 0xff,
  0x14, 0x00, 0x00, 0x00, 0x00, 0x00, 0x00, 0x0b, 0x14, 0x00, 0x00, 0x00,
  0x18, 0x00, 0x00, 0x00, 0x0e, 0x00, 0x00, 0x00, 0xd6, 0xe0, 0xff, 0xff,
  0x00, 0x00, 0x00, 0x01, 0x01, 0x00, 0x00, 0x00, 0x6d, 0x01, 0x00, 0x00,
  0x02, 0x00, 0x00, 0x00, 0x47, 0x01, 0x00, 0x00, 0x6c, 0x01, 0x00, 0x00,
  0xce, 0xe0, 0xff, 0xff, 0x14, 0x00, 0x00, 0x00, 0x00, 0x00, 0x00, 0x01,
  0x18, 0x00, 0x00, 0x00, 0x1c, 0x00, 0x00, 0x00, 0x0b, 0x00, 0x00, 0x00,
  0x7a, 0xe0, 0xff, 0xff, 0x01, 0x00, 0x00, 0x00, 0x01, 0x00, 0x00, 0x00,
  0x01, 0x00, 0x00, 0x00, 0x6c, 0x01, 0x00, 0x00, 0x03, 0x00, 0x00, 0x00,
  0x6b, 0x01, 0x00, 0x00, 0x2c, 0x00, 0x00, 0x00, 0x2b, 0x00, 0x00, 0x00,
  0xca, 0xe0, 0xff, 0xff, 0x0c, 0x00, 0x00, 0x00, 0x10, 0x00, 0x00, 0x00,
  0x0a, 0x00, 0x00, 0x00, 0x01, 0x00, 0x00, 0x00, 0x6b, 0x01, 0x00, 0x00,
  0x02, 0x00, 0x00, 0x00, 0x6a, 0x01, 0x00, 0x00, 0x0c, 0x00, 0x00, 0x00,
  0x2e, 0xe1, 0xff, 0xff, 0x14, 0x00, 0x00, 0x00, 0x00, 0x00, 0x00, 0x0b,
  0x14, 0x00, 0x00, 0x00, 0x18, 0x00, 0x00, 0x00, 0x0e, 0x00, 0x00, 0x00,
  0x6a, 0xe1, 0xff, 0xff, 0x00, 0x00, 0x00, 0x01, 0x01, 0x00, 0x00, 0x00,
  0x6a, 0x01, 0x00, 0x00, 0x02, 0x00, 0x00, 0x00, 0x69, 0x01, 0x00, 0x00,
  0x2d, 0x00, 0x00, 0x00, 0x62, 0xe1, 0xff, 0xff, 0x14, 0x00, 0x00, 0x00,
  0x00, 0x00, 0x00, 0x0a, 0x14, 0x00, 0x00, 0x00, 0x18, 0x00, 0x00, 0x00,
  0x0d, 0x00, 0x00, 0x00, 0xba, 0xe4, 0xff, 0xff, 0xff, 0xff, 0xff, 0xff,
  0x01, 0x00, 0x00, 0x00, 0x69, 0x01, 0x00, 0x00, 0x08, 0x00, 0x00, 0x00,
  0x53, 0x01, 0x00, 0x00, 0x56, 0x01, 0x00, 0x00, 0x59, 0x01, 0x00, 0x00,
  0x5c, 0x01, 0x00, 0x00, 0x5f, 0x01, 0x00, 0x00, 0x62, 0x01, 0x00, 0x00,
  0x65, 0x01, 0x00, 0x00, 0x68, 0x01, 0x00, 0x00, 0x6e, 0xe1, 0xff, 0xff,
  0x0c, 0x00, 0x00, 0x00, 0x10, 0x00, 0x00, 0x00, 0x0a, 0x00, 0x00, 0x00,
  0x01, 0x00, 0x00, 0x00, 0x68, 0x01, 0x00, 0x00, 0x02, 0x00, 0x00, 0x00,
  0x67, 0x01, 0x00, 0x00, 0x0b, 0x00, 0x00, 0x00, 0xd2, 0xe1, 0xff, 0xff,
  0x14, 0x00, 0x00, 0x00, 0x00, 0x00, 0x00, 0x01, 0x18, 0x00, 0x00, 0x00,
  0x1c, 0x00, 0x00, 0x00, 0x0b, 0x00, 0x00, 0x00, 0x7e, 0xe1, 0xff, 0xff,
  0x01, 0x00, 0x00, 0x00, 0x01, 0x00, 0x00, 0x00, 0x01, 0x00, 0x00, 0x00,
  0x67, 0x01, 0x00, 0x00, 0x03, 0x00, 0x00, 0x00, 0x66, 0x01, 0x00, 0x00,
  0x2e, 0x00, 0x00, 0x00, 0x88, 0x00, 0x00, 0x00, 0xce, 0xe1, 0xff, 0xff,
  0x0c, 0x00, 0x00, 0x00, 0x10, 0x00, 0x00, 0x00, 0x0a, 0x00, 0x00, 0x00,
  0x01, 0x00, 0x00, 0x00, 0x66, 0x01, 0x00, 0x00, 0x02, 0x00, 0x00, 0x00,
  0x50, 0x01, 0x00, 0x00, 0x0e, 0x00, 0x00, 0x00, 0xf2, 0xe1, 0xff, 0xff,
  0x0c, 0x00, 0x00, 0x00, 0x10, 0x00, 0x00, 0x00, 0x0a, 0x00, 0x00, 0x00,
  0x01, 0x00, 0x00, 0x00, 0x65, 0x01, 0x00, 0x00, 0x02, 0x00, 0x00, 0x00,
  0x64, 0x01, 0x00, 0x00, 0x0b, 0x00, 0x00, 0x00, 0x56, 0xe2, 0xff, 0xff,
  0x14, 0x00, 0x00, 0x00, 0x00, 0x00, 0x00, 0x01, 0x18, 0x00, 0x00, 0x00,
  0x1c, 0x00, 0x00, 0x00, 0x0b, 0x00, 0x00, 0x00, 0x02, 0xe2, 0xff, 0xff,
  0x01, 0x00, 0x00, 0x00, 0x01, 0x00, 0x00, 0x00, 0x01, 0x00, 0x00, 0x00,
  0x64, 0x01, 0x00, 0x00, 0x03, 0x00, 0x00, 0x00, 0x63, 0x01, 0x00, 0x00,
  0x2f, 0x00, 0x00, 0x00, 0x87, 0x00, 0x00, 0x00, 0x52, 0xe2, 0xff, 0xff,
  0x0c, 0x00, 0x00, 0x00, 0x10, 0x00, 0x00, 0x00, 0x0a, 0x00, 0x00, 0x00,
  0x01, 0x00, 0x00, 0x00, 0x63, 0x01, 0x00, 0x00, 0x02, 0x00, 0x00, 0x00,
  0x4f, 0x01, 0x00, 0x00, 0x0e, 0x00, 0x00, 0x00, 0x76, 0xe2, 0xff, 0xff,
  0x0c, 0x00, 0x00, 0x00, 0x10, 0x00, 0x00, 0x00, 0x0a, 0x00, 0x00, 0x00,
  0x01, 0x00, 0x00, 0x00, 0x62, 0x01, 0x00, 0x00, 0x02, 0x00, 0x00, 0x00,
  0x61, 0x01, 0x00, 0x00, 0x0b, 0x00, 0x00, 0x00, 0xda, 0xe2, 0xff, 0xff,
  0x14, 0x00, 0x00, 0x00, 0x00, 0x00, 0x00, 0x01, 0x18, 0x00, 0x00, 0x00,
  0x1c, 0x00, 0x00, 0x00, 0x0b, 0x00, 0x00, 0x00, 0x86, 0xe2, 0xff, 0xff,
  0x01, 0x00, 0x00, 0x00, 0x01, 0x00, 0x00, 0x00, 0x01, 0x00, 0x00, 0x00,
  0x61, 0x01, 0x00, 0x00, 0x03, 0x00, 0x00, 0x00, 0x60, 0x01, 0x00, 0x00,
  0x30, 0x00, 0x00, 0x00, 0x86, 0x00, 0x00, 0x00, 0xd6, 0xe2, 0xff, 0xff,
  0x0c, 0x00, 0x00, 0x00, 0x10, 0x00, 0x00, 0x00, 0x0a, 0x00, 0x00, 0x00,
  0x01, 0x00, 0x00, 0x00, 0x60, 0x01, 0x00, 0x00, 0x02, 0x00, 0x00, 0x00,
  0x4e, 0x01, 0x00, 0x00, 0x0e, 0x00, 0x00, 0x00, 0xfa, 0xe2, 0xff, 0xff,
  0x0c, 0x00, 0x00, 0x00, 0x10, 0x00, 0x00, 0x00, 0x0a, 0x00, 0x00, 0x00,
  0x01, 0x00, 0x00, 0x00, 0x5f, 0x01, 0x00, 0x00, 0x02, 0x00, 0x00, 0x00,
  0x5e, 0x01, 0x00, 0x00, 0x0b, 0x00, 0x00, 0x00, 0x5e, 0xe3, 0xff, 0xff,
  0x14, 0x00, 0x00, 0x00, 0x00, 0x00, 0x00, 0x01, 0x18, 0x00, 0x00, 0x00,
  0x1c, 0x00, 0x00, 0x00, 0x0b, 0x00, 0x00, 0x00, 0x0a, 0xe3, 0xff, 0xff,
  0x01, 0x00, 0x00, 0x00, 0x01, 0x00, 0x00, 0x00, 0x01, 0x00, 0x00, 0x00,
  0x5e, 0x01, 0x00, 0x00, 0x03, 0x00, 0x00, 0x00, 0x5d, 0x01, 0x00, 0x00,
  0x31, 0x00, 0x00, 0x00, 0x85, 0x00, 0x00, 0x00, 0x5a, 0xe3, 0xff, 0xff,
  0x0c, 0x00, 0x00, 0x00, 0x10, 0x00, 0x00, 0x00, 0x0a, 0x00, 0x00, 0x00,
  0x01, 0x00, 0x00, 0x00, 0x5d, 0x01, 0x00, 0x00, 0x02, 0x00, 0x00, 0x00,
  0x4d, 0x01, 0x00, 0x00, 0x0e, 0x00, 0x00, 0x00, 0x7e, 0xe3, 0xff, 0xff,
  0x0c, 0x00, 0x00, 0x00, 0x10, 0x00, 0x00, 0x00, 0x0a, 0x00, 0x00, 0x00,
  0x01, 0x00, 0x00, 0x00, 0x5c, 0x01, 0x00, 0x00, 0x02, 0x00, 0x00, 0x00,
  0x5b, 0x01, 0x00, 0x00, 0x0b, 0x00, 0x00, 0x00, 0xe2, 0xe3, 0xff, 0xff,
  0x14, 0x00, 0x00, 0x00, 0x00, 0x00, 0x00, 0x01, 0x18, 0x00, 0x00, 0x00,
  0x1c, 0x00, 0x00, 0x00, 0x0b, 0x00, 0x00, 0x00, 0x8e, 0xe3, 0xff, 0xff,
  0x01, 0x00, 0x00, 0x00, 0x01, 0x00, 0x00, 0x00, 0x01, 0x00, 0x00, 0x00,
  0x5b, 0x01, 0x00, 0x00, 0x03, 0x00, 0x00, 0x00, 0x5a, 0x01, 0x00, 0x00,
  0x32, 0x00, 0x00, 0x00, 0x84, 0x00, 0x00, 0x00, 0xde, 0xe3, 0xff, 0xff,
  0x0c, 0x00, 0x00, 0x00, 0x10, 0x00, 0x00, 0x00, 0x0a, 0x00, 0x00, 0x00,
  0x01, 0x00, 0x00, 0x00, 0x5a, 0x01, 0x00, 0x00, 0x02, 0x00, 0x00, 0x00,
  0x4c, 0x01, 0x00, 0x00, 0x0e, 0x00, 0x00, 0x00, 0x02, 0xe4, 0xff, 0xff,
  0x0c, 0x00, 0x00, 0x00, 0x10, 0x00, 0x00, 0x00, 0x0a, 0x00, 0x00, 0x00,
  0x01, 0x00, 0x00, 0x00, 0x59, 0x01, 0x00, 0x00, 0x02, 0x00, 0x00, 0x00,
  0x58, 0x01, 0x00, 0x00, 0x0b, 0x00, 0x00, 0x00, 0x66, 0xe4, 0xff, 0xff,
  0x14, 0x00, 0x00, 0x00, 0x00, 0x00, 0x00, 0x01, 0x18, 0x00, 0x00, 0x00,
  0x1c, 0x00, 0x00, 0x00, 0x0b, 0x00, 0x00, 0x00, 0x12, 0xe4, 0xff, 0xff,
  0x01, 0x00, 0x00, 0x00, 0x01, 0x00, 0x00, 0x00, 0x01, 0x00, 0x00, 0x00,
  0x58, 0x01, 0x00, 0x00, 0x03, 0x00, 0x00, 0x00, 0x57, 0x01, 0x00, 0x00,
  0x33, 0x00, 0x00, 0x00, 0x83, 0x00, 0x00, 0x00, 0x62, 0xe4, 0xff, 0xff,
  0x0c, 0x00, 0x00, 0x00, 0x10, 0x00, 0x00, 0x00, 0x0a, 0x00, 0x00, 0x00,
  0x01, 0x00, 0x00, 0x00, 0x57, 0x01, 0x00, 0x00, 0x02, 0x00, 0x00, 0x00,
  0x4b, 0x01, 0x00, 0x00, 0x0e, 0x00, 0x00, 0x00, 0x86, 0xe4, 0xff, 0xff,
  0x0c, 0x00, 0x00, 0x00, 0x10, 0x00, 0x00, 0x00, 0x0a, 0x00, 0x00, 0x00,
  0x01, 0x00, 0x00, 0x00, 0x56, 0x01, 0x00, 0x00, 0x02, 0x00, 0x00, 0x00,
  0x55, 0x01, 0x00, 0x00, 0x0b, 0x00, 0x00, 0x00, 0xea, 0xe4, 0xff, 0xff,
  0x14, 0x00, 0x00, 0x00, 0x00, 0x00, 0x00, 0x01, 0x18, 0x00, 0x00, 0x00,
  0x1c, 0x00, 0x00, 0x00, 0x0b, 0x00, 0x00, 0x00, 0x96, 0xe4, 0xff, 0xff,
  0x01, 0x00, 0x00, 0x00, 0x01, 0x00, 0x00, 0x00, 0x01, 0x00, 0x00, 0x00,
  0x55, 0x01, 0x00, 0x00, 0x03, 0x00, 0x00, 0x00, 0x54, 0x01, 0x00, 0x00,
  0x34, 0x00, 0x00, 0x00, 0x82, 0x00, 0x00, 0x00, 0xe6, 0xe4, 0xff, 0xff,
  0x0c, 0x00, 0x00, 0x00, 0x10, 0x00, 0x00, 0x00, 0x0a, 0x00, 0x00, 0x00,
  0x01, 0x00, 0x00, 0x00, 0x54, 0x01, 0x00, 0x00, 0x02, 0x00, 0x00, 0x00,
  0x4a, 0x01, 0x00, 0x00, 0x0e, 0x00, 0x00, 0x00, 0x0a, 0xe5, 0xff, 0xff,
  0x0c, 0x00, 0x00, 0x00, 0x10, 0x00, 0x00, 0x00, 0x0a, 0x00, 0x00, 0x00,
  0x01, 0x00, 0x00, 0x00, 0x53, 0x01, 0x00, 0x00, 0x02, 0x00, 0x00, 0x00,
  0x52, 0x01, 0x00, 0x00, 0x0b, 0x00, 0x00, 0x00, 0x6e, 0xe5, 0xff, 0xff,
  0x14, 0x00, 0x00, 0x00, 0x00, 0x00, 0x00, 0x01, 0x18, 0x00, 0x00, 0x00,
  0x1c, 0x00, 0x00, 0x00, 0x0b, 0x00, 0x00, 0x00, 0x1a, 0xe5, 0xff, 0xff,
  0x01, 0x00, 0x00, 0x00, 0x01, 0x00, 0x00, 0x00, 0x01, 0x00, 0x00, 0x00,
  0x52, 0x01, 0x00, 0x00, 0x03, 0x00, 0x00, 0x00, 0x51, 0x01, 0x00, 0x00,
  0x35, 0x00, 0x00, 0x00, 0x81, 0x00, 0x00, 0x00, 0x6a, 0xe5, 0xff, 0xff,
  0x0c, 0x00, 0x00, 0x00, 0x10, 0x00, 0x00, 0x00, 0x0a, 0x00, 0x00, 0x00,
  0x01, 0x00, 0x00, 0x00, 0x51, 0x01, 0x00, 0x00, 0x02, 0x00, 0x00, 0x00,
  0x49, 0x01, 0x00, 0x00, 0x0e, 0x00, 0x00, 0x00, 0xce, 0xe5, 0xff, 0xff,
  0x14, 0x00, 0x00, 0x00, 0x00, 0x00, 0x00, 0x23, 0x14, 0x00, 0x00, 0x00,
  0x34, 0x00, 0x00, 0x00, 0x0c, 0x00, 0x00, 0x00, 0x26, 0xe9, 0xff, 0xff,
  0x08, 0x00, 0x00, 0x00, 0x08, 0x00, 0x00, 0x00, 0x49, 0x01, 0x00, 0x00,
  0x4a, 0x01, 0x00, 0x00, 0x4b, 0x01, 0x00, 0x00, 0x4c, 0x01, 0x00, 0x00,
  0x4d, 0x01, 0x00, 0x00, 0x4e, 0x01, 0x00, 0x00, 0x4f, 0x01, 0x00, 0x00,
  0x50, 0x01, 0x00, 0x00, 0x02, 0x00, 0x00, 0x00, 0x05, 0x00, 0x00, 0x00,
  0x48, 0x01, 0x00, 0x00, 0xde, 0xe5, 0xff, 0xff, 0x0c, 0x00, 0x00, 0x00,
  0x10, 0x00, 0x00, 0x00, 0x0a, 0x00, 0x00, 0x00, 0x01, 0x00, 0x00, 0x00,
  0x48, 0x01, 0x00, 0x00, 0x02, 0x00, 0x00, 0x00, 0x47, 0x01, 0x00, 0x00,
  0x0d, 0x00, 0x00, 0x00, 0x42, 0xe6, 0xff, 0xff, 0x20, 0x00, 0x00, 0x00,
  0x00, 0x00, 0x00, 0x01, 0x28, 0x00, 0x00, 0x00, 0x2c, 0x00, 0x00, 0x00,
  0x0b, 0x00, 0x00, 0x00, 0x0c, 0x00, 0x10, 0x00, 0x00, 0x00, 0x0c, 0x00,
  0x08, 0x00, 0x07, 0x00, 0x0c, 0x00, 0x00, 0x00, 0x00, 0x00, 0x00, 0x01,
  0x01, 0x00, 0x00, 0x00, 0x01, 0x00, 0x00, 0x00, 0x01, 0x00, 0x00, 0x00,
  0x47, 0x01, 0x00, 0x00, 0x03, 0x00, 0x00, 0x00, 0x46, 0x01, 0x00, 0x00,
  0x37, 0x00, 0x00, 0x00, 0x36, 0x00, 0x00, 0x00, 0x4e, 0xe6, 0xff, 0xff,
  0x0c, 0x00, 0x00, 0x00, 0x10, 0x00, 0x00, 0x00, 0x0a, 0x00, 0x00, 0x00,
  0x01, 0x00, 0x00, 0x00, 0x46, 0x01, 0x00, 0x00, 0x02, 0x00, 0x00, 0x00,
  0x45, 0x01, 0x00, 0x00, 0x0c, 0x00, 0x00, 0x00, 0xb2, 0xe6, 0xff, 0xff,
  0x14, 0x00, 0x00, 0x00, 0x00, 0x00, 0x00, 0x0b, 0x14, 0x00, 0x00, 0x00,
  0x18, 0x00, 0x00, 0x00, 0x0e, 0x00, 0x00, 0x00, 0xee, 0xe6, 0xff, 0xff,
  0x00, 0x00, 0x00, 0x01, 0x01, 0x00, 0x00, 0x00, 0x45, 0x01, 0x00, 0x00,
  0x02, 0x00, 0x00, 0x00, 0x44, 0x01, 0x00, 0x00, 0x38, 0x00, 0x00, 0x00,
  0xe6, 0xe6, 0xff, 0xff, 0x14, 0x00, 0x00, 0x00, 0x00, 0x00, 0x00, 0x0a,
  0x14, 0x00, 0x00, 0x00, 0x18, 0x00, 0x00, 0x00, 0x0d, 0x00, 0x00, 0x00,
  0x3e, 0xea, 0xff, 0xff, 0xff, 0xff, 0xff, 0xff, 0x01, 0x00, 0x00, 0x00,
  0x44, 0x01, 0x00, 0x00, 0x08, 0x00, 0x00, 0x00, 0x2e, 0x01, 0x00, 0x00,
  0x31, 0x01, 0x00, 0x00, 0x34, 0x01, 0x00, 0x00, 0x37, 0x01, 0x00, 0x00,
  0x3a, 0x01, 0x00, 0x00, 0x3d, 0x01, 0x00, 0x00, 0x40, 0x01, 0x00, 0x00,
  0x43, 0x01, 0x00, 0x00, 0xf2, 0xe6, 0xff, 0xff, 0x0c, 0x00, 0x00, 0x00,
  0x10, 0x00, 0x00, 0x00, 0x0a, 0x00, 0x00, 0x00, 0x01, 0x00, 0x00, 0x00,
  0x43, 0x01, 0x00, 0x00, 0x02, 0x00, 0x00, 0x00, 0x42, 0x01, 0x00, 0x00,
  0x0b, 0x00, 0x00, 0x00, 0x56, 0xe7, 0xff, 0xff, 0x14, 0x00, 0x00, 0x00,
  0x00, 0x00, 0x00, 0x01, 0x1c, 0x00, 0x00, 0x00, 0x20, 0x00, 0x00, 0x00,
  0x0b, 0x00, 0x00, 0x00, 0x46, 0xfc, 0xff, 0xff, 0x01, 0x00, 0x00, 0x00,
  0x08, 0x00, 0x00, 0x00, 0x00, 0x00, 0x00, 0x01, 0x01, 0x00, 0x00, 0x00,
  0x42, 0x01, 0x00, 0x00, 0x03, 0x00, 0x00, 0x00, 0x41, 0x01, 0x00, 0x00,
  0x39, 0x00, 0x00, 0x00, 0x80, 0x00, 0x00, 0x00, 0x56, 0xe7, 0xff, 0xff,
  0x0c, 0x00, 0x00, 0x00, 0x10, 0x00, 0x00, 0x00, 0x0a, 0x00, 0x00, 0x00,
  0x01, 0x00, 0x00, 0x00, 0x41, 0x01, 0x00, 0x00, 0x02, 0x00, 0x00, 0x00,
  0x2b, 0x01, 0x00, 0x00, 0x0a, 0x00, 0x00, 0x00, 0x7a, 0xe7, 0xff, 0xff,
  0x0c, 0x00, 0x00, 0x00, 0x10, 0x00, 0x00, 0x00, 0x0a, 0x00, 0x00, 0x00,
  0x01, 0x00, 0x00, 0x00, 0x40, 0x01, 0x00, 0x00, 0x02, 0x00, 0x00, 0x00,
  0x3f, 0x01, 0x00, 0x00, 0x0b, 0x00, 0x00, 0x00, 0xde, 0xe7, 0xff, 0xff,
  0x14, 0x00, 0x00, 0x00, 0x00, 0x00, 0x00, 0x01, 0x1c, 0x00, 0x00, 0x00,
  0x20, 0x00, 0x00, 0x00, 0x0b, 0x00, 0x00, 0x00, 0xce, 0xfc, 0xff, 0xff,
  0x01, 0x00, 0x00, 0x00, 0x08, 0x00, 0x00, 0x00, 0x00, 0x00, 0x00, 0x01,
  0x01, 0x00, 0x00, 0x00, 0x3f, 0x01, 0x00, 0x00, 0x03, 0x00, 0x00, 0x00,
  0x3e, 0x01, 0x00, 0x00, 0x3a, 0x00, 0x00, 0x00, 0x7f, 0x00, 0x00, 0x00,
  0xde, 0xe7, 0xff, 0xff, 0x0c, 0x00, 0x00, 0x00, 0x10, 0x00, 0x00, 0x00,
  0x0a, 0x00, 0x00, 0x00, 0x01, 0x00, 0x00, 0x00, 0x3e, 0x01, 0x00, 0x00,
  0x02, 0x00, 0x00, 0x00, 0x2a, 0x01, 0x00, 0x00, 0x0a, 0x00, 0x00, 0x00,
  0x02, 0xe8, 0xff, 0xff, 0x0c, 0x00, 0x00, 0x00, 0x10, 0x00, 0x00, 0x00,
  0x0a, 0x00, 0x00, 0x00, 0x01, 0x00, 0x00, 0x00, 0x3d, 0x01, 0x00, 0x00,
  0x02, 0x00, 0x00, 0x00, 0x3c, 0x01, 0x00, 0x00, 0x0b, 0x00, 0x00, 0x00,
  0x66, 0xe8, 0xff, 0xff, 0x14, 0x00, 0x00, 0x00, 0x00, 0x00, 0x00, 0x01,
  0x1c, 0x00, 0x00, 0x00, 0x20, 0x00, 0x00, 0x00, 0x0b, 0x00, 0x00, 0x00,
  0x56, 0xfd, 0xff, 0xff, 0x01, 0x00, 0x00, 0x00, 0x08, 0x00, 0x00, 0x00,
  0x00, 0x00, 0x00, 0x01, 0x01, 0x00, 0x00, 0x00, 0x3c, 0x01, 0x00, 0x00,
  0x03, 0x00, 0x00, 0x00, 0x3b, 0x01, 0x00, 0x00, 0x3b, 0x00, 0x00, 0x00,
  0x7e, 0x00, 0x00, 0x00, 0x66, 0xe8, 0xff, 0xff, 0x0c, 0x00, 0x00, 0x00,
  0x10, 0x00, 0x00, 0x00, 0x0a, 0x00, 0x00, 0x00, 0x01, 0x00, 0x00, 0x00,
  0x3b, 0x01, 0x00, 0x00, 0x02, 0x00, 0x00, 0x00, 0x29, 0x01, 0x00, 0x00,
  0x0a, 0x00, 0x00, 0x00, 0x8a, 0xe8, 0xff, 0xff, 0x0c, 0x00, 0x00, 0x00,
  0x10, 0x00, 0x00, 0x00, 0x0a, 0x00, 0x00, 0x00, 0x01, 0x00, 0x00, 0x00,
  0x3a, 0x01, 0x00, 0x00, 0x02, 0x00, 0x00, 0x00, 0x39, 0x01, 0x00, 0x00,
  0x0b, 0x00, 0x00, 0x00, 0xee, 0xe8, 0xff, 0xff, 0x14, 0x00, 0x00, 0x00,
  0x00, 0x00, 0x00, 0x01, 0x1c, 0x00, 0x00, 0x00, 0x20, 0x00, 0x00, 0x00,
  0x0b, 0x00, 0x00, 0x00, 0xde, 0xfd, 0xff, 0xff, 0x01, 0x00, 0x00, 0x00,
  0x08, 0x00, 0x00, 0x00, 0x00, 0x00, 0x00, 0x01, 0x01, 0x00, 0x00, 0x00,
  0x39, 0x01, 0x00, 0x00, 0x03, 0x00, 0x00, 0x00, 0x38, 0x01, 0x00, 0x00,
  0x3c, 0x00, 0x00, 0x00, 0x7d, 0x00, 0x00, 0x00, 0xee, 0xe8, 0xff, 0xff,
  0x0c, 0x00, 0x00, 0x00, 0x10, 0x00, 0x00, 0x00, 0x0a, 0x00, 0x00, 0x00,
  0x01, 0x00, 0x00, 0x00, 0x38, 0x01, 0x00, 0x00, 0x02, 0x00, 0x00, 0x00,
  0x28, 0x01, 0x00, 0x00, 0x0a, 0x00, 0x00, 0x00, 0x12, 0xe9, 0xff, 0xff,
  0x0c, 0x00, 0x00, 0x00, 0x10, 0x00, 0x00, 0x00, 0x0a, 0x00, 0x00, 0x00,
  0x01, 0x00, 0x00, 0x00, 0x37, 0x01, 0x00, 0x00, 0x02, 0x00, 0x00, 0x00,
  0x36, 0x01, 0x00, 0x00, 0x0b, 0x00, 0x00, 0x00, 0x76, 0xe9, 0xff, 0xff,
  0x14, 0x00, 0x00, 0x00, 0x00, 0x00, 0x00, 0x01, 0x1c, 0x00, 0x00, 0x00,
  0x20, 0x00, 0x00, 0x00, 0x0b, 0x00, 0x00, 0x00, 0x66, 0xfe, 0xff, 0xff,
  0x01, 0x00, 0x00, 0x00, 0x08, 0x00, 0x00, 0x00, 0x00, 0x00, 0x00, 0x01,
  0x01, 0x00, 0x00, 0x00, 0x36, 0x01, 0x00, 0x00, 0x03, 0x00, 0x00, 0x00,
  0x35, 0x01, 0x00, 0x00, 0x3d, 0x00, 0x00, 0x00, 0x7c, 0x00, 0x00, 0x00,
  0x76, 0xe9, 0xff, 0xff, 0x0c, 0x00, 0x00, 0x00, 0x10, 0x00, 0x00, 0x00,
  0x0a, 0x00, 0x00, 0x00, 0x01, 0x00, 0x00, 0x00, 0x35, 0x01, 0x00, 0x00,
  0x02, 0x00, 0x00, 0x00, 0x27, 0x01, 0x00, 0x00, 0x0a, 0x00, 0x00, 0x00,
  0x9a, 0xe9, 0xff, 0xff, 0x0c, 0x00, 0x00, 0x00, 0x10, 0x00, 0x00, 0x00,
  0x0a, 0x00, 0x00, 0x00, 0x01, 0x00, 0x00, 0x00, 0x34, 0x01, 0x00, 0x00,
  0x02, 0x00, 0x00, 0x00, 0x33, 0x01, 0x00, 0x00, 0x0b, 0x00, 0x00, 0x00,
  0xfe, 0xe9, 0xff, 0xff, 0x14, 0x00, 0x00, 0x00, 0x00, 0x00, 0x00, 0x01,
  0x1c, 0x00, 0x00, 0x00, 0x20, 0x00, 0x00, 0x00, 0x0b, 0x00, 0x00, 0x00,
  0xee, 0xfe, 0xff, 0xff, 0x01, 0x00, 0x00, 0x00, 0x08, 0x00, 0x00, 0x00,
  0x00, 0x00, 0x00, 0x01, 0x01, 0x00, 0x00, 0x00, 0x33, 0x01, 0x00, 0x00,
  0x03, 0x00, 0x00, 0x00, 0x32, 0x01, 0x00, 0x00, 0x3e, 0x00, 0x00, 0x00,
  0x7b, 0x00, 0x00, 0x00, 0xfe, 0xe9, 0xff, 0xff, 0x0c, 0x00, 0x00, 0x00,
  0x10, 0x00, 0x00, 0x00, 0x0a, 0x00, 0x00, 0x00, 0x01, 0x00, 0x00, 0x00,
  0x32, 0x01, 0x00, 0x00, 0x02, 0x00, 0x00, 0x00, 0x26, 0x01, 0x00, 0x00,
  0x0a, 0x00, 0x00, 0x00, 0x22, 0xea, 0xff, 0xff, 0x0c, 0x00, 0x00, 0x00,
  0x10, 0x00, 0x00, 0x00, 0x0a, 0x00, 0x00, 0x00, 0x01, 0x00, 0x00, 0x00,
  0x31, 0x01, 0x00, 0x00, 0x02, 0x00, 0x00, 0x00, 0x30, 0x01, 0x00, 0x00,
  0x0b, 0x00, 0x00, 0x00, 0x86, 0xea, 0xff, 0xff, 0x14, 0x00, 0x00, 0x00,
  0x00, 0x00, 0x00, 0x01, 0x1c, 0x00, 0x00, 0x00, 0x20, 0x00, 0x00, 0x00,
  0x0b, 0x00, 0x00, 0x00, 0x76, 0xff, 0xff, 0xff, 0x01, 0x00, 0x00, 0x00,
  0x08, 0x00, 0x00, 0x00, 0x00, 0x00, 0x00, 0x01, 0x01, 0x00, 0x00, 0x00,
  0x30, 0x01, 0x00, 0x00, 0x03, 0x00, 0x00, 0x00, 0x2f, 0x01, 0x00, 0x00,
  0x3f, 0x00, 0x00, 0x00, 0x7a, 0x00, 0x00, 0x00, 0x86, 0xea, 0xff, 0xff,
  0x0c, 0x00, 0x00, 0x00, 0x10, 0x00, 0x00, 0x00, 0x0a, 0x00, 0x00, 0x00,
  0x01, 0x00, 0x00, 0x00, 0x2f, 0x01, 0x00, 0x00, 0x02, 0x00, 0x00, 0x00,
  0x25, 0x01, 0x00, 0x00, 0x0a, 0x00, 0x00, 0x00, 0xaa, 0xea, 0xff, 0xff,
  0x0c, 0x00, 0x00, 0x00, 0x10, 0x00, 0x00, 0x00, 0x0a, 0x00, 0x00, 0x00,
  0x01, 0x00, 0x00, 0x00, 0x2e, 0x01, 0x00, 0x00, 0x02, 0x00, 0x00, 0x00,
  0x2d, 0x01, 0x00, 0x00, 0x0b, 0x00, 0x00, 0x00, 0x5a, 0xeb, 0xff, 0xff,
  0x20, 0x00, 0x00, 0x00, 0x00, 0x00, 0x00, 0x01, 0x28, 0x00, 0x00, 0x00,
  0x2c, 0x00, 0x00, 0x00, 0x0b, 0x00, 0x00, 0x00, 0x00, 0x00, 0x0a, 0x00,
  0x10, 0x00, 0x0f, 0x00, 0x08, 0x00, 0x04, 0x00, 0x0a, 0x00, 0x00, 0x00,
  0x01, 0x00, 0x00, 0x00, 0x08, 0x00, 0x00, 0x00, 0x00, 0x00, 0x00, 0x01,
  0x01, 0x00, 0x00, 0x00, 0x2d, 0x01, 0x00, 0x00, 0x03, 0x00, 0x00, 0x00,
  0x2c, 0x01, 0x00, 0x00, 0x40, 0x00, 0x00, 0x00, 0x79, 0x00, 0x00, 0x00,
  0x1a, 0xeb, 0xff, 0xff, 0x0c, 0x00, 0x00, 0x00, 0x10, 0x00, 0x00, 0x00,
  0x0a, 0x00, 0x00, 0x00, 0x01, 0x00, 0x00, 0x00, 0x2c, 0x01, 0x00, 0x00,
  0x02, 0x00, 0x00, 0x00, 0x24, 0x01, 0x00, 0x00, 0x0a, 0x00, 0x00, 0x00,
  0x7e, 0xeb, 0xff, 0xff, 0x14, 0x00, 0x00, 0x00, 0x00, 0x00, 0x00, 0x23,
  0x14, 0x00, 0x00, 0x00, 0x34, 0x00, 0x00, 0x00, 0x0c, 0x00, 0x00, 0x00,
  0xd6, 0xee, 0xff, 0xff, 0x08, 0x00, 0x00, 0x00, 0x08, 0x00, 0x00, 0x00,
  0x24, 0x01, 0x00, 0x00, 0x25, 0x01, 0x00, 0x00, 0x26, 0x01, 0x00, 0x00,
  0x27, 0x01, 0x00, 0x00, 0x28, 0x01, 0x00, 0x00, 0x29, 0x01, 0x00, 0x00,
  0x2a, 0x01, 0x00, 0x00, 0x2b, 0x01, 0x00, 0x00, 0x02, 0x00, 0x00, 0x00,
  0x05, 0x00, 0x00, 0x00, 0x23, 0x01, 0x00, 0x00, 0xce, 0xeb, 0xff, 0xff,
  0x14, 0x00, 0x00, 0x00, 0x00, 0x00, 0x00, 0x16, 0x10, 0x00, 0x00, 0x00,
  0x14, 0x00, 0x00, 0x00, 0x09, 0x00, 0x00, 0x00, 0x6c, 0xc7, 0xfe, 0xff,
  0x01, 0x00, 0x00, 0x00, 0x23, 0x01, 0x00, 0x00, 0x02, 0x00, 0x00, 0x00,
  0x22, 0x01, 0x00, 0x00, 0x09, 0x00, 0x00, 0x00, 0xbe, 0xeb, 0xff, 0xff,
  0x0c, 0x00, 0x00, 0x00, 0x10, 0x00, 0x00, 0x00, 0x0a, 0x00, 0x00, 0x00,
  0x01, 0x00, 0x00, 0x00, 0x22, 0x01, 0x00, 0x00, 0x02, 0x00, 0x00, 0x00,
