unsigned char converted_UOS_SHAFT_8k_converted_model_1024_UOS_SHAFT_8k_model_1024_int8_tflite[] = {
  0x20, 0x00, 0x00, 0x00, 0x54, 0x46, 0x4c, 0x33, 0x00, 0x00, 0x00, 0x00,
  0x14, 0x00, 0x20, 0x00, 0x1c, 0x00, 0x18, 0x00, 0x14, 0x00, 0x10, 0x00,
  0x0c, 0x00, 0x00, 0x00, 0x08, 0x00, 0x04, 0x00, 0x14, 0x00, 0x00, 0x00,
  0x1c, 0x00, 0x00, 0x00, 0x80, 0x00, 0x00, 0x00, 0xd8, 0x00, 0x00, 0x00,
  0x84, 0x29, 0x00, 0x00, 0x94, 0x29, 0x00, 0x00, 0x80, 0x72, 0x01, 0x00,
  0x03, 0x00, 0x00, 0x00, 0x01, 0x00, 0x00, 0x00, 0x04, 0x00, 0x00, 0x00,
  0xe6, 0xa5, 0xff, 0xff, 0x0c, 0x00, 0x00, 0x00, 0x1c, 0x00, 0x00, 0x00,
  0x38, 0x00, 0x00, 0x00, 0x0f, 0x00, 0x00, 0x00, 0x73, 0x65, 0x72, 0x76,
  0x69, 0x6e, 0x67, 0x5f, 0x64, 0x65, 0x66, 0x61, 0x75, 0x6c, 0x74, 0x00,
  0x01, 0x00, 0x00, 0x00, 0x04, 0x00, 0x00, 0x00, 0x9c, 0xff, 0xff, 0xff,
  0xc2, 0x01, 0x00, 0x00, 0x04, 0x00, 0x00, 0x00, 0x06, 0x00, 0x00, 0x00,
  0x6f, 0x75, 0x74, 0x70, 0x75, 0x74, 0x00, 0x00, 0x01, 0x00, 0x00, 0x00,
  0x04, 0x00, 0x00, 0x00, 0xb2, 0xa9, 0xff, 0xff, 0x04, 0x00, 0x00, 0x00,
  0x05, 0x00, 0x00, 0x00, 0x69, 0x6e, 0x70, 0x75, 0x74, 0x00, 0x00, 0x00,
  0x02, 0x00, 0x00, 0x00, 0x34, 0x00, 0x00, 0x00, 0x04, 0x00, 0x00, 0x00,
  0xdc, 0xff, 0xff, 0xff, 0xc5, 0x01, 0x00, 0x00, 0x04, 0x00, 0x00, 0x00,
  0x13, 0x00, 0x00, 0x00, 0x43, 0x4f, 0x4e, 0x56, 0x45, 0x52, 0x53, 0x49,
  0x4f, 0x4e, 0x5f, 0x4d, 0x45, 0x54, 0x41, 0x44, 0x41, 0x54, 0x41, 0x00,
  0x08, 0x00, 0x0c, 0x00, 0x08, 0x00, 0x04, 0x00, 0x08, 0x00, 0x00, 0x00,
  0xc4, 0x01, 0x00, 0x00, 0x04, 0x00, 0x00, 0x00, 0x13, 0x00, 0x00, 0x00,
  0x6d, 0x69, 0x6e, 0x5f, 0x72, 0x75, 0x6e, 0x74, 0x69, 0x6d, 0x65, 0x5f,
  0x76, 0x65, 0x72, 0x73, 0x69, 0x6f, 0x6e, 0x00, 0xc6, 0x01, 0x00, 0x00,
  0xa8, 0x28, 0x00, 0x00, 0xa0, 0x28, 0x00, 0x00, 0x8c, 0x28, 0x00, 0x00,
  0x64, 0x28, 0x00, 0x00, 0x44, 0x28, 0x00, 0x00, 0x28, 0x28, 0x00, 0x00,
  0x14, 0x28, 0x00, 0x00, 0xf4, 0x27, 0x00, 0x00, 0xd8, 0x27, 0x00, 0x00,
  0xb8, 0x27, 0x00, 0x00, 0x90, 0x27, 0x00, 0x00, 0x70, 0x27, 0x00, 0x00,
  0x54, 0x27, 0x00, 0x00, 0x34, 0x27, 0x00, 0x00, 0x18, 0x27, 0x00, 0x00,
  0xf8, 0x26, 0x00, 0x00, 0xf0, 0x26, 0x00, 0x00, 0xd8, 0x26, 0x00, 0x00,
  0xa8, 0x26, 0x00, 0x00, 0x38, 0x26, 0x00, 0x00, 0x08, 0x26, 0x00, 0x00,
  0xb8, 0x23, 0x00, 0x00, 0x88, 0x23, 0x00, 0x00, 0x38, 0x23, 0x00, 0x00,
  0x20, 0x23, 0x00, 0x00, 0x00, 0x23, 0x00, 0x00, 0xe0, 0x22, 0x00, 0x00,
  0xc0, 0x22, 0x00, 0x00, 0xa0, 0x22, 0x00, 0x00, 0x80, 0x22, 0x00, 0x00,
  0x60, 0x22, 0x00, 0x00, 0x40, 0x22, 0x00, 0x00, 0x20, 0x22, 0x00, 0x00,
  0xf0, 0x21, 0x00, 0x00, 0xa0, 0x21, 0x00, 0x00, 0x88, 0x21, 0x00, 0x00,
  0x68, 0x21, 0x00, 0x00, 0x48, 0x21, 0x00, 0x00, 0x28, 0x21, 0x00, 0x00,
  0x08, 0x21, 0x00, 0x00, 0xe8, 0x20, 0x00, 0x00, 0xc8, 0x20, 0x00, 0x00,
  0xa8, 0x20, 0x00, 0x00, 0x88, 0x20, 0x00, 0x00, 0x58, 0x20, 0x00, 0x00,
  0x08, 0x20, 0x00, 0x00, 0xf0, 0x1f, 0x00, 0x00, 0xd0, 0x1f, 0x00, 0x00,
  0xb0, 0x1f, 0x00, 0x00, 0x90, 0x1f, 0x00, 0x00, 0x70, 0x1f, 0x00, 0x00,
  0x50, 0x1f, 0x00, 0x00, 0x30, 0x1f, 0x00, 0x00, 0x10, 0x1f, 0x00, 0x00,
  0xf0, 0x1e, 0x00, 0x00, 0xc0, 0x1e, 0x00, 0x00, 0x70, 0x1e, 0x00, 0x00,
  0x58, 0x1e, 0x00, 0x00, 0x30, 0x1e, 0x00, 0x00, 0x08, 0x1e, 0x00, 0x00,
  0xe0, 0x1d, 0x00, 0x00, 0xb8, 0x1d, 0x00, 0x00, 0x90, 0x1d, 0x00, 0x00,
  0x68, 0x1d, 0x00, 0x00, 0x40, 0x1d, 0x00, 0x00, 0x18, 0x1d, 0x00, 0x00,
  0xe8, 0x1c, 0x00, 0x00, 0x98, 0x1c, 0x00, 0x00, 0x80, 0x1c, 0x00, 0x00,
  0xf0, 0x1b, 0x00, 0x00, 0x60, 0x1b, 0x00, 0x00, 0xd0, 0x1a, 0x00, 0x00,
  0x40, 0x1a, 0x00, 0x00, 0xb0, 0x19, 0x00, 0x00, 0x20, 0x19, 0x00, 0x00,
  0x90, 0x18, 0x00, 0x00, 0x00, 0x18, 0x00, 0x00, 0xd0, 0x17, 0x00, 0x00,
  0x80, 0x17, 0x00, 0x00, 0x68, 0x17, 0x00, 0x00, 0xd8, 0x16, 0x00, 0x00,
  0x48, 0x16, 0x00, 0x00, 0xb8, 0x15, 0x00, 0x00, 0x28, 0x15, 0x00, 0x00,
  0x98, 0x14, 0x00, 0x00, 0x08, 0x14, 0x00, 0x00, 0x78, 0x13, 0x00, 0x00,
  0xe8, 0x12, 0x00, 0x00, 0xb8, 0x12, 0x00, 0x00, 0x68, 0x12, 0x00, 0x00,
  0x50, 0x12, 0x00, 0x00, 0xc0, 0x11, 0x00, 0x00, 0x30, 0x11, 0x00, 0x00,
  0xa0, 0x10, 0x00, 0x00, 0x10, 0x10, 0x00, 0x00, 0x80, 0x0f, 0x00, 0x00,
  0xf0, 0x0e, 0x00, 0x00, 0x60, 0x0e, 0x00, 0x00, 0x4c, 0x0e, 0x00, 0x00,
  0x44, 0x0e, 0x00, 0x00, 0x3c, 0x0e, 0x00, 0x00, 0x34, 0x0e, 0x00, 0x00,
  0x2c, 0x0e, 0x00, 0x00, 0x24, 0x0e, 0x00, 0x00, 0x1c, 0x0e, 0x00, 0x00,
  0x14, 0x0e, 0x00, 0x00, 0x0c, 0x0e, 0x00, 0x00, 0x04, 0x0e, 0x00, 0x00,
  0xfc, 0x0d, 0x00, 0x00, 0xf4, 0x0d, 0x00, 0x00, 0xec, 0x0d, 0x00, 0x00,
  0xe4, 0x0d, 0x00, 0x00, 0xdc, 0x0d, 0x00, 0x00, 0xd4, 0x0d, 0x00, 0x00,
  0xcc, 0x0d, 0x00, 0x00, 0xc4, 0x0d, 0x00, 0x00, 0xbc, 0x0d, 0x00, 0x00,
  0xb4, 0x0d, 0x00, 0x00, 0xac, 0x0d, 0x00, 0x00, 0xa4, 0x0d, 0x00, 0x00,
  0x9c, 0x0d, 0x00, 0x00, 0x94, 0x0d, 0x00, 0x00, 0x8c, 0x0d, 0x00, 0x00,
  0x84, 0x0d, 0x00, 0x00, 0x7c, 0x0d, 0x00, 0x00, 0x74, 0x0d, 0x00, 0x00,
  0x6c, 0x0d, 0x00, 0x00, 0x64, 0x0d, 0x00, 0x00, 0x5c, 0x0d, 0x00, 0x00,
  0x54, 0x0d, 0x00, 0x00, 0x4c, 0x0d, 0x00, 0x00, 0x44, 0x0d, 0x00, 0x00,
  0x3c, 0x0d, 0x00, 0x00, 0x34, 0x0d, 0x00, 0x00, 0x2c, 0x0d, 0x00, 0x00,
  0x24, 0x0d, 0x00, 0x00, 0x1c, 0x0d, 0x00, 0x00, 0x14, 0x0d, 0x00, 0x00,
  0x0c, 0x0d, 0x00, 0x00, 0x04, 0x0d, 0x00, 0x00, 0xfc, 0x0c, 0x00, 0x00,
  0xf4, 0x0c, 0x00, 0x00, 0xec, 0x0c, 0x00, 0x00, 0xe4, 0x0c, 0x00, 0x00,
  0xdc, 0x0c, 0x00, 0x00, 0xd4, 0x0c, 0x00, 0x00, 0xcc, 0x0c, 0x00, 0x00,
  0xc4, 0x0c, 0x00, 0x00, 0xbc, 0x0c, 0x00, 0x00, 0xb4, 0x0c, 0x00, 0x00,
  0xac, 0x0c, 0x00, 0x00, 0xa4, 0x0c, 0x00, 0x00, 0x9c, 0x0c, 0x00, 0x00,
  0x94, 0x0c, 0x00, 0x00, 0x04, 0x0c, 0x00, 0x00, 0xd4, 0x0b, 0x00, 0x00,
  0xc4, 0x09, 0x00, 0x00, 0xbc, 0x09, 0x00, 0x00, 0xb4, 0x09, 0x00, 0x00,
  0xac, 0x09, 0x00, 0x00, 0xa4, 0x09, 0x00, 0x00, 0x9c, 0x09, 0x00, 0x00,
  0x94, 0x09, 0x00, 0x00, 0x8c, 0x09, 0x00, 0x00, 0x84, 0x09, 0x00, 0x00,
  0x7c, 0x09, 0x00, 0x00, 0x74, 0x09, 0x00, 0x00, 0x6c, 0x09, 0x00, 0x00,
  0x64, 0x09, 0x00, 0x00, 0x5c, 0x09, 0x00, 0x00, 0x54, 0x09, 0x00, 0x00,
  0x4c, 0x09, 0x00, 0x00, 0x44, 0x09, 0x00, 0x00, 0x3c, 0x09, 0x00, 0x00,
  0x34, 0x09, 0x00, 0x00, 0x2c, 0x09, 0x00, 0x00, 0x24, 0x09, 0x00, 0x00,
  0x1c, 0x09, 0x00, 0x00, 0x14, 0x09, 0x00, 0x00, 0x0c, 0x09, 0x00, 0x00,
  0x04, 0x09, 0x00, 0x00, 0xfc, 0x08, 0x00, 0x00, 0xf4, 0x08, 0x00, 0x00,
  0xec, 0x08, 0x00, 0x00, 0xe4, 0x08, 0x00, 0x00, 0xdc, 0x08, 0x00, 0x00,
  0xd4, 0x08, 0x00, 0x00, 0xcc, 0x08, 0x00, 0x00, 0xc4, 0x08, 0x00, 0x00,
  0xbc, 0x08, 0x00, 0x00, 0xb4, 0x08, 0x00, 0x00, 0xac, 0x08, 0x00, 0x00,
  0xa4, 0x08, 0x00, 0x00, 0x9c, 0x08, 0x00, 0x00, 0x94, 0x08, 0x00, 0x00,
  0x8c, 0x08, 0x00, 0x00, 0x84, 0x08, 0x00, 0x00, 0x7c, 0x08, 0x00, 0x00,
  0x74, 0x08, 0x00, 0x00, 0x6c, 0x08, 0x00, 0x00, 0x64, 0x08, 0x00, 0x00,
  0x5c, 0x08, 0x00, 0x00, 0x54, 0x08, 0x00, 0x00, 0x4c, 0x08, 0x00, 0x00,
  0x44, 0x08, 0x00, 0x00, 0x3c, 0x08, 0x00, 0x00, 0x34, 0x08, 0x00, 0x00,
  0x2c, 0x08, 0x00, 0x00, 0x24, 0x08, 0x00, 0x00, 0x1c, 0x08, 0x00, 0x00,
  0x14, 0x08, 0x00, 0x00, 0x0c, 0x08, 0x00, 0x00, 0x04, 0x08, 0x00, 0x00,
  0xfc, 0x07, 0x00, 0x00, 0xf4, 0x07, 0x00, 0x00, 0xec, 0x07, 0x00, 0x00,
  0xe4, 0x07, 0x00, 0x00, 0xdc, 0x07, 0x00, 0x00, 0xd4, 0x07, 0x00, 0x00,
  0xcc, 0x07, 0x00, 0x00, 0xc4, 0x07, 0x00, 0x00, 0xbc, 0x07, 0x00, 0x00,
  0xb4, 0x07, 0x00, 0x00, 0xac, 0x07, 0x00, 0x00, 0xa4, 0x07, 0x00, 0x00,
  0x9c, 0x07, 0x00, 0x00, 0x94, 0x07, 0x00, 0x00, 0x8c, 0x07, 0x00, 0x00,
  0x84, 0x07, 0x00, 0x00, 0x7c, 0x07, 0x00, 0x00, 0x74, 0x07, 0x00, 0x00,
  0x6c, 0x07, 0x00, 0x00, 0x64, 0x07, 0x00, 0x00, 0x5c, 0x07, 0x00, 0x00,
  0x54, 0x07, 0x00, 0x00, 0x4c, 0x07, 0x00, 0x00, 0x44, 0x07, 0x00, 0x00,
  0x3c, 0x07, 0x00, 0x00, 0x34, 0x07, 0x00, 0x00, 0x2c, 0x07, 0x00, 0x00,
  0x24, 0x07, 0x00, 0x00, 0x1c, 0x07, 0x00, 0x00, 0x14, 0x07, 0x00, 0x00,
  0x0c, 0x07, 0x00, 0x00, 0x04, 0x07, 0x00, 0x00, 0xfc, 0x06, 0x00, 0x00,
  0xf4, 0x06, 0x00, 0x00, 0xec, 0x06, 0x00, 0x00, 0xe4, 0x06, 0x00, 0x00,
  0xdc, 0x06, 0x00, 0x00, 0xd4, 0x06, 0x00, 0x00, 0xcc, 0x06, 0x00, 0x00,
  0xc4, 0x06, 0x00, 0x00, 0xbc, 0x06, 0x00, 0x00, 0xb4, 0x06, 0x00, 0x00,
  0xac, 0x06, 0x00, 0x00, 0xa4, 0x06, 0x00, 0x00, 0x9c, 0x06, 0x00, 0x00,
  0x94, 0x06, 0x00, 0x00, 0x8c, 0x06, 0x00, 0x00, 0x84, 0x06, 0x00, 0x00,
  0x7c, 0x06, 0x00, 0x00, 0x74, 0x06, 0x00, 0x00, 0x6c, 0x06, 0x00, 0x00,
  0x64, 0x06, 0x00, 0x00, 0x5c, 0x06, 0x00, 0x00, 0x54, 0x06, 0x00, 0x00,
  0x4c, 0x06, 0x00, 0x00, 0x44, 0x06, 0x00, 0x00, 0x3c, 0x06, 0x00, 0x00,
  0x34, 0x06, 0x00, 0x00, 0x2c, 0x06, 0x00, 0x00, 0x24, 0x06, 0x00, 0x00,
  0x1c, 0x06, 0x00, 0x00, 0x14, 0x06, 0x00, 0x00, 0x0c, 0x06, 0x00, 0x00,
  0x04, 0x06, 0x00, 0x00, 0xfc, 0x05, 0x00, 0x00, 0xf4, 0x05, 0x00, 0x00,
  0xec, 0x05, 0x00, 0x00, 0xe4, 0x05, 0x00, 0x00, 0xdc, 0x05, 0x00, 0x00,
  0xd4, 0x05, 0x00, 0x00, 0xcc, 0x05, 0x00, 0x00, 0xc4, 0x05, 0x00, 0x00,
  0xbc, 0x05, 0x00, 0x00, 0xb4, 0x05, 0x00, 0x00, 0xac, 0x05, 0x00, 0x00,
  0xa4, 0x05, 0x00, 0x00, 0x9c, 0x05, 0x00, 0x00, 0x94, 0x05, 0x00, 0x00,
  0x8c, 0x05, 0x00, 0x00, 0x84, 0x05, 0x00, 0x00, 0x7c, 0x05, 0x00, 0x00,
  0x74, 0x05, 0x00, 0x00, 0x6c, 0x05, 0x00, 0x00, 0x64, 0x05, 0x00, 0x00,
  0x5c, 0x05, 0x00, 0x00, 0x54, 0x05, 0x00, 0x00, 0x4c, 0x05, 0x00, 0x00,
  0x44, 0x05, 0x00, 0x00, 0x3c, 0x05, 0x00, 0x00, 0x34, 0x05, 0x00, 0x00,
  0x2c, 0x05, 0x00, 0x00, 0x24, 0x05, 0x00, 0x00, 0x1c, 0x05, 0x00, 0x00,
  0x14, 0x05, 0x00, 0x00, 0x0c, 0x05, 0x00, 0x00, 0x04, 0x05, 0x00, 0x00,
  0xfc, 0x04, 0x00, 0x00, 0xf4, 0x04, 0x00, 0x00, 0xec, 0x04, 0x00, 0x00,
  0xe4, 0x04, 0x00, 0x00, 0xdc, 0x04, 0x00, 0x00, 0xd4, 0x04, 0x00, 0x00,
  0xcc, 0x04, 0x00, 0x00, 0xc4, 0x04, 0x00, 0x00, 0xbc, 0x04, 0x00, 0x00,
  0xb4, 0x04, 0x00, 0x00, 0xac, 0x04, 0x00, 0x00, 0xa4, 0x04, 0x00, 0x00,
  0x9c, 0x04, 0x00, 0x00, 0x94, 0x04, 0x00, 0x00, 0x8c, 0x04, 0x00, 0x00,
  0x84, 0x04, 0x00, 0x00, 0x7c, 0x04, 0x00, 0x00, 0x74, 0x04, 0x00, 0x00,
  0x6c, 0x04, 0x00, 0x00, 0x64, 0x04, 0x00, 0x00, 0x5c, 0x04, 0x00, 0x00,
  0x54, 0x04, 0x00, 0x00, 0x4c, 0x04, 0x00, 0x00, 0x44, 0x04, 0x00, 0x00,
  0x3c, 0x04, 0x00, 0x00, 0x34, 0x04, 0x00, 0x00, 0x2c, 0x04, 0x00, 0x00,
  0x24, 0x04, 0x00, 0x00, 0x1c, 0x04, 0x00, 0x00, 0x14, 0x04, 0x00, 0x00,
  0x0c, 0x04, 0x00, 0x00, 0x04, 0x04, 0x00, 0x00, 0xfc, 0x03, 0x00, 0x00,
  0xf4, 0x03, 0x00, 0x00, 0xec, 0x03, 0x00, 0x00, 0xe4, 0x03, 0x00, 0x00,
  0xdc, 0x03, 0x00, 0x00, 0xd4, 0x03, 0x00, 0x00, 0xcc, 0x03, 0x00, 0x00,
  0xc4, 0x03, 0x00, 0x00, 0xbc, 0x03, 0x00, 0x00, 0xb4, 0x03, 0x00, 0x00,
  0xac, 0x03, 0x00, 0x00, 0xa4, 0x03, 0x00, 0x00, 0x9c, 0x03, 0x00, 0x00,
  0x94, 0x03, 0x00, 0x00, 0x8c, 0x03, 0x00, 0x00, 0x84, 0x03, 0x00, 0x00,
  0x7c, 0x03, 0x00, 0x00, 0x74, 0x03, 0x00, 0x00, 0x6c, 0x03, 0x00, 0x00,
  0x64, 0x03, 0x00, 0x00, 0x5c, 0x03, 0x00, 0x00, 0x54, 0x03, 0x00, 0x00,
  0x4c, 0x03, 0x00, 0x00, 0x44, 0x03, 0x00, 0x00, 0x3c, 0x03, 0x00, 0x00,
  0x34, 0x03, 0x00, 0x00, 0x2c, 0x03, 0x00, 0x00, 0x24, 0x03, 0x00, 0x00,
  0x1c, 0x03, 0x00, 0x00, 0x14, 0x03, 0x00, 0x00, 0x0c, 0x03, 0x00, 0x00,
  0x04, 0x03, 0x00, 0x00, 0xfc, 0x02, 0x00, 0x00, 0xf4, 0x02, 0x00, 0x00,
  0xec, 0x02, 0x00, 0x00, 0xe4, 0x02, 0x00, 0x00, 0xdc, 0x02, 0x00, 0x00,
  0xd4, 0x02, 0x00, 0x00, 0xcc, 0x02, 0x00, 0x00, 0xc4, 0x02, 0x00, 0x00,
  0xbc, 0x02, 0x00, 0x00, 0xb4, 0x02, 0x00, 0x00, 0xac, 0x02, 0x00, 0x00,
  0xa4, 0x02, 0x00, 0x00, 0x9c, 0x02, 0x00, 0x00, 0x94, 0x02, 0x00, 0x00,
  0x8c, 0x02, 0x00, 0x00, 0x84, 0x02, 0x00, 0x00, 0x7c, 0x02, 0x00, 0x00,
  0x74, 0x02, 0x00, 0x00, 0x6c, 0x02, 0x00, 0x00, 0x64, 0x02, 0x00, 0x00,
  0x5c, 0x02, 0x00, 0x00, 0x54, 0x02, 0x00, 0x00, 0x4c, 0x02, 0x00, 0x00,
  0x44, 0x02, 0x00, 0x00, 0x3c, 0x02, 0x00, 0x00, 0x34, 0x02, 0x00, 0x00,
  0x2c, 0x02, 0x00, 0x00, 0x24, 0x02, 0x00, 0x00, 0x1c, 0x02, 0x00, 0x00,
  0x14, 0x02, 0x00, 0x00, 0x0c, 0x02, 0x00, 0x00, 0x04, 0x02, 0x00, 0x00,
  0xfc, 0x01, 0x00, 0x00, 0xf4, 0x01, 0x00, 0x00, 0xec, 0x01, 0x00, 0x00,
  0xe4, 0x01, 0x00, 0x00, 0xdc, 0x01, 0x00, 0x00, 0xd4, 0x01, 0x00, 0x00,
  0xcc, 0x01, 0x00, 0x00, 0xc4, 0x01, 0x00, 0x00, 0xbc, 0x01, 0x00, 0x00,
  0xb4, 0x01, 0x00, 0x00, 0xac, 0x01, 0x00, 0x00, 0xa4, 0x01, 0x00, 0x00,
  0x9c, 0x01, 0x00, 0x00, 0x94, 0x01, 0x00, 0x00, 0x8c, 0x01, 0x00, 0x00,
  0x84, 0x01, 0x00, 0x00, 0x7c, 0x01, 0x00, 0x00, 0x74, 0x01, 0x00, 0x00,
  0x6c, 0x01, 0x00, 0x00, 0x64, 0x01, 0x00, 0x00, 0x5c, 0x01, 0x00, 0x00,
  0x54, 0x01, 0x00, 0x00, 0x4c, 0x01, 0x00, 0x00, 0x44, 0x01, 0x00, 0x00,
  0x3c, 0x01, 0x00, 0x00, 0x34, 0x01, 0x00, 0x00, 0x2c, 0x01, 0x00, 0x00,
  0x24, 0x01, 0x00, 0x00, 0x1c, 0x01, 0x00, 0x00, 0x14, 0x01, 0x00, 0x00,
  0x0c, 0x01, 0x00, 0x00, 0x04, 0x01, 0x00, 0x00, 0xfc, 0x00, 0x00, 0x00,
  0xf4, 0x00, 0x00, 0x00, 0xec, 0x00, 0x00, 0x00, 0xe4, 0x00, 0x00, 0x00,
  0xdc, 0x00, 0x00, 0x00, 0xd4, 0x00, 0x00, 0x00, 0xcc, 0x00, 0x00, 0x00,
  0xc4, 0x00, 0x00, 0x00, 0xbc, 0x00, 0x00, 0x00, 0xb4, 0x00, 0x00, 0x00,
  0xac, 0x00, 0x00, 0x00, 0xa4, 0x00, 0x00, 0x00, 0x9c, 0x00, 0x00, 0x00,
  0x94, 0x00, 0x00, 0x00, 0x8c, 0x00, 0x00, 0x00, 0x6c, 0x00, 0x00, 0x00,
  0x04, 0x00, 0x00, 0x00, 0x3e, 0xb1, 0xff, 0xff, 0x04, 0x00, 0x00, 0x00,
  0x58, 0x00, 0x00, 0x00, 0x0c, 0x00, 0x00, 0x00, 0x08, 0x00, 0x0e, 0x00,
  0x08, 0x00, 0x04, 0x00, 0x08, 0x00, 0x00, 0x00, 0x10, 0x00, 0x00, 0x00,
  0x28, 0x00, 0x00, 0x00, 0x00, 0x00, 0x06, 0x00, 0x08, 0x00, 0x04, 0x00,
  0x06, 0x00, 0x00, 0x00, 0x04, 0x00, 0x00, 0x00, 0x01, 0x00, 0x00, 0x00,
  0xeb, 0x03, 0x00, 0x00, 0x00, 0x00, 0x0a, 0x00, 0x10, 0x00, 0x0c, 0x00,
  0x08, 0x00, 0x04, 0x00, 0x0a, 0x00, 0x00, 0x00, 0x01, 0x00, 0x00, 0x00,
  0x02, 0x00, 0x00, 0x00, 0x04, 0x00, 0x00, 0x00, 0x06, 0x00, 0x00, 0x00,
  0x32, 0x2e, 0x31, 0x33, 0x2e, 0x30, 0x00, 0x00, 0xa2, 0xb1, 0xff, 0xff,
  0x04, 0x00, 0x00, 0x00, 0x10, 0x00, 0x00, 0x00, 0x32, 0x2e, 0x35, 0x2e,
  0x30, 0x00, 0x00, 0x00, 0x00, 0x00, 0x00, 0x00, 0x00, 0x00, 0x00, 0x00,
  0x1c, 0x96, 0xfe, 0xff, 0x20, 0x96, 0xfe, 0xff, 0x24, 0x96, 0xfe, 0xff,
  0x28, 0x96, 0xfe, 0xff, 0x2c, 0x96, 0xfe, 0xff, 0x30, 0x96, 0xfe, 0xff,
  0x34, 0x96, 0xfe, 0xff, 0x38, 0x96, 0xfe, 0xff, 0x3c, 0x96, 0xfe, 0xff,
  0x40, 0x96, 0xfe, 0xff, 0x44, 0x96, 0xfe, 0xff, 0x48, 0x96, 0xfe, 0xff,
  0x4c, 0x96, 0xfe, 0xff, 0x50, 0x96, 0xfe, 0xff, 0x54, 0x96, 0xfe, 0xff,
  0x58, 0x96, 0xfe, 0xff, 0x5c, 0x96, 0xfe, 0xff, 0x60, 0x96, 0xfe, 0xff,
  0x64, 0x96, 0xfe, 0xff, 0x68, 0x96, 0xfe, 0xff, 0x6c, 0x96, 0xfe, 0xff,
  0x70, 0x96, 0xfe, 0xff, 0x74, 0x96, 0xfe, 0xff, 0x78, 0x96, 0xfe, 0xff,
  0x7c, 0x96, 0xfe, 0xff, 0x80, 0x96, 0xfe, 0xff, 0x84, 0x96, 0xfe, 0xff,
  0x88, 0x96, 0xfe, 0xff, 0x8c, 0x96, 0xfe, 0xff, 0x90, 0x96, 0xfe, 0xff,
  0x94, 0x96, 0xfe, 0xff, 0x98, 0x96, 0xfe, 0xff, 0x9c, 0x96, 0xfe, 0xff,
  0xa0, 0x96, 0xfe, 0xff, 0xa4, 0x96, 0xfe, 0xff, 0xa8, 0x96, 0xfe, 0xff,
  0xac, 0x96, 0xfe, 0xff, 0xb0, 0x96, 0xfe, 0xff, 0xb4, 0x96, 0xfe, 0xff,
  0xb8, 0x96, 0xfe, 0xff, 0xbc, 0x96, 0xfe, 0xff, 0xc0, 0x96, 0xfe, 0xff,
  0xc4, 0x96, 0xfe, 0xff, 0xc8, 0x96, 0xfe, 0xff, 0xcc, 0x96, 0xfe, 0xff,
  0xd0, 0x96, 0xfe, 0xff, 0xd4, 0x96, 0xfe, 0xff, 0xd8, 0x96, 0xfe, 0xff,
  0xdc, 0x96, 0xfe, 0xff, 0xe0, 0x96, 0xfe, 0xff, 0xe4, 0x96, 0xfe, 0xff,
  0xe8, 0x96, 0xfe, 0xff, 0xec, 0x96, 0xfe, 0xff, 0xf0, 0x96, 0xfe, 0xff,
  0xf4, 0x96, 0xfe, 0xff, 0xf8, 0x96, 0xfe, 0xff, 0xfc, 0x96, 0xfe, 0xff,
  0x00, 0x97, 0xfe, 0xff, 0x04, 0x97, 0xfe, 0xff, 0x08, 0x97, 0xfe, 0xff,
  0x0c, 0x97, 0xfe, 0xff, 0x10, 0x97, 0xfe, 0xff, 0x14, 0x97, 0xfe, 0xff,
  0x18, 0x97, 0xfe, 0xff, 0x1c, 0x97, 0xfe, 0xff, 0x20, 0x97, 0xfe, 0xff,
  0x24, 0x97, 0xfe, 0xff, 0x28, 0x97, 0xfe, 0xff, 0x2c, 0x97, 0xfe, 0xff,
  0x30, 0x97, 0xfe, 0xff, 0x34, 0x97, 0xfe, 0xff, 0x38, 0x97, 0xfe, 0xff,
  0x3c, 0x97, 0xfe, 0xff, 0x40, 0x97, 0xfe, 0xff, 0x44, 0x97, 0xfe, 0xff,
  0x48, 0x97, 0xfe, 0xff, 0x4c, 0x97, 0xfe, 0xff, 0x50, 0x97, 0xfe, 0xff,
  0x54, 0x97, 0xfe, 0xff, 0x58, 0x97, 0xfe, 0xff, 0x5c, 0x97, 0xfe, 0xff,
  0x60, 0x97, 0xfe, 0xff, 0x64, 0x97, 0xfe, 0xff, 0x68, 0x97, 0xfe, 0xff,
  0x6c, 0x97, 0xfe, 0xff, 0x70, 0x97, 0xfe, 0xff, 0x74, 0x97, 0xfe, 0xff,
  0x78, 0x97, 0xfe, 0xff, 0x7c, 0x97, 0xfe, 0xff, 0x80, 0x97, 0xfe, 0xff,
  0x84, 0x97, 0xfe, 0xff, 0x88, 0x97, 0xfe, 0xff, 0x8c, 0x97, 0xfe, 0xff,
  0x90, 0x97, 0xfe, 0xff, 0x94, 0x97, 0xfe, 0xff, 0x98, 0x97, 0xfe, 0xff,
  0x9c, 0x97, 0xfe, 0xff, 0xa0, 0x97, 0xfe, 0xff, 0xa4, 0x97, 0xfe, 0xff,
  0xa8, 0x97, 0xfe, 0xff, 0xac, 0x97, 0xfe, 0xff, 0xb0, 0x97, 0xfe, 0xff,
  0xb4, 0x97, 0xfe, 0xff, 0xb8, 0x97, 0xfe, 0xff, 0xbc, 0x97, 0xfe, 0xff,
  0xc0, 0x97, 0xfe, 0xff, 0xc4, 0x97, 0xfe, 0xff, 0xc8, 0x97, 0xfe, 0xff,
  0xcc, 0x97, 0xfe, 0xff, 0xd0, 0x97, 0xfe, 0xff, 0xd4, 0x97, 0xfe, 0xff,
  0xd8, 0x97, 0xfe, 0xff, 0xdc, 0x97, 0xfe, 0xff, 0xe0, 0x97, 0xfe, 0xff,
  0xe4, 0x97, 0xfe, 0xff, 0xe8, 0x97, 0xfe, 0xff, 0xec, 0x97, 0xfe, 0xff,
  0xf0, 0x97, 0xfe, 0xff, 0xf4, 0x97, 0xfe, 0xff, 0xf8, 0x97, 0xfe, 0xff,
  0xfc, 0x97, 0xfe, 0xff, 0x00, 0x98, 0xfe, 0xff, 0x04, 0x98, 0xfe, 0xff,
  0x08, 0x98, 0xfe, 0xff, 0x0c, 0x98, 0xfe, 0xff, 0x10, 0x98, 0xfe, 0xff,
  0x14, 0x98, 0xfe, 0xff, 0x18, 0x98, 0xfe, 0xff, 0x1c, 0x98, 0xfe, 0xff,
  0x20, 0x98, 0xfe, 0xff, 0x24, 0x98, 0xfe, 0xff, 0x28, 0x98, 0xfe, 0xff,
  0x2c, 0x98, 0xfe, 0xff, 0x30, 0x98, 0xfe, 0xff, 0x34, 0x98, 0xfe, 0xff,
  0x38, 0x98, 0xfe, 0xff, 0x3c, 0x98, 0xfe, 0xff, 0x40, 0x98, 0xfe, 0xff,
  0x44, 0x98, 0xfe, 0xff, 0x48, 0x98, 0xfe, 0xff, 0x4c, 0x98, 0xfe, 0xff,
  0x50, 0x98, 0xfe, 0xff, 0x54, 0x98, 0xfe, 0xff, 0x58, 0x98, 0xfe, 0xff,
  0x5c, 0x98, 0xfe, 0xff, 0x60, 0x98, 0xfe, 0xff, 0x64, 0x98, 0xfe, 0xff,
  0x68, 0x98, 0xfe, 0xff, 0x6c, 0x98, 0xfe, 0xff, 0x70, 0x98, 0xfe, 0xff,
  0x74, 0x98, 0xfe, 0xff, 0x78, 0x98, 0xfe, 0xff, 0x7c, 0x98, 0xfe, 0xff,
  0x80, 0x98, 0xfe, 0xff, 0x84, 0x98, 0xfe, 0xff, 0x88, 0x98, 0xfe, 0xff,
  0x8c, 0x98, 0xfe, 0xff, 0x90, 0x98, 0xfe, 0xff, 0x94, 0x98, 0xfe, 0xff,
  0x98, 0x98, 0xfe, 0xff, 0x9c, 0x98, 0xfe, 0xff, 0xa0, 0x98, 0xfe, 0xff,
  0xa4, 0x98, 0xfe, 0xff, 0xa8, 0x98, 0xfe, 0xff, 0xac, 0x98, 0xfe, 0xff,
  0xb0, 0x98, 0xfe, 0xff, 0xb4, 0x98, 0xfe, 0xff, 0xb8, 0x98, 0xfe, 0xff,
  0xbc, 0x98, 0xfe, 0xff, 0xc0, 0x98, 0xfe, 0xff, 0xc4, 0x98, 0xfe, 0xff,
  0xc8, 0x98, 0xfe, 0xff, 0xcc, 0x98, 0xfe, 0xff, 0xd0, 0x98, 0xfe, 0xff,
  0xd4, 0x98, 0xfe, 0xff, 0xd8, 0x98, 0xfe, 0xff, 0xdc, 0x98, 0xfe, 0xff,
  0xe0, 0x98, 0xfe, 0xff, 0xe4, 0x98, 0xfe, 0xff, 0xe8, 0x98, 0xfe, 0xff,
  0xec, 0x98, 0xfe, 0xff, 0xf0, 0x98, 0xfe, 0xff, 0xf4, 0x98, 0xfe, 0xff,
  0xf8, 0x98, 0xfe, 0xff, 0xfc, 0x98, 0xfe, 0xff, 0x00, 0x99, 0xfe, 0xff,
  0x04, 0x99, 0xfe, 0xff, 0x08, 0x99, 0xfe, 0xff, 0x0c, 0x99, 0xfe, 0xff,
  0x10, 0x99, 0xfe, 0xff, 0x14, 0x99, 0xfe, 0xff, 0x18, 0x99, 0xfe, 0xff,
  0x1c, 0x99, 0xfe, 0xff, 0x20, 0x99, 0xfe, 0xff, 0x24, 0x99, 0xfe, 0xff,
  0x28, 0x99, 0xfe, 0xff, 0x2c, 0x99, 0xfe, 0xff, 0x30, 0x99, 0xfe, 0xff,
  0x34, 0x99, 0xfe, 0xff, 0x38, 0x99, 0xfe, 0xff, 0x3c, 0x99, 0xfe, 0xff,
  0x40, 0x99, 0xfe, 0xff, 0x44, 0x99, 0xfe, 0xff, 0x48, 0x99, 0xfe, 0xff,
  0x4c, 0x99, 0xfe, 0xff, 0x50, 0x99, 0xfe, 0xff, 0x54, 0x99, 0xfe, 0xff,
  0x58, 0x99, 0xfe, 0xff, 0x5c, 0x99, 0xfe, 0xff, 0x60, 0x99, 0xfe, 0xff,
  0x64, 0x99, 0xfe, 0xff, 0x68, 0x99, 0xfe, 0xff, 0x6c, 0x99, 0xfe, 0xff,
  0x70, 0x99, 0xfe, 0xff, 0x74, 0x99, 0xfe, 0xff, 0x78, 0x99, 0xfe, 0xff,
  0x7c, 0x99, 0xfe, 0xff, 0x80, 0x99, 0xfe, 0xff, 0x84, 0x99, 0xfe, 0xff,
  0x88, 0x99, 0xfe, 0xff, 0x8c, 0x99, 0xfe, 0xff, 0x90, 0x99, 0xfe, 0xff,
  0x94, 0x99, 0xfe, 0xff, 0x98, 0x99, 0xfe, 0xff, 0x9c, 0x99, 0xfe, 0xff,
  0xa0, 0x99, 0xfe, 0xff, 0xa4, 0x99, 0xfe, 0xff, 0xa8, 0x99, 0xfe, 0xff,
  0xac, 0x99, 0xfe, 0xff, 0xb0, 0x99, 0xfe, 0xff, 0xb4, 0x99, 0xfe, 0xff,
  0xb8, 0x99, 0xfe, 0xff, 0xbc, 0x99, 0xfe, 0xff, 0xc0, 0x99, 0xfe, 0xff,
  0xc4, 0x99, 0xfe, 0xff, 0xc8, 0x99, 0xfe, 0xff, 0xcc, 0x99, 0xfe, 0xff,
  0xd0, 0x99, 0xfe, 0xff, 0xd4, 0x99, 0xfe, 0xff, 0xd8, 0x99, 0xfe, 0xff,
  0xdc, 0x99, 0xfe, 0xff, 0xe0, 0x99, 0xfe, 0xff, 0xe4, 0x99, 0xfe, 0xff,
  0xe8, 0x99, 0xfe, 0xff, 0xec, 0x99, 0xfe, 0xff, 0xf0, 0x99, 0xfe, 0xff,
  0xf4, 0x99, 0xfe, 0xff, 0xf8, 0x99, 0xfe, 0xff, 0xfc, 0x99, 0xfe, 0xff,
  0x00, 0x9a, 0xfe, 0xff, 0x04, 0x9a, 0xfe, 0xff, 0x08, 0x9a, 0xfe, 0xff,
  0x0c, 0x9a, 0xfe, 0xff, 0x10, 0x9a, 0xfe, 0xff, 0x14, 0x9a, 0xfe, 0xff,
  0x18, 0x9a, 0xfe, 0xff, 0x1c, 0x9a, 0xfe, 0xff, 0x20, 0x9a, 0xfe, 0xff,
  0x24, 0x9a, 0xfe, 0xff, 0x28, 0x9a, 0xfe, 0xff, 0x2c, 0x9a, 0xfe, 0xff,
  0x30, 0x9a, 0xfe, 0xff, 0x34, 0x9a, 0xfe, 0xff, 0x38, 0x9a, 0xfe, 0xff,
  0x3c, 0x9a, 0xfe, 0xff, 0x40, 0x9a, 0xfe, 0xff, 0x44, 0x9a, 0xfe, 0xff,
  0x48, 0x9a, 0xfe, 0xff, 0x4c, 0x9a, 0xfe, 0xff, 0x50, 0x9a, 0xfe, 0xff,
  0x54, 0x9a, 0xfe, 0xff, 0x58, 0x9a, 0xfe, 0xff, 0x5c, 0x9a, 0xfe, 0xff,
  0x60, 0x9a, 0xfe, 0xff, 0x64, 0x9a, 0xfe, 0xff, 0x68, 0x9a, 0xfe, 0xff,
  0x6c, 0x9a, 0xfe, 0xff, 0x70, 0x9a, 0xfe, 0xff, 0x74, 0x9a, 0xfe, 0xff,
  0x78, 0x9a, 0xfe, 0xff, 0x7c, 0x9a, 0xfe, 0xff, 0x80, 0x9a, 0xfe, 0xff,
  0x84, 0x9a, 0xfe, 0xff, 0x88, 0x9a, 0xfe, 0xff, 0x8c, 0x9a, 0xfe, 0xff,
  0x90, 0x9a, 0xfe, 0xff, 0x94, 0x9a, 0xfe, 0xff, 0x98, 0x9a, 0xfe, 0xff,
  0x9c, 0x9a, 0xfe, 0xff, 0xa0, 0x9a, 0xfe, 0xff, 0xa4, 0x9a, 0xfe, 0xff,
  0xa8, 0x9a, 0xfe, 0xff, 0xac, 0x9a, 0xfe, 0xff, 0xb0, 0x9a, 0xfe, 0xff,
  0xb4, 0x9a, 0xfe, 0xff, 0x5a, 0xb6, 0xff, 0xff, 0x04, 0x00, 0x00, 0x00,
  0x00, 0x02, 0x00, 0x00, 0xfa, 0x0c, 0x00, 0xfb, 0xf5, 0xf7, 0xff, 0x02,
  0x1f, 0x23, 0x10, 0x04, 0x0e, 0x12, 0x26, 0x24, 0x22, 0x1f, 0x09, 0x22,
  0x14, 0xeb, 0x01, 0x0c, 0xe0, 0xdd, 0xbb, 0xb5, 0x91, 0x8f, 0x8a, 0x81,
  0x9a, 0x98, 0xba, 0xca, 0xcc, 0xb6, 0xd9, 0xda, 0x14, 0x1d, 0xfb, 0x03,
  0x0e, 0x10, 0x08, 0xfe, 0x0a, 0xfb, 0xfb, 0xfe, 0x0a, 0x06, 0xfc, 0x0d,
  0x06, 0xfa, 0xf5, 0x09, 0xf5, 0xf9, 0x05, 0xf0, 0xfc, 0x06, 0x06, 0x0b,
  0xfb, 0x00, 0x14, 0x03, 0xe2, 0xfe, 0xfc, 0xf3, 0xeb, 0xef, 0x09, 0xf3,
  0xe9, 0xf3, 0xed, 0xeb, 0xeb, 0xe7, 0xf6, 0x00, 0xf4, 0xf9, 0xfa, 0xea,
  0x03, 0xe9, 0xfd, 0xfa, 0xe9, 0x21, 0xf9, 0x13, 0x0a, 0x0d, 0x20, 0x52,
  0x4a, 0x65, 0x69, 0x7f, 0x73, 0x68, 0x5e, 0x6e, 0x68, 0x4c, 0x30, 0x2f,
  0x2a, 0x18, 0x18, 0x19, 0x25, 0x28, 0x11, 0x2b, 0x32, 0x1f, 0x30, 0x3f,
  0x0f, 0x13, 0xf3, 0xf0, 0xf5, 0xd6, 0xca, 0xae, 0x90, 0xa9, 0x8b, 0x9c,
  0x95, 0x8f, 0x81, 0x82, 0x8b, 0x9e, 0xa5, 0xb8, 0xb6, 0xb2, 0xb4, 0xb2,
  0xc2, 0xdd, 0xf3, 0x09, 0x00, 0xe9, 0xf0, 0xf4, 0xe6, 0x04, 0x16, 0x0a,
  0xe2, 0xf2, 0xf1, 0x0e, 0xe7, 0x02, 0xfd, 0x18, 0xf3, 0x0e, 0xef, 0xfd,
  0x08, 0x0f, 0x0c, 0x0b, 0x03, 0x05, 0xeb, 0x0f, 0x03, 0x01, 0x15, 0x11,
  0x00, 0x06, 0x00, 0x07, 0x06, 0x0b, 0xfc, 0x07, 0x02, 0xfc, 0xfa, 0xef,
  0xe6, 0xe5, 0xc6, 0xd0, 0xd5, 0xd0, 0xda, 0xd5, 0xdc, 0xf5, 0xe9, 0xf8,
  0x05, 0x0e, 0x34, 0x52, 0x4f, 0x66, 0x79, 0x69, 0x7f, 0x71, 0x5e, 0x59,
  0x40, 0x18, 0x2d, 0x11, 0x0a, 0xf2, 0xfd, 0xf4, 0xf4, 0xef, 0xf2, 0xf6,
  0xe2, 0xe8, 0x0a, 0x02, 0xfa, 0x04, 0x0d, 0xfb, 0x0c, 0x0c, 0x0c, 0x01,
  0xf4, 0xf1, 0x01, 0xf5, 0xf3, 0xfc, 0xfb, 0xee, 0xf6, 0xf7, 0xd7, 0xc7,
  0xe0, 0xc1, 0xe1, 0xda, 0xcb, 0xc5, 0xc4, 0xa8, 0xb2, 0x81, 0xa4, 0xb7,
  0xc3, 0x89, 0xbf, 0xb6, 0xb8, 0xa2, 0xa6, 0xdc, 0xe8, 0xaf, 0x00, 0xbd,
  0xd4, 0xb0, 0xb4, 0xc3, 0xe1, 0x9c, 0xc5, 0xae, 0xca, 0xd4, 0xf2, 0xf6,
  0xe8, 0xd8, 0xe7, 0xdb, 0xcb, 0xed, 0xe9, 0x03, 0xf3, 0xff, 0xed, 0xdf,
  0xe4, 0xda, 0x05, 0xf8, 0xf4, 0xf1, 0xe5, 0xf5, 0xe8, 0xe7, 0xfe, 0xfd,
  0x52, 0x15, 0x41, 0x17, 0x54, 0x58, 0x70, 0x2e, 0x4c, 0x58, 0x47, 0x4f,
  0x59, 0x4b, 0x53, 0x32, 0x4e, 0x4c, 0x74, 0x7f, 0x66, 0x68, 0x60, 0x4a,
  0x31, 0x6a, 0x29, 0x27, 0xf1, 0xf9, 0xf2, 0xd1, 0xd9, 0xda, 0xf8, 0xe9,
  0xc1, 0xec, 0xd5, 0xf4, 0x0e, 0xd4, 0x16, 0xfc, 0x21, 0xfe, 0x0f, 0x0d,
  0x08, 0xd3, 0x02, 0xe2, 0xe9, 0xee, 0xe4, 0xf2, 0xd1, 0xb9, 0xc0, 0xcb,
  0xb0, 0xc4, 0xc3, 0xe0, 0x0d, 0x03, 0xf5, 0x06, 0xeb, 0xf3, 0xeb, 0xfc,
  0xf4, 0xf3, 0xd8, 0xf3, 0xee, 0xf4, 0xeb, 0x1a, 0x26, 0x33, 0x30, 0x63,
  0x59, 0x6e, 0x67, 0x70, 0x79, 0x64, 0x7f, 0x66, 0x68, 0x59, 0x46, 0x24,
  0x43, 0x35, 0x22, 0x14, 0x2d, 0x0c, 0xf5, 0x01, 0x1a, 0x0b, 0x1b, 0x07,
  0x13, 0x10, 0x29, 0x10, 0x19, 0x1a, 0x27, 0xfe, 0x1d, 0x14, 0x07, 0x04,
  0xf4, 0xf2, 0x0c, 0xf1, 0xee, 0xfd, 0xf6, 0xf3, 0xff, 0xc3, 0xa3, 0xa7,
  0xd3, 0x9f, 0x8c, 0xa7, 0xdc, 0xbc, 0xd1, 0xf9, 0xde, 0xba, 0xce, 0xe8,
  0xee, 0xf8, 0x05, 0xd9, 0xe5, 0xe1, 0x0b, 0xfa, 0xf8, 0x28, 0x24, 0x45,
  0x30, 0x3f, 0x31, 0x29, 0x48, 0x37, 0x17, 0xef, 0xe4, 0xd2, 0xd2, 0xbc,
  0xa6, 0x81, 0x86, 0xb9, 0x9c, 0xa2, 0xa3, 0xda, 0xcf, 0xd6, 0xe6, 0xed,
  0xf9, 0x0c, 0x26, 0x2e, 0x5f, 0x5c, 0x46, 0x34, 0x46, 0x66, 0x3e, 0x4c,
  0x66, 0xb8, 0xff, 0xff, 0x04, 0x00, 0x00, 0x00, 0x20, 0x00, 0x00, 0x00,
  0x66, 0x2f, 0x00, 0x00, 0xad, 0x14, 0x00, 0x00, 0x7f, 0x4d, 0x00, 0x00,
  0xbc, 0x30, 0x00, 0x00, 0x15, 0x2f, 0x00, 0x00, 0xf9, 0xba, 0xff, 0xff,
  0xa0, 0xf8, 0xff, 0xff, 0xcd, 0x08, 0x00, 0x00, 0x92, 0xb8, 0xff, 0xff,
  0x04, 0x00, 0x00, 0x00, 0x7f, 0x00, 0x00, 0x00, 0xf5, 0x01, 0x0b, 0xf3,
  0xef, 0xf3, 0xf9, 0x01, 0x08, 0x07, 0x02, 0xec, 0xdf, 0xfe, 0x02, 0x04,
  0x04, 0x04, 0x06, 0x03, 0xf9, 0xf4, 0x00, 0xf5, 0xfb, 0x03, 0x00, 0xe9,
  0xe3, 0xe0, 0xce, 0xb9, 0xcb, 0xf3, 0x07, 0x17, 0x0b, 0xad, 0x81, 0xd3,
  0x20, 0x17, 0x02, 0x0a, 0x14, 0x0e, 0x04, 0xfb, 0xee, 0xf8, 0x0e, 0x1a,
  0x0f, 0xf9, 0xd5, 0xda, 0x02, 0x0e, 0x00, 0x04, 0xff, 0xf8, 0xfa, 0xff,
  0xf7, 0xf8, 0xec, 0xf3, 0x00, 0xf7, 0xe1, 0xdc, 0xea, 0xd7, 0xba, 0xd5,
  0x01, 0x0d, 0x15, 0x05, 0xb7, 0x9c, 0xed, 0x2d, 0x19, 0x0d, 0x0d, 0x08,
  0x03, 0xf6, 0xf5, 0xeb, 0x04, 0x13, 0x21, 0x17, 0xf6, 0xce, 0xd4, 0x03,
  0x11, 0x0d, 0x0c, 0x00, 0xfe, 0xfd, 0xfa, 0xf7, 0xee, 0xeb, 0xf8, 0x0a,
  0xf9, 0xf2, 0xe8, 0xeb, 0xdb, 0xcd, 0xe1, 0x02, 0x08, 0x16, 0x03, 0xbc,
  0xb7, 0x05, 0x35, 0x00, 0x7c, 0x9d, 0xfe, 0xff, 0x80, 0x9d, 0xfe, 0xff,
  0x84, 0x9d, 0xfe, 0xff, 0x88, 0x9d, 0xfe, 0xff, 0x8c, 0x9d, 0xfe, 0xff,
  0x90, 0x9d, 0xfe, 0xff, 0x94, 0x9d, 0xfe, 0xff, 0x98, 0x9d, 0xfe, 0xff,
  0x9c, 0x9d, 0xfe, 0xff, 0xa0, 0x9d, 0xfe, 0xff, 0xa4, 0x9d, 0xfe, 0xff,
  0xa8, 0x9d, 0xfe, 0xff, 0xac, 0x9d, 0xfe, 0xff, 0xb0, 0x9d, 0xfe, 0xff,
  0xb4, 0x9d, 0xfe, 0xff, 0xb8, 0x9d, 0xfe, 0xff, 0xbc, 0x9d, 0xfe, 0xff,
  0xc0, 0x9d, 0xfe, 0xff, 0xc4, 0x9d, 0xfe, 0xff, 0xc8, 0x9d, 0xfe, 0xff,
  0xcc, 0x9d, 0xfe, 0xff, 0xd0, 0x9d, 0xfe, 0xff, 0xd4, 0x9d, 0xfe, 0xff,
  0xd8, 0x9d, 0xfe, 0xff, 0xdc, 0x9d, 0xfe, 0xff, 0xe0, 0x9d, 0xfe, 0xff,
  0xe4, 0x9d, 0xfe, 0xff, 0xe8, 0x9d, 0xfe, 0xff, 0xec, 0x9d, 0xfe, 0xff,
  0xf0, 0x9d, 0xfe, 0xff, 0xf4, 0x9d, 0xfe, 0xff, 0xf8, 0x9d, 0xfe, 0xff,
  0xfc, 0x9d, 0xfe, 0xff, 0x00, 0x9e, 0xfe, 0xff, 0x04, 0x9e, 0xfe, 0xff,
  0x08, 0x9e, 0xfe, 0xff, 0x0c, 0x9e, 0xfe, 0xff, 0x10, 0x9e, 0xfe, 0xff,
  0x14, 0x9e, 0xfe, 0xff, 0x18, 0x9e, 0xfe, 0xff, 0x1c, 0x9e, 0xfe, 0xff,
  0x20, 0x9e, 0xfe, 0xff, 0x24, 0x9e, 0xfe, 0xff, 0x28, 0x9e, 0xfe, 0xff,
  0x2c, 0x9e, 0xfe, 0xff, 0x30, 0x9e, 0xfe, 0xff, 0x34, 0x9e, 0xfe, 0xff,
  0x38, 0x9e, 0xfe, 0xff, 0x3c, 0x9e, 0xfe, 0xff, 0x40, 0x9e, 0xfe, 0xff,
  0x44, 0x9e, 0xfe, 0xff, 0x48, 0x9e, 0xfe, 0xff, 0x4c, 0x9e, 0xfe, 0xff,
  0x50, 0x9e, 0xfe, 0xff, 0x54, 0x9e, 0xfe, 0xff, 0xfa, 0xb9, 0xff, 0xff,
  0x04, 0x00, 0x00, 0x00, 0x04, 0x00, 0x00, 0x00, 0x00, 0x00, 0x00, 0x00,
  0x0a, 0xba, 0xff, 0xff, 0x04, 0x00, 0x00, 0x00, 0x7f, 0x00, 0x00, 0x00,
  0xfb, 0xfa, 0xfb, 0x00, 0x00, 0x09, 0x06, 0xfe, 0xe0, 0xd0, 0xb5, 0xae,
  0xb3, 0xca, 0xf6, 0x16, 0x24, 0x19, 0x02, 0xcb, 0x9b, 0x82, 0xb1, 0xda,
  0xfa, 0x0d, 0x01, 0xfb, 0xff, 0x07, 0x0c, 0x08, 0x01, 0x09, 0x0e, 0x13,
  0x0b, 0xf9, 0xed, 0xf3, 0xfc, 0x09, 0x08, 0x07, 0x06, 0x04, 0x09, 0x09,
  0x09, 0xfc, 0xf5, 0xd6, 0xcd, 0xbf, 0xb4, 0xb2, 0xcc, 0xf6, 0x20, 0x24,
  0x15, 0xea, 0xb0, 0x85, 0x81, 0xa6, 0xe2, 0xfb, 0x06, 0xfa, 0xf8, 0xf9,
  0xfe, 0x04, 0x02, 0x06, 0x07, 0x0b, 0x11, 0x02, 0xfc, 0xfe, 0xfa, 0x06,
  0x11, 0x12, 0x18, 0x19, 0x0d, 0x0c, 0x07, 0xf8, 0xe7, 0xd5, 0xc4, 0xc5,
  0xb8, 0xb5, 0xc2, 0xd5, 0xfb, 0x1c, 0x17, 0x02, 0xd7, 0xb9, 0xa1, 0xb4,
  0xd2, 0xf0, 0xfc, 0x04, 0x00, 0xfc, 0xfe, 0xfb, 0xf7, 0xf7, 0xfd, 0xfb,
  0xfd, 0x0c, 0x07, 0xfa, 0xf4, 0xfb, 0x05, 0x00, 0x96, 0xba, 0xff, 0xff,
  0x04, 0x00, 0x00, 0x00, 0x7f, 0x00, 0x00, 0x00, 0xd5, 0xe3, 0xee, 0xfb,
  0x06, 0x08, 0x03, 0xec, 0xeb, 0xca, 0xc1, 0xbf, 0xd4, 0xda, 0xed, 0xf5,
  0xf4, 0x07, 0x03, 0x00, 0xfb, 0xff, 0x0b, 0x1b, 0x16, 0x0b, 0x10, 0x02,
  0xfc, 0xf4, 0xf4, 0xf0, 0xf3, 0xea, 0xd9, 0xce, 0xc7, 0xc1, 0x98, 0x81,
  0x8f, 0xb5, 0xdc, 0xf3, 0xfc, 0xfe, 0x05, 0x05, 0x02, 0xf5, 0xdd, 0xcb,
  0xb1, 0x9b, 0x9e, 0xb3, 0xd8, 0xda, 0xec, 0xfb, 0x0c, 0x08, 0xfd, 0xfe,
  0x0a, 0x24, 0x2a, 0x18, 0x02, 0x05, 0x0e, 0x0e, 0x0d, 0x05, 0xf8, 0xf9,
  0xec, 0xdf, 0xdd, 0xdb, 0xd5, 0xc5, 0xb7, 0xbc, 0xe6, 0x08, 0x11, 0x18,
  0x12, 0x11, 0x07, 0xf3, 0xeb, 0xd5, 0xaf, 0x91, 0x86, 0x9a, 0xac, 0xbf,
  0xcd, 0xe5, 0xf7, 0x02, 0x0d, 0xff, 0xf0, 0xf8, 0x05, 0x11, 0xfa, 0x06,
  0xfc, 0x0b, 0x0e, 0x06, 0xfb, 0xf2, 0xff, 0xf6, 0xe9, 0xe2, 0xe7, 0xda,
  0xcb, 0xb5, 0xd3, 0x00, 0x22, 0xbb, 0xff, 0xff, 0x04, 0x00, 0x00, 0x00,
  0x7f, 0x00, 0x00, 0x00, 0x05, 0x06, 0x00, 0x08, 0x0d, 0xf7, 0x01, 0xfe,
  0xd4, 0xfa, 0x17, 0x0b, 0x0c, 0xfa, 0xce, 0xb2, 0x28, 0x48, 0xec, 0xf0,
  0xf6, 0x0d, 0x00, 0xff, 0x03, 0xe7, 0xeb, 0xe0, 0xe8, 0xea, 0xf5, 0x0b,
  0x25, 0x6c, 0x0c, 0xb1, 0xff, 0xfa, 0xb6, 0xc6, 0xd8, 0xf7, 0x0e, 0xf6,
  0xff, 0xfd, 0x06, 0x16, 0x13, 0xf3, 0xe7, 0xcd, 0xef, 0x22, 0x1d, 0x0e,
  0xfc, 0xb9, 0xad, 0x1d, 0x33, 0xe4, 0xfe, 0x01, 0x09, 0xf8, 0xf6, 0xed,
  0xe6, 0xee, 0xe5, 0xec, 0xec, 0x05, 0x02, 0x2f, 0x7f, 0x12, 0xcb, 0x1c,
  0x0a, 0xc4, 0xd6, 0xe5, 0xf2, 0x08, 0x06, 0x0a, 0x03, 0x0e, 0x0e, 0x00,
  0xf8, 0xe4, 0xcc, 0x11, 0x36, 0x19, 0x09, 0xe6, 0xaf, 0xce, 0x4f, 0x29,
  0xeb, 0x13, 0x08, 0xf9, 0xf4, 0xf7, 0xe6, 0xe3, 0xec, 0xe3, 0xf1, 0x00,
  0xfe, 0xf5, 0x28, 0x43, 0xe8, 0xdf, 0x02, 0xe3, 0xd1, 0xe3, 0xf6, 0x00,
  0xae, 0xbb, 0xff, 0xff, 0x04, 0x00, 0x00, 0x00, 0x7f, 0x00, 0x00, 0x00,
  0xb3, 0xb7, 0xc4, 0x02, 0x24, 0x1b, 0x0c, 0x06, 0x05, 0xea, 0xd6, 0xf6,
  0x26, 0x4d, 0x5d, 0x50, 0x33, 0x12, 0xea, 0xe8, 0xc3, 0xba, 0xc4, 0xe3,
  0xee, 0x02, 0x03, 0xec, 0xf8, 0xe5, 0xe1, 0xaa, 0x81, 0x9f, 0xa0, 0xbb,
  0xd3, 0xac, 0x93, 0x91, 0xac, 0xcd, 0xba, 0xb1, 0xab, 0xc5, 0xfb, 0x1c,
  0x44, 0x25, 0x30, 0x34, 0x1e, 0x08, 0x0d, 0x53, 0x61, 0x5c, 0x46, 0x33,
  0xf8, 0xd1, 0xcc, 0x9e, 0xaf, 0xbd, 0xd2, 0xd4, 0xd3, 0xee, 0xc7, 0xe6,
  0xec, 0xd6, 0xa4, 0x8a, 0xa0, 0xbc, 0xbf, 0xc5, 0x9d, 0xab, 0xb0, 0xb3,
  0xbb, 0xd0, 0xc4, 0xcd, 0xd8, 0x00, 0x16, 0x35, 0x28, 0x34, 0x2c, 0x2d,
  0x37, 0x40, 0x44, 0x4f, 0x49, 0x16, 0x10, 0xf7, 0xd2, 0xa2, 0xba, 0xcf,
  0xcf, 0xf0, 0xe0, 0xfb, 0xe7, 0x02, 0x1d, 0x1a, 0xf7, 0xcb, 0xb1, 0xac,
  0xc4, 0xd8, 0xcf, 0xb7, 0xc4, 0xbf, 0xb5, 0x00, 0x3a, 0xbc, 0xff, 0xff,
  0x04, 0x00, 0x00, 0x00, 0x7f, 0x00, 0x00, 0x00, 0x12, 0x18, 0x0d, 0xfa,
  0xd6, 0xf5, 0xfe, 0x1c, 0x4c, 0x47, 0x0f, 0x01, 0xba, 0xd9, 0xba, 0xe0,
  0x2e, 0x23, 0xb3, 0xc8, 0xe5, 0x27, 0x19, 0xd9, 0x93, 0xab, 0xb0, 0xe7,
  0xfa, 0xeb, 0xd2, 0xce, 0xd0, 0xa5, 0x98, 0x8c, 0xaf, 0x81, 0x85, 0xb2,
  0x02, 0x34, 0x54, 0x55, 0x27, 0x0d, 0xf8, 0xf9, 0xff, 0x01, 0x2d, 0x5e,
  0x46, 0x21, 0xe2, 0xcb, 0xd5, 0xc0, 0xf4, 0x41, 0x1e, 0xdb, 0xce, 0xfc,
  0x0d, 0xfe, 0xda, 0x9f, 0x85, 0xb6, 0xf8, 0x1b, 0x03, 0xf0, 0xdd, 0xd4,
  0xaf, 0x8f, 0x99, 0x83, 0x9e, 0xb2, 0xe4, 0x1b, 0x4f, 0x54, 0x41, 0x1b,
  0xfd, 0xf3, 0xe1, 0xec, 0x02, 0x27, 0x50, 0x41, 0x0d, 0xe0, 0xd1, 0xc5,
  0xa0, 0xe7, 0x2c, 0x1f, 0xd3, 0xce, 0xfa, 0x0c, 0x1c, 0x10, 0xcb, 0x92,
  0xcb, 0xf0, 0xe0, 0xd3, 0xd4, 0x01, 0x04, 0xe4, 0xc1, 0xc2, 0x9e, 0x8d,
  0x9d, 0xe7, 0x13, 0x00, 0xc6, 0xbc, 0xff, 0xff, 0x04, 0x00, 0x00, 0x00,
  0x7f, 0x00, 0x00, 0x00, 0xb6, 0xe2, 0x00, 0x10, 0xfd, 0x10, 0x14, 0x0e,
  0x01, 0x06, 0x09, 0x12, 0x14, 0x03, 0x07, 0x0c, 0x22, 0xee, 0xcd, 0xeb,
  0x0e, 0xfd, 0x06, 0xf9, 0xf0, 0xee, 0x06, 0x18, 0x2e, 0x35, 0x25, 0x0a,
  0xf7, 0xcb, 0xb6, 0xfa, 0x12, 0xea, 0xb0, 0x91, 0x81, 0xa7, 0xb4, 0xd9,
  0xf7, 0x07, 0x2c, 0x25, 0x21, 0x2a, 0x19, 0x0d, 0x0b, 0x09, 0x09, 0xf8,
  0xf6, 0xde, 0xf7, 0x10, 0xd6, 0xcf, 0xe1, 0xfe, 0xf4, 0x00, 0x00, 0xf6,
  0xec, 0xf7, 0x06, 0x1f, 0x24, 0x1f, 0x19, 0x0b, 0xda, 0xb7, 0xeb, 0x18,
  0xf8, 0xca, 0x9f, 0x9b, 0xb5, 0xbe, 0xda, 0xf8, 0x25, 0x41, 0x43, 0x3f,
  0x2e, 0x12, 0x06, 0x12, 0x1b, 0x23, 0x1a, 0x0e, 0x02, 0x25, 0x2d, 0x04,
  0x02, 0x03, 0x1f, 0x1c, 0x08, 0x05, 0xef, 0xe5, 0xf6, 0x0d, 0x28, 0x2d,
  0x1d, 0x12, 0xe9, 0xc3, 0xa0, 0xdd, 0x00, 0xf0, 0xdd, 0xb3, 0x9d, 0x00,
  0x52, 0xbd, 0xff, 0xff, 0x04, 0x00, 0x00, 0x00, 0x7f, 0x00, 0x00, 0x00,
  0xd4, 0xcf, 0xb3, 0x8f, 0x9c, 0xae, 0xd2, 0xec, 0xec, 0xea, 0xc5, 0xba,
  0xfb, 0xf9, 0xe4, 0xf8, 0x12, 0x0d, 0xde, 0xf8, 0x1c, 0x17, 0x15, 0x12,
  0x0a, 0x15, 0x1a, 0x0a, 0xd1, 0xc5, 0xc2, 0xba, 0xb6, 0xd8, 0xd1, 0xbf,
  0xd9, 0x00, 0x0b, 0x0b, 0x1f, 0x28, 0x04, 0xe1, 0xe3, 0xb7, 0x99, 0x97,
  0xa0, 0xd1, 0xe8, 0xc5, 0xcc, 0xab, 0xe7, 0x08, 0x0b, 0xf4, 0xf0, 0x04,
  0xfa, 0xd8, 0x0a, 0x30, 0x14, 0xf8, 0x01, 0x10, 0x1b, 0x0d, 0x03, 0xe1,
  0xe2, 0xd1, 0xc6, 0xb7, 0xdf, 0xbd, 0xbb, 0xd7, 0xdf, 0xf9, 0x16, 0x3e,
  0x20, 0xf4, 0xc5, 0xba, 0x9d, 0xa7, 0x84, 0x81, 0xad, 0xe9, 0xe3, 0xc4,
  0xb2, 0xeb, 0x0a, 0x13, 0xf7, 0xe9, 0xf8, 0xeb, 0xf1, 0x0e, 0x1f, 0x01,
  0x0e, 0xf9, 0x03, 0x07, 0x0b, 0xff, 0xf0, 0xed, 0xe2, 0xd1, 0xdb, 0xdd,
  0xcf, 0xc8, 0xee, 0x0b, 0xfb, 0x06, 0x34, 0x00, 0xde, 0xbd, 0xff, 0xff,
  0x04, 0x00, 0x00, 0x00, 0x08, 0x00, 0x00, 0x00, 0x7f, 0x47, 0x2f, 0x17,
  0xaf, 0xdb, 0x9e, 0x49, 0xf2, 0xbd, 0xff, 0xff, 0x04, 0x00, 0x00, 0x00,
  0x40, 0x00, 0x00, 0x00, 0x7f, 0xff, 0x1c, 0x19, 0xfa, 0xe8, 0xf5, 0x31,
  0x6f, 0x7f, 0xd9, 0x12, 0x27, 0x25, 0xe2, 0x38, 0x30, 0x77, 0xb1, 0xe0,
  0x1a, 0xfc, 0x81, 0xfb, 0x44, 0x0c, 0x5f, 0x81, 0xa0, 0x37, 0x2d, 0xd9,
  0x04, 0x54, 0xe0, 0x73, 0xf6, 0x18, 0x81, 0x3a, 0x7d, 0x41, 0x7f, 0x0e,
  0xb8, 0x17, 0x49, 0x6e, 0x7f, 0x24, 0x8e, 0x24, 0x54, 0xe3, 0x72, 0xa3,
  0xe0, 0x51, 0x1c, 0x4b, 0x0d, 0x82, 0xc1, 0x81, 0x3e, 0xbe, 0xff, 0xff,
  0x04, 0x00, 0x00, 0x00, 0x20, 0x00, 0x00, 0x00, 0xd1, 0xea, 0xff, 0xff,
  0x99, 0xef, 0xff, 0xff, 0xfb, 0xff, 0xff, 0xff, 0xc1, 0xf8, 0xff, 0xff,
  0xb4, 0xf5, 0xff, 0xff, 0x9a, 0xe4, 0xff, 0xff, 0x38, 0xf5, 0xff, 0xff,
  0x89, 0x02, 0x00, 0x00, 0x6a, 0xbe, 0xff, 0xff, 0x04, 0x00, 0x00, 0x00,
  0x7f, 0x00, 0x00, 0x00, 0xe5, 0xe1, 0xd3, 0xd3, 0xcf, 0xe6, 0x00, 0xf2,
  0xf1, 0x26, 0x16, 0xf9, 0xed, 0xe7, 0xdb, 0xe0, 0xf4, 0x00, 0xf9, 0xf4,
  0xf8, 0x13, 0x2d, 0x3a, 0x2c, 0xff, 0xf9, 0xdb, 0xde, 0xfa, 0x05, 0x0a,
  0xf8, 0xd0, 0xb9, 0xa4, 0xb3, 0xd2, 0x06, 0x03, 0x25, 0x2e, 0x18, 0xd4,
  0xb3, 0xa6, 0x95, 0xad, 0xd5, 0xf5, 0x03, 0x16, 0x1c, 0x1c, 0x0a, 0xfb,
  0xda, 0xdd, 0xed, 0xea, 0xd7, 0xe8, 0xec, 0xf5, 0x00, 0x15, 0x32, 0x1f,
  0xff, 0xd6, 0xe9, 0xfb, 0xf5, 0x20, 0x12, 0xf3, 0xd7, 0xc0, 0xbe, 0xcf,
  0xfa, 0x0b, 0x03, 0x28, 0x23, 0xf4, 0xc7, 0xc6, 0x92, 0x81, 0xa3, 0xec,
  0xfd, 0x1c, 0x2e, 0x3a, 0x0a, 0xfe, 0x01, 0xd5, 0xcd, 0xe2, 0xe2, 0xd7,
  0xed, 0xe7, 0xf3, 0x02, 0x16, 0x0b, 0x0b, 0xec, 0xd4, 0xd1, 0xed, 0xf9,
  0x05, 0xe9, 0xce, 0xc8, 0xcc, 0xd1, 0xc9, 0x05, 0xfc, 0x02, 0x04, 0x00,
  0xf6, 0xbe, 0xff, 0xff, 0x04, 0x00, 0x00, 0x00, 0x7f, 0x00, 0x00, 0x00,
  0xd9, 0xf4, 0x0d, 0x03, 0x05, 0xfc, 0xf1, 0xb7, 0xb0, 0xc3, 0xe5, 0xed,
  0x04, 0x37, 0x31, 0x46, 0x3b, 0x3f, 0x4b, 0x3b, 0x27, 0x18, 0x20, 0x29,
  0x44, 0x4c, 0x22, 0x05, 0xf4, 0xf9, 0xe8, 0xd1, 0xc7, 0xb3, 0x81, 0x8a,
  0xb5, 0xdb, 0xea, 0xff, 0xe3, 0xe3, 0xe8, 0xf8, 0xfe, 0xfc, 0xfc, 0x09,
  0xfa, 0xe9, 0xce, 0xce, 0xf0, 0x02, 0xfa, 0x04, 0x2f, 0x3b, 0x46, 0x58,
  0x73, 0x6c, 0x64, 0x3e, 0x3c, 0x46, 0x3d, 0x32, 0x3a, 0x22, 0xfe, 0xe9,
  0xd9, 0xc8, 0xc1, 0xc2, 0xbe, 0x89, 0x89, 0xbb, 0xc8, 0xd0, 0xcd, 0xc7,
  0xc5, 0xe0, 0xe8, 0xe1, 0xeb, 0xef, 0xe4, 0xe3, 0xc9, 0xc1, 0xc0, 0xe7,
  0xf0, 0x03, 0xf0, 0xed, 0x07, 0x16, 0x45, 0x37, 0x28, 0x0b, 0xf5, 0x04,
  0x04, 0x0c, 0x1b, 0x2f, 0x20, 0x07, 0xfc, 0xe7, 0xe4, 0xdc, 0xfe, 0xfb,
  0xc9, 0xaf, 0xce, 0xd5, 0xdd, 0xe6, 0xea, 0x00, 0x82, 0xbf, 0xff, 0xff,
  0x04, 0x00, 0x00, 0x00, 0x7f, 0x00, 0x00, 0x00, 0xf0, 0xd3, 0xc1, 0xd6,
  0xfa, 0x03, 0xf4, 0xfc, 0xf3, 0xea, 0xe1, 0xee, 0xf4, 0xfe, 0xf9, 0xfb,
  0xf4, 0xe7, 0xd1, 0xe2, 0xfe, 0x11, 0x1e, 0x09, 0xf3, 0xd2, 0xdb, 0xed,
  0x03, 0xff, 0x11, 0x0d, 0x0d, 0x0a, 0x34, 0x6e, 0x7f, 0x71, 0x42, 0x36,
  0x1d, 0x0a, 0xf4, 0xc2, 0x97, 0x94, 0xbe, 0xd8, 0xee, 0xe9, 0xef, 0xed,
  0xe7, 0xf2, 0x00, 0xf7, 0xfd, 0xfc, 0xfc, 0xed, 0xd3, 0xc8, 0xdb, 0xef,
  0x16, 0x20, 0x14, 0x00, 0xe2, 0xe6, 0xf9, 0xfe, 0x12, 0x1c, 0x05, 0x0a,
  0x14, 0x3e, 0x50, 0x4d, 0x50, 0x29, 0x0a, 0x06, 0x04, 0xee, 0xda, 0xb0,
  0xa3, 0xba, 0xe4, 0xe6, 0xea, 0xf2, 0xf5, 0xf7, 0xff, 0x03, 0xf4, 0xfc,
  0xe8, 0xda, 0xd9, 0xd6, 0xe1, 0x00, 0x1b, 0x36, 0x30, 0x19, 0x0e, 0xea,
  0xfc, 0xfa, 0x04, 0x18, 0x1f, 0x13, 0x10, 0x14, 0x18, 0x26, 0x24, 0x14,
  0x0a, 0xed, 0xf4, 0x00, 0x0e, 0xc0, 0xff, 0xff, 0x04, 0x00, 0x00, 0x00,
  0x7f, 0x00, 0x00, 0x00, 0x02, 0x0c, 0x22, 0x05, 0xe2, 0xb7, 0xd2, 0x15,
  0x2e, 0x3a, 0xf6, 0xe4, 0xcd, 0xcf, 0x0b, 0xee, 0x24, 0x24, 0x1b, 0xed,
  0xe7, 0xf0, 0xee, 0xeb, 0xf4, 0x2c, 0x1a, 0x0c, 0xcb, 0xa2, 0x81, 0xdd,
  0x45, 0x51, 0x28, 0xf4, 0x59, 0x4d, 0xc5, 0xbe, 0xf3, 0x28, 0x2d, 0xef,
  0x11, 0x26, 0x12, 0xd7, 0xb6, 0xd8, 0x14, 0x4b, 0x66, 0xfe, 0xb0, 0x9c,
  0xce, 0xec, 0xf4, 0x0e, 0x27, 0x40, 0x4a, 0x47, 0x0a, 0xed, 0xe1, 0x0b,
  0x32, 0xfa, 0xe6, 0xbe, 0x90, 0xb4, 0xfd, 0x36, 0x64, 0x39, 0x17, 0x47,
  0x5d, 0xb2, 0xc7, 0xe8, 0x11, 0x0d, 0x0c, 0x21, 0xfb, 0x03, 0xec, 0xdc,
  0xf9, 0x2d, 0x52, 0x5c, 0x1b, 0xbc, 0xb6, 0xf1, 0xf5, 0x0f, 0x2a, 0x2a,
  0x10, 0x0e, 0x04, 0xcf, 0xd9, 0xf7, 0x7f, 0x59, 0x02, 0xe0, 0xb0, 0xb3,
  0xcd, 0x0b, 0x33, 0x39, 0xfb, 0x08, 0x3e, 0x1c, 0xc4, 0xc4, 0x06, 0x00,
  0x9a, 0xc0, 0xff, 0xff, 0x04, 0x00, 0x00, 0x00, 0x7f, 0x00, 0x00, 0x00,
  0xf5, 0x08, 0x11, 0x0d, 0x14, 0x1c, 0x05, 0xef, 0xf4, 0xfe, 0xfc, 0xfc,
  0x10, 0x0f, 0xd0, 0xce, 0xe5, 0xd7, 0xcb, 0xdc, 0xe3, 0xbd, 0x82, 0x86,
  0x81, 0xf4, 0x1c, 0x17, 0xf8, 0xf0, 0x00, 0x06, 0xfc, 0x05, 0x1a, 0x2a,
  0x23, 0x27, 0x34, 0x12, 0xf9, 0xf5, 0xd7, 0xeb, 0x05, 0xff, 0x01, 0x07,
  0x0e, 0xf0, 0xe3, 0x00, 0x00, 0x05, 0x15, 0x21, 0x0f, 0xdd, 0xbe, 0xd1,
  0xd2, 0xcb, 0xe5, 0xf8, 0xf0, 0xae, 0xa4, 0xa7, 0x19, 0x46, 0x37, 0x11,
  0x03, 0x06, 0x06, 0x13, 0x15, 0x0c, 0x22, 0x11, 0x1a, 0x1e, 0x12, 0xe7,
  0xd7, 0xbc, 0xef, 0xf0, 0xf5, 0x07, 0x1c, 0x18, 0xfc, 0xd9, 0xd2, 0xec,
  0x09, 0x18, 0xfd, 0xeb, 0xd8, 0xb8, 0xe1, 0xe2, 0xc6, 0xc5, 0xd6, 0xd8,
  0xc7, 0x9b, 0x96, 0xff, 0x2b, 0x10, 0xf3, 0xf7, 0x01, 0x10, 0x1c, 0x0e,
  0x07, 0x09, 0xf4, 0x09, 0x1a, 0x18, 0xe4, 0x00, 0x26, 0xc1, 0xff, 0xff,
  0x04, 0x00, 0x00, 0x00, 0x7f, 0x00, 0x00, 0x00, 0x00, 0xe3, 0xb4, 0xcc,
  0x11, 0x35, 0x0a, 0xe6, 0xd6, 0xfa, 0x17, 0x18, 0x18, 0x17, 0x0c, 0xe3,
  0xf2, 0x08, 0xea, 0xf1, 0xe7, 0xcd, 0xc4, 0xe5, 0xde, 0xeb, 0xfa, 0x05,
  0x02, 0xfd, 0x1c, 0x2a, 0x20, 0x26, 0x1d, 0x3d, 0x42, 0x48, 0x51, 0x45,
  0x37, 0xfc, 0xed, 0xc9, 0xb4, 0x81, 0xa3, 0x0f, 0x2e, 0x12, 0xe9, 0xd8,
  0x09, 0x15, 0x10, 0x15, 0x02, 0xdc, 0xc7, 0xdd, 0x18, 0x05, 0xfb, 0xf0,
  0xe2, 0xe1, 0xeb, 0xea, 0xf9, 0x0e, 0x17, 0x1b, 0x24, 0x37, 0x33, 0x34,
  0x13, 0x0c, 0x17, 0x28, 0x37, 0x3f, 0x29, 0x18, 0xee, 0xde, 0xd1, 0xa0,
  0x86, 0xd6, 0x3e, 0x3d, 0x2c, 0xf0, 0xee, 0x10, 0x36, 0x14, 0x10, 0xe3,
  0x9c, 0x9b, 0xf7, 0x1d, 0xfc, 0xf0, 0xec, 0xd6, 0xcf, 0xe2, 0xe9, 0xf6,
  0x05, 0x02, 0x06, 0x10, 0x16, 0x1a, 0x07, 0x07, 0x0b, 0x21, 0x18, 0x25,
  0x19, 0x0e, 0xe9, 0x00, 0xb2, 0xc1, 0xff, 0xff, 0x04, 0x00, 0x00, 0x00,
  0x7f, 0x00, 0x00, 0x00, 0x04, 0xf8, 0xe8, 0xdf, 0xeb, 0x09, 0x0e, 0x1c,
  0x0f, 0xee, 0xdb, 0xc8, 0xd0, 0xf1, 0x16, 0x24, 0x10, 0xe1, 0xb7, 0xa6,
  0xba, 0xb9, 0xc2, 0xcd, 0xe7, 0x03, 0x03, 0x04, 0x09, 0x0a, 0x0b, 0x0b,
  0x06, 0x0e, 0x1b, 0x11, 0xfc, 0xf4, 0xf8, 0x05, 0x1f, 0x27, 0x0f, 0x03,
  0xf9, 0xf0, 0xeb, 0xf2, 0x14, 0x1c, 0x26, 0x12, 0xf8, 0xdd, 0xd8, 0xdc,
  0xf7, 0x21, 0x29, 0x04, 0xd7, 0xa1, 0x8d, 0xa4, 0xb1, 0xb6, 0xc8, 0xee,
  0x01, 0x0c, 0x0c, 0x04, 0x03, 0x05, 0xfd, 0xf9, 0xfe, 0x0a, 0x03, 0xf3,
  0xec, 0xfa, 0x09, 0x1e, 0x17, 0x06, 0xfb, 0xec, 0xe8, 0xe9, 0xf7, 0x0d,
  0x14, 0x1e, 0x11, 0xec, 0xd6, 0xc2, 0xc3, 0xf1, 0x25, 0x28, 0x05, 0xc6,
  0x93, 0x81, 0xaa, 0xbe, 0xb7, 0xcb, 0xe3, 0xfc, 0x0b, 0x02, 0xff, 0x03,
  0x18, 0x06, 0x0e, 0x09, 0x10, 0x03, 0xf6, 0xf3, 0xf9, 0xf7, 0x0e, 0x00,
  0x3e, 0xc2, 0xff, 0xff, 0x04, 0x00, 0x00, 0x00, 0x7f, 0x00, 0x00, 0x00,
  0xc7, 0xd9, 0xdc, 0xd2, 0xc8, 0xe4, 0x17, 0x09, 0xd7, 0xce, 0xc7, 0xca,
  0xd8, 0x03, 0x01, 0xff, 0x21, 0x0f, 0xff, 0xfc, 0xfb, 0xcf, 0xc3, 0xb0,
  0xba, 0xe5, 0xe7, 0xe1, 0xd0, 0xf8, 0xf6, 0xda, 0xbb, 0xcc, 0xdc, 0xeb,
  0x08, 0x26, 0x27, 0x26, 0x1c, 0xfb, 0xce, 0xd4, 0xda, 0xd0, 0xc5, 0xcc,
  0x11, 0x31, 0x21, 0xe6, 0xc9, 0xaf, 0xb8, 0xbc, 0x18, 0x0c, 0x18, 0x28,
  0x13, 0xf8, 0xff, 0xd4, 0xa5, 0x81, 0x9e, 0xc0, 0xf4, 0xfa, 0xcf, 0xde,
  0x08, 0x11, 0xe3, 0xd2, 0xd8, 0xe3, 0xff, 0x2a, 0x4a, 0x46, 0x3d, 0x0c,
  0xf1, 0xe5, 0xe4, 0xe4, 0xcf, 0xd1, 0xef, 0x33, 0x45, 0x27, 0xe6, 0xbd,
  0xb1, 0xa6, 0xd6, 0x01, 0x0f, 0x12, 0x09, 0xff, 0xf1, 0x05, 0xd2, 0xb7,
  0x8f, 0xb5, 0xd4, 0x0a, 0xec, 0xbd, 0xe1, 0x05, 0x06, 0x11, 0xeb, 0xe0,
  0xf3, 0x02, 0x1d, 0x23, 0x28, 0x0a, 0x10, 0x00, 0xca, 0xc2, 0xff, 0xff,
  0x04, 0x00, 0x00, 0x00, 0x08, 0x00, 0x00, 0x00, 0x19, 0xf0, 0xb0, 0x80,
  0x14, 0xd2, 0x7f, 0xed, 0xde, 0xc2, 0xff, 0xff, 0x04, 0x00, 0x00, 0x00,
  0x40, 0x00, 0x00, 0x00, 0x35, 0xf2, 0x32, 0xd4, 0xf7, 0x7f, 0xfb, 0x36,
  0x36, 0x7f, 0x3b, 0xbc, 0xdb, 0xc7, 0x45, 0x1e, 0xde, 0xd0, 0x7f, 0xd6,
  0xe1, 0xf3, 0xc3, 0xed, 0xf9, 0xcc, 0xc4, 0x81, 0x84, 0xbe, 0x6b, 0xf8,
  0x07, 0x4f, 0x55, 0x4d, 0x81, 0x18, 0x78, 0x14, 0x2e, 0xb4, 0x23, 0x81,
  0x11, 0xd2, 0xa9, 0x53, 0x81, 0x05, 0x46, 0xcb, 0x3b, 0x3f, 0x14, 0x26,
  0x2e, 0x57, 0xb9, 0x29, 0xf3, 0xda, 0x7f, 0x33, 0x2a, 0xc3, 0xff, 0xff,
  0x04, 0x00, 0x00, 0x00, 0x20, 0x00, 0x00, 0x00, 0xe2, 0xed, 0xff, 0xff,
  0xd6, 0xf1, 0xff, 0xff, 0x13, 0x0a, 0x00, 0x00, 0xfd, 0xf9, 0xff, 0xff,
  0xc4, 0xdb, 0xff, 0xff, 0x06, 0x16, 0x00, 0x00, 0x19, 0xff, 0xff, 0xff,
  0xff, 0xda, 0xff, 0xff, 0x56, 0xc3, 0xff, 0xff, 0x04, 0x00, 0x00, 0x00,
  0x7f, 0x00, 0x00, 0x00, 0x23, 0x26, 0x1a, 0x17, 0x1d, 0x14, 0x2f, 0x30,
  0x24, 0x22, 0x17, 0x11, 0x00, 0xea, 0xf5, 0xf7, 0xf4, 0xfe, 0x0b, 0xeb,
  0xf3, 0xfe, 0x19, 0x23, 0x1d, 0xff, 0xe8, 0xea, 0xc2, 0xcd, 0xea, 0xec,
  0x00, 0xf9, 0x09, 0xf9, 0xfa, 0xec, 0xea, 0xed, 0xf0, 0xf2, 0x0c, 0x04,
  0x07, 0x00, 0x14, 0x27, 0x4f, 0x62, 0x7f, 0x70, 0x59, 0x47, 0x42, 0x1d,
  0x18, 0x17, 0x08, 0x0f, 0xf7, 0x0b, 0x0b, 0x0e, 0x18, 0x21, 0x33, 0x16,
  0xe2, 0xed, 0xf3, 0xe6, 0xec, 0xeb, 0xfe, 0x06, 0x03, 0x08, 0xee, 0xf0,
  0xed, 0xf0, 0xe9, 0xe4, 0xf2, 0x07, 0x11, 0x08, 0x03, 0x1d, 0x27, 0x2a,
  0x2d, 0x32, 0x2b, 0x29, 0x1a, 0x1b, 0x00, 0xf5, 0xfc, 0x04, 0x13, 0x0f,
  0x12, 0x18, 0x1e, 0x27, 0x24, 0x45, 0x30, 0x10, 0xfc, 0xff, 0xf5, 0xe1,
  0x08, 0x17, 0x1d, 0x1d, 0x13, 0x01, 0xf0, 0xec, 0xed, 0xeb, 0xdd, 0x00,
  0xe2, 0xc3, 0xff, 0xff, 0x04, 0x00, 0x00, 0x00, 0x7f, 0x00, 0x00, 0x00,
  0x04, 0xe1, 0xca, 0xfc, 0x20, 0x38, 0x28, 0x12, 0xf9, 0x06, 0x18, 0x32,
  0x5e, 0x3e, 0x48, 0x52, 0x2c, 0x33, 0x15, 0x33, 0x0f, 0x21, 0x2c, 0x49,
  0x30, 0x01, 0x1e, 0x11, 0xf1, 0x06, 0x04, 0x0d, 0x06, 0x18, 0xda, 0xf4,
  0xd8, 0xcc, 0xf5, 0xef, 0xed, 0xe5, 0xf3, 0xee, 0xd8, 0xcc, 0xf7, 0x0b,
  0x22, 0x49, 0x26, 0xf2, 0x05, 0x1f, 0x1b, 0xf4, 0x46, 0x64, 0x7f, 0x55,
  0x4b, 0x33, 0x01, 0x0c, 0x0d, 0x0d, 0x13, 0x0f, 0xcd, 0xc6, 0xe9, 0xd0,
  0xa5, 0xdb, 0xcc, 0xc2, 0xe4, 0xca, 0xab, 0xb4, 0xb1, 0xc6, 0xce, 0xd7,
  0xc4, 0xc0, 0xbe, 0xeb, 0xc7, 0xdf, 0xf2, 0xf3, 0x0f, 0x2d, 0x1e, 0x0b,
  0x2e, 0x04, 0x1d, 0x03, 0x4c, 0x20, 0x2f, 0x17, 0xff, 0xc4, 0xd4, 0xd9,
  0xe5, 0xee, 0xd9, 0xb7, 0xdd, 0xf4, 0xac, 0xac, 0xb5, 0xc0, 0xd8, 0xc8,
  0xaa, 0xc4, 0xc2, 0x96, 0xb8, 0xba, 0xb6, 0x00, 0x6e, 0xc4, 0xff, 0xff,
  0x04, 0x00, 0x00, 0x00, 0x7f, 0x00, 0x00, 0x00, 0x33, 0x31, 0x3c, 0x4b,
  0x29, 0x17, 0x04, 0xfc, 0x1d, 0x13, 0x13, 0x00, 0x17, 0x0c, 0xe2, 0xd9,
  0xcd, 0xd4, 0xe7, 0xfa, 0x04, 0x0f, 0x0c, 0x02, 0xfa, 0x09, 0x05, 0x23,
  0x2b, 0x4b, 0x3f, 0x34, 0x33, 0x36, 0x4b, 0x3b, 0x45, 0x46, 0x49, 0x36,
  0x1c, 0x24, 0x2c, 0x3b, 0x3b, 0x3b, 0x35, 0x39, 0x12, 0xe4, 0xd1, 0xd8,
  0xc5, 0xc7, 0xd8, 0xf4, 0xe9, 0xeb, 0xc1, 0xa6, 0xa9, 0xe2, 0x01, 0x28,
  0x39, 0x23, 0x02, 0x04, 0xee, 0x05, 0x3a, 0x48, 0x7f, 0x62, 0x5f, 0x44,
  0x44, 0x1e, 0x34, 0x28, 0x30, 0x3a, 0x30, 0x30, 0x1a, 0x1a, 0x3b, 0x3d,
  0x35, 0x4b, 0x2d, 0x0b, 0xd9, 0xbc, 0xb8, 0xbe, 0xdf, 0x13, 0x18, 0x2e,
  0x01, 0xd0, 0xae, 0xbd, 0xde, 0xe8, 0x12, 0x21, 0x33, 0x0f, 0xf9, 0xf7,
  0x03, 0x3c, 0x60, 0x55, 0x39, 0x26, 0x12, 0xfe, 0xf7, 0xfc, 0x16, 0x26,
  0x2c, 0x36, 0x2e, 0x00, 0xfa, 0xc4, 0xff, 0xff, 0x04, 0x00, 0x00, 0x00,
  0x7f, 0x00, 0x00, 0x00, 0xd5, 0xc8, 0xbb, 0xd6, 0xc2, 0xcf, 0xd1, 0xd1,
  0xe7, 0xf9, 0x03, 0xf2, 0xdb, 0xe3, 0xe7, 0xe2, 0xf3, 0x02, 0x02, 0x06,
  0x17, 0x02, 0xe9, 0xcd, 0xb4, 0xa5, 0xa4, 0xa3, 0xae, 0xbc, 0xe4, 0xec,
  0x00, 0xf9, 0xe1, 0xe4, 0xfe, 0x1d, 0x23, 0x2a, 0x19, 0xfe, 0xf7, 0xd1,
  0x95, 0x81, 0xaa, 0xaa, 0xb7, 0xb7, 0xb4, 0xcd, 0xd1, 0xa6, 0xb8, 0xa4,
  0xaa, 0xbc, 0xcf, 0xf4, 0xf7, 0x08, 0x0e, 0x0b, 0xe9, 0xc9, 0xae, 0x9a,
  0xab, 0xad, 0xc8, 0xce, 0xdc, 0xec, 0xf3, 0xed, 0xf9, 0xec, 0xf8, 0x02,
  0x17, 0x27, 0x1b, 0x06, 0x04, 0x09, 0xdd, 0xbd, 0xa8, 0xa5, 0xb2, 0xde,
  0xe7, 0xe9, 0xd5, 0xb3, 0xbd, 0xc8, 0xbb, 0xbc, 0xc7, 0xda, 0xee, 0x0a,
  0x0b, 0x1a, 0xf8, 0xe0, 0xd4, 0xbc, 0xac, 0xc4, 0xf5, 0xfb, 0xef, 0xed,
  0xf6, 0xfe, 0xf3, 0xe8, 0xe7, 0xe2, 0xfa, 0x12, 0x15, 0x0f, 0x06, 0x00,
  0x86, 0xc5, 0xff, 0xff, 0x04, 0x00, 0x00, 0x00, 0x7f, 0x00, 0x00, 0x00,
  0x2a, 0x29, 0x1b, 0x0c, 0xf6, 0xd8, 0xe7, 0xf6, 0xf3, 0x09, 0x1c, 0x24,
  0x2d, 0x1d, 0x07, 0xe1, 0xc3, 0xb3, 0xb8, 0xc5, 0xe4, 0x0a, 0x18, 0x26,
  0x25, 0xfd, 0x33, 0x2e, 0x1f, 0x25, 0x2d, 0x01, 0xb9, 0x9f, 0x87, 0x92,
  0xa7, 0x9e, 0x9f, 0xb6, 0x9a, 0xa3, 0xe0, 0x1e, 0x37, 0x2a, 0x17, 0x0f,
  0xed, 0xe0, 0xeb, 0x09, 0x2b, 0x15, 0x21, 0x22, 0x21, 0x0a, 0xee, 0xdd,
  0xc5, 0xc5, 0xee, 0x0f, 0x02, 0x07, 0x0c, 0xfe, 0xed, 0xed, 0xf9, 0x02,
  0x22, 0x22, 0xdc, 0x81, 0x90, 0x91, 0x9f, 0xc1, 0xaa, 0xa2, 0xaf, 0xc5,
  0xda, 0xff, 0x10, 0x23, 0x18, 0xff, 0xcf, 0xba, 0xd4, 0xef, 0x17, 0x1f,
  0x00, 0x0d, 0xfa, 0x0b, 0xfa, 0xe3, 0xd6, 0xd8, 0xc7, 0xff, 0x00, 0x06,
  0x0d, 0xfd, 0xeb, 0xda, 0xd3, 0xea, 0x0d, 0x0e, 0x0a, 0xde, 0xbf, 0xab,
  0xb8, 0xd2, 0xf1, 0x09, 0xf7, 0xea, 0xeb, 0x00, 0x12, 0xc6, 0xff, 0xff,
  0x04, 0x00, 0x00, 0x00, 0x7f, 0x00, 0x00, 0x00, 0x9a, 0xa1, 0xac, 0xd4,
  0xfa, 0x24, 0x2a, 0x31, 0x1e, 0x35, 0x20, 0x1c, 0x10, 0xf3, 0xe8, 0xd1,
  0xed, 0xfc, 0xeb, 0xdb, 0xd6, 0xc7, 0xd5, 0xe5, 0x0f, 0x35, 0x30, 0x4e,
  0x62, 0x65, 0x4e, 0x2c, 0x10, 0x1c, 0x22, 0x0a, 0xdc, 0xc5, 0xbe, 0xb7,
  0xc5, 0xbd, 0xa9, 0xa3, 0xa7, 0xab, 0xe6, 0x11, 0x41, 0x3d, 0x33, 0x3e,
  0x31, 0x25, 0x28, 0x06, 0xf2, 0xe8, 0xe2, 0xd7, 0x00, 0xf9, 0xf1, 0xd5,
  0xe2, 0xcc, 0xe9, 0x10, 0x20, 0x2a, 0x41, 0x76, 0x71, 0x5d, 0x24, 0x1b,
  0x02, 0x03, 0x0c, 0xff, 0xf7, 0xd3, 0xbb, 0xa3, 0x93, 0x96, 0x81, 0x94,
  0xb6, 0x0e, 0x34, 0x31, 0x1a, 0x11, 0x12, 0x02, 0xf9, 0x04, 0xfd, 0xf6,
  0xe7, 0xe4, 0xf8, 0xf2, 0xf2, 0xf0, 0xd9, 0xec, 0xe9, 0xf7, 0xfd, 0xf9,
  0x12, 0x25, 0x42, 0x48, 0x34, 0x21, 0xfa, 0xf8, 0xf6, 0xfb, 0xf0, 0xf9,
  0xe6, 0xd1, 0xb8, 0x00, 0x9e, 0xc6, 0xff, 0xff, 0x04, 0x00, 0x00, 0x00,
  0x7f, 0x00, 0x00, 0x00, 0x23, 0x0a, 0x04, 0x01, 0xea, 0xf4, 0xe1, 0xff,
  0xfb, 0x0b, 0xf7, 0xf3, 0xdf, 0xf6, 0xf5, 0xee, 0xe5, 0x18, 0x27, 0x29,
  0x28, 0x33, 0x05, 0x02, 0x14, 0x1c, 0x2f, 0x3d, 0x62, 0x58, 0x39, 0x17,
  0xfc, 0xe2, 0xf6, 0x1e, 0x33, 0x49, 0x61, 0x5f, 0x3b, 0x1e, 0x02, 0xe3,
  0xde, 0xdb, 0xca, 0xbd, 0xf2, 0xe0, 0xe9, 0xfb, 0x06, 0xf6, 0xdf, 0xda,
  0xc7, 0xc6, 0xce, 0xf7, 0x0a, 0x2b, 0x2c, 0x49, 0x22, 0x0f, 0xfc, 0xf3,
  0x0e, 0x15, 0x40, 0x57, 0x62, 0x19, 0xcb, 0xbc, 0xb4, 0xc2, 0xe0, 0x09,
  0x25, 0x53, 0x14, 0xf5, 0xb2, 0xa6, 0xa6, 0x81, 0x9f, 0x87, 0x92, 0xaf,
  0xc9, 0xeb, 0xf7, 0xe2, 0xca, 0xd1, 0xc4, 0x97, 0xab, 0xbe, 0xe0, 0x28,
  0x15, 0x38, 0x16, 0xe0, 0xc6, 0xe8, 0xed, 0x03, 0x1e, 0x52, 0x4b, 0x1b,
  0xe3, 0xcf, 0xb5, 0xe0, 0xf8, 0x28, 0x60, 0x52, 0x57, 0x2c, 0xe5, 0x00,
  0x2a, 0xc7, 0xff, 0xff, 0x04, 0x00, 0x00, 0x00, 0x7f, 0x00, 0x00, 0x00,
  0x2c, 0x03, 0xfe, 0x06, 0x10, 0x3f, 0x59, 0x61, 0x53, 0x41, 0x3a, 0x19,
  0x0d, 0x0e, 0xff, 0x29, 0x0a, 0xfa, 0xf9, 0xf4, 0xdd, 0xd5, 0xbd, 0x86,
  0xb6, 0xb5, 0x9d, 0xca, 0xe2, 0x97, 0x8d, 0xba, 0xad, 0x96, 0xad, 0xbc,
  0xe1, 0xf9, 0xc8, 0xe0, 0xea, 0x08, 0x2a, 0x1f, 0xf0, 0x0e, 0x16, 0x0d,
  0x43, 0x57, 0x32, 0x2a, 0x20, 0xf3, 0xf7, 0xec, 0xe8, 0xe6, 0xe2, 0xfa,
  0xf4, 0xca, 0xbb, 0x98, 0xc1, 0x8c, 0xb7, 0xae, 0x8c, 0xa3, 0xc1, 0x90,
  0x8b, 0x81, 0x91, 0x8b, 0x8d, 0x90, 0xbd, 0xd8, 0xde, 0xb4, 0xd2, 0xd1,
  0xf1, 0x0a, 0x0a, 0x05, 0xf5, 0xf4, 0xf3, 0x12, 0x19, 0x0a, 0x2c, 0x0f,
  0x03, 0xeb, 0xba, 0xb1, 0x92, 0xc3, 0xe8, 0xce, 0xd9, 0xa0, 0xa2, 0xc8,
  0xab, 0xd9, 0xc2, 0xd4, 0xce, 0xa9, 0xae, 0xae, 0xb3, 0xaf, 0xbb, 0xe1,
  0xd5, 0xe7, 0xf5, 0x02, 0x00, 0xf9, 0xff, 0x00, 0xb6, 0xc7, 0xff, 0xff,
  0x04, 0x00, 0x00, 0x00, 0x08, 0x00, 0x00, 0x00, 0x8b, 0xc1, 0x80, 0x7f,
  0x14, 0x0a, 0xc3, 0xfb, 0xca, 0xc7, 0xff, 0xff, 0x04, 0x00, 0x00, 0x00,
  0x40, 0x00, 0x00, 0x00, 0xe4, 0x9f, 0x7f, 0xf5, 0xdc, 0x63, 0x2a, 0x01,
  0xb3, 0x10, 0x7f, 0x43, 0x23, 0xb9, 0xdf, 0x07, 0x60, 0x09, 0x81, 0x23,
  0x1a, 0x70, 0x44, 0x45, 0x7f, 0xe2, 0xd1, 0x8b, 0x22, 0xf1, 0xaa, 0xcd,
  0x97, 0xd0, 0xb2, 0x7f, 0xb7, 0xcd, 0xc6, 0x66, 0xff, 0xcf, 0x40, 0x39,
  0xfe, 0x7f, 0xdb, 0x1e, 0x1b, 0x06, 0x18, 0x69, 0x81, 0x4f, 0x26, 0x15,
  0xff, 0x16, 0x30, 0x7f, 0x13, 0x3d, 0xf4, 0x43, 0x16, 0xc8, 0xff, 0xff,
  0x04, 0x00, 0x00, 0x00, 0x20, 0x00, 0x00, 0x00, 0xa8, 0xee, 0xff, 0xff,
  0x8c, 0xf1, 0xff, 0xff, 0x45, 0xdd, 0xff, 0xff, 0x66, 0xf5, 0xff, 0xff,
  0x73, 0x08, 0x00, 0x00, 0x16, 0xda, 0xff, 0xff, 0xe8, 0xef, 0xff, 0xff,
  0x58, 0xde, 0xff, 0xff, 0x42, 0xc8, 0xff, 0xff, 0x04, 0x00, 0x00, 0x00,
  0x18, 0x00, 0x00, 0x00, 0xd6, 0xde, 0xe2, 0xb0, 0xd2, 0xeb, 0xa9, 0x8c,
  0x9c, 0xa7, 0x81, 0xdf, 0xf2, 0x0b, 0xb9, 0xd9, 0xe0, 0x0a, 0x02, 0xfe,
  0x24, 0x18, 0x22, 0x14, 0x66, 0xc8, 0xff, 0xff, 0x04, 0x00, 0x00, 0x00,
  0x18, 0x00, 0x00, 0x00, 0xdd, 0xe9, 0xd5, 0xe5, 0xf8, 0xf4, 0xdd, 0xe6,
  0xbb, 0xa8, 0xbd, 0x81, 0x9d, 0x93, 0x9e, 0xbb, 0x9b, 0xd8, 0xf4, 0xce,
  0xf6, 0xe9, 0xf2, 0xc7, 0x8a, 0xc8, 0xff, 0xff, 0x04, 0x00, 0x00, 0x00,
  0x18, 0x00, 0x00, 0x00, 0x8c, 0xbf, 0xc3, 0x0f, 0xcf, 0x81, 0xce, 0xbc,
  0xd2, 0xcf, 0xc6, 0xdc, 0xcf, 0xb8, 0xca, 0xb1, 0xb4, 0xb7, 0xa5, 0xc1,
  0x9e, 0xe0, 0x12, 0xb5, 0xae, 0xc8, 0xff, 0xff, 0x04, 0x00, 0x00, 0x00,
  0x18, 0x00, 0x00, 0x00, 0x71, 0x71, 0x7a, 0x7f, 0x70, 0x57, 0x53, 0x76,
  0x25, 0x4f, 0x23, 0x2e, 0x30, 0x7e, 0x23, 0x25, 0x33, 0x37, 0xe7, 0xd2,
  0xc0, 0x00, 0xc5, 0xbc, 0xd2, 0xc8, 0xff, 0xff, 0x04, 0x00, 0x00, 0x00,
  0x18, 0x00, 0x00, 0x00, 0xc1, 0xb8, 0xb1, 0xc5, 0xe2, 0xec, 0x9f, 0xad,
  0xc1, 0x81, 0x90, 0xbe, 0x12, 0x13, 0xfa, 0xe7, 0xf3, 0x03, 0x1d, 0x24,
  0x2c, 0x10, 0xf1, 0x05, 0xf6, 0xc8, 0xff, 0xff, 0x04, 0x00, 0x00, 0x00,
  0x18, 0x00, 0x00, 0x00, 0x8b, 0xe1, 0xc8, 0xd2, 0xda, 0xc5, 0xe2, 0xff,
  0x1e, 0x3f, 0x35, 0x5e, 0x7f, 0x5f, 0x61, 0x75, 0x5b, 0x4f, 0x49, 0x31,
  0x44, 0x21, 0x4a, 0x47, 0x1a, 0xc9, 0xff, 0xff, 0x04, 0x00, 0x00, 0x00,
  0x18, 0x00, 0x00, 0x00, 0x8c, 0xc1, 0xd6, 0xe2, 0xe9, 0xb5, 0xea, 0xb1,
  0x81, 0xb5, 0xa3, 0xbe, 0xbd, 0x82, 0xc9, 0xc9, 0xf7, 0xec, 0xf2, 0x1e,
  0xfe, 0xf3, 0x05, 0xe5, 0x3e, 0xc9, 0xff, 0xff, 0x04, 0x00, 0x00, 0x00,
  0x18, 0x00, 0x00, 0x00, 0x52, 0x4a, 0x46, 0x37, 0x19, 0x36, 0x42, 0x37,
  0x29, 0x34, 0x1a, 0xfc, 0xfc, 0x01, 0x18, 0x51, 0x77, 0x6d, 0x6c, 0x59,
  0x67, 0x4d, 0x3d, 0x7f, 0x62, 0xc9, 0xff, 0xff, 0x04, 0x00, 0x00, 0x00,
  0x08, 0x00, 0x00, 0x00, 0x0e, 0x7f, 0x5c, 0xac, 0x3b, 0xd2, 0x64, 0x80,
  0x76, 0xc9, 0xff, 0xff, 0x04, 0x00, 0x00, 0x00, 0x40, 0x00, 0x00, 0x00,
  0xc6, 0x08, 0x7f, 0x0c, 0x75, 0xce, 0xc8, 0xe5, 0x44, 0xe0, 0x57, 0xce,
  0xf1, 0x7f, 0xc4, 0x4c, 0x5e, 0x81, 0x1b, 0xf2, 0x86, 0xa4, 0x4b, 0x33,
  0x13, 0x3c, 0x21, 0x15, 0x20, 0xd8, 0x7f, 0x01, 0x11, 0xc2, 0xcc, 0xb9,
  0xf9, 0xdc, 0xfe, 0x7f, 0xc9, 0xd9, 0x15, 0x7f, 0xe8, 0x08, 0x14, 0xf2,
  0x07, 0x40, 0xb6, 0x7f, 0xcc, 0x2c, 0x38, 0xc1, 0x0c, 0x42, 0x0e, 0xdd,
  0xf8, 0x7f, 0xf4, 0xd5, 0xc2, 0xc9, 0xff, 0xff, 0x04, 0x00, 0x00, 0x00,
  0x20, 0x00, 0x00, 0x00, 0xde, 0xf5, 0xff, 0xff, 0x47, 0xf5, 0xff, 0xff,
  0xcb, 0x1a, 0x00, 0x00, 0x20, 0xec, 0xff, 0xff, 0x32, 0x11, 0x00, 0x00,
  0x2a, 0xf7, 0xff, 0xff, 0xb5, 0xf9, 0xff, 0xff, 0x32, 0xf4, 0xff, 0xff,
  0xee, 0xc9, 0xff, 0xff, 0x04, 0x00, 0x00, 0x00, 0x0f, 0x00, 0x00, 0x00,
  0xd6, 0x7f, 0x50, 0xe3, 0x35, 0xba, 0x3f, 0xf2, 0x97, 0x5c, 0xad, 0x27,
  0xa5, 0xb3, 0xeb, 0x00, 0x0a, 0xca, 0xff, 0xff, 0x04, 0x00, 0x00, 0x00,
  0x0f, 0x00, 0x00, 0x00, 0x00, 0x2a, 0x0c, 0xf3, 0x35, 0x53, 0x30, 0x0d,
  0xe6, 0x0c, 0x7f, 0x2b, 0xdf, 0xdf, 0xd7, 0x00, 0x26, 0xca, 0xff, 0xff,
  0x04, 0x00, 0x00, 0x00, 0x0f, 0x00, 0x00, 0x00, 0x1b, 0xfb, 0xf2, 0xdc,
  0x12, 0x7f, 0x48, 0xd4, 0xe4, 0x08, 0x38, 0x54, 0xc7, 0xe5, 0xfb, 0x00,
  0x42, 0xca, 0xff, 0xff, 0x04, 0x00, 0x00, 0x00, 0x0f, 0x00, 0x00, 0x00,
  0xe0, 0xb7, 0xf9, 0xbd, 0xa1, 0xc2, 0xed, 0x2c, 0x0d, 0xd1, 0xb8, 0x81,
  0x15, 0xd7, 0xb7, 0x00, 0x5e, 0xca, 0xff, 0xff, 0x04, 0x00, 0x00, 0x00,
  0x0f, 0x00, 0x00, 0x00, 0xfc, 0x49, 0xf2, 0xce, 0xab, 0x9f, 0x10, 0x28,
  0xf0, 0xcf, 0xc1, 0x81, 0x33, 0xf5, 0xf9, 0x00, 0x7a, 0xca, 0xff, 0xff,
  0x04, 0x00, 0x00, 0x00, 0x0f, 0x00, 0x00, 0x00, 0xe3, 0x81, 0xc4, 0xe3,
  0xf5, 0xd1, 0x0d, 0xdf, 0x13, 0x17, 0xd0, 0x31, 0x37, 0x7d, 0x3d, 0x00,
  0x96, 0xca, 0xff, 0xff, 0x04, 0x00, 0x00, 0x00, 0x0f, 0x00, 0x00, 0x00,
  0xb8, 0xa5, 0xd3, 0xd3, 0xa1, 0xab, 0xd1, 0xa4, 0x81, 0xbf, 0xb7, 0x96,
  0xc1, 0xd9, 0x97, 0x00, 0xb2, 0xca, 0xff, 0xff, 0x04, 0x00, 0x00, 0x00,
  0x0f, 0x00, 0x00, 0x00, 0xca, 0xfa, 0x2c, 0xfa, 0xb9, 0xb7, 0xc2, 0x49,
  0x55, 0xdb, 0xae, 0xd1, 0x47, 0x7f, 0xdf, 0x00, 0xce, 0xca, 0xff, 0xff,
  0x04, 0x00, 0x00, 0x00, 0x08, 0x00, 0x00, 0x00, 0xdf, 0x80, 0xb5, 0x16,
  0x48, 0x9f, 0x7f, 0x1e, 0xe2, 0xca, 0xff, 0xff, 0x04, 0x00, 0x00, 0x00,
  0x40, 0x00, 0x00, 0x00, 0x1f, 0x46, 0xf2, 0x44, 0x81, 0x07, 0x72, 0xe7,
  0x04, 0xf6, 0x18, 0xc2, 0x40, 0xff, 0xfc, 0x7f, 0x99, 0x81, 0x64, 0xf3,
  0xdb, 0x14, 0x63, 0xdf, 0x64, 0xc2, 0x81, 0xbe, 0x0e, 0xaa, 0x36, 0x5b,
  0x0c, 0x7f, 0x5c, 0x1a, 0x03, 0xf5, 0x44, 0x00, 0x17, 0x02, 0x7f, 0xe1,
  0x0f, 0x18, 0xea, 0x62, 0xe3, 0x0e, 0x7f, 0x18, 0xf7, 0x3b, 0xe6, 0x0c,
  0xd1, 0xfb, 0x7f, 0xdb, 0x1b, 0xf4, 0x1f, 0x00, 0x2e, 0xcb, 0xff, 0xff,
  0x04, 0x00, 0x00, 0x00, 0x20, 0x00, 0x00, 0x00, 0x99, 0x00, 0x00, 0x00,
  0x71, 0xf1, 0xff, 0xff, 0xe0, 0xf4, 0xff, 0xff, 0xfb, 0x0b, 0x00, 0x00,
  0x42, 0xf5, 0xff, 0xff, 0x15, 0xf3, 0xff, 0xff, 0x56, 0xf0, 0xff, 0xff,
  0xed, 0xe7, 0xff, 0xff, 0x5a, 0xcb, 0xff, 0xff, 0x04, 0x00, 0x00, 0x00,
  0x0f, 0x00, 0x00, 0x00, 0x62, 0x54, 0xf7, 0xce, 0x8c, 0x3f, 0x3d, 0xca,
  0x81, 0xc3, 0x16, 0x68, 0x03, 0xa1, 0xfe, 0x00, 0x76, 0xcb, 0xff, 0xff,
  0x04, 0x00, 0x00, 0x00, 0x0f, 0x00, 0x00, 0x00, 0x15, 0x38, 0x10, 0xd0,
  0xfb, 0x00, 0x34, 0x16, 0x3c, 0xcc, 0x04, 0xf7, 0x3e, 0x7f, 0x18, 0x00,
  0x92, 0xcb, 0xff, 0xff, 0x04, 0x00, 0x00, 0x00, 0x0f, 0x00, 0x00, 0x00,
  0x01, 0x8d, 0xd8, 0x06, 0x16, 0x37, 0x22, 0x1c, 0x7f, 0x48, 0x4f, 0x24,
  0x23, 0x45, 0x37, 0x00, 0xae, 0xcb, 0xff, 0xff, 0x04, 0x00, 0x00, 0x00,
  0x0f, 0x00, 0x00, 0x00, 0xb2, 0x1c, 0x06, 0x01, 0x0e, 0xeb, 0xf0, 0xea,
  0xbf, 0xca, 0x81, 0x94, 0xcf, 0xcf, 0x17, 0x00, 0xca, 0xcb, 0xff, 0xff,
  0x04, 0x00, 0x00, 0x00, 0x0f, 0x00, 0x00, 0x00, 0x41, 0x2d, 0x1c, 0x45,
  0x34, 0x46, 0x65, 0x7f, 0x57, 0x41, 0x3a, 0x44, 0x3b, 0x29, 0x30, 0x00,
  0xe6, 0xcb, 0xff, 0xff, 0x04, 0x00, 0x00, 0x00, 0x0f, 0x00, 0x00, 0x00,
  0xcf, 0x45, 0x4a, 0xf9, 0xa8, 0x8b, 0xfa, 0x30, 0x52, 0xe8, 0x81, 0xdb,
  0x17, 0x3f, 0xa8, 0x00, 0x02, 0xcc, 0xff, 0xff, 0x04, 0x00, 0x00, 0x00,
  0x0f, 0x00, 0x00, 0x00, 0xe3, 0xe6, 0xb5, 0x60, 0xfb, 0xed, 0x9d, 0xd1,
  0x7f, 0x2a, 0xc8, 0xc3, 0x9c, 0x4a, 0x13, 0x00, 0x1e, 0xcc, 0xff, 0xff,
  0x04, 0x00, 0x00, 0x00, 0x0f, 0x00, 0x00, 0x00, 0xce, 0x24, 0x4c, 0x4b,
  0x7f, 0xcc, 0xe9, 0x19, 0xd4, 0x14, 0xff, 0xe6, 0xd9, 0xda, 0xc8, 0x00,
  0x3a, 0xcc, 0xff, 0xff, 0x04, 0x00, 0x00, 0x00, 0x08, 0x00, 0x00, 0x00,
  0x12, 0xbc, 0xd6, 0x7f, 0x80, 0x38, 0x01, 0xf7, 0x4e, 0xcc, 0xff, 0xff,
  0x04, 0x00, 0x00, 0x00, 0x40, 0x00, 0x00, 0x00, 0x7f, 0x03, 0x2c, 0x26,
  0xd4, 0xdd, 0xe8, 0xf1, 0xf5, 0x78, 0x1a, 0xb0, 0x31, 0xe3, 0x7f, 0xec,
  0xa5, 0x8d, 0x7f, 0xef, 0xf4, 0x07, 0x43, 0x93, 0x24, 0x81, 0x03, 0x89,
  0x8e, 0xb4, 0xd8, 0x0e, 0x02, 0x1c, 0x08, 0xee, 0x81, 0xf0, 0xea, 0x17,
  0x30, 0x0b, 0x0d, 0x05, 0xb9, 0x81, 0xf1, 0xf4, 0xd5, 0xf2, 0xf2, 0x4b,
  0x81, 0x00, 0xed, 0x04, 0xe9, 0xf6, 0x0d, 0x04, 0xf8, 0x19, 0x00, 0x7f,
  0x9a, 0xcc, 0xff, 0xff, 0x04, 0x00, 0x00, 0x00, 0x20, 0x00, 0x00, 0x00,
  0x40, 0xfb, 0xff, 0xff, 0x69, 0xfc, 0xff, 0xff, 0x53, 0xfb, 0xff, 0xff,
  0x5d, 0x17, 0x00, 0x00, 0x67, 0x0d, 0x00, 0x00, 0x4d, 0xfb, 0xff, 0xff,
  0x6b, 0xfd, 0xff, 0xff, 0x3a, 0xf7, 0xff, 0xff, 0xc6, 0xcc, 0xff, 0xff,
  0x04, 0x00, 0x00, 0x00, 0x0f, 0x00, 0x00, 0x00, 0x2c, 0x44, 0x68, 0x04,
  0xc8, 0x81, 0x20, 0x59, 0x07, 0xd4, 0xa2, 0xca, 0xfb, 0x49, 0xdb, 0x00,
  0xe2, 0xcc, 0xff, 0xff, 0x04, 0x00, 0x00, 0x00, 0x0f, 0x00, 0x00, 0x00,
  0x39, 0x81, 0xbf, 0x1f, 0x4c, 0x8d, 0xac, 0xcd, 0x91, 0xda, 0xfa, 0x04,
  0x7e, 0x13, 0x2c, 0x00, 0xfe, 0xcc, 0xff, 0xff, 0x04, 0x00, 0x00, 0x00,
  0x0f, 0x00, 0x00, 0x00, 0xc7, 0x1a, 0x30, 0x64, 0x05, 0x5f, 0x7f, 0x4c,
  0x61, 0x20, 0x3e, 0x28, 0xf7, 0xe7, 0xe7, 0x00, 0x1a, 0xcd, 0xff, 0xff,
  0x04, 0x00, 0x00, 0x00, 0x0f, 0x00, 0x00, 0x00, 0x02, 0xff, 0xd4, 0xc7,
  0xe1, 0x36, 0x7f, 0x38, 0xea, 0xde, 0x06, 0x17, 0x02, 0xf3, 0x09, 0x00,
  0x36, 0xcd, 0xff, 0xff, 0x04, 0x00, 0x00, 0x00, 0x0f, 0x00, 0x00, 0x00,
  0x46, 0x1c, 0x18, 0x49, 0x0e, 0x7f, 0x34, 0x1b, 0xf4, 0xf4, 0xeb, 0xf0,
  0xc9, 0xc6, 0xec, 0x00, 0x52, 0xcd, 0xff, 0xff, 0x04, 0x00, 0x00, 0x00,
  0x0f, 0x00, 0x00, 0x00, 0x0b, 0xdc, 0x2b, 0xd6, 0x20, 0x4c, 0xf0, 0x7f,
  0x50, 0x05, 0x7a, 0x14, 0xe7, 0x3e, 0xf8, 0x00, 0x6e, 0xcd, 0xff, 0xff,
  0x04, 0x00, 0x00, 0x00, 0x0f, 0x00, 0x00, 0x00, 0xee, 0x0d, 0xe3, 0x81,
  0xfc, 0xdf, 0xbb, 0x14, 0xe6, 0xef, 0x07, 0x95, 0xf0, 0xe5, 0xcd, 0x00,
  0x8a, 0xcd, 0xff, 0xff, 0x04, 0x00, 0x00, 0x00, 0x0f, 0x00, 0x00, 0x00,
  0xba, 0xc4, 0xe3, 0x38, 0xd0, 0xa6, 0xf1, 0xdd, 0x3c, 0xb0, 0xfd, 0x60,
  0xa0, 0xfd, 0x81, 0x00, 0xa6, 0xcd, 0xff, 0xff, 0x04, 0x00, 0x00, 0x00,
  0x08, 0x00, 0x00, 0x00, 0x20, 0x45, 0xb6, 0x20, 0x80, 0xcc, 0x7f, 0x01,
  0xba, 0xcd, 0xff, 0xff, 0x04, 0x00, 0x00, 0x00, 0x40, 0x00, 0x00, 0x00,
  0x7f, 0x35, 0xf0, 0x18, 0x44, 0xa9, 0x5a, 0xd7, 0x8f, 0x42, 0xec, 0x7f,
  0x00, 0xe7, 0x12, 0x39, 0xe3, 0xf1, 0x7f, 0x1f, 0x1c, 0x10, 0xc3, 0x04,
  0xd6, 0xd6, 0x03, 0x7f, 0xe0, 0xf7, 0xcf, 0x1e, 0x11, 0x18, 0x2d, 0x06,
  0x7f, 0x17, 0x09, 0xea, 0xdb, 0x00, 0x36, 0xc7, 0xf0, 0x81, 0xde, 0x02,
  0xf1, 0x0e, 0xde, 0xe9, 0x27, 0x7f, 0x1d, 0x0c, 0x35, 0x66, 0x3f, 0xe4,
  0x7f, 0xf0, 0xeb, 0x38, 0x06, 0xce, 0xff, 0xff, 0x04, 0x00, 0x00, 0x00,
  0x20, 0x00, 0x00, 0x00, 0xe0, 0xc4, 0xff, 0xff, 0x00, 0x05, 0x00, 0x00,
  0x34, 0xf1, 0xff, 0xff, 0x64, 0x1a, 0x00, 0x00, 0x31, 0xf5, 0xff, 0xff,
  0x5e, 0x11, 0x00, 0x00, 0xd1, 0xf1, 0xff, 0xff, 0x56, 0xec, 0xff, 0xff,
  0x32, 0xce, 0xff, 0xff, 0x04, 0x00, 0x00, 0x00, 0x40, 0x02, 0x00, 0x00,
  0x09, 0xef, 0xe2, 0xdc, 0xd1, 0x39, 0x00, 0xb5, 0x02, 0xf1, 0x00, 0xe3,
  0xe0, 0x33, 0x0c, 0xad, 0x03, 0xcc, 0xff, 0xdf, 0xd7, 0x2d, 0x09, 0xb4,
  0xfb, 0xbc, 0x08, 0xe0, 0xdf, 0x0a, 0x00, 0x9e, 0xee, 0x81, 0x02, 0xd0,
  0xc5, 0xf5, 0xf5, 0xb0, 0xf6, 0x8e, 0x07, 0xdb, 0xe8, 0x11, 0x05, 0xd7,
  0xf1, 0x93, 0x0e, 0xef, 0xf1, 0x34, 0x03, 0xe2, 0xee, 0xb8, 0x09, 0xe7,
  0xf6, 0x23, 0x00, 0xdf, 0xe9, 0xc7, 0xf7, 0xe8, 0xeb, 0x2f, 0x09, 0xee,
  0xf4, 0xf9, 0xfc, 0x03, 0x2e, 0xd1, 0x7f, 0xff, 0xef, 0x00, 0xfb, 0xfd,
  0x2a, 0xe0, 0x6e, 0xfe, 0xfb, 0xff, 0x02, 0xfe, 0x2e, 0xed, 0x62, 0xfd,
  0xf2, 0x02, 0xf9, 0xfe, 0x22, 0xf5, 0x64, 0xfa, 0xf0, 0x01, 0x03, 0xfe,
  0x21, 0xf2, 0x66, 0xf3, 0xf5, 0x02, 0x01, 0x07, 0x1e, 0xf7, 0x63, 0xf7,
  0x01, 0x04, 0xfa, 0xfd, 0x1f, 0xdf, 0x5f, 0xfe, 0xfe, 0x0b, 0xfb, 0x02,
  0x26, 0xed, 0x64, 0xfe, 0x05, 0x02, 0x06, 0x07, 0x2b, 0xe9, 0x67, 0xfa,
  0xfb, 0x0e, 0xef, 0x7f, 0x01, 0xe7, 0xff, 0xf8, 0xfe, 0x12, 0xef, 0x67,
  0xfc, 0xef, 0x05, 0xfe, 0xfc, 0x13, 0xee, 0x5e, 0xf8, 0xf2, 0xfb, 0xf3,
  0x00, 0x13, 0xf2, 0x5b, 0xfd, 0xf4, 0xf9, 0xf8, 0xf6, 0x12, 0xf6, 0x66,
  0x02, 0x02, 0xfa, 0xee, 0x01, 0x0d, 0xe8, 0x56, 0xf9, 0x07, 0xf2, 0xf3,
  0x00, 0x0c, 0xe8, 0x5a, 0xfc, 0xf6, 0xfd, 0xee, 0x06, 0x03, 0xe8, 0x71,
  0xfd, 0xfb, 0xfc, 0xee, 0x06, 0x06, 0xe7, 0x5b, 0xfb, 0xee, 0xee, 0xec,
  0xe6, 0x65, 0x90, 0x2c, 0x89, 0x02, 0xc9, 0x0e, 0xf3, 0x49, 0x99, 0x36,
  0x86, 0x16, 0xd1, 0x0e, 0xe2, 0x47, 0x81, 0x29, 0x9d, 0x04, 0xba, 0x0d,
  0xda, 0x3b, 0x98, 0x27, 0x9a, 0xee, 0xb7, 0x05, 0xd3, 0x37, 0x86, 0x15,
  0x8f, 0xb1, 0x98, 0x19, 0xd9, 0x2e, 0xac, 0x2c, 0xa3, 0xf2, 0xa9, 0x16,
  0xd4, 0x25, 0x9d, 0x23, 0xaa, 0x08, 0xbb, 0x05, 0xc7, 0x33, 0x89, 0x31,
  0xc6, 0xef, 0xb1, 0x09, 0xd3, 0x30, 0x83, 0x2e, 0xb7, 0xf8, 0x9b, 0x14,
  0xed, 0x1e, 0xf8, 0xf4, 0x00, 0x07, 0xfe, 0x51, 0xe7, 0x1a, 0xf9, 0xf3,
  0x00, 0x14, 0xf9, 0x5e, 0xea, 0x22, 0xef, 0xf8, 0x05, 0x11, 0xfd, 0x5f,
  0xe9, 0x30, 0xf1, 0xef, 0x15, 0x1f, 0x05, 0x66, 0xf2, 0x41, 0xf4, 0xf9,
  0x22, 0x2f, 0x13, 0x7f, 0xf0, 0x39, 0xf8, 0xed, 0x14, 0x18, 0x0d, 0x54,
  0xf6, 0x35, 0xf8, 0xe9, 0x0a, 0x03, 0x0b, 0x45, 0xf3, 0x2f, 0xf5, 0xea,
  0x05, 0x0e, 0x05, 0x52, 0xf7, 0x33, 0xfa, 0xeb, 0x03, 0x06, 0x09, 0x43,
  0xeb, 0xd5, 0x1b, 0x5c, 0xdf, 0xa7, 0x5b, 0xae, 0x0e, 0xeb, 0x2e, 0x50,
  0xd5, 0xb6, 0x4e, 0xad, 0xf8, 0xde, 0x22, 0x54, 0xb8, 0xb5, 0x5c, 0x97,
  0xf7, 0xb6, 0x1e, 0x4c, 0xb3, 0x94, 0x32, 0x98, 0xd7, 0xb9, 0x15, 0x3a,
  0x8c, 0xa8, 0x14, 0x84, 0xe9, 0xbf, 0x17, 0x56, 0xaa, 0x8e, 0x43, 0x84,
  0xe4, 0xd5, 0xfc, 0x53, 0xcd, 0xa4, 0x38, 0x9c, 0xee, 0xaa, 0xfa, 0x42,
  0xbe, 0x9a, 0x43, 0x98, 0xfc, 0xa9, 0xf8, 0x4b, 0xbb, 0x81, 0x69, 0x83,
  0x59, 0xeb, 0xf2, 0xfd, 0x09, 0xd7, 0xf7, 0xf5, 0x4a, 0xf4, 0xf6, 0xf6,
  0x17, 0xd9, 0xff, 0xf4, 0x51, 0xf2, 0xf7, 0xf6, 0x17, 0xdb, 0xfc, 0xf9,
  0x66, 0xeb, 0xeb, 0xf5, 0x19, 0xe7, 0xfa, 0xf5, 0x7f, 0xea, 0xf7, 0xf1,
  0x1b, 0xe8, 0xef, 0xf5, 0x6e, 0xf1, 0xeb, 0xf6, 0x17, 0xee, 0xf8, 0xff,
  0x5f, 0xee, 0xf8, 0xf3, 0x18, 0xfe, 0xfd, 0x05, 0x5d, 0xf3, 0xfc, 0xfb,
  0x1b, 0xf4, 0x02, 0xfd, 0x65, 0xf5, 0x00, 0xfd, 0x29, 0xf3, 0x00, 0x03,
  0xfe, 0xfb, 0x7e, 0x06, 0x06, 0x1b, 0xdf, 0x11, 0x02, 0xfb, 0x67, 0x07,
  0x00, 0x1b, 0xe1, 0x0e, 0x02, 0xfd, 0x54, 0x0d, 0x00, 0x15, 0xec, 0x0a,
  0x02, 0x03, 0x52, 0x0f, 0x01, 0x21, 0xed, 0x13, 0x02, 0x0e, 0x6b, 0x19,
  0x03, 0x22, 0xf6, 0x09, 0x03, 0x10, 0x68, 0x10, 0x01, 0x15, 0xf5, 0x0d,
  0x0a, 0x08, 0x78, 0x01, 0x02, 0x19, 0xfa, 0x05, 0x02, 0x09, 0x7f, 0x01,
  0xff, 0x14, 0xf5, 0x0c, 0xf6, 0x0d, 0x7b, 0x03, 0xf6, 0x12, 0x01, 0x04,
  0x7e, 0xd0, 0xff, 0xff, 0x04, 0x00, 0x00, 0x00, 0x20, 0x00, 0x00, 0x00,
  0x41, 0x75, 0x00, 0x00, 0x01, 0xe7, 0xff, 0xff, 0x12, 0xd2, 0xff, 0xff,
  0x14, 0x6d, 0x00, 0x00, 0xa6, 0xe2, 0xff, 0xff, 0x7e, 0x61, 0x00, 0x00,
  0x1d, 0xff, 0xff, 0xff, 0x27, 0xde, 0xff, 0xff, 0xaa, 0xd0, 0xff, 0xff,
  0x04, 0x00, 0x00, 0x00, 0x60, 0x00, 0x00, 0x00, 0x1d, 0xb9, 0xd5, 0xa2,
  0x95, 0xb3, 0x39, 0xe6, 0xf6, 0xf2, 0xe2, 0x04, 0xe1, 0xdf, 0x20, 0xea,
  0xfb, 0x03, 0xdf, 0x3f, 0xfe, 0x1b, 0x0e, 0x0b, 0x81, 0xf5, 0xeb, 0xf9,
  0x04, 0xcb, 0x45, 0xe4, 0x0d, 0xc9, 0xd4, 0x17, 0x3f, 0xa6, 0xd7, 0x08,
  0xe1, 0x0a, 0xa1, 0xd8, 0x83, 0xeb, 0xf1, 0x06, 0xf9, 0xdf, 0x3d, 0x37,
  0xcd, 0x24, 0xda, 0xe1, 0x5a, 0xfe, 0xfe, 0xfa, 0x18, 0x30, 0xd7, 0x9c,
  0xca, 0x24, 0xee, 0xe3, 0xa9, 0xdc, 0xc5, 0x11, 0x93, 0x48, 0xe7, 0xda,
  0x2f, 0xed, 0xc8, 0xd9, 0xd8, 0xd6, 0xd4, 0xf1, 0xc8, 0xfa, 0xc0, 0x11,
  0x37, 0xd0, 0xc2, 0xd2, 0x63, 0x63, 0x70, 0xf1, 0x16, 0xd1, 0xff, 0xff,
  0x04, 0x00, 0x00, 0x00, 0x20, 0x00, 0x00, 0x00, 0x01, 0x01, 0x00, 0x00,
  0x8d, 0xfd, 0xff, 0xff, 0x7b, 0x01, 0x00, 0x00, 0x4b, 0x00, 0x00, 0x00,
  0x6d, 0xff, 0xff, 0xff, 0xa1, 0xff, 0xff, 0xff, 0x6f, 0x00, 0x00, 0x00,
  0x5c, 0x01, 0x00, 0x00, 0x42, 0xd1, 0xff, 0xff, 0x04, 0x00, 0x00, 0x00,
  0x08, 0x00, 0x00, 0x00, 0x01, 0x00, 0x00, 0x00, 0x08, 0x00, 0x00, 0x00,
  0xb4, 0xb5, 0xfe, 0xff, 0x5a, 0xd1, 0xff, 0xff, 0x04, 0x00, 0x00, 0x00,
  0x10, 0x00, 0x00, 0x00, 0x01, 0x00, 0x00, 0x00, 0x01, 0x00, 0x00, 0x00,
  0x10, 0x00, 0x00, 0x00, 0x01, 0x00, 0x00, 0x00, 0x76, 0xd1, 0xff, 0xff,
  0x04, 0x00, 0x00, 0x00, 0x0c, 0x00, 0x00, 0x00, 0x01, 0x00, 0x00, 0x00,
  0x10, 0x00, 0x00, 0x00, 0x08, 0x00, 0x00, 0x00, 0x8e, 0xd1, 0xff, 0xff,
  0x04, 0x00, 0x00, 0x00, 0x10, 0x00, 0x00, 0x00, 0x01, 0x00, 0x00, 0x00,
  0x01, 0x00, 0x00, 0x00, 0x10, 0x00, 0x00, 0x00, 0x08, 0x00, 0x00, 0x00,
  0xaa, 0xd1, 0xff, 0xff, 0x04, 0x00, 0x00, 0x00, 0x0c, 0x00, 0x00, 0x00,
  0x01, 0x00, 0x00, 0x00, 0x10, 0x00, 0x00, 0x00, 0x01, 0x00, 0x00, 0x00,
  0xc2, 0xd1, 0xff, 0xff, 0x04, 0x00, 0x00, 0x00, 0x10, 0x00, 0x00, 0x00,
  0x01, 0x00, 0x00, 0x00, 0x01, 0x00, 0x00, 0x00, 0x90, 0x00, 0x00, 0x00,
  0x01, 0x00, 0x00, 0x00, 0xde, 0xd1, 0xff, 0xff, 0x04, 0x00, 0x00, 0x00,
  0x18, 0x00, 0x00, 0x00, 0x00, 0x00, 0x00, 0x00, 0x00, 0x00, 0x00, 0x00,
  0x08, 0x00, 0x00, 0x00, 0x08, 0x00, 0x00, 0x00, 0x00, 0x00, 0x00, 0x00,
  0x00, 0x00, 0x00, 0x00, 0x02, 0xd2, 0xff, 0xff, 0x04, 0x00, 0x00, 0x00,
  0x10, 0x00, 0x00, 0x00, 0x01, 0x00, 0x00, 0x00, 0x01, 0x00, 0x00, 0x00,
  0x80, 0x00, 0x00, 0x00, 0x08, 0x00, 0x00, 0x00, 0x1e, 0xd2, 0xff, 0xff,
  0x04, 0x00, 0x00, 0x00, 0x0c, 0x00, 0x00, 0x00, 0x01, 0x00, 0x00, 0x00,
  0x80, 0x00, 0x00, 0x00, 0x01, 0x00, 0x00, 0x00, 0x36, 0xd2, 0xff, 0xff,
  0x04, 0x00, 0x00, 0x00, 0x10, 0x00, 0x00, 0x00, 0x01, 0x00, 0x00, 0x00,
  0x01, 0x00, 0x00, 0x00, 0x80, 0x00, 0x00, 0x00, 0x01, 0x00, 0x00, 0x00,
  0x52, 0xd2, 0xff, 0xff, 0x04, 0x00, 0x00, 0x00, 0x04, 0x00, 0x00, 0x00,
  0xff, 0xff, 0xff, 0xff, 0x62, 0xd2, 0xff, 0xff, 0x04, 0x00, 0x00, 0x00,
  0x0c, 0x00, 0x00, 0x00, 0x01, 0x00, 0x00, 0x00, 0x80, 0x00, 0x00, 0x00,
  0x08, 0x00, 0x00, 0x00, 0x7a, 0xd2, 0xff, 0xff, 0x04, 0x00, 0x00, 0x00,
  0x10, 0x00, 0x00, 0x00, 0x01, 0x00, 0x00, 0x00, 0x01, 0x00, 0x00, 0x00,
  0x38, 0x04, 0x00, 0x00, 0x01, 0x00, 0x00, 0x00, 0x96, 0xd2, 0xff, 0xff,
  0x04, 0x00, 0x00, 0x00, 0x18, 0x00, 0x00, 0x00, 0x00, 0x00, 0x00, 0x00,
  0x00, 0x00, 0x00, 0x00, 0x1c, 0x00, 0x00, 0x00, 0x1c, 0x00, 0x00, 0x00,
  0x00, 0x00, 0x00, 0x00, 0x00, 0x00, 0x00, 0x00, 0xba, 0xd2, 0xff, 0xff,
  0x04, 0x00, 0x00, 0x00, 0x04, 0x00, 0x00, 0x00, 0x01, 0x00, 0x00, 0x00,
  0x28, 0xb7, 0xfe, 0xff, 0x2c, 0xb7, 0xfe, 0xff, 0x0f, 0x00, 0x00, 0x00,
  0x4d, 0x4c, 0x49, 0x52, 0x20, 0x43, 0x6f, 0x6e, 0x76, 0x65, 0x72, 0x74,
  0x65, 0x64, 0x2e, 0x00, 0x01, 0x00, 0x00, 0x00, 0x14, 0x00, 0x00, 0x00,
  0x00, 0x00, 0x0e, 0x00, 0x18, 0x00, 0x14, 0x00, 0x10, 0x00, 0x0c, 0x00,
  0x08, 0x00, 0x04, 0x00, 0x0e, 0x00, 0x00, 0x00, 0x14, 0x00, 0x00, 0x00,
  0x1c, 0x00, 0x00, 0x00, 0xc8, 0x30, 0x00, 0x00, 0xcc, 0x30, 0x00, 0x00,
  0xd0, 0x30, 0x00, 0x00, 0x04, 0x00, 0x00, 0x00, 0x6d, 0x61, 0x69, 0x6e,
  0x00, 0x00, 0x00, 0x00, 0xf6, 0x00, 0x00, 0x00, 0x90, 0x30, 0x00, 0x00,
  0x60, 0x30, 0x00, 0x00, 0x20, 0x30, 0x00, 0x00, 0xd0, 0x2f, 0x00, 0x00,
  0x9c, 0x2f, 0x00, 0x00, 0x68, 0x2f, 0x00, 0x00, 0x48, 0x2f, 0x00, 0x00,
  0x14, 0x2f, 0x00, 0x00, 0xf0, 0x2e, 0x00, 0x00, 0xbc, 0x2e, 0x00, 0x00,
  0x98, 0x2e, 0x00, 0x00, 0x64, 0x2e, 0x00, 0x00, 0x40, 0x2e, 0x00, 0x00,
  0x1c, 0x2e, 0x00, 0x00, 0xf8, 0x2d, 0x00, 0x00, 0xc4, 0x2d, 0x00, 0x00,
  0xa0, 0x2d, 0x00, 0x00, 0x6c, 0x2d, 0x00, 0x00, 0x44, 0x2d, 0x00, 0x00,
  0xf0, 0x2c, 0x00, 0x00, 0xc8, 0x2c, 0x00, 0x00, 0x6c, 0x2c, 0x00, 0x00,
  0x44, 0x2c, 0x00, 0x00, 0x04, 0x2c, 0x00, 0x00, 0xdc, 0x2b, 0x00, 0x00,
  0xb4, 0x2b, 0x00, 0x00, 0x74, 0x2b, 0x00, 0x00, 0x4c, 0x2b, 0x00, 0x00,
  0x24, 0x2b, 0x00, 0x00, 0xe4, 0x2a, 0x00, 0x00, 0xbc, 0x2a, 0x00, 0x00,
  0x94, 0x2a, 0x00, 0x00, 0x54, 0x2a, 0x00, 0x00, 0x2c, 0x2a, 0x00, 0x00,
  0x04, 0x2a, 0x00, 0x00, 0xc4, 0x29, 0x00, 0x00, 0x9c, 0x29, 0x00, 0x00,
  0x74, 0x29, 0x00, 0x00, 0x34, 0x29, 0x00, 0x00, 0x0c, 0x29, 0x00, 0x00,
  0xe4, 0x28, 0x00, 0x00, 0xa4, 0x28, 0x00, 0x00, 0x7c, 0x28, 0x00, 0x00,
  0x54, 0x28, 0x00, 0x00, 0x14, 0x28, 0x00, 0x00, 0xec, 0x27, 0x00, 0x00,
  0x9c, 0x27, 0x00, 0x00, 0x64, 0x27, 0x00, 0x00, 0x3c, 0x27, 0x00, 0x00,
  0xfc, 0x26, 0x00, 0x00, 0xc4, 0x26, 0x00, 0x00, 0x9c, 0x26, 0x00, 0x00,
  0x48, 0x26, 0x00, 0x00, 0x20, 0x26, 0x00, 0x00, 0xe0, 0x25, 0x00, 0x00,
  0xb8, 0x25, 0x00, 0x00, 0x90, 0x25, 0x00, 0x00, 0x50, 0x25, 0x00, 0x00,
  0x28, 0x25, 0x00, 0x00, 0x00, 0x25, 0x00, 0x00, 0xc0, 0x24, 0x00, 0x00,
  0x98, 0x24, 0x00, 0x00, 0x70, 0x24, 0x00, 0x00, 0x30, 0x24, 0x00, 0x00,
  0x08, 0x24, 0x00, 0x00, 0xe0, 0x23, 0x00, 0x00, 0xa0, 0x23, 0x00, 0x00,
  0x78, 0x23, 0x00, 0x00, 0x50, 0x23, 0x00, 0x00, 0x10, 0x23, 0x00, 0x00,
  0xe8, 0x22, 0x00, 0x00, 0xc0, 0x22, 0x00, 0x00, 0x80, 0x22, 0x00, 0x00,
  0x58, 0x22, 0x00, 0x00, 0x30, 0x22, 0x00, 0x00, 0xf0, 0x21, 0x00, 0x00,
  0xc8, 0x21, 0x00, 0x00, 0x78, 0x21, 0x00, 0x00, 0x40, 0x21, 0x00, 0x00,
  0x18, 0x21, 0x00, 0x00, 0xd8, 0x20, 0x00, 0x00, 0xa0, 0x20, 0x00, 0x00,
  0x78, 0x20, 0x00, 0x00, 0x24, 0x20, 0x00, 0x00, 0xfc, 0x1f, 0x00, 0x00,
  0xbc, 0x1f, 0x00, 0x00, 0x94, 0x1f, 0x00, 0x00, 0x6c, 0x1f, 0x00, 0x00,
  0x2c, 0x1f, 0x00, 0x00, 0x04, 0x1f, 0x00, 0x00, 0xdc, 0x1e, 0x00, 0x00,
  0x9c, 0x1e, 0x00, 0x00, 0x74, 0x1e, 0x00, 0x00, 0x4c, 0x1e, 0x00, 0x00,
  0x0c, 0x1e, 0x00, 0x00, 0xe4, 0x1d, 0x00, 0x00, 0xbc, 0x1d, 0x00, 0x00,
  0x7c, 0x1d, 0x00, 0x00, 0x54, 0x1d, 0x00, 0x00, 0x2c, 0x1d, 0x00, 0x00,
  0xec, 0x1c, 0x00, 0x00, 0xc4, 0x1c, 0x00, 0x00, 0x9c, 0x1c, 0x00, 0x00,
  0x5c, 0x1c, 0x00, 0x00, 0x34, 0x1c, 0x00, 0x00, 0x0c, 0x1c, 0x00, 0x00,
  0xcc, 0x1b, 0x00, 0x00, 0xa4, 0x1b, 0x00, 0x00, 0x54, 0x1b, 0x00, 0x00,
  0x1c, 0x1b, 0x00, 0x00, 0xf4, 0x1a, 0x00, 0x00, 0xb4, 0x1a, 0x00, 0x00,
  0x7c, 0x1a, 0x00, 0x00, 0x54, 0x1a, 0x00, 0x00, 0x20, 0x1a, 0x00, 0x00,
  0xcc, 0x19, 0x00, 0x00, 0xa4, 0x19, 0x00, 0x00, 0x54, 0x19, 0x00, 0x00,
  0x2c, 0x19, 0x00, 0x00, 0x04, 0x19, 0x00, 0x00, 0xc0, 0x18, 0x00, 0x00,
  0x98, 0x18, 0x00, 0x00, 0x70, 0x18, 0x00, 0x00, 0x2c, 0x18, 0x00, 0x00,
  0x04, 0x18, 0x00, 0x00, 0xdc, 0x17, 0x00, 0x00, 0x98, 0x17, 0x00, 0x00,
  0x70, 0x17, 0x00, 0x00, 0x48, 0x17, 0x00, 0x00, 0x04, 0x17, 0x00, 0x00,
  0xdc, 0x16, 0x00, 0x00, 0xb4, 0x16, 0x00, 0x00, 0x70, 0x16, 0x00, 0x00,
  0x48, 0x16, 0x00, 0x00, 0x20, 0x16, 0x00, 0x00, 0xdc, 0x15, 0x00, 0x00,
  0xb4, 0x15, 0x00, 0x00, 0x8c, 0x15, 0x00, 0x00, 0x48, 0x15, 0x00, 0x00,
  0x20, 0x15, 0x00, 0x00, 0xd0, 0x14, 0x00, 0x00, 0x98, 0x14, 0x00, 0x00,
  0x70, 0x14, 0x00, 0x00, 0x20, 0x14, 0x00, 0x00, 0xf8, 0x13, 0x00, 0x00,
  0xa4, 0x13, 0x00, 0x00, 0x7c, 0x13, 0x00, 0x00, 0x3c, 0x13, 0x00, 0x00,
  0x14, 0x13, 0x00, 0x00, 0xec, 0x12, 0x00, 0x00, 0xac, 0x12, 0x00, 0x00,
  0x84, 0x12, 0x00, 0x00, 0x5c, 0x12, 0x00, 0x00, 0x1c, 0x12, 0x00, 0x00,
  0xf4, 0x11, 0x00, 0x00, 0xcc, 0x11, 0x00, 0x00, 0x8c, 0x11, 0x00, 0x00,
  0x64, 0x11, 0x00, 0x00, 0x3c, 0x11, 0x00, 0x00, 0xfc, 0x10, 0x00, 0x00,
  0xd4, 0x10, 0x00, 0x00, 0xac, 0x10, 0x00, 0x00, 0x6c, 0x10, 0x00, 0x00,
  0x44, 0x10, 0x00, 0x00, 0x1c, 0x10, 0x00, 0x00, 0xdc, 0x0f, 0x00, 0x00,
  0xb4, 0x0f, 0x00, 0x00, 0x8c, 0x0f, 0x00, 0x00, 0x4c, 0x0f, 0x00, 0x00,
  0x24, 0x0f, 0x00, 0x00, 0xd4, 0x0e, 0x00, 0x00, 0x9c, 0x0e, 0x00, 0x00,
  0x74, 0x0e, 0x00, 0x00, 0x34, 0x0e, 0x00, 0x00, 0xfc, 0x0d, 0x00, 0x00,
  0xd4, 0x0d, 0x00, 0x00, 0x80, 0x0d, 0x00, 0x00, 0x58, 0x0d, 0x00, 0x00,
  0x18, 0x0d, 0x00, 0x00, 0xf0, 0x0c, 0x00, 0x00, 0xc8, 0x0c, 0x00, 0x00,
  0x88, 0x0c, 0x00, 0x00, 0x60, 0x0c, 0x00, 0x00, 0x38, 0x0c, 0x00, 0x00,
  0xf8, 0x0b, 0x00, 0x00, 0xd0, 0x0b, 0x00, 0x00, 0xa8, 0x0b, 0x00, 0x00,
  0x68, 0x0b, 0x00, 0x00, 0x40, 0x0b, 0x00, 0x00, 0x18, 0x0b, 0x00, 0x00,
  0xd8, 0x0a, 0x00, 0x00, 0xb0, 0x0a, 0x00, 0x00, 0x88, 0x0a, 0x00, 0x00,
  0x48, 0x0a, 0x00, 0x00, 0x20, 0x0a, 0x00, 0x00, 0xf8, 0x09, 0x00, 0x00,
  0xb8, 0x09, 0x00, 0x00, 0x90, 0x09, 0x00, 0x00, 0x68, 0x09, 0x00, 0x00,
  0x28, 0x09, 0x00, 0x00, 0x00, 0x09, 0x00, 0x00, 0xb0, 0x08, 0x00, 0x00,
  0x78, 0x08, 0x00, 0x00, 0x50, 0x08, 0x00, 0x00, 0x10, 0x08, 0x00, 0x00,
  0xd8, 0x07, 0x00, 0x00, 0xb0, 0x07, 0x00, 0x00, 0x5c, 0x07, 0x00, 0x00,
  0x34, 0x07, 0x00, 0x00, 0xf4, 0x06, 0x00, 0x00, 0xcc, 0x06, 0x00, 0x00,
  0xa4, 0x06, 0x00, 0x00, 0x64, 0x06, 0x00, 0x00, 0x3c, 0x06, 0x00, 0x00,
  0x14, 0x06, 0x00, 0x00, 0xd4, 0x05, 0x00, 0x00, 0xac, 0x05, 0x00, 0x00,
  0x84, 0x05, 0x00, 0x00, 0x44, 0x05, 0x00, 0x00, 0x1c, 0x05, 0x00, 0x00,
  0xf4, 0x04, 0x00, 0x00, 0xb4, 0x04, 0x00, 0x00, 0x8c, 0x04, 0x00, 0x00,
  0x64, 0x04, 0x00, 0x00, 0x24, 0x04, 0x00, 0x00, 0xfc, 0x03, 0x00, 0x00,
  0xd4, 0x03, 0x00, 0x00, 0x94, 0x03, 0x00, 0x00, 0x6c, 0x03, 0x00, 0x00,
  0x44, 0x03, 0x00, 0x00, 0x04, 0x03, 0x00, 0x00, 0xdc, 0x02, 0x00, 0x00,
  0x8c, 0x02, 0x00, 0x00, 0x54, 0x02, 0x00, 0x00, 0x2c, 0x02, 0x00, 0x00,
  0xec, 0x01, 0x00, 0x00, 0xb4, 0x01, 0x00, 0x00, 0x70, 0x01, 0x00, 0x00,
  0x48, 0x01, 0x00, 0x00, 0x10, 0x01, 0x00, 0x00, 0xe8, 0x00, 0x00, 0x00,
  0xc4, 0x00, 0x00, 0x00, 0x80, 0x00, 0x00, 0x00, 0x60, 0x00, 0x00, 0x00,
  0x28, 0x00, 0x00, 0x00, 0x04, 0x00, 0x00, 0x00, 0x7e, 0xd3, 0xff, 0xff,
  0x0c, 0x00, 0x00, 0x00, 0x10, 0x00, 0x00, 0x00, 0x04, 0x00, 0x00, 0x00,
  0x01, 0x00, 0x00, 0x00, 0xc2, 0x01, 0x00, 0x00, 0x01, 0x00, 0x00, 0x00,
  0xc1, 0x01, 0x00, 0x00, 0xde, 0xd3, 0xff, 0xff, 0x14, 0x00, 0x00, 0x00,
  0x00, 0x00, 0x00, 0x08, 0x10, 0x00, 0x00, 0x00, 0x14, 0x00, 0x00, 0x00,
  0x0f, 0x00, 0x00, 0x00, 0x94, 0xbb, 0xfe, 0xff, 0x01, 0x00, 0x00, 0x00,
  0xc1, 0x01, 0x00, 0x00, 0x03, 0x00, 0x00, 0x00, 0xc0, 0x01, 0x00, 0x00,
  0x12, 0x00, 0x00, 0x00, 0x11, 0x00, 0x00, 0x00, 0xa6, 0xd3, 0xff, 0xff,
  0x08, 0x00, 0x00, 0x00, 0x0c, 0x00, 0x00, 0x00, 0x01, 0x00, 0x00, 0x00,
  0xc0, 0x01, 0x00, 0x00, 0x01, 0x00, 0x00, 0x00, 0xbf, 0x01, 0x00, 0x00,
  0x2e, 0xd4, 0xff, 0xff, 0x14, 0x00, 0x00, 0x00, 0x00, 0x00, 0x00, 0x0a,
  0x14, 0x00, 0x00, 0x00, 0x18, 0x00, 0x00, 0x00, 0x0d, 0x00, 0x00, 0x00,
  0x86, 0xd7, 0xff, 0xff, 0x01, 0x00, 0x00, 0x00, 0x01, 0x00, 0x00, 0x00,
  0xbf, 0x01, 0x00, 0x00, 0x05, 0x00, 0x00, 0x00, 0xbe, 0x01, 0x00, 0x00,
  0xa6, 0x00, 0x00, 0x00, 0xa4, 0x00, 0x00, 0x00, 0xa9, 0x00, 0x00, 0x00,
  0xac, 0x00, 0x00, 0x00, 0x2e, 0xd4, 0xff, 0xff, 0x0c, 0x00, 0x00, 0x00,
  0x10, 0x00, 0x00, 0x00, 0x04, 0x00, 0x00, 0x00, 0x01, 0x00, 0x00, 0x00,
  0xbe, 0x01, 0x00, 0x00, 0x01, 0x00, 0x00, 0x00, 0xbd, 0x01, 0x00, 0x00,
  0x4e, 0xd4, 0xff, 0xff, 0x0c, 0x00, 0x00, 0x00, 0x10, 0x00, 0x00, 0x00,
  0x0a, 0x00, 0x00, 0x00, 0x01, 0x00, 0x00, 0x00, 0xbd, 0x01, 0x00, 0x00,
  0x02, 0x00, 0x00, 0x00, 0xbc, 0x01, 0x00, 0x00, 0x10, 0x00, 0x00, 0x00,
  0xb2, 0xd4, 0xff, 0xff, 0x14, 0x00, 0x00, 0x00, 0x00, 0x00, 0x00, 0x1b,
  0x14, 0x00, 0x00, 0x00, 0x18, 0x00, 0x00, 0x00, 0x06, 0x00, 0x00, 0x00,
  0xee, 0xd4, 0xff, 0xff, 0x00, 0x00, 0x00, 0x01, 0x01, 0x00, 0x00, 0x00,
  0xbc, 0x01, 0x00, 0x00, 0x02, 0x00, 0x00, 0x00, 0xbb, 0x01, 0x00, 0x00,
  0x0f, 0x00, 0x00, 0x00, 0xa6, 0xd4, 0xff, 0xff, 0x0c, 0x00, 0x00, 0x00,
  0x10, 0x00, 0x00, 0x00, 0x0a, 0x00, 0x00, 0x00, 0x01, 0x00, 0x00, 0x00,
  0xbb, 0x01, 0x00, 0x00, 0x02, 0x00, 0x00, 0x00, 0xba, 0x01, 0x00, 0x00,
  0x0d, 0x00, 0x00, 0x00, 0x0a, 0xd5, 0xff, 0xff, 0x14, 0x00, 0x00, 0x00,
  0x00, 0x00, 0x00, 0x01, 0x1c, 0x00, 0x00, 0x00, 0x20, 0x00, 0x00, 0x00,
  0x0b, 0x00, 0x00, 0x00, 0xc8, 0xee, 0xff, 0xff, 0x00, 0x00, 0x00, 0x01,
  0x01, 0x00, 0x00, 0x00, 0x01, 0x00, 0x00, 0x00, 0x01, 0x00, 0x00, 0x00,
  0xba, 0x01, 0x00, 0x00, 0x03, 0x00, 0x00, 0x00, 0xb9, 0x01, 0x00, 0x00,
  0x14, 0x00, 0x00, 0x00, 0x13, 0x00, 0x00, 0x00, 0x4a, 0xd5, 0xff, 0xff,
  0x14, 0x00, 0x00, 0x00, 0x00, 0x00, 0x00, 0x0b, 0x14, 0x00, 0x00, 0x00,
  0x18, 0x00, 0x00, 0x00, 0x0e, 0x00, 0x00, 0x00, 0x86, 0xd5, 0xff, 0xff,
  0x00, 0x00, 0x00, 0x01, 0x01, 0x00, 0x00, 0x00, 0xb9, 0x01, 0x00, 0x00,
  0x02, 0x00, 0x00, 0x00, 0x93, 0x01, 0x00, 0x00, 0xb8, 0x01, 0x00, 0x00,
  0x7e, 0xd5, 0xff, 0xff, 0x14, 0x00, 0x00, 0x00, 0x00, 0x00, 0x00, 0x01,
  0x18, 0x00, 0x00, 0x00, 0x1c, 0x00, 0x00, 0x00, 0x0b, 0x00, 0x00, 0x00,
  0x2a, 0xd5, 0xff, 0xff, 0x01, 0x00, 0x00, 0x00, 0x01, 0x00, 0x00, 0x00,
  0x01, 0x00, 0x00, 0x00, 0xb8, 0x01, 0x00, 0x00, 0x03, 0x00, 0x00, 0x00,
  0xb7, 0x01, 0x00, 0x00, 0x16, 0x00, 0x00, 0x00, 0x15, 0x00, 0x00, 0x00,
  0x7a, 0xd5, 0xff, 0xff, 0x0c, 0x00, 0x00, 0x00, 0x10, 0x00, 0x00, 0x00,
  0x0a, 0x00, 0x00, 0x00, 0x01, 0x00, 0x00, 0x00, 0xb7, 0x01, 0x00, 0x00,
  0x02, 0x00, 0x00, 0x00, 0xb6, 0x01, 0x00, 0x00, 0x0c, 0x00, 0x00, 0x00,
  0xde, 0xd5, 0xff, 0xff, 0x14, 0x00, 0x00, 0x00, 0x00, 0x00, 0x00, 0x0b,
  0x14, 0x00, 0x00, 0x00, 0x18, 0x00, 0x00, 0x00, 0x0e, 0x00, 0x00, 0x00,
  0x1a, 0xd6, 0xff, 0xff, 0x00, 0x00, 0x00, 0x01, 0x01, 0x00, 0x00, 0x00,
  0xb6, 0x01, 0x00, 0x00, 0x02, 0x00, 0x00, 0x00, 0xb5, 0x01, 0x00, 0x00,
  0x17, 0x00, 0x00, 0x00, 0x12, 0xd6, 0xff, 0xff, 0x14, 0x00, 0x00, 0x00,
  0x00, 0x00, 0x00, 0x0a, 0x14, 0x00, 0x00, 0x00, 0x18, 0x00, 0x00, 0x00,
  0x0d, 0x00, 0x00, 0x00, 0x6a, 0xd9, 0xff, 0xff, 0xff, 0xff, 0xff, 0xff,
  0x01, 0x00, 0x00, 0x00, 0xb5, 0x01, 0x00, 0x00, 0x08, 0x00, 0x00, 0x00,
  0x9f, 0x01, 0x00, 0x00, 0xa2, 0x01, 0x00, 0x00, 0xa5, 0x01, 0x00, 0x00,
  0xa8, 0x01, 0x00, 0x00, 0xab, 0x01, 0x00, 0x00, 0xae, 0x01, 0x00, 0x00,
  0xb1, 0x01, 0x00, 0x00, 0xb4, 0x01, 0x00, 0x00, 0x1e, 0xd6, 0xff, 0xff,
  0x0c, 0x00, 0x00, 0x00, 0x10, 0x00, 0x00, 0x00, 0x0a, 0x00, 0x00, 0x00,
  0x01, 0x00, 0x00, 0x00, 0xb4, 0x01, 0x00, 0x00, 0x02, 0x00, 0x00, 0x00,
  0xb3, 0x01, 0x00, 0x00, 0x0b, 0x00, 0x00, 0x00, 0x82, 0xd6, 0xff, 0xff,
  0x14, 0x00, 0x00, 0x00, 0x00, 0x00, 0x00, 0x01, 0x18, 0x00, 0x00, 0x00,
  0x1c, 0x00, 0x00, 0x00, 0x0b, 0x00, 0x00, 0x00, 0x2e, 0xd6, 0xff, 0xff,
  0x01, 0x00, 0x00, 0x00, 0x01, 0x00, 0x00, 0x00, 0x01, 0x00, 0x00, 0x00,
  0xb3, 0x01, 0x00, 0x00, 0x03, 0x00, 0x00, 0x00, 0xb2, 0x01, 0x00, 0x00,
  0x18, 0x00, 0x00, 0x00, 0x98, 0x00, 0x00, 0x00, 0x7e, 0xd6, 0xff, 0xff,
  0x0c, 0x00, 0x00, 0x00, 0x10, 0x00, 0x00, 0x00, 0x0a, 0x00, 0x00, 0x00,
  0x01, 0x00, 0x00, 0x00, 0xb2, 0x01, 0x00, 0x00, 0x02, 0x00, 0x00, 0x00,
  0x9c, 0x01, 0x00, 0x00, 0x0e, 0x00, 0x00, 0x00, 0xa2, 0xd6, 0xff, 0xff,
  0x0c, 0x00, 0x00, 0x00, 0x10, 0x00, 0x00, 0x00, 0x0a, 0x00, 0x00, 0x00,
  0x01, 0x00, 0x00, 0x00, 0xb1, 0x01, 0x00, 0x00, 0x02, 0x00, 0x00, 0x00,
  0xb0, 0x01, 0x00, 0x00, 0x0b, 0x00, 0x00, 0x00, 0x06, 0xd7, 0xff, 0xff,
  0x14, 0x00, 0x00, 0x00, 0x00, 0x00, 0x00, 0x01, 0x18, 0x00, 0x00, 0x00,
  0x1c, 0x00, 0x00, 0x00, 0x0b, 0x00, 0x00, 0x00, 0xb2, 0xd6, 0xff, 0xff,
  0x01, 0x00, 0x00, 0x00, 0x01, 0x00, 0x00, 0x00, 0x01, 0x00, 0x00, 0x00,
  0xb0, 0x01, 0x00, 0x00, 0x03, 0x00, 0x00, 0x00, 0xaf, 0x01, 0x00, 0x00,
  0x19, 0x00, 0x00, 0x00, 0x97, 0x00, 0x00, 0x00, 0x02, 0xd7, 0xff, 0xff,
  0x0c, 0x00, 0x00, 0x00, 0x10, 0x00, 0x00, 0x00, 0x0a, 0x00, 0x00, 0x00,
  0x01, 0x00, 0x00, 0x00, 0xaf, 0x01, 0x00, 0x00, 0x02, 0x00, 0x00, 0x00,
  0x9b, 0x01, 0x00, 0x00, 0x0e, 0x00, 0x00, 0x00, 0x26, 0xd7, 0xff, 0xff,
  0x0c, 0x00, 0x00, 0x00, 0x10, 0x00, 0x00, 0x00, 0x0a, 0x00, 0x00, 0x00,
  0x01, 0x00, 0x00, 0x00, 0xae, 0x01, 0x00, 0x00, 0x02, 0x00, 0x00, 0x00,
  0xad, 0x01, 0x00, 0x00, 0x0b, 0x00, 0x00, 0x00, 0x8a, 0xd7, 0xff, 0xff,
  0x14, 0x00, 0x00, 0x00, 0x00, 0x00, 0x00, 0x01, 0x18, 0x00, 0x00, 0x00,
  0x1c, 0x00, 0x00, 0x00, 0x0b, 0x00, 0x00, 0x00, 0x36, 0xd7, 0xff, 0xff,
  0x01, 0x00, 0x00, 0x00, 0x01, 0x00, 0x00, 0x00, 0x01, 0x00, 0x00, 0x00,
  0xad, 0x01, 0x00, 0x00, 0x03, 0x00, 0x00, 0x00, 0xac, 0x01, 0x00, 0x00,
  0x1a, 0x00, 0x00, 0x00, 0x96, 0x00, 0x00, 0x00, 0x86, 0xd7, 0xff, 0xff,
  0x0c, 0x00, 0x00, 0x00, 0x10, 0x00, 0x00, 0x00, 0x0a, 0x00, 0x00, 0x00,
  0x01, 0x00, 0x00, 0x00, 0xac, 0x01, 0x00, 0x00, 0x02, 0x00, 0x00, 0x00,
  0x9a, 0x01, 0x00, 0x00, 0x0e, 0x00, 0x00, 0x00, 0xaa, 0xd7, 0xff, 0xff,
  0x0c, 0x00, 0x00, 0x00, 0x10, 0x00, 0x00, 0x00, 0x0a, 0x00, 0x00, 0x00,
  0x01, 0x00, 0x00, 0x00, 0xab, 0x01, 0x00, 0x00, 0x02, 0x00, 0x00, 0x00,
  0xaa, 0x01, 0x00, 0x00, 0x0b, 0x00, 0x00, 0x00, 0x0e, 0xd8, 0xff, 0xff,
  0x14, 0x00, 0x00, 0x00, 0x00, 0x00, 0x00, 0x01, 0x18, 0x00, 0x00, 0x00,
  0x1c, 0x00, 0x00, 0x00, 0x0b, 0x00, 0x00, 0x00, 0xba, 0xd7, 0xff, 0xff,
  0x01, 0x00, 0x00, 0x00, 0x01, 0x00, 0x00, 0x00, 0x01, 0x00, 0x00, 0x00,
  0xaa, 0x01, 0x00, 0x00, 0x03, 0x00, 0x00, 0x00, 0xa9, 0x01, 0x00, 0x00,
  0x1b, 0x00, 0x00, 0x00, 0x95, 0x00, 0x00, 0x00, 0x0a, 0xd8, 0xff, 0xff,
  0x0c, 0x00, 0x00, 0x00, 0x10, 0x00, 0x00, 0x00, 0x0a, 0x00, 0x00, 0x00,
  0x01, 0x00, 0x00, 0x00, 0xa9, 0x01, 0x00, 0x00, 0x02, 0x00, 0x00, 0x00,
  0x99, 0x01, 0x00, 0x00, 0x0e, 0x00, 0x00, 0x00, 0x2e, 0xd8, 0xff, 0xff,
  0x0c, 0x00, 0x00, 0x00, 0x10, 0x00, 0x00, 0x00, 0x0a, 0x00, 0x00, 0x00,
  0x01, 0x00, 0x00, 0x00, 0xa8, 0x01, 0x00, 0x00, 0x02, 0x00, 0x00, 0x00,
  0xa7, 0x01, 0x00, 0x00, 0x0b, 0x00, 0x00, 0x00, 0x92, 0xd8, 0xff, 0xff,
  0x14, 0x00, 0x00, 0x00, 0x00, 0x00, 0x00, 0x01, 0x18, 0x00, 0x00, 0x00,
  0x1c, 0x00, 0x00, 0x00, 0x0b, 0x00, 0x00, 0x00, 0x3e, 0xd8, 0xff, 0xff,
  0x01, 0x00, 0x00, 0x00, 0x01, 0x00, 0x00, 0x00, 0x01, 0x00, 0x00, 0x00,
  0xa7, 0x01, 0x00, 0x00, 0x03, 0x00, 0x00, 0x00, 0xa6, 0x01, 0x00, 0x00,
  0x1c, 0x00, 0x00, 0x00, 0x94, 0x00, 0x00, 0x00, 0x8e, 0xd8, 0xff, 0xff,
  0x0c, 0x00, 0x00, 0x00, 0x10, 0x00, 0x00, 0x00, 0x0a, 0x00, 0x00, 0x00,
  0x01, 0x00, 0x00, 0x00, 0xa6, 0x01, 0x00, 0x00, 0x02, 0x00, 0x00, 0x00,
  0x98, 0x01, 0x00, 0x00, 0x0e, 0x00, 0x00, 0x00, 0xb2, 0xd8, 0xff, 0xff,
  0x0c, 0x00, 0x00, 0x00, 0x10, 0x00, 0x00, 0x00, 0x0a, 0x00, 0x00, 0x00,
  0x01, 0x00, 0x00, 0x00, 0xa5, 0x01, 0x00, 0x00, 0x02, 0x00, 0x00, 0x00,
  0xa4, 0x01, 0x00, 0x00, 0x0b, 0x00, 0x00, 0x00, 0x16, 0xd9, 0xff, 0xff,
  0x14, 0x00, 0x00, 0x00, 0x00, 0x00, 0x00, 0x01, 0x18, 0x00, 0x00, 0x00,
  0x1c, 0x00, 0x00, 0x00, 0x0b, 0x00, 0x00, 0x00, 0xc2, 0xd8, 0xff, 0xff,
  0x01, 0x00, 0x00, 0x00, 0x01, 0x00, 0x00, 0x00, 0x01, 0x00, 0x00, 0x00,
  0xa4, 0x01, 0x00, 0x00, 0x03, 0x00, 0x00, 0x00, 0xa3, 0x01, 0x00, 0x00,
  0x1d, 0x00, 0x00, 0x00, 0x93, 0x00, 0x00, 0x00, 0x12, 0xd9, 0xff, 0xff,
  0x0c, 0x00, 0x00, 0x00, 0x10, 0x00, 0x00, 0x00, 0x0a, 0x00, 0x00, 0x00,
  0x01, 0x00, 0x00, 0x00, 0xa3, 0x01, 0x00, 0x00, 0x02, 0x00, 0x00, 0x00,
  0x97, 0x01, 0x00, 0x00, 0x0e, 0x00, 0x00, 0x00, 0x36, 0xd9, 0xff, 0xff,
  0x0c, 0x00, 0x00, 0x00, 0x10, 0x00, 0x00, 0x00, 0x0a, 0x00, 0x00, 0x00,
  0x01, 0x00, 0x00, 0x00, 0xa2, 0x01, 0x00, 0x00, 0x02, 0x00, 0x00, 0x00,
  0xa1, 0x01, 0x00, 0x00, 0x0b, 0x00, 0x00, 0x00, 0x9a, 0xd9, 0xff, 0xff,
  0x14, 0x00, 0x00, 0x00, 0x00, 0x00, 0x00, 0x01, 0x18, 0x00, 0x00, 0x00,
  0x1c, 0x00, 0x00, 0x00, 0x0b, 0x00, 0x00, 0x00, 0x46, 0xd9, 0xff, 0xff,
  0x01, 0x00, 0x00, 0x00, 0x01, 0x00, 0x00, 0x00, 0x01, 0x00, 0x00, 0x00,
  0xa1, 0x01, 0x00, 0x00, 0x03, 0x00, 0x00, 0x00, 0xa0, 0x01, 0x00, 0x00,
  0x1e, 0x00, 0x00, 0x00, 0x92, 0x00, 0x00, 0x00, 0x96, 0xd9, 0xff, 0xff,
  0x0c, 0x00, 0x00, 0x00, 0x10, 0x00, 0x00, 0x00, 0x0a, 0x00, 0x00, 0x00,
  0x01, 0x00, 0x00, 0x00, 0xa0, 0x01, 0x00, 0x00, 0x02, 0x00, 0x00, 0x00,
  0x96, 0x01, 0x00, 0x00, 0x0e, 0x00, 0x00, 0x00, 0xba, 0xd9, 0xff, 0xff,
  0x0c, 0x00, 0x00, 0x00, 0x10, 0x00, 0x00, 0x00, 0x0a, 0x00, 0x00, 0x00,
  0x01, 0x00, 0x00, 0x00, 0x9f, 0x01, 0x00, 0x00, 0x02, 0x00, 0x00, 0x00,
  0x9e, 0x01, 0x00, 0x00, 0x0b, 0x00, 0x00, 0x00, 0x1e, 0xda, 0xff, 0xff,
  0x14, 0x00, 0x00, 0x00, 0x00, 0x00, 0x00, 0x01, 0x18, 0x00, 0x00, 0x00,
  0x1c, 0x00, 0x00, 0x00, 0x0b, 0x00, 0x00, 0x00, 0xca, 0xd9, 0xff, 0xff,
  0x01, 0x00, 0x00, 0x00, 0x01, 0x00, 0x00, 0x00, 0x01, 0x00, 0x00, 0x00,
  0x9e, 0x01, 0x00, 0x00, 0x03, 0x00, 0x00, 0x00, 0x9d, 0x01, 0x00, 0x00,
  0x1f, 0x00, 0x00, 0x00, 0x91, 0x00, 0x00, 0x00, 0x1a, 0xda, 0xff, 0xff,
  0x0c, 0x00, 0x00, 0x00, 0x10, 0x00, 0x00, 0x00, 0x0a, 0x00, 0x00, 0x00,
  0x01, 0x00, 0x00, 0x00, 0x9d, 0x01, 0x00, 0x00, 0x02, 0x00, 0x00, 0x00,
  0x95, 0x01, 0x00, 0x00, 0x0e, 0x00, 0x00, 0x00, 0x7e, 0xda, 0xff, 0xff,
  0x14, 0x00, 0x00, 0x00, 0x00, 0x00, 0x00, 0x23, 0x14, 0x00, 0x00, 0x00,
  0x34, 0x00, 0x00, 0x00, 0x0c, 0x00, 0x00, 0x00, 0xd6, 0xdd, 0xff, 0xff,
  0x08, 0x00, 0x00, 0x00, 0x08, 0x00, 0x00, 0x00, 0x95, 0x01, 0x00, 0x00,
  0x96, 0x01, 0x00, 0x00, 0x97, 0x01, 0x00, 0x00, 0x98, 0x01, 0x00, 0x00,
  0x99, 0x01, 0x00, 0x00, 0x9a, 0x01, 0x00, 0x00, 0x9b, 0x01, 0x00, 0x00,
  0x9c, 0x01, 0x00, 0x00, 0x02, 0x00, 0x00, 0x00, 0x05, 0x00, 0x00, 0x00,
  0x94, 0x01, 0x00, 0x00, 0x8e, 0xda, 0xff, 0xff, 0x0c, 0x00, 0x00, 0x00,
  0x10, 0x00, 0x00, 0x00, 0x0a, 0x00, 0x00, 0x00, 0x01, 0x00, 0x00, 0x00,
  0x94, 0x01, 0x00, 0x00, 0x02, 0x00, 0x00, 0x00, 0x93, 0x01, 0x00, 0x00,
  0x0d, 0x00, 0x00, 0x00, 0xf2, 0xda, 0xff, 0xff, 0x14, 0x00, 0x00, 0x00,
  0x00, 0x00, 0x00, 0x0b, 0x14, 0x00, 0x00, 0x00, 0x18, 0x00, 0x00, 0x00,
  0x0e, 0x00, 0x00, 0x00, 0x2e, 0xdb, 0xff, 0xff, 0x00, 0x00, 0x00, 0x01,
  0x01, 0x00, 0x00, 0x00, 0x93, 0x01, 0x00, 0x00, 0x02, 0x00, 0x00, 0x00,
  0x6d, 0x01, 0x00, 0x00, 0x92, 0x01, 0x00, 0x00, 0x26, 0xdb, 0xff, 0xff,
  0x14, 0x00, 0x00, 0x00, 0x00, 0x00, 0x00, 0x01, 0x18, 0x00, 0x00, 0x00,
  0x1c, 0x00, 0x00, 0x00, 0x0b, 0x00, 0x00, 0x00, 0xd2, 0xda, 0xff, 0xff,
  0x01, 0x00, 0x00, 0x00, 0x01, 0x00, 0x00, 0x00, 0x01, 0x00, 0x00, 0x00,
  0x92, 0x01, 0x00, 0x00, 0x03, 0x00, 0x00, 0x00, 0x91, 0x01, 0x00, 0x00,
  0x21, 0x00, 0x00, 0x00, 0x20, 0x00, 0x00, 0x00, 0x22, 0xdb, 0xff, 0xff,
  0x0c, 0x00, 0x00, 0x00, 0x10, 0x00, 0x00, 0x00, 0x0a, 0x00, 0x00, 0x00,
  0x01, 0x00, 0x00, 0x00, 0x91, 0x01, 0x00, 0x00, 0x02, 0x00, 0x00, 0x00,
  0x90, 0x01, 0x00, 0x00, 0x0c, 0x00, 0x00, 0x00, 0x86, 0xdb, 0xff, 0xff,
  0x14, 0x00, 0x00, 0x00, 0x00, 0x00, 0x00, 0x0b, 0x14, 0x00, 0x00, 0x00,
  0x18, 0x00, 0x00, 0x00, 0x0e, 0x00, 0x00, 0x00, 0xc2, 0xdb, 0xff, 0xff,
  0x00, 0x00, 0x00, 0x01, 0x01, 0x00, 0x00, 0x00, 0x90, 0x01, 0x00, 0x00,
  0x02, 0x00, 0x00, 0x00, 0x8f, 0x01, 0x00, 0x00, 0x22, 0x00, 0x00, 0x00,
  0xba, 0xdb, 0xff, 0xff, 0x14, 0x00, 0x00, 0x00, 0x00, 0x00, 0x00, 0x0a,
  0x14, 0x00, 0x00, 0x00, 0x18, 0x00, 0x00, 0x00, 0x0d, 0x00, 0x00, 0x00,
  0x12, 0xdf, 0xff, 0xff, 0xff, 0xff, 0xff, 0xff, 0x01, 0x00, 0x00, 0x00,
  0x8f, 0x01, 0x00, 0x00, 0x08, 0x00, 0x00, 0x00, 0x79, 0x01, 0x00, 0x00,
  0x7c, 0x01, 0x00, 0x00, 0x7f, 0x01, 0x00, 0x00, 0x82, 0x01, 0x00, 0x00,
  0x85, 0x01, 0x00, 0x00, 0x88, 0x01, 0x00, 0x00, 0x8b, 0x01, 0x00, 0x00,
  0x8e, 0x01, 0x00, 0x00, 0xc6, 0xdb, 0xff, 0xff, 0x0c, 0x00, 0x00, 0x00,
  0x10, 0x00, 0x00, 0x00, 0x0a, 0x00, 0x00, 0x00, 0x01, 0x00, 0x00, 0x00,
  0x8e, 0x01, 0x00, 0x00, 0x02, 0x00, 0x00, 0x00, 0x8d, 0x01, 0x00, 0x00,
  0x0b, 0x00, 0x00, 0x00, 0x2a, 0xdc, 0xff, 0xff, 0x14, 0x00, 0x00, 0x00,
  0x00, 0x00, 0x00, 0x01, 0x18, 0x00, 0x00, 0x00, 0x1c, 0x00, 0x00, 0x00,
  0x0b, 0x00, 0x00, 0x00, 0xd6, 0xdb, 0xff, 0xff, 0x01, 0x00, 0x00, 0x00,
  0x01, 0x00, 0x00, 0x00, 0x01, 0x00, 0x00, 0x00, 0x8d, 0x01, 0x00, 0x00,
  0x03, 0x00, 0x00, 0x00, 0x8c, 0x01, 0x00, 0x00, 0x23, 0x00, 0x00, 0x00,
  0x90, 0x00, 0x00, 0x00, 0x26, 0xdc, 0xff, 0xff, 0x0c, 0x00, 0x00, 0x00,
  0x10, 0x00, 0x00, 0x00, 0x0a, 0x00, 0x00, 0x00, 0x01, 0x00, 0x00, 0x00,
  0x8c, 0x01, 0x00, 0x00, 0x02, 0x00, 0x00, 0x00, 0x76, 0x01, 0x00, 0x00,
  0x0e, 0x00, 0x00, 0x00, 0x4a, 0xdc, 0xff, 0xff, 0x0c, 0x00, 0x00, 0x00,
  0x10, 0x00, 0x00, 0x00, 0x0a, 0x00, 0x00, 0x00, 0x01, 0x00, 0x00, 0x00,
  0x8b, 0x01, 0x00, 0x00, 0x02, 0x00, 0x00, 0x00, 0x8a, 0x01, 0x00, 0x00,
  0x0b, 0x00, 0x00, 0x00, 0xae, 0xdc, 0xff, 0xff, 0x14, 0x00, 0x00, 0x00,
  0x00, 0x00, 0x00, 0x01, 0x18, 0x00, 0x00, 0x00, 0x1c, 0x00, 0x00, 0x00,
  0x0b, 0x00, 0x00, 0x00, 0x5a, 0xdc, 0xff, 0xff, 0x01, 0x00, 0x00, 0x00,
  0x01, 0x00, 0x00, 0x00, 0x01, 0x00, 0x00, 0x00, 0x8a, 0x01, 0x00, 0x00,
  0x03, 0x00, 0x00, 0x00, 0x89, 0x01, 0x00, 0x00, 0x24, 0x00, 0x00, 0x00,
  0x8f, 0x00, 0x00, 0x00, 0xaa, 0xdc, 0xff, 0xff, 0x0c, 0x00, 0x00, 0x00,
  0x10, 0x00, 0x00, 0x00, 0x0a, 0x00, 0x00, 0x00, 0x01, 0x00, 0x00, 0x00,
  0x89, 0x01, 0x00, 0x00, 0x02, 0x00, 0x00, 0x00, 0x75, 0x01, 0x00, 0x00,
  0x0e, 0x00, 0x00, 0x00, 0xce, 0xdc, 0xff, 0xff, 0x0c, 0x00, 0x00, 0x00,
  0x10, 0x00, 0x00, 0x00, 0x0a, 0x00, 0x00, 0x00, 0x01, 0x00, 0x00, 0x00,
  0x88, 0x01, 0x00, 0x00, 0x02, 0x00, 0x00, 0x00, 0x87, 0x01, 0x00, 0x00,
  0x0b, 0x00, 0x00, 0x00, 0x32, 0xdd, 0xff, 0xff, 0x14, 0x00, 0x00, 0x00,
  0x00, 0x00, 0x00, 0x01, 0x18, 0x00, 0x00, 0x00, 0x1c, 0x00, 0x00, 0x00,
  0x0b, 0x00, 0x00, 0x00, 0xde, 0xdc, 0xff, 0xff, 0x01, 0x00, 0x00, 0x00,
  0x01, 0x00, 0x00, 0x00, 0x01, 0x00, 0x00, 0x00, 0x87, 0x01, 0x00, 0x00,
  0x03, 0x00, 0x00, 0x00, 0x86, 0x01, 0x00, 0x00, 0x25, 0x00, 0x00, 0x00,
  0x8e, 0x00, 0x00, 0x00, 0x2e, 0xdd, 0xff, 0xff, 0x0c, 0x00, 0x00, 0x00,
  0x10, 0x00, 0x00, 0x00, 0x0a, 0x00, 0x00, 0x00, 0x01, 0x00, 0x00, 0x00,
  0x86, 0x01, 0x00, 0x00, 0x02, 0x00, 0x00, 0x00, 0x74, 0x01, 0x00, 0x00,
  0x0e, 0x00, 0x00, 0x00, 0x52, 0xdd, 0xff, 0xff, 0x0c, 0x00, 0x00, 0x00,
  0x10, 0x00, 0x00, 0x00, 0x0a, 0x00, 0x00, 0x00, 0x01, 0x00, 0x00, 0x00,
  0x85, 0x01, 0x00, 0x00, 0x02, 0x00, 0x00, 0x00, 0x84, 0x01, 0x00, 0x00,
  0x0b, 0x00, 0x00, 0x00, 0xb6, 0xdd, 0xff, 0xff, 0x14, 0x00, 0x00, 0x00,
  0x00, 0x00, 0x00, 0x01, 0x18, 0x00, 0x00, 0x00, 0x1c, 0x00, 0x00, 0x00,
  0x0b, 0x00, 0x00, 0x00, 0x62, 0xdd, 0xff, 0xff, 0x01, 0x00, 0x00, 0x00,
  0x01, 0x00, 0x00, 0x00, 0x01, 0x00, 0x00, 0x00, 0x84, 0x01, 0x00, 0x00,
  0x03, 0x00, 0x00, 0x00, 0x83, 0x01, 0x00, 0x00, 0x26, 0x00, 0x00, 0x00,
  0x8d, 0x00, 0x00, 0x00, 0xb2, 0xdd, 0xff, 0xff, 0x0c, 0x00, 0x00, 0x00,
  0x10, 0x00, 0x00, 0x00, 0x0a, 0x00, 0x00, 0x00, 0x01, 0x00, 0x00, 0x00,
  0x83, 0x01, 0x00, 0x00, 0x02, 0x00, 0x00, 0x00, 0x73, 0x01, 0x00, 0x00,
  0x0e, 0x00, 0x00, 0x00, 0xd6, 0xdd, 0xff, 0xff, 0x0c, 0x00, 0x00, 0x00,
  0x10, 0x00, 0x00, 0x00, 0x0a, 0x00, 0x00, 0x00, 0x01, 0x00, 0x00, 0x00,
  0x82, 0x01, 0x00, 0x00, 0x02, 0x00, 0x00, 0x00, 0x81, 0x01, 0x00, 0x00,
  0x0b, 0x00, 0x00, 0x00, 0x3a, 0xde, 0xff, 0xff, 0x14, 0x00, 0x00, 0x00,
  0x00, 0x00, 0x00, 0x01, 0x18, 0x00, 0x00, 0x00, 0x1c, 0x00, 0x00, 0x00,
  0x0b, 0x00, 0x00, 0x00, 0xe6, 0xdd, 0xff, 0xff, 0x01, 0x00, 0x00, 0x00,
  0x01, 0x00, 0x00, 0x00, 0x01, 0x00, 0x00, 0x00, 0x81, 0x01, 0x00, 0x00,
  0x03, 0x00, 0x00, 0x00, 0x80, 0x01, 0x00, 0x00, 0x27, 0x00, 0x00, 0x00,
  0x8c, 0x00, 0x00, 0x00, 0x36, 0xde, 0xff, 0xff, 0x0c, 0x00, 0x00, 0x00,
  0x10, 0x00, 0x00, 0x00, 0x0a, 0x00, 0x00, 0x00, 0x01, 0x00, 0x00, 0x00,
  0x80, 0x01, 0x00, 0x00, 0x02, 0x00, 0x00, 0x00, 0x72, 0x01, 0x00, 0x00,
  0x0e, 0x00, 0x00, 0x00, 0x5a, 0xde, 0xff, 0xff, 0x0c, 0x00, 0x00, 0x00,
  0x10, 0x00, 0x00, 0x00, 0x0a, 0x00, 0x00, 0x00, 0x01, 0x00, 0x00, 0x00,
  0x7f, 0x01, 0x00, 0x00, 0x02, 0x00, 0x00, 0x00, 0x7e, 0x01, 0x00, 0x00,
  0x0b, 0x00, 0x00, 0x00, 0xbe, 0xde, 0xff, 0xff, 0x14, 0x00, 0x00, 0x00,
  0x00, 0x00, 0x00, 0x01, 0x18, 0x00, 0x00, 0x00, 0x1c, 0x00, 0x00, 0x00,
  0x0b, 0x00, 0x00, 0x00, 0x6a, 0xde, 0xff, 0xff, 0x01, 0x00, 0x00, 0x00,
  0x01, 0x00, 0x00, 0x00, 0x01, 0x00, 0x00, 0x00, 0x7e, 0x01, 0x00, 0x00,
  0x03, 0x00, 0x00, 0x00, 0x7d, 0x01, 0x00, 0x00, 0x28, 0x00, 0x00, 0x00,
  0x8b, 0x00, 0x00, 0x00, 0xba, 0xde, 0xff, 0xff, 0x0c, 0x00, 0x00, 0x00,
  0x10, 0x00, 0x00, 0x00, 0x0a, 0x00, 0x00, 0x00, 0x01, 0x00, 0x00, 0x00,
  0x7d, 0x01, 0x00, 0x00, 0x02, 0x00, 0x00, 0x00, 0x71, 0x01, 0x00, 0x00,
  0x0e, 0x00, 0x00, 0x00, 0xde, 0xde, 0xff, 0xff, 0x0c, 0x00, 0x00, 0x00,
  0x10, 0x00, 0x00, 0x00, 0x0a, 0x00, 0x00, 0x00, 0x01, 0x00, 0x00, 0x00,
  0x7c, 0x01, 0x00, 0x00, 0x02, 0x00, 0x00, 0x00, 0x7b, 0x01, 0x00, 0x00,
  0x0b, 0x00, 0x00, 0x00, 0x42, 0xdf, 0xff, 0xff, 0x14, 0x00, 0x00, 0x00,
  0x00, 0x00, 0x00, 0x01, 0x18, 0x00, 0x00, 0x00, 0x1c, 0x00, 0x00, 0x00,
  0x0b, 0x00, 0x00, 0x00, 0xee, 0xde, 0xff, 0xff, 0x01, 0x00, 0x00, 0x00,
  0x01, 0x00, 0x00, 0x00, 0x01, 0x00, 0x00, 0x00, 0x7b, 0x01, 0x00, 0x00,
  0x03, 0x00, 0x00, 0x00, 0x7a, 0x01, 0x00, 0x00, 0x29, 0x00, 0x00, 0x00,
  0x8a, 0x00, 0x00, 0x00, 0x3e, 0xdf, 0xff, 0xff, 0x0c, 0x00, 0x00, 0x00,
  0x10, 0x00, 0x00, 0x00, 0x0a, 0x00, 0x00, 0x00, 0x01, 0x00, 0x00, 0x00,
  0x7a, 0x01, 0x00, 0x00, 0x02, 0x00, 0x00, 0x00, 0x70, 0x01, 0x00, 0x00,
  0x0e, 0x00, 0x00, 0x00, 0x62, 0xdf, 0xff, 0xff, 0x0c, 0x00, 0x00, 0x00,
  0x10, 0x00, 0x00, 0x00, 0x0a, 0x00, 0x00, 0x00, 0x01, 0x00, 0x00, 0x00,
  0x79, 0x01, 0x00, 0x00, 0x02, 0x00, 0x00, 0x00, 0x78, 0x01, 0x00, 0x00,
  0x0b, 0x00, 0x00, 0x00, 0xc6, 0xdf, 0xff, 0xff, 0x14, 0x00, 0x00, 0x00,
  0x00, 0x00, 0x00, 0x01, 0x18, 0x00, 0x00, 0x00, 0x1c, 0x00, 0x00, 0x00,
  0x0b, 0x00, 0x00, 0x00, 0x72, 0xdf, 0xff, 0xff, 0x01, 0x00, 0x00, 0x00,
  0x01, 0x00, 0x00, 0x00, 0x01, 0x00, 0x00, 0x00, 0x78, 0x01, 0x00, 0x00,
  0x03, 0x00, 0x00, 0x00, 0x77, 0x01, 0x00, 0x00, 0x2a, 0x00, 0x00, 0x00,
  0x89, 0x00, 0x00, 0x00, 0xc2, 0xdf, 0xff, 0xff, 0x0c, 0x00, 0x00, 0x00,
  0x10, 0x00, 0x00, 0x00, 0x0a, 0x00, 0x00, 0x00, 0x01, 0x00, 0x00, 0x00,
  0x77, 0x01, 0x00, 0x00, 0x02, 0x00, 0x00, 0x00, 0x6f, 0x01, 0x00, 0x00,
  0x0e, 0x00, 0x00, 0x00, 0x26, 0xe0, 0xff, 0xff, 0x14, 0x00, 0x00, 0x00,
  0x00, 0x00, 0x00, 0x23, 0x14, 0x00, 0x00, 0x00, 0x34, 0x00, 0x00, 0x00,
  0x0c, 0x00, 0x00, 0x00, 0x7e, 0xe3, 0xff, 0xff, 0x08, 0x00, 0x00, 0x00,
  0x08, 0x00, 0x00, 0x00, 0x6f, 0x01, 0x00, 0x00, 0x70, 0x01, 0x00, 0x00,
  0x71, 0x01, 0x00, 0x00, 0x72, 0x01, 0x00, 0x00, 0x73, 0x01, 0x00, 0x00,
  0x74, 0x01, 0x00, 0x00, 0x75, 0x01, 0x00, 0x00, 0x76, 0x01, 0x00, 0x00,
  0x02, 0x00, 0x00, 0x00, 0x05, 0x00, 0x00, 0x00, 0x6e, 0x01, 0x00, 0x00,
  0x36, 0xe0, 0xff, 0xff, 0x0c, 0x00, 0x00, 0x00, 0x10, 0x00, 0x00, 0x00,
  0x0a, 0x00, 0x00, 0x00, 0x01, 0x00, 0x00, 0x00, 0x6e, 0x01, 0x00, 0x00,
  0x02, 0x00, 0x00, 0x00, 0x6d, 0x01, 0x00, 0x00, 0x0d, 0x00, 0x00, 0x00,
  0x9a, 0xe0, 0xff, 0xff, 0x14, 0x00, 0x00, 0x00, 0x00, 0x00, 0x00, 0x0b,
  0x14, 0x00, 0x00, 0x00, 0x18, 0x00, 0x00, 0x00, 0x0e, 0x00, 0x00, 0x00,
  0xd6, 0xe0, 0xff, 0xff, 0x00, 0x00, 0x00, 0x01, 0x01, 0x00, 0x00, 0x00,
  0x6d, 0x01, 0x00, 0x00, 0x02, 0x00, 0x00, 0x00, 0x47, 0x01, 0x00, 0x00,
  0x6c, 0x01, 0x00, 0x00, 0xce, 0xe0, 0xff, 0xff, 0x14, 0x00, 0x00, 0x00,
  0x00, 0x00, 0x00, 0x01, 0x18, 0x00, 0x00, 0x00, 0x1c, 0x00, 0x00, 0x00,
  0x0b, 0x00, 0x00, 0x00, 0x7a, 0xe0, 0xff, 0xff, 0x01, 0x00, 0x00, 0x00,
  0x01, 0x00, 0x00, 0x00, 0x01, 0x00, 0x00, 0x00, 0x6c, 0x01, 0x00, 0x00,
  0x03, 0x00, 0x00, 0x00, 0x6b, 0x01, 0x00, 0x00, 0x2c, 0x00, 0x00, 0x00,
  0x2b, 0x00, 0x00, 0x00, 0xca, 0xe0, 0xff, 0xff, 0x0c, 0x00, 0x00, 0x00,
  0x10, 0x00, 0x00, 0x00, 0x0a, 0x00, 0x00, 0x00, 0x01, 0x00, 0x00, 0x00,
  0x6b, 0x01, 0x00, 0x00, 0x02, 0x00, 0x00, 0x00, 0x6a, 0x01, 0x00, 0x00,
  0x0c, 0x00, 0x00, 0x00, 0x2e, 0xe1, 0xff, 0xff, 0x14, 0x00, 0x00, 0x00,
  0x00, 0x00, 0x00, 0x0b, 0x14, 0x00, 0x00, 0x00, 0x18, 0x00, 0x00, 0x00,
  0x0e, 0x00, 0x00, 0x00, 0x6a, 0xe1, 0xff, 0xff, 0x00, 0x00, 0x00, 0x01,
  0x01, 0x00, 0x00, 0x00, 0x6a, 0x01, 0x00, 0x00, 0x02, 0x00, 0x00, 0x00,
  0x69, 0x01, 0x00, 0x00, 0x2d, 0x00, 0x00, 0x00, 0x62, 0xe1, 0xff, 0xff,
  0x14, 0x00, 0x00, 0x00, 0x00, 0x00, 0x00, 0x0a, 0x14, 0x00, 0x00, 0x00,
  0x18, 0x00, 0x00, 0x00, 0x0d, 0x00, 0x00, 0x00, 0xba, 0xe4, 0xff, 0xff,
  0xff, 0xff, 0xff, 0xff, 0x01, 0x00, 0x00, 0x00, 0x69, 0x01, 0x00, 0x00,
  0x08, 0x00, 0x00, 0x00, 0x53, 0x01, 0x00, 0x00, 0x56, 0x01, 0x00, 0x00,
  0x59, 0x01, 0x00, 0x00, 0x5c, 0x01, 0x00, 0x00, 0x5f, 0x01, 0x00, 0x00,
  0x62, 0x01, 0x00, 0x00, 0x65, 0x01, 0x00, 0x00, 0x68, 0x01, 0x00, 0x00,
  0x6e, 0xe1, 0xff, 0xff, 0x0c, 0x00, 0x00, 0x00, 0x10, 0x00, 0x00, 0x00,
  0x0a, 0x00, 0x00, 0x00, 0x01, 0x00, 0x00, 0x00, 0x68, 0x01, 0x00, 0x00,
  0x02, 0x00, 0x00, 0x00, 0x67, 0x01, 0x00, 0x00, 0x0b, 0x00, 0x00, 0x00,
  0xd2, 0xe1, 0xff, 0xff, 0x14, 0x00, 0x00, 0x00, 0x00, 0x00, 0x00, 0x01,
  0x18, 0x00, 0x00, 0x00, 0x1c, 0x00, 0x00, 0x00, 0x0b, 0x00, 0x00, 0x00,
  0x7e, 0xe1, 0xff, 0xff, 0x01, 0x00, 0x00, 0x00, 0x01, 0x00, 0x00, 0x00,
  0x01, 0x00, 0x00, 0x00, 0x67, 0x01, 0x00, 0x00, 0x03, 0x00, 0x00, 0x00,
  0x66, 0x01, 0x00, 0x00, 0x2e, 0x00, 0x00, 0x00, 0x88, 0x00, 0x00, 0x00,
  0xce, 0xe1, 0xff, 0xff, 0x0c, 0x00, 0x00, 0x00, 0x10, 0x00, 0x00, 0x00,
  0x0a, 0x00, 0x00, 0x00, 0x01, 0x00, 0x00, 0x00, 0x66, 0x01, 0x00, 0x00,
  0x02, 0x00, 0x00, 0x00, 0x50, 0x01, 0x00, 0x00, 0x0e, 0x00, 0x00, 0x00,
  0xf2, 0xe1, 0xff, 0xff, 0x0c, 0x00, 0x00, 0x00, 0x10, 0x00, 0x00, 0x00,
  0x0a, 0x00, 0x00, 0x00, 0x01, 0x00, 0x00, 0x00, 0x65, 0x01, 0x00, 0x00,
  0x02, 0x00, 0x00, 0x00, 0x64, 0x01, 0x00, 0x00, 0x0b, 0x00, 0x00, 0x00,
  0x56, 0xe2, 0xff, 0xff, 0x14, 0x00, 0x00, 0x00, 0x00, 0x00, 0x00, 0x01,
  0x18, 0x00, 0x00, 0x00, 0x1c, 0x00, 0x00, 0x00, 0x0b, 0x00, 0x00, 0x00,
  0x02, 0xe2, 0xff, 0xff, 0x01, 0x00, 0x00, 0x00, 0x01, 0x00, 0x00, 0x00,
  0x01, 0x00, 0x00, 0x00, 0x64, 0x01, 0x00, 0x00, 0x03, 0x00, 0x00, 0x00,
  0x63, 0x01, 0x00, 0x00, 0x2f, 0x00, 0x00, 0x00, 0x87, 0x00, 0x00, 0x00,
  0x52, 0xe2, 0xff, 0xff, 0x0c, 0x00, 0x00, 0x00, 0x10, 0x00, 0x00, 0x00,
  0x0a, 0x00, 0x00, 0x00, 0x01, 0x00, 0x00, 0x00, 0x63, 0x01, 0x00, 0x00,
  0x02, 0x00, 0x00, 0x00, 0x4f, 0x01, 0x00, 0x00, 0x0e, 0x00, 0x00, 0x00,
  0x76, 0xe2, 0xff, 0xff, 0x0c, 0x00, 0x00, 0x00, 0x10, 0x00, 0x00, 0x00,
  0x0a, 0x00, 0x00, 0x00, 0x01, 0x00, 0x00, 0x00, 0x62, 0x01, 0x00, 0x00,
  0x02, 0x00, 0x00, 0x00, 0x61, 0x01, 0x00, 0x00, 0x0b, 0x00, 0x00, 0x00,
  0xda, 0xe2, 0xff, 0xff, 0x14, 0x00, 0x00, 0x00, 0x00, 0x00, 0x00, 0x01,
  0x18, 0x00, 0x00, 0x00, 0x1c, 0x00, 0x00, 0x00, 0x0b, 0x00, 0x00, 0x00,
  0x86, 0xe2, 0xff, 0xff, 0x01, 0x00, 0x00, 0x00, 0x01, 0x00, 0x00, 0x00,
  0x01, 0x00, 0x00, 0x00, 0x61, 0x01, 0x00, 0x00, 0x03, 0x00, 0x00, 0x00,
  0x60, 0x01, 0x00, 0x00, 0x30, 0x00, 0x00, 0x00, 0x86, 0x00, 0x00, 0x00,
  0xd6, 0xe2, 0xff, 0xff, 0x0c, 0x00, 0x00, 0x00, 0x10, 0x00, 0x00, 0x00,
  0x0a, 0x00, 0x00, 0x00, 0x01, 0x00, 0x00, 0x00, 0x60, 0x01, 0x00, 0x00,
  0x02, 0x00, 0x00, 0x00, 0x4e, 0x01, 0x00, 0x00, 0x0e, 0x00, 0x00, 0x00,
  0xfa, 0xe2, 0xff, 0xff, 0x0c, 0x00, 0x00, 0x00, 0x10, 0x00, 0x00, 0x00,
  0x0a, 0x00, 0x00, 0x00, 0x01, 0x00, 0x00, 0x00, 0x5f, 0x01, 0x00, 0x00,
  0x02, 0x00, 0x00, 0x00, 0x5e, 0x01, 0x00, 0x00, 0x0b, 0x00, 0x00, 0x00,
  0x5e, 0xe3, 0xff, 0xff, 0x14, 0x00, 0x00, 0x00, 0x00, 0x00, 0x00, 0x01,
  0x18, 0x00, 0x00, 0x00, 0x1c, 0x00, 0x00, 0x00, 0x0b, 0x00, 0x00, 0x00,
  0x0a, 0xe3, 0xff, 0xff, 0x01, 0x00, 0x00, 0x00, 0x01, 0x00, 0x00, 0x00,
  0x01, 0x00, 0x00, 0x00, 0x5e, 0x01, 0x00, 0x00, 0x03, 0x00, 0x00, 0x00,
  0x5d, 0x01, 0x00, 0x00, 0x31, 0x00, 0x00, 0x00, 0x85, 0x00, 0x00, 0x00,
  0x5a, 0xe3, 0xff, 0xff, 0x0c, 0x00, 0x00, 0x00, 0x10, 0x00, 0x00, 0x00,
  0x0a, 0x00, 0x00, 0x00, 0x01, 0x00, 0x00, 0x00, 0x5d, 0x01, 0x00, 0x00,
  0x02, 0x00, 0x00, 0x00, 0x4d, 0x01, 0x00, 0x00, 0x0e, 0x00, 0x00, 0x00,
  0x7e, 0xe3, 0xff, 0xff, 0x0c, 0x00, 0x00, 0x00, 0x10, 0x00, 0x00, 0x00,
  0x0a, 0x00, 0x00, 0x00, 0x01, 0x00, 0x00, 0x00, 0x5c, 0x01, 0x00, 0x00,
  0x02, 0x00, 0x00, 0x00, 0x5b, 0x01, 0x00, 0x00, 0x0b, 0x00, 0x00, 0x00,
  0xe2, 0xe3, 0xff, 0xff, 0x14, 0x00, 0x00, 0x00, 0x00, 0x00, 0x00, 0x01,
  0x18, 0x00, 0x00, 0x00, 0x1c, 0x00, 0x00, 0x00, 0x0b, 0x00, 0x00, 0x00,
  0x8e, 0xe3, 0xff, 0xff, 0x01, 0x00, 0x00, 0x00, 0x01, 0x00, 0x00, 0x00,
  0x01, 0x00, 0x00, 0x00, 0x5b, 0x01, 0x00, 0x00, 0x03, 0x00, 0x00, 0x00,
  0x5a, 0x01, 0x00, 0x00, 0x32, 0x00, 0x00, 0x00, 0x84, 0x00, 0x00, 0x00,
  0xde, 0xe3, 0xff, 0xff, 0x0c, 0x00, 0x00, 0x00, 0x10, 0x00, 0x00, 0x00,
  0x0a, 0x00, 0x00, 0x00, 0x01, 0x00, 0x00, 0x00, 0x5a, 0x01, 0x00, 0x00,
  0x02, 0x00, 0x00, 0x00, 0x4c, 0x01, 0x00, 0x00, 0x0e, 0x00, 0x00, 0x00,
  0x02, 0xe4, 0xff, 0xff, 0x0c, 0x00, 0x00, 0x00, 0x10, 0x00, 0x00, 0x00,
  0x0a, 0x00, 0x00, 0x00, 0x01, 0x00, 0x00, 0x00, 0x59, 0x01, 0x00, 0x00,
  0x02, 0x00, 0x00, 0x00, 0x58, 0x01, 0x00, 0x00, 0x0b, 0x00, 0x00, 0x00,
  0x66, 0xe4, 0xff, 0xff, 0x14, 0x00, 0x00, 0x00, 0x00, 0x00, 0x00, 0x01,
  0x18, 0x00, 0x00, 0x00, 0x1c, 0x00, 0x00, 0x00, 0x0b, 0x00, 0x00, 0x00,
  0x12, 0xe4, 0xff, 0xff, 0x01, 0x00, 0x00, 0x00, 0x01, 0x00, 0x00, 0x00,
  0x01, 0x00, 0x00, 0x00, 0x58, 0x01, 0x00, 0x00, 0x03, 0x00, 0x00, 0x00,
  0x57, 0x01, 0x00, 0x00, 0x33, 0x00, 0x00, 0x00, 0x83, 0x00, 0x00, 0x00,
  0x62, 0xe4, 0xff, 0xff, 0x0c, 0x00, 0x00, 0x00, 0x10, 0x00, 0x00, 0x00,
  0x0a, 0x00, 0x00, 0x00, 0x01, 0x00, 0x00, 0x00, 0x57, 0x01, 0x00, 0x00,
  0x02, 0x00, 0x00, 0x00, 0x4b, 0x01, 0x00, 0x00, 0x0e, 0x00, 0x00, 0x00,
  0x86, 0xe4, 0xff, 0xff, 0x0c, 0x00, 0x00, 0x00, 0x10, 0x00, 0x00, 0x00,
  0x0a, 0x00, 0x00, 0x00, 0x01, 0x00, 0x00, 0x00, 0x56, 0x01, 0x00, 0x00,
  0x02, 0x00, 0x00, 0x00, 0x55, 0x01, 0x00, 0x00, 0x0b, 0x00, 0x00, 0x00,
  0xea, 0xe4, 0xff, 0xff, 0x14, 0x00, 0x00, 0x00, 0x00, 0x00, 0x00, 0x01,
  0x18, 0x00, 0x00, 0x00, 0x1c, 0x00, 0x00, 0x00, 0x0b, 0x00, 0x00, 0x00,
  0x96, 0xe4, 0xff, 0xff, 0x01, 0x00, 0x00, 0x00, 0x01, 0x00, 0x00, 0x00,
  0x01, 0x00, 0x00, 0x00, 0x55, 0x01, 0x00, 0x00, 0x03, 0x00, 0x00, 0x00,
  0x54, 0x01, 0x00, 0x00, 0x34, 0x00, 0x00, 0x00, 0x82, 0x00, 0x00, 0x00,
