unsigned char converted_UOS_BEARING_8k_converted_model_1024_UOS_BEARING_8k_model_1024_int8_tflite[] = {
  0x20, 0x00, 0x00, 0x00, 0x54, 0x46, 0x4c, 0x33, 0x00, 0x00, 0x00, 0x00,
  0x14, 0x00, 0x20, 0x00, 0x1c, 0x00, 0x18, 0x00, 0x14, 0x00, 0x10, 0x00,
  0x0c, 0x00, 0x00, 0x00, 0x08, 0x00, 0x04, 0x00, 0x14, 0x00, 0x00, 0x00,
  0x1c, 0x00, 0x00, 0x00, 0x80, 0x00, 0x00, 0x00, 0xd8, 0x00, 0x00, 0x00,
  0x44, 0x29, 0x00, 0x00, 0x54, 0x29, 0x00, 0x00, 0x40, 0x72, 0x01, 0x00,
  0x03, 0x00, 0x00, 0x00, 0x01, 0x00, 0x00, 0x00, 0x04, 0x00, 0x00, 0x00,
  0x26, 0xa6, 0xff, 0xff, 0x0c, 0x00, 0x00, 0x00, 0x1c, 0x00, 0x00, 0x00,
  0x38, 0x00, 0x00, 0x00, 0x0f, 0x00, 0x00, 0x00, 0x73, 0x65, 0x72, 0x76,
  0x69, 0x6e, 0x67, 0x5f, 0x64, 0x65, 0x66, 0x61, 0x75, 0x6c, 0x74, 0x00,
  0x01, 0x00, 0x00, 0x00, 0x04, 0x00, 0x00, 0x00, 0x9c, 0xff, 0xff, 0xff,
  0xc2, 0x01, 0x00, 0x00, 0x04, 0x00, 0x00, 0x00, 0x06, 0x00, 0x00, 0x00,
  0x6f, 0x75, 0x74, 0x70, 0x75, 0x74, 0x00, 0x00, 0x01, 0x00, 0x00, 0x00,
  0x04, 0x00, 0x00, 0x00, 0xf2, 0xa9, 0xff, 0xff, 0x04, 0x00, 0x00, 0x00,
  0x05, 0x00, 0x00, 0x00, 0x69, 0x6e, 0x70, 0x75, 0x74, 0x00, 0x00, 0x00,
  0x02, 0x00, 0x00, 0x00, 0x34, 0x00, 0x00, 0x00, 0x04, 0x00, 0x00, 0x00,
  0xdc, 0xff, 0xff, 0xff, 0xc5, 0x01, 0x00, 0x00, 0x04, 0x00, 0x00, 0x00,
  0x13, 0x00, 0x00, 0x00, 0x43, 0x4f, 0x4e, 0x56, 0x45, 0x52, 0x53, 0x49,
  0x4f, 0x4e, 0x5f, 0x4d, 0x45, 0x54, 0x41, 0x44, 0x41, 0x54, 0x41, 0x00,
  0x08, 0x00, 0x0c, 0x00, 0x08, 0x00, 0x04, 0x00, 0x08, 0x00, 0x00, 0x00,
  0xc4, 0x01, 0x00, 0x00, 0x04, 0x00, 0x00, 0x00, 0x13, 0x00, 0x00, 0x00,
  0x6d, 0x69, 0x6e, 0x5f, 0x72, 0x75, 0x6e, 0x74, 0x69, 0x6d, 0x65, 0x5f,
  0x76, 0x65, 0x72, 0x73, 0x69, 0x6f, 0x6e, 0x00, 0xc6, 0x01, 0x00, 0x00,
  0x68, 0x28, 0x00, 0x00, 0x60, 0x28, 0x00, 0x00, 0x4c, 0x28, 0x00, 0x00,
  0x24, 0x28, 0x00, 0x00, 0x04, 0x28, 0x00, 0x00, 0xe8, 0x27, 0x00, 0x00,
  0xd4, 0x27, 0x00, 0x00, 0xb4, 0x27, 0x00, 0x00, 0x98, 0x27, 0x00, 0x00,
  0x78, 0x27, 0x00, 0x00, 0x50, 0x27, 0x00, 0x00, 0x30, 0x27, 0x00, 0x00,
  0x14, 0x27, 0x00, 0x00, 0xf4, 0x26, 0x00, 0x00, 0xd8, 0x26, 0x00, 0x00,
  0xb8, 0x26, 0x00, 0x00, 0xb0, 0x26, 0x00, 0x00, 0x98, 0x26, 0x00, 0x00,
  0x78, 0x26, 0x00, 0x00, 0x38, 0x26, 0x00, 0x00, 0x08, 0x26, 0x00, 0x00,
  0xb8, 0x23, 0x00, 0x00, 0x88, 0x23, 0x00, 0x00, 0x38, 0x23, 0x00, 0x00,
  0x20, 0x23, 0x00, 0x00, 0x00, 0x23, 0x00, 0x00, 0xe0, 0x22, 0x00, 0x00,
  0xc0, 0x22, 0x00, 0x00, 0xa0, 0x22, 0x00, 0x00, 0x80, 0x22, 0x00, 0x00,
  0x60, 0x22, 0x00, 0x00, 0x40, 0x22, 0x00, 0x00, 0x20, 0x22, 0x00, 0x00,
  0xf0, 0x21, 0x00, 0x00, 0xa0, 0x21, 0x00, 0x00, 0x88, 0x21, 0x00, 0x00,
  0x68, 0x21, 0x00, 0x00, 0x48, 0x21, 0x00, 0x00, 0x28, 0x21, 0x00, 0x00,
  0x08, 0x21, 0x00, 0x00, 0xe8, 0x20, 0x00, 0x00, 0xc8, 0x20, 0x00, 0x00,
  0xa8, 0x20, 0x00, 0x00, 0x88, 0x20, 0x00, 0x00, 0x58, 0x20, 0x00, 0x00,
  0x08, 0x20, 0x00, 0x00, 0xf0, 0x1f, 0x00, 0x00, 0xd0, 0x1f, 0x00, 0x00,
  0xb0, 0x1f, 0x00, 0x00, 0x90, 0x1f, 0x00, 0x00, 0x70, 0x1f, 0x00, 0x00,
  0x50, 0x1f, 0x00, 0x00, 0x30, 0x1f, 0x00, 0x00, 0x10, 0x1f, 0x00, 0x00,
  0xf0, 0x1e, 0x00, 0x00, 0xc0, 0x1e, 0x00, 0x00, 0x70, 0x1e, 0x00, 0x00,
  0x58, 0x1e, 0x00, 0x00, 0x30, 0x1e, 0x00, 0x00, 0x08, 0x1e, 0x00, 0x00,
  0xe0, 0x1d, 0x00, 0x00, 0xb8, 0x1d, 0x00, 0x00, 0x90, 0x1d, 0x00, 0x00,
  0x68, 0x1d, 0x00, 0x00, 0x40, 0x1d, 0x00, 0x00, 0x18, 0x1d, 0x00, 0x00,
  0xe8, 0x1c, 0x00, 0x00, 0x98, 0x1c, 0x00, 0x00, 0x80, 0x1c, 0x00, 0x00,
  0xf0, 0x1b, 0x00, 0x00, 0x60, 0x1b, 0x00, 0x00, 0xd0, 0x1a, 0x00, 0x00,
  0x40, 0x1a, 0x00, 0x00, 0xb0, 0x19, 0x00, 0x00, 0x20, 0x19, 0x00, 0x00,
  0x90, 0x18, 0x00, 0x00, 0x00, 0x18, 0x00, 0x00, 0xd0, 0x17, 0x00, 0x00,
  0x80, 0x17, 0x00, 0x00, 0x68, 0x17, 0x00, 0x00, 0xd8, 0x16, 0x00, 0x00,
  0x48, 0x16, 0x00, 0x00, 0xb8, 0x15, 0x00, 0x00, 0x28, 0x15, 0x00, 0x00,
  0x98, 0x14, 0x00, 0x00, 0x08, 0x14, 0x00, 0x00, 0x78, 0x13, 0x00, 0x00,
  0xe8, 0x12, 0x00, 0x00, 0xb8, 0x12, 0x00, 0x00, 0x68, 0x12, 0x00, 0x00,
  0x50, 0x12, 0x00, 0x00, 0xc0, 0x11, 0x00, 0x00, 0x30, 0x11, 0x00, 0x00,
  0xa0, 0x10, 0x00, 0x00, 0x10, 0x10, 0x00, 0x00, 0x80, 0x0f, 0x00, 0x00,
  0xf0, 0x0e, 0x00, 0x00, 0x60, 0x0e, 0x00, 0x00, 0x4c, 0x0e, 0x00, 0x00,
  0x44, 0x0e, 0x00, 0x00, 0x3c, 0x0e, 0x00, 0x00, 0x34, 0x0e, 0x00, 0x00,
  0x2c, 0x0e, 0x00, 0x00, 0x24, 0x0e, 0x00, 0x00, 0x1c, 0x0e, 0x00, 0x00,
  0x14, 0x0e, 0x00, 0x00, 0x0c, 0x0e, 0x00, 0x00, 0x04, 0x0e, 0x00, 0x00,
  0xfc, 0x0d, 0x00, 0x00, 0xf4, 0x0d, 0x00, 0x00, 0xec, 0x0d, 0x00, 0x00,
  0xe4, 0x0d, 0x00, 0x00, 0xdc, 0x0d, 0x00, 0x00, 0xd4, 0x0d, 0x00, 0x00,
  0xcc, 0x0d, 0x00, 0x00, 0xc4, 0x0d, 0x00, 0x00, 0xbc, 0x0d, 0x00, 0x00,
  0xb4, 0x0d, 0x00, 0x00, 0xac, 0x0d, 0x00, 0x00, 0xa4, 0x0d, 0x00, 0x00,
  0x9c, 0x0d, 0x00, 0x00, 0x94, 0x0d, 0x00, 0x00, 0x8c, 0x0d, 0x00, 0x00,
  0x84, 0x0d, 0x00, 0x00, 0x7c, 0x0d, 0x00, 0x00, 0x74, 0x0d, 0x00, 0x00,
  0x6c, 0x0d, 0x00, 0x00, 0x64, 0x0d, 0x00, 0x00, 0x5c, 0x0d, 0x00, 0x00,
  0x54, 0x0d, 0x00, 0x00, 0x4c, 0x0d, 0x00, 0x00, 0x44, 0x0d, 0x00, 0x00,
  0x3c, 0x0d, 0x00, 0x00, 0x34, 0x0d, 0x00, 0x00, 0x2c, 0x0d, 0x00, 0x00,
  0x24, 0x0d, 0x00, 0x00, 0x1c, 0x0d, 0x00, 0x00, 0x14, 0x0d, 0x00, 0x00,
  0x0c, 0x0d, 0x00, 0x00, 0x04, 0x0d, 0x00, 0x00, 0xfc, 0x0c, 0x00, 0x00,
  0xf4, 0x0c, 0x00, 0x00, 0xec, 0x0c, 0x00, 0x00, 0xe4, 0x0c, 0x00, 0x00,
  0xdc, 0x0c, 0x00, 0x00, 0xd4, 0x0c, 0x00, 0x00, 0xcc, 0x0c, 0x00, 0x00,
  0xc4, 0x0c, 0x00, 0x00, 0xbc, 0x0c, 0x00, 0x00, 0xb4, 0x0c, 0x00, 0x00,
  0xac, 0x0c, 0x00, 0x00, 0xa4, 0x0c, 0x00, 0x00, 0x9c, 0x0c, 0x00, 0x00,
  0x94, 0x0c, 0x00, 0x00, 0x04, 0x0c, 0x00, 0x00, 0xd4, 0x0b, 0x00, 0x00,
  0xc4, 0x09, 0x00, 0x00, 0xbc, 0x09, 0x00, 0x00, 0xb4, 0x09, 0x00, 0x00,
  0xac, 0x09, 0x00, 0x00, 0xa4, 0x09, 0x00, 0x00, 0x9c, 0x09, 0x00, 0x00,
  0x94, 0x09, 0x00, 0x00, 0x8c, 0x09, 0x00, 0x00, 0x84, 0x09, 0x00, 0x00,
  0x7c, 0x09, 0x00, 0x00, 0x74, 0x09, 0x00, 0x00, 0x6c, 0x09, 0x00, 0x00,
  0x64, 0x09, 0x00, 0x00, 0x5c, 0x09, 0x00, 0x00, 0x54, 0x09, 0x00, 0x00,
  0x4c, 0x09, 0x00, 0x00, 0x44, 0x09, 0x00, 0x00, 0x3c, 0x09, 0x00, 0x00,
  0x34, 0x09, 0x00, 0x00, 0x2c, 0x09, 0x00, 0x00, 0x24, 0x09, 0x00, 0x00,
  0x1c, 0x09, 0x00, 0x00, 0x14, 0x09, 0x00, 0x00, 0x0c, 0x09, 0x00, 0x00,
  0x04, 0x09, 0x00, 0x00, 0xfc, 0x08, 0x00, 0x00, 0xf4, 0x08, 0x00, 0x00,
  0xec, 0x08, 0x00, 0x00, 0xe4, 0x08, 0x00, 0x00, 0xdc, 0x08, 0x00, 0x00,
  0xd4, 0x08, 0x00, 0x00, 0xcc, 0x08, 0x00, 0x00, 0xc4, 0x08, 0x00, 0x00,
  0xbc, 0x08, 0x00, 0x00, 0xb4, 0x08, 0x00, 0x00, 0xac, 0x08, 0x00, 0x00,
  0xa4, 0x08, 0x00, 0x00, 0x9c, 0x08, 0x00, 0x00, 0x94, 0x08, 0x00, 0x00,
  0x8c, 0x08, 0x00, 0x00, 0x84, 0x08, 0x00, 0x00, 0x7c, 0x08, 0x00, 0x00,
  0x74, 0x08, 0x00, 0x00, 0x6c, 0x08, 0x00, 0x00, 0x64, 0x08, 0x00, 0x00,
  0x5c, 0x08, 0x00, 0x00, 0x54, 0x08, 0x00, 0x00, 0x4c, 0x08, 0x00, 0x00,
  0x44, 0x08, 0x00, 0x00, 0x3c, 0x08, 0x00, 0x00, 0x34, 0x08, 0x00, 0x00,
  0x2c, 0x08, 0x00, 0x00, 0x24, 0x08, 0x00, 0x00, 0x1c, 0x08, 0x00, 0x00,
  0x14, 0x08, 0x00, 0x00, 0x0c, 0x08, 0x00, 0x00, 0x04, 0x08, 0x00, 0x00,
  0xfc, 0x07, 0x00, 0x00, 0xf4, 0x07, 0x00, 0x00, 0xec, 0x07, 0x00, 0x00,
  0xe4, 0x07, 0x00, 0x00, 0xdc, 0x07, 0x00, 0x00, 0xd4, 0x07, 0x00, 0x00,
  0xcc, 0x07, 0x00, 0x00, 0xc4, 0x07, 0x00, 0x00, 0xbc, 0x07, 0x00, 0x00,
  0xb4, 0x07, 0x00, 0x00, 0xac, 0x07, 0x00, 0x00, 0xa4, 0x07, 0x00, 0x00,
  0x9c, 0x07, 0x00, 0x00, 0x94, 0x07, 0x00, 0x00, 0x8c, 0x07, 0x00, 0x00,
  0x84, 0x07, 0x00, 0x00, 0x7c, 0x07, 0x00, 0x00, 0x74, 0x07, 0x00, 0x00,
  0x6c, 0x07, 0x00, 0x00, 0x64, 0x07, 0x00, 0x00, 0x5c, 0x07, 0x00, 0x00,
  0x54, 0x07, 0x00, 0x00, 0x4c, 0x07, 0x00, 0x00, 0x44, 0x07, 0x00, 0x00,
  0x3c, 0x07, 0x00, 0x00, 0x34, 0x07, 0x00, 0x00, 0x2c, 0x07, 0x00, 0x00,
  0x24, 0x07, 0x00, 0x00, 0x1c, 0x07, 0x00, 0x00, 0x14, 0x07, 0x00, 0x00,
  0x0c, 0x07, 0x00, 0x00, 0x04, 0x07, 0x00, 0x00, 0xfc, 0x06, 0x00, 0x00,
  0xf4, 0x06, 0x00, 0x00, 0xec, 0x06, 0x00, 0x00, 0xe4, 0x06, 0x00, 0x00,
  0xdc, 0x06, 0x00, 0x00, 0xd4, 0x06, 0x00, 0x00, 0xcc, 0x06, 0x00, 0x00,
  0xc4, 0x06, 0x00, 0x00, 0xbc, 0x06, 0x00, 0x00, 0xb4, 0x06, 0x00, 0x00,
  0xac, 0x06, 0x00, 0x00, 0xa4, 0x06, 0x00, 0x00, 0x9c, 0x06, 0x00, 0x00,
  0x94, 0x06, 0x00, 0x00, 0x8c, 0x06, 0x00, 0x00, 0x84, 0x06, 0x00, 0x00,
  0x7c, 0x06, 0x00, 0x00, 0x74, 0x06, 0x00, 0x00, 0x6c, 0x06, 0x00, 0x00,
  0x64, 0x06, 0x00, 0x00, 0x5c, 0x06, 0x00, 0x00, 0x54, 0x06, 0x00, 0x00,
  0x4c, 0x06, 0x00, 0x00, 0x44, 0x06, 0x00, 0x00, 0x3c, 0x06, 0x00, 0x00,
  0x34, 0x06, 0x00, 0x00, 0x2c, 0x06, 0x00, 0x00, 0x24, 0x06, 0x00, 0x00,
  0x1c, 0x06, 0x00, 0x00, 0x14, 0x06, 0x00, 0x00, 0x0c, 0x06, 0x00, 0x00,
  0x04, 0x06, 0x00, 0x00, 0xfc, 0x05, 0x00, 0x00, 0xf4, 0x05, 0x00, 0x00,
  0xec, 0x05, 0x00, 0x00, 0xe4, 0x05, 0x00, 0x00, 0xdc, 0x05, 0x00, 0x00,
  0xd4, 0x05, 0x00, 0x00, 0xcc, 0x05, 0x00, 0x00, 0xc4, 0x05, 0x00, 0x00,
  0xbc, 0x05, 0x00, 0x00, 0xb4, 0x05, 0x00, 0x00, 0xac, 0x05, 0x00, 0x00,
  0xa4, 0x05, 0x00, 0x00, 0x9c, 0x05, 0x00, 0x00, 0x94, 0x05, 0x00, 0x00,
  0x8c, 0x05, 0x00, 0x00, 0x84, 0x05, 0x00, 0x00, 0x7c, 0x05, 0x00, 0x00,
  0x74, 0x05, 0x00, 0x00, 0x6c, 0x05, 0x00, 0x00, 0x64, 0x05, 0x00, 0x00,
  0x5c, 0x05, 0x00, 0x00, 0x54, 0x05, 0x00, 0x00, 0x4c, 0x05, 0x00, 0x00,
  0x44, 0x05, 0x00, 0x00, 0x3c, 0x05, 0x00, 0x00, 0x34, 0x05, 0x00, 0x00,
  0x2c, 0x05, 0x00, 0x00, 0x24, 0x05, 0x00, 0x00, 0x1c, 0x05, 0x00, 0x00,
  0x14, 0x05, 0x00, 0x00, 0x0c, 0x05, 0x00, 0x00, 0x04, 0x05, 0x00, 0x00,
  0xfc, 0x04, 0x00, 0x00, 0xf4, 0x04, 0x00, 0x00, 0xec, 0x04, 0x00, 0x00,
  0xe4, 0x04, 0x00, 0x00, 0xdc, 0x04, 0x00, 0x00, 0xd4, 0x04, 0x00, 0x00,
  0xcc, 0x04, 0x00, 0x00, 0xc4, 0x04, 0x00, 0x00, 0xbc, 0x04, 0x00, 0x00,
  0xb4, 0x04, 0x00, 0x00, 0xac, 0x04, 0x00, 0x00, 0xa4, 0x04, 0x00, 0x00,
  0x9c, 0x04, 0x00, 0x00, 0x94, 0x04, 0x00, 0x00, 0x8c, 0x04, 0x00, 0x00,
  0x84, 0x04, 0x00, 0x00, 0x7c, 0x04, 0x00, 0x00, 0x74, 0x04, 0x00, 0x00,
  0x6c, 0x04, 0x00, 0x00, 0x64, 0x04, 0x00, 0x00, 0x5c, 0x04, 0x00, 0x00,
  0x54, 0x04, 0x00, 0x00, 0x4c, 0x04, 0x00, 0x00, 0x44, 0x04, 0x00, 0x00,
  0x3c, 0x04, 0x00, 0x00, 0x34, 0x04, 0x00, 0x00, 0x2c, 0x04, 0x00, 0x00,
  0x24, 0x04, 0x00, 0x00, 0x1c, 0x04, 0x00, 0x00, 0x14, 0x04, 0x00, 0x00,
  0x0c, 0x04, 0x00, 0x00, 0x04, 0x04, 0x00, 0x00, 0xfc, 0x03, 0x00, 0x00,
  0xf4, 0x03, 0x00, 0x00, 0xec, 0x03, 0x00, 0x00, 0xe4, 0x03, 0x00, 0x00,
  0xdc, 0x03, 0x00, 0x00, 0xd4, 0x03, 0x00, 0x00, 0xcc, 0x03, 0x00, 0x00,
  0xc4, 0x03, 0x00, 0x00, 0xbc, 0x03, 0x00, 0x00, 0xb4, 0x03, 0x00, 0x00,
  0xac, 0x03, 0x00, 0x00, 0xa4, 0x03, 0x00, 0x00, 0x9c, 0x03, 0x00, 0x00,
  0x94, 0x03, 0x00, 0x00, 0x8c, 0x03, 0x00, 0x00, 0x84, 0x03, 0x00, 0x00,
  0x7c, 0x03, 0x00, 0x00, 0x74, 0x03, 0x00, 0x00, 0x6c, 0x03, 0x00, 0x00,
  0x64, 0x03, 0x00, 0x00, 0x5c, 0x03, 0x00, 0x00, 0x54, 0x03, 0x00, 0x00,
  0x4c, 0x03, 0x00, 0x00, 0x44, 0x03, 0x00, 0x00, 0x3c, 0x03, 0x00, 0x00,
  0x34, 0x03, 0x00, 0x00, 0x2c, 0x03, 0x00, 0x00, 0x24, 0x03, 0x00, 0x00,
  0x1c, 0x03, 0x00, 0x00, 0x14, 0x03, 0x00, 0x00, 0x0c, 0x03, 0x00, 0x00,
  0x04, 0x03, 0x00, 0x00, 0xfc, 0x02, 0x00, 0x00, 0xf4, 0x02, 0x00, 0x00,
  0xec, 0x02, 0x00, 0x00, 0xe4, 0x02, 0x00, 0x00, 0xdc, 0x02, 0x00, 0x00,
  0xd4, 0x02, 0x00, 0x00, 0xcc, 0x02, 0x00, 0x00, 0xc4, 0x02, 0x00, 0x00,
  0xbc, 0x02, 0x00, 0x00, 0xb4, 0x02, 0x00, 0x00, 0xac, 0x02, 0x00, 0x00,
  0xa4, 0x02, 0x00, 0x00, 0x9c, 0x02, 0x00, 0x00, 0x94, 0x02, 0x00, 0x00,
  0x8c, 0x02, 0x00, 0x00, 0x84, 0x02, 0x00, 0x00, 0x7c, 0x02, 0x00, 0x00,
  0x74, 0x02, 0x00, 0x00, 0x6c, 0x02, 0x00, 0x00, 0x64, 0x02, 0x00, 0x00,
  0x5c, 0x02, 0x00, 0x00, 0x54, 0x02, 0x00, 0x00, 0x4c, 0x02, 0x00, 0x00,
  0x44, 0x02, 0x00, 0x00, 0x3c, 0x02, 0x00, 0x00, 0x34, 0x02, 0x00, 0x00,
  0x2c, 0x02, 0x00, 0x00, 0x24, 0x02, 0x00, 0x00, 0x1c, 0x02, 0x00, 0x00,
  0x14, 0x02, 0x00, 0x00, 0x0c, 0x02, 0x00, 0x00, 0x04, 0x02, 0x00, 0x00,
  0xfc, 0x01, 0x00, 0x00, 0xf4, 0x01, 0x00, 0x00, 0xec, 0x01, 0x00, 0x00,
  0xe4, 0x01, 0x00, 0x00, 0xdc, 0x01, 0x00, 0x00, 0xd4, 0x01, 0x00, 0x00,
  0xcc, 0x01, 0x00, 0x00, 0xc4, 0x01, 0x00, 0x00, 0xbc, 0x01, 0x00, 0x00,
  0xb4, 0x01, 0x00, 0x00, 0xac, 0x01, 0x00, 0x00, 0xa4, 0x01, 0x00, 0x00,
  0x9c, 0x01, 0x00, 0x00, 0x94, 0x01, 0x00, 0x00, 0x8c, 0x01, 0x00, 0x00,
  0x84, 0x01, 0x00, 0x00, 0x7c, 0x01, 0x00, 0x00, 0x74, 0x01, 0x00, 0x00,
  0x6c, 0x01, 0x00, 0x00, 0x64, 0x01, 0x00, 0x00, 0x5c, 0x01, 0x00, 0x00,
  0x54, 0x01, 0x00, 0x00, 0x4c, 0x01, 0x00, 0x00, 0x44, 0x01, 0x00, 0x00,
  0x3c, 0x01, 0x00, 0x00, 0x34, 0x01, 0x00, 0x00, 0x2c, 0x01, 0x00, 0x00,
  0x24, 0x01, 0x00, 0x00, 0x1c, 0x01, 0x00, 0x00, 0x14, 0x01, 0x00, 0x00,
  0x0c, 0x01, 0x00, 0x00, 0x04, 0x01, 0x00, 0x00, 0xfc, 0x00, 0x00, 0x00,
  0xf4, 0x00, 0x00, 0x00, 0xec, 0x00, 0x00, 0x00, 0xe4, 0x00, 0x00, 0x00,
  0xdc, 0x00, 0x00, 0x00, 0xd4, 0x00, 0x00, 0x00, 0xcc, 0x00, 0x00, 0x00,
  0xc4, 0x00, 0x00, 0x00, 0xbc, 0x00, 0x00, 0x00, 0xb4, 0x00, 0x00, 0x00,
  0xac, 0x00, 0x00, 0x00, 0xa4, 0x00, 0x00, 0x00, 0x9c, 0x00, 0x00, 0x00,
  0x94, 0x00, 0x00, 0x00, 0x8c, 0x00, 0x00, 0x00, 0x6c, 0x00, 0x00, 0x00,
  0x04, 0x00, 0x00, 0x00, 0x7e, 0xb1, 0xff, 0xff, 0x04, 0x00, 0x00, 0x00,
  0x58, 0x00, 0x00, 0x00, 0x0c, 0x00, 0x00, 0x00, 0x08, 0x00, 0x0e, 0x00,
  0x08, 0x00, 0x04, 0x00, 0x08, 0x00, 0x00, 0x00, 0x10, 0x00, 0x00, 0x00,
  0x28, 0x00, 0x00, 0x00, 0x00, 0x00, 0x06, 0x00, 0x08, 0x00, 0x04, 0x00,
  0x06, 0x00, 0x00, 0x00, 0x04, 0x00, 0x00, 0x00, 0x01, 0x00, 0x00, 0x00,
  0xeb, 0x03, 0x00, 0x00, 0x00, 0x00, 0x0a, 0x00, 0x10, 0x00, 0x0c, 0x00,
  0x08, 0x00, 0x04, 0x00, 0x0a, 0x00, 0x00, 0x00, 0x01, 0x00, 0x00, 0x00,
  0x02, 0x00, 0x00, 0x00, 0x04, 0x00, 0x00, 0x00, 0x06, 0x00, 0x00, 0x00,
  0x32, 0x2e, 0x31, 0x33, 0x2e, 0x30, 0x00, 0x00, 0xe2, 0xb1, 0xff, 0xff,
  0x04, 0x00, 0x00, 0x00, 0x10, 0x00, 0x00, 0x00, 0x32, 0x2e, 0x35, 0x2e,
  0x30, 0x00, 0x00, 0x00, 0x00, 0x00, 0x00, 0x00, 0x00, 0x00, 0x00, 0x00,
  0x5c, 0x96, 0xfe, 0xff, 0x60, 0x96, 0xfe, 0xff, 0x64, 0x96, 0xfe, 0xff,
  0x68, 0x96, 0xfe, 0xff, 0x6c, 0x96, 0xfe, 0xff, 0x70, 0x96, 0xfe, 0xff,
  0x74, 0x96, 0xfe, 0xff, 0x78, 0x96, 0xfe, 0xff, 0x7c, 0x96, 0xfe, 0xff,
  0x80, 0x96, 0xfe, 0xff, 0x84, 0x96, 0xfe, 0xff, 0x88, 0x96, 0xfe, 0xff,
  0x8c, 0x96, 0xfe, 0xff, 0x90, 0x96, 0xfe, 0xff, 0x94, 0x96, 0xfe, 0xff,
  0x98, 0x96, 0xfe, 0xff, 0x9c, 0x96, 0xfe, 0xff, 0xa0, 0x96, 0xfe, 0xff,
  0xa4, 0x96, 0xfe, 0xff, 0xa8, 0x96, 0xfe, 0xff, 0xac, 0x96, 0xfe, 0xff,
  0xb0, 0x96, 0xfe, 0xff, 0xb4, 0x96, 0xfe, 0xff, 0xb8, 0x96, 0xfe, 0xff,
  0xbc, 0x96, 0xfe, 0xff, 0xc0, 0x96, 0xfe, 0xff, 0xc4, 0x96, 0xfe, 0xff,
  0xc8, 0x96, 0xfe, 0xff, 0xcc, 0x96, 0xfe, 0xff, 0xd0, 0x96, 0xfe, 0xff,
  0xd4, 0x96, 0xfe, 0xff, 0xd8, 0x96, 0xfe, 0xff, 0xdc, 0x96, 0xfe, 0xff,
  0xe0, 0x96, 0xfe, 0xff, 0xe4, 0x96, 0xfe, 0xff, 0xe8, 0x96, 0xfe, 0xff,
  0xec, 0x96, 0xfe, 0xff, 0xf0, 0x96, 0xfe, 0xff, 0xf4, 0x96, 0xfe, 0xff,
  0xf8, 0x96, 0xfe, 0xff, 0xfc, 0x96, 0xfe, 0xff, 0x00, 0x97, 0xfe, 0xff,
  0x04, 0x97, 0xfe, 0xff, 0x08, 0x97, 0xfe, 0xff, 0x0c, 0x97, 0xfe, 0xff,
  0x10, 0x97, 0xfe, 0xff, 0x14, 0x97, 0xfe, 0xff, 0x18, 0x97, 0xfe, 0xff,
  0x1c, 0x97, 0xfe, 0xff, 0x20, 0x97, 0xfe, 0xff, 0x24, 0x97, 0xfe, 0xff,
  0x28, 0x97, 0xfe, 0xff, 0x2c, 0x97, 0xfe, 0xff, 0x30, 0x97, 0xfe, 0xff,
  0x34, 0x97, 0xfe, 0xff, 0x38, 0x97, 0xfe, 0xff, 0x3c, 0x97, 0xfe, 0xff,
  0x40, 0x97, 0xfe, 0xff, 0x44, 0x97, 0xfe, 0xff, 0x48, 0x97, 0xfe, 0xff,
  0x4c, 0x97, 0xfe, 0xff, 0x50, 0x97, 0xfe, 0xff, 0x54, 0x97, 0xfe, 0xff,
  0x58, 0x97, 0xfe, 0xff, 0x5c, 0x97, 0xfe, 0xff, 0x60, 0x97, 0xfe, 0xff,
  0x64, 0x97, 0xfe, 0xff, 0x68, 0x97, 0xfe, 0xff, 0x6c, 0x97, 0xfe, 0xff,
  0x70, 0x97, 0xfe, 0xff, 0x74, 0x97, 0xfe, 0xff, 0x78, 0x97, 0xfe, 0xff,
  0x7c, 0x97, 0xfe, 0xff, 0x80, 0x97, 0xfe, 0xff, 0x84, 0x97, 0xfe, 0xff,
  0x88, 0x97, 0xfe, 0xff, 0x8c, 0x97, 0xfe, 0xff, 0x90, 0x97, 0xfe, 0xff,
  0x94, 0x97, 0xfe, 0xff, 0x98, 0x97, 0xfe, 0xff, 0x9c, 0x97, 0xfe, 0xff,
  0xa0, 0x97, 0xfe, 0xff, 0xa4, 0x97, 0xfe, 0xff, 0xa8, 0x97, 0xfe, 0xff,
  0xac, 0x97, 0xfe, 0xff, 0xb0, 0x97, 0xfe, 0xff, 0xb4, 0x97, 0xfe, 0xff,
  0xb8, 0x97, 0xfe, 0xff, 0xbc, 0x97, 0xfe, 0xff, 0xc0, 0x97, 0xfe, 0xff,
  0xc4, 0x97, 0xfe, 0xff, 0xc8, 0x97, 0xfe, 0xff, 0xcc, 0x97, 0xfe, 0xff,
  0xd0, 0x97, 0xfe, 0xff, 0xd4, 0x97, 0xfe, 0xff, 0xd8, 0x97, 0xfe, 0xff,
  0xdc, 0x97, 0xfe, 0xff, 0xe0, 0x97, 0xfe, 0xff, 0xe4, 0x97, 0xfe, 0xff,
  0xe8, 0x97, 0xfe, 0xff, 0xec, 0x97, 0xfe, 0xff, 0xf0, 0x97, 0xfe, 0xff,
  0xf4, 0x97, 0xfe, 0xff, 0xf8, 0x97, 0xfe, 0xff, 0xfc, 0x97, 0xfe, 0xff,
  0x00, 0x98, 0xfe, 0xff, 0x04, 0x98, 0xfe, 0xff, 0x08, 0x98, 0xfe, 0xff,
  0x0c, 0x98, 0xfe, 0xff, 0x10, 0x98, 0xfe, 0xff, 0x14, 0x98, 0xfe, 0xff,
  0x18, 0x98, 0xfe, 0xff, 0x1c, 0x98, 0xfe, 0xff, 0x20, 0x98, 0xfe, 0xff,
  0x24, 0x98, 0xfe, 0xff, 0x28, 0x98, 0xfe, 0xff, 0x2c, 0x98, 0xfe, 0xff,
  0x30, 0x98, 0xfe, 0xff, 0x34, 0x98, 0xfe, 0xff, 0x38, 0x98, 0xfe, 0xff,
  0x3c, 0x98, 0xfe, 0xff, 0x40, 0x98, 0xfe, 0xff, 0x44, 0x98, 0xfe, 0xff,
  0x48, 0x98, 0xfe, 0xff, 0x4c, 0x98, 0xfe, 0xff, 0x50, 0x98, 0xfe, 0xff,
  0x54, 0x98, 0xfe, 0xff, 0x58, 0x98, 0xfe, 0xff, 0x5c, 0x98, 0xfe, 0xff,
  0x60, 0x98, 0xfe, 0xff, 0x64, 0x98, 0xfe, 0xff, 0x68, 0x98, 0xfe, 0xff,
  0x6c, 0x98, 0xfe, 0xff, 0x70, 0x98, 0xfe, 0xff, 0x74, 0x98, 0xfe, 0xff,
  0x78, 0x98, 0xfe, 0xff, 0x7c, 0x98, 0xfe, 0xff, 0x80, 0x98, 0xfe, 0xff,
  0x84, 0x98, 0xfe, 0xff, 0x88, 0x98, 0xfe, 0xff, 0x8c, 0x98, 0xfe, 0xff,
  0x90, 0x98, 0xfe, 0xff, 0x94, 0x98, 0xfe, 0xff, 0x98, 0x98, 0xfe, 0xff,
  0x9c, 0x98, 0xfe, 0xff, 0xa0, 0x98, 0xfe, 0xff, 0xa4, 0x98, 0xfe, 0xff,
  0xa8, 0x98, 0xfe, 0xff, 0xac, 0x98, 0xfe, 0xff, 0xb0, 0x98, 0xfe, 0xff,
  0xb4, 0x98, 0xfe, 0xff, 0xb8, 0x98, 0xfe, 0xff, 0xbc, 0x98, 0xfe, 0xff,
  0xc0, 0x98, 0xfe, 0xff, 0xc4, 0x98, 0xfe, 0xff, 0xc8, 0x98, 0xfe, 0xff,
  0xcc, 0x98, 0xfe, 0xff, 0xd0, 0x98, 0xfe, 0xff, 0xd4, 0x98, 0xfe, 0xff,
  0xd8, 0x98, 0xfe, 0xff, 0xdc, 0x98, 0xfe, 0xff, 0xe0, 0x98, 0xfe, 0xff,
  0xe4, 0x98, 0xfe, 0xff, 0xe8, 0x98, 0xfe, 0xff, 0xec, 0x98, 0xfe, 0xff,
  0xf0, 0x98, 0xfe, 0xff, 0xf4, 0x98, 0xfe, 0xff, 0xf8, 0x98, 0xfe, 0xff,
  0xfc, 0x98, 0xfe, 0xff, 0x00, 0x99, 0xfe, 0xff, 0x04, 0x99, 0xfe, 0xff,
  0x08, 0x99, 0xfe, 0xff, 0x0c, 0x99, 0xfe, 0xff, 0x10, 0x99, 0xfe, 0xff,
  0x14, 0x99, 0xfe, 0xff, 0x18, 0x99, 0xfe, 0xff, 0x1c, 0x99, 0xfe, 0xff,
  0x20, 0x99, 0xfe, 0xff, 0x24, 0x99, 0xfe, 0xff, 0x28, 0x99, 0xfe, 0xff,
  0x2c, 0x99, 0xfe, 0xff, 0x30, 0x99, 0xfe, 0xff, 0x34, 0x99, 0xfe, 0xff,
  0x38, 0x99, 0xfe, 0xff, 0x3c, 0x99, 0xfe, 0xff, 0x40, 0x99, 0xfe, 0xff,
  0x44, 0x99, 0xfe, 0xff, 0x48, 0x99, 0xfe, 0xff, 0x4c, 0x99, 0xfe, 0xff,
  0x50, 0x99, 0xfe, 0xff, 0x54, 0x99, 0xfe, 0xff, 0x58, 0x99, 0xfe, 0xff,
  0x5c, 0x99, 0xfe, 0xff, 0x60, 0x99, 0xfe, 0xff, 0x64, 0x99, 0xfe, 0xff,
  0x68, 0x99, 0xfe, 0xff, 0x6c, 0x99, 0xfe, 0xff, 0x70, 0x99, 0xfe, 0xff,
  0x74, 0x99, 0xfe, 0xff, 0x78, 0x99, 0xfe, 0xff, 0x7c, 0x99, 0xfe, 0xff,
  0x80, 0x99, 0xfe, 0xff, 0x84, 0x99, 0xfe, 0xff, 0x88, 0x99, 0xfe, 0xff,
  0x8c, 0x99, 0xfe, 0xff, 0x90, 0x99, 0xfe, 0xff, 0x94, 0x99, 0xfe, 0xff,
  0x98, 0x99, 0xfe, 0xff, 0x9c, 0x99, 0xfe, 0xff, 0xa0, 0x99, 0xfe, 0xff,
  0xa4, 0x99, 0xfe, 0xff, 0xa8, 0x99, 0xfe, 0xff, 0xac, 0x99, 0xfe, 0xff,
  0xb0, 0x99, 0xfe, 0xff, 0xb4, 0x99, 0xfe, 0xff, 0xb8, 0x99, 0xfe, 0xff,
  0xbc, 0x99, 0xfe, 0xff, 0xc0, 0x99, 0xfe, 0xff, 0xc4, 0x99, 0xfe, 0xff,
  0xc8, 0x99, 0xfe, 0xff, 0xcc, 0x99, 0xfe, 0xff, 0xd0, 0x99, 0xfe, 0xff,
  0xd4, 0x99, 0xfe, 0xff, 0xd8, 0x99, 0xfe, 0xff, 0xdc, 0x99, 0xfe, 0xff,
  0xe0, 0x99, 0xfe, 0xff, 0xe4, 0x99, 0xfe, 0xff, 0xe8, 0x99, 0xfe, 0xff,
  0xec, 0x99, 0xfe, 0xff, 0xf0, 0x99, 0xfe, 0xff, 0xf4, 0x99, 0xfe, 0xff,
  0xf8, 0x99, 0xfe, 0xff, 0xfc, 0x99, 0xfe, 0xff, 0x00, 0x9a, 0xfe, 0xff,
  0x04, 0x9a, 0xfe, 0xff, 0x08, 0x9a, 0xfe, 0xff, 0x0c, 0x9a, 0xfe, 0xff,
  0x10, 0x9a, 0xfe, 0xff, 0x14, 0x9a, 0xfe, 0xff, 0x18, 0x9a, 0xfe, 0xff,
  0x1c, 0x9a, 0xfe, 0xff, 0x20, 0x9a, 0xfe, 0xff, 0x24, 0x9a, 0xfe, 0xff,
  0x28, 0x9a, 0xfe, 0xff, 0x2c, 0x9a, 0xfe, 0xff, 0x30, 0x9a, 0xfe, 0xff,
  0x34, 0x9a, 0xfe, 0xff, 0x38, 0x9a, 0xfe, 0xff, 0x3c, 0x9a, 0xfe, 0xff,
  0x40, 0x9a, 0xfe, 0xff, 0x44, 0x9a, 0xfe, 0xff, 0x48, 0x9a, 0xfe, 0xff,
  0x4c, 0x9a, 0xfe, 0xff, 0x50, 0x9a, 0xfe, 0xff, 0x54, 0x9a, 0xfe, 0xff,
  0x58, 0x9a, 0xfe, 0xff, 0x5c, 0x9a, 0xfe, 0xff, 0x60, 0x9a, 0xfe, 0xff,
  0x64, 0x9a, 0xfe, 0xff, 0x68, 0x9a, 0xfe, 0xff, 0x6c, 0x9a, 0xfe, 0xff,
  0x70, 0x9a, 0xfe, 0xff, 0x74, 0x9a, 0xfe, 0xff, 0x78, 0x9a, 0xfe, 0xff,
  0x7c, 0x9a, 0xfe, 0xff, 0x80, 0x9a, 0xfe, 0xff, 0x84, 0x9a, 0xfe, 0xff,
  0x88, 0x9a, 0xfe, 0xff, 0x8c, 0x9a, 0xfe, 0xff, 0x90, 0x9a, 0xfe, 0xff,
  0x94, 0x9a, 0xfe, 0xff, 0x98, 0x9a, 0xfe, 0xff, 0x9c, 0x9a, 0xfe, 0xff,
  0xa0, 0x9a, 0xfe, 0xff, 0xa4, 0x9a, 0xfe, 0xff, 0xa8, 0x9a, 0xfe, 0xff,
  0xac, 0x9a, 0xfe, 0xff, 0xb0, 0x9a, 0xfe, 0xff, 0xb4, 0x9a, 0xfe, 0xff,
  0xb8, 0x9a, 0xfe, 0xff, 0xbc, 0x9a, 0xfe, 0xff, 0xc0, 0x9a, 0xfe, 0xff,
  0xc4, 0x9a, 0xfe, 0xff, 0xc8, 0x9a, 0xfe, 0xff, 0xcc, 0x9a, 0xfe, 0xff,
  0xd0, 0x9a, 0xfe, 0xff, 0xd4, 0x9a, 0xfe, 0xff, 0xd8, 0x9a, 0xfe, 0xff,
  0xdc, 0x9a, 0xfe, 0xff, 0xe0, 0x9a, 0xfe, 0xff, 0xe4, 0x9a, 0xfe, 0xff,
  0xe8, 0x9a, 0xfe, 0xff, 0xec, 0x9a, 0xfe, 0xff, 0xf0, 0x9a, 0xfe, 0xff,
  0xf4, 0x9a, 0xfe, 0xff, 0x9a, 0xb6, 0xff, 0xff, 0x04, 0x00, 0x00, 0x00,
  0x00, 0x02, 0x00, 0x00, 0x0b, 0x11, 0xd9, 0x1f, 0x18, 0xdd, 0xf5, 0xf7,
  0xeb, 0xf4, 0xf3, 0x1a, 0xbc, 0xe0, 0x50, 0xb2, 0xc9, 0x51, 0x09, 0x9c,
  0x45, 0x2c, 0x81, 0x34, 0x6b, 0x8b, 0x08, 0x72, 0xc8, 0xad, 0x30, 0xf8,
  0xbf, 0x48, 0xd1, 0xc1, 0x5f, 0xc2, 0xff, 0x23, 0xc4, 0xe1, 0x48, 0xea,
  0xc3, 0x3e, 0x07, 0xd2, 0x3b, 0xe4, 0xd4, 0x43, 0xef, 0x17, 0x30, 0x25,
  0x0e, 0xfb, 0x10, 0x10, 0xd9, 0x19, 0xf6, 0xea, 0xff, 0xe2, 0x09, 0xe5,
  0xcf, 0xe1, 0x06, 0xe6, 0xf0, 0xe3, 0xbd, 0xd0, 0xbd, 0xc4, 0xb8, 0xe1,
  0xb1, 0x86, 0xcd, 0x9a, 0x81, 0xcb, 0xc4, 0xcf, 0xbd, 0xad, 0xcb, 0xe0,
  0xd5, 0xc0, 0xf6, 0xf3, 0xea, 0xec, 0x14, 0xe1, 0xf3, 0x0f, 0xe5, 0x07,
  0x18, 0x13, 0x03, 0x1a, 0x10, 0x21, 0xfa, 0x18, 0x20, 0x1a, 0x1e, 0x1e,
  0x2f, 0x0f, 0x09, 0xf2, 0x1a, 0x2c, 0x37, 0x0e, 0x2a, 0x21, 0x18, 0xf8,
  0xd1, 0xba, 0x09, 0xde, 0xc7, 0xf6, 0xf1, 0xd0, 0x0a, 0x22, 0xf3, 0x03,
  0x11, 0x37, 0x16, 0x46, 0x7f, 0x27, 0x07, 0x6c, 0x07, 0x21, 0x59, 0x75,
  0x29, 0x5a, 0x37, 0x50, 0x44, 0x4b, 0x4a, 0x14, 0x5b, 0x77, 0x1c, 0x23,
  0x2b, 0x2c, 0x31, 0x5a, 0x46, 0x0a, 0x16, 0x37, 0x27, 0x13, 0x1d, 0xea,
  0xf9, 0x19, 0x01, 0xeb, 0x12, 0xf5, 0xf0, 0xde, 0xd9, 0xcb, 0xd1, 0xfc,
  0xd3, 0xcd, 0xf9, 0xbc, 0xda, 0xf7, 0xee, 0xc9, 0xe3, 0x68, 0xc3, 0x9a,
  0x65, 0x1e, 0xb2, 0x43, 0x4f, 0xba, 0xce, 0x35, 0xd5, 0xdd, 0x14, 0x27,
  0x19, 0xde, 0x1d, 0x5c, 0xe3, 0xa3, 0x50, 0x31, 0x81, 0x31, 0x69, 0xa8,
  0xc9, 0x44, 0x32, 0xc6, 0xe1, 0x0c, 0x09, 0xd3, 0x42, 0x25, 0xc7, 0xe6,
  0x22, 0xdb, 0x14, 0xfd, 0xd4, 0x16, 0x41, 0xd7, 0xfe, 0x44, 0xe4, 0xe7,
  0x1e, 0xf3, 0xe5, 0x1f, 0x4a, 0xec, 0xd8, 0x1d, 0xec, 0xfb, 0x2b, 0xd1,
  0x31, 0x04, 0xe7, 0x0b, 0xfa, 0x00, 0xe8, 0x28, 0xd4, 0x0b, 0x22, 0x8b,
  0x0b, 0x08, 0xeb, 0x28, 0x0a, 0x12, 0xb6, 0x5d, 0x0d, 0xe5, 0x5c, 0xd1,
  0x09, 0x11, 0x1d, 0xf4, 0xe8, 0x1b, 0xfa, 0x24, 0xc1, 0x5b, 0x0f, 0x9c,
  0x7f, 0xa0, 0xa0, 0x7c, 0xa2, 0xda, 0x48, 0xaa, 0xdc, 0x02, 0x14, 0xdf,
  0x50, 0x0f, 0x5a, 0x26, 0xfe, 0x3d, 0xa8, 0x44, 0x18, 0xc5, 0x4c, 0xe0,
  0xfa, 0xeb, 0x12, 0xdb, 0x1a, 0x07, 0xc0, 0x0d, 0xfe, 0xd8, 0xd0, 0xfd,
  0x14, 0xef, 0xdf, 0xe3, 0xc5, 0xe5, 0x0a, 0x15, 0xd5, 0xe0, 0xbd, 0xcc,
  0xcb, 0x23, 0xdf, 0xed, 0xa9, 0x17, 0xe7, 0xbd, 0x8d, 0x15, 0x81, 0xa1,
  0xe6, 0x58, 0xab, 0xbd, 0xc1, 0x0b, 0x84, 0xcb, 0xfa, 0xa5, 0xe3, 0x10,
  0xcc, 0xbc, 0x0a, 0x06, 0xb3, 0xe6, 0x10, 0xed, 0xa9, 0x04, 0xec, 0x0a,
  0xc9, 0xb1, 0x29, 0x42, 0xf0, 0xf7, 0x0c, 0xf9, 0xfa, 0x11, 0xdc, 0x10,
  0xf3, 0x13, 0x20, 0xe8, 0x43, 0xe1, 0xe3, 0x43, 0x06, 0xd7, 0x37, 0xf1,
  0xe1, 0x7f, 0xea, 0xbb, 0x42, 0x12, 0xcd, 0x2f, 0x18, 0xd8, 0xf8, 0x40,
  0xab, 0x14, 0x36, 0xc4, 0xf2, 0x49, 0xc5, 0x08, 0x50, 0xce, 0xf4, 0x2d,
  0xde, 0x07, 0x17, 0xc4, 0x24, 0x1d, 0xf1, 0x23, 0x38, 0x04, 0x21, 0x00,
  0xea, 0x14, 0x00, 0xe7, 0x1c, 0xf7, 0x00, 0xfa, 0x43, 0x28, 0x77, 0x48,
  0x26, 0x7f, 0x45, 0x5f, 0x4e, 0x60, 0x76, 0x44, 0x52, 0x73, 0x62, 0x4d,
  0x60, 0x45, 0x5d, 0x3e, 0x6b, 0x6d, 0x51, 0x51, 0x42, 0x2f, 0x1b, 0x31,
  0x4b, 0x00, 0x55, 0x2d, 0x12, 0xf2, 0xdf, 0x0e, 0x0a, 0xd2, 0xd2, 0xe1,
  0xed, 0xb2, 0xed, 0x0b, 0xcb, 0xa8, 0xd0, 0xda, 0xf5, 0x2b, 0xf4, 0xf9,
  0xee, 0x19, 0xcf, 0xef, 0xf7, 0xf7, 0x23, 0xfa, 0xc3, 0x18, 0x18, 0xd3,
  0xa6, 0xb8, 0xff, 0xff, 0x04, 0x00, 0x00, 0x00, 0x20, 0x00, 0x00, 0x00,
  0xe4, 0xf2, 0xff, 0xff, 0x6e, 0x12, 0x00, 0x00, 0x48, 0x1d, 0x00, 0x00,
  0xc7, 0xf9, 0xff, 0xff, 0x84, 0xff, 0xff, 0xff, 0x51, 0xb6, 0xff, 0xff,
  0xff, 0xfc, 0xff, 0xff, 0x5d, 0x15, 0x00, 0x00, 0xd2, 0xb8, 0xff, 0xff,
  0x04, 0x00, 0x00, 0x00, 0x7f, 0x00, 0x00, 0x00, 0xd6, 0xd8, 0xdf, 0xf1,
  0x9f, 0xd9, 0xa3, 0xa4, 0xc3, 0xaa, 0xca, 0xea, 0xeb, 0x10, 0x17, 0x19,
  0x1d, 0x0d, 0x0d, 0x2f, 0x13, 0x23, 0x11, 0x1a, 0x22, 0x15, 0x28, 0x19,
  0x04, 0xe9, 0x11, 0xf7, 0xe6, 0x05, 0xdc, 0xe1, 0xf4, 0xda, 0x05, 0xfd,
  0x09, 0x17, 0x12, 0x21, 0x16, 0x01, 0x10, 0x02, 0xf3, 0x02, 0xc4, 0xd7,
  0xf6, 0xa5, 0xf4, 0xe0, 0xe1, 0xf0, 0xf7, 0xf0, 0xf6, 0x03, 0x03, 0xee,
  0xfc, 0xfe, 0xef, 0x06, 0x17, 0xf0, 0x09, 0xd1, 0xf9, 0xee, 0xce, 0x0e,
  0xe6, 0xde, 0xf8, 0xcc, 0xeb, 0xd6, 0xfd, 0xc5, 0xec, 0xe1, 0xf0, 0xbb,
  0x0e, 0x9a, 0xc7, 0x81, 0x8f, 0x9d, 0x96, 0xc1, 0x9c, 0xe1, 0xff, 0xf5,
  0x21, 0xf6, 0x11, 0x1b, 0x00, 0x10, 0x15, 0x04, 0x1f, 0x07, 0x1e, 0x15,
  0x11, 0x0f, 0x01, 0x08, 0xf1, 0xf5, 0xe2, 0xd9, 0xf1, 0xd1, 0xbc, 0xec,
  0xe1, 0xeb, 0x03, 0x00, 0xbc, 0x9d, 0xfe, 0xff, 0xc0, 0x9d, 0xfe, 0xff,
  0xc4, 0x9d, 0xfe, 0xff, 0xc8, 0x9d, 0xfe, 0xff, 0xcc, 0x9d, 0xfe, 0xff,
  0xd0, 0x9d, 0xfe, 0xff, 0xd4, 0x9d, 0xfe, 0xff, 0xd8, 0x9d, 0xfe, 0xff,
  0xdc, 0x9d, 0xfe, 0xff, 0xe0, 0x9d, 0xfe, 0xff, 0xe4, 0x9d, 0xfe, 0xff,
  0xe8, 0x9d, 0xfe, 0xff, 0xec, 0x9d, 0xfe, 0xff, 0xf0, 0x9d, 0xfe, 0xff,
  0xf4, 0x9d, 0xfe, 0xff, 0xf8, 0x9d, 0xfe, 0xff, 0xfc, 0x9d, 0xfe, 0xff,
  0x00, 0x9e, 0xfe, 0xff, 0x04, 0x9e, 0xfe, 0xff, 0x08, 0x9e, 0xfe, 0xff,
  0x0c, 0x9e, 0xfe, 0xff, 0x10, 0x9e, 0xfe, 0xff, 0x14, 0x9e, 0xfe, 0xff,
  0x18, 0x9e, 0xfe, 0xff, 0x1c, 0x9e, 0xfe, 0xff, 0x20, 0x9e, 0xfe, 0xff,
  0x24, 0x9e, 0xfe, 0xff, 0x28, 0x9e, 0xfe, 0xff, 0x2c, 0x9e, 0xfe, 0xff,
  0x30, 0x9e, 0xfe, 0xff, 0x34, 0x9e, 0xfe, 0xff, 0x38, 0x9e, 0xfe, 0xff,
  0x3c, 0x9e, 0xfe, 0xff, 0x40, 0x9e, 0xfe, 0xff, 0x44, 0x9e, 0xfe, 0xff,
  0x48, 0x9e, 0xfe, 0xff, 0x4c, 0x9e, 0xfe, 0xff, 0x50, 0x9e, 0xfe, 0xff,
  0x54, 0x9e, 0xfe, 0xff, 0x58, 0x9e, 0xfe, 0xff, 0x5c, 0x9e, 0xfe, 0xff,
  0x60, 0x9e, 0xfe, 0xff, 0x64, 0x9e, 0xfe, 0xff, 0x68, 0x9e, 0xfe, 0xff,
  0x6c, 0x9e, 0xfe, 0xff, 0x70, 0x9e, 0xfe, 0xff, 0x74, 0x9e, 0xfe, 0xff,
  0x78, 0x9e, 0xfe, 0xff, 0x7c, 0x9e, 0xfe, 0xff, 0x80, 0x9e, 0xfe, 0xff,
  0x84, 0x9e, 0xfe, 0xff, 0x88, 0x9e, 0xfe, 0xff, 0x8c, 0x9e, 0xfe, 0xff,
  0x90, 0x9e, 0xfe, 0xff, 0x94, 0x9e, 0xfe, 0xff, 0x3a, 0xba, 0xff, 0xff,
  0x04, 0x00, 0x00, 0x00, 0x04, 0x00, 0x00, 0x00, 0x00, 0x00, 0x00, 0x00,
  0x4a, 0xba, 0xff, 0xff, 0x04, 0x00, 0x00, 0x00, 0x7f, 0x00, 0x00, 0x00,
  0xc6, 0xe8, 0xf3, 0xd4, 0xfa, 0xfa, 0xfc, 0x31, 0x14, 0x22, 0x27, 0x19,
  0x0c, 0x05, 0xf8, 0xe0, 0xeb, 0xf0, 0xe1, 0xe9, 0xf0, 0xb1, 0xb9, 0xcf,
  0xf2, 0x07, 0x1d, 0x03, 0x0b, 0xf1, 0x15, 0x37, 0x3b, 0x6a, 0x3b, 0x24,
  0xf5, 0xd1, 0xad, 0x85, 0x9c, 0xc6, 0xc4, 0xcd, 0xd4, 0xf1, 0xfb, 0x09,
  0x1c, 0x27, 0x12, 0x35, 0x3e, 0x26, 0x2e, 0x0a, 0x1b, 0xf9, 0xe9, 0xd1,
  0xab, 0xa5, 0xca, 0xaf, 0xae, 0xbc, 0xcf, 0xf0, 0xf9, 0x01, 0xff, 0xe9,
  0xee, 0x06, 0x2f, 0x51, 0x4c, 0x50, 0x29, 0xea, 0xa3, 0xa0, 0x81, 0x8e,
  0x97, 0xc5, 0xcd, 0xf5, 0xf4, 0x1d, 0x1a, 0x2e, 0x2b, 0x42, 0x52, 0x42,
  0x3c, 0x2f, 0x1c, 0xf8, 0x08, 0xd6, 0xc5, 0xb9, 0xb0, 0xd8, 0xda, 0xdf,
  0xde, 0xfb, 0x05, 0x19, 0xfe, 0xf5, 0xf6, 0x07, 0x20, 0x41, 0x5a, 0x2d,
  0x31, 0x11, 0xe8, 0xb9, 0x8e, 0x92, 0xa2, 0x00, 0xd6, 0xba, 0xff, 0xff,
  0x04, 0x00, 0x00, 0x00, 0x7f, 0x00, 0x00, 0x00, 0x2b, 0x16, 0xfc, 0xe1,
  0xcd, 0xdd, 0xeb, 0x0d, 0x2c, 0x0b, 0x06, 0xe7, 0xf4, 0xe7, 0xf0, 0xf5,
  0xc6, 0xbb, 0xb0, 0xc7, 0xd8, 0x0a, 0x24, 0x3e, 0x5a, 0x3c, 0x18, 0x00,
  0xe7, 0xe2, 0xe7, 0xfe, 0x04, 0xfe, 0x04, 0x2b, 0x29, 0x2b, 0x35, 0x3c,
  0x2e, 0x4c, 0x43, 0x32, 0x1e, 0xf3, 0xc6, 0xba, 0xc5, 0x0a, 0x22, 0x3c,
  0x20, 0x06, 0xc9, 0xbb, 0xc3, 0xd5, 0xba, 0xc1, 0x9d, 0x84, 0x9c, 0x81,
  0xc0, 0x00, 0x12, 0x2d, 0x36, 0x3a, 0xf5, 0xce, 0xdf, 0xe3, 0xed, 0xf9,
  0x06, 0x04, 0x22, 0x18, 0x16, 0x1b, 0x22, 0x2a, 0x49, 0x4b, 0x30, 0x17,
  0xf4, 0xbd, 0xbd, 0xd3, 0xf3, 0x1f, 0x32, 0x26, 0xff, 0xdd, 0xe7, 0xe6,
  0x05, 0xf8, 0xea, 0xbd, 0x95, 0x96, 0xc9, 0xf4, 0x26, 0x34, 0x47, 0x39,
  0x15, 0x04, 0xea, 0xd4, 0xdb, 0xf4, 0xf4, 0x02, 0xf7, 0x0c, 0x0d, 0x09,
  0x10, 0x2a, 0x26, 0x00, 0x62, 0xbb, 0xff, 0xff, 0x04, 0x00, 0x00, 0x00,
  0x7f, 0x00, 0x00, 0x00, 0xd1, 0xce, 0xb6, 0xb8, 0x95, 0xd0, 0xc1, 0xaf,
  0xb4, 0x99, 0x82, 0xd6, 0xcf, 0xf5, 0xe8, 0x05, 0x0f, 0x19, 0x0d, 0x21,
  0x34, 0x38, 0x12, 0x23, 0x00, 0xfa, 0x1a, 0xfb, 0xfe, 0x15, 0xd6, 0x0e,
  0xf9, 0xfa, 0xf8, 0xe9, 0x00, 0xd3, 0x02, 0x1a, 0x1e, 0x29, 0x2b, 0x25,
  0x4f, 0x37, 0x32, 0xfc, 0x11, 0xf8, 0x1a, 0xec, 0x07, 0xd0, 0xec, 0x06,
  0x0b, 0x18, 0xfd, 0xf6, 0x10, 0xef, 0x09, 0xf4, 0x18, 0xef, 0x0b, 0x22,
  0x27, 0x07, 0x16, 0xf5, 0x11, 0x0f, 0xfb, 0xdc, 0xec, 0xee, 0xf4, 0xf8,
  0x0b, 0xe4, 0x00, 0x31, 0x1f, 0x2e, 0x1b, 0xe6, 0xea, 0x22, 0xe6, 0xeb,
  0x97, 0xa8, 0x81, 0xb4, 0xef, 0xe4, 0xf2, 0xe2, 0xf8, 0x27, 0x19, 0x12,
  0x06, 0x0e, 0xf8, 0x2f, 0x38, 0x34, 0x21, 0x1e, 0x17, 0x1a, 0x09, 0x04,
  0xf6, 0xda, 0xdb, 0xdf, 0xbe, 0xc9, 0xb9, 0xb1, 0xad, 0xdb, 0xb1, 0x00,
  0xee, 0xbb, 0xff, 0xff, 0x04, 0x00, 0x00, 0x00, 0x7f, 0x00, 0x00, 0x00,
  0x35, 0x26, 0x14, 0x0f, 0x1a, 0x52, 0x2e, 0xf0, 0x4a, 0x64, 0x0f, 0x46,
  0x02, 0xd6, 0xda, 0xec, 0x12, 0x12, 0xea, 0xee, 0xcd, 0xfc, 0x0d, 0xf0,
  0x39, 0x37, 0x1f, 0x3a, 0x7f, 0xd2, 0x3f, 0x28, 0x1b, 0x43, 0x29, 0x39,
  0x5d, 0x0a, 0xed, 0x33, 0xed, 0x0f, 0xf2, 0x12, 0x13, 0x10, 0xea, 0x26,
  0xfe, 0xfa, 0x0a, 0x1b, 0x01, 0x02, 0xe4, 0x0f, 0x1e, 0xf9, 0x22, 0x22,
  0xe4, 0x01, 0x00, 0xe9, 0x20, 0x13, 0xf7, 0xeb, 0x2e, 0x1a, 0xf7, 0x14,
  0x44, 0x0a, 0x3c, 0x13, 0x24, 0x34, 0x2c, 0x14, 0x27, 0x21, 0x08, 0x07,
  0x23, 0x1d, 0x1c, 0x0d, 0x0b, 0x27, 0x1a, 0x17, 0x00, 0x0c, 0xf4, 0xf9,
  0x0e, 0x0f, 0x2c, 0xfd, 0xdc, 0x22, 0xfd, 0x0b, 0x18, 0x21, 0x1b, 0x15,
  0x34, 0x00, 0x0e, 0x15, 0xfa, 0xf6, 0x0d, 0x1e, 0xe9, 0x17, 0x03, 0xf6,
  0x0b, 0x0e, 0xe7, 0x07, 0x09, 0xf7, 0xc3, 0x00, 0x7a, 0xbc, 0xff, 0xff,
  0x04, 0x00, 0x00, 0x00, 0x7f, 0x00, 0x00, 0x00, 0xfa, 0xee, 0xc9, 0xe2,
  0xdf, 0x06, 0xf8, 0x2a, 0x02, 0x06, 0xf4, 0xcb, 0xc7, 0xc4, 0xc2, 0xdd,
  0xaf, 0xbf, 0x81, 0xc6, 0x94, 0x8d, 0xbb, 0xc9, 0xf6, 0xce, 0xc6, 0xcc,
  0xda, 0xca, 0xd6, 0x04, 0x2b, 0x11, 0x1b, 0x28, 0x01, 0x03, 0xf5, 0xe5,
  0xf1, 0xbf, 0xc0, 0xad, 0xd5, 0xea, 0xc4, 0xf5, 0x08, 0x10, 0x24, 0x35,
  0x12, 0xd9, 0xa7, 0xbb, 0xa6, 0xad, 0x9a, 0x97, 0xa9, 0xb5, 0x91, 0x9b,
  0xa8, 0xad, 0xbc, 0xb1, 0xf3, 0x06, 0xe3, 0xd5, 0xfb, 0x0d, 0x03, 0x0d,
  0x36, 0x2d, 0x3c, 0x0d, 0xfa, 0xf7, 0xf4, 0xc1, 0xf4, 0xbe, 0xc6, 0xb3,
  0xa3, 0xd7, 0xbf, 0xf8, 0xe8, 0xfe, 0xf0, 0xd0, 0xd8, 0xa4, 0xd2, 0xbb,
  0xa7, 0xbc, 0xe0, 0xc9, 0x9c, 0x93, 0xc4, 0xb3, 0xc4, 0xf0, 0xea, 0x0e,
  0xfa, 0xed, 0xee, 0x01, 0x0b, 0xf4, 0x13, 0xfd, 0x00, 0x37, 0x11, 0x12,
  0xf3, 0xfb, 0xfc, 0x00, 0x06, 0xbd, 0xff, 0xff, 0x04, 0x00, 0x00, 0x00,
  0x7f, 0x00, 0x00, 0x00, 0x26, 0x13, 0x21, 0x53, 0xd8, 0x2d, 0x09, 0xef,
  0xef, 0xfc, 0x3e, 0x0b, 0xbd, 0x7f, 0xf6, 0x70, 0xc8, 0x31, 0xe4, 0x05,
  0x39, 0x1f, 0x1b, 0x28, 0xfd, 0x1a, 0x15, 0x0e, 0x1e, 0xea, 0x51, 0x18,
  0x23, 0xf4, 0x39, 0xbb, 0x1a, 0x13, 0x0b, 0xcb, 0x3c, 0xbb, 0x64, 0xcf,
  0x09, 0x08, 0xf6, 0x78, 0x0f, 0x0e, 0xfc, 0x12, 0xd1, 0x46, 0xd3, 0x13,
  0x12, 0x4e, 0x08, 0x44, 0x14, 0x02, 0x26, 0x24, 0x1b, 0x28, 0x0e, 0xf2,
  0xf5, 0x49, 0x13, 0x62, 0xf3, 0xfc, 0x39, 0xec, 0xe2, 0xff, 0x06, 0xfc,
  0xcc, 0x11, 0x1c, 0xe5, 0x54, 0xea, 0x40, 0x4b, 0x58, 0x43, 0x7c, 0x1f,
  0xef, 0x57, 0xcf, 0xf9, 0x66, 0x3b, 0x12, 0x5c, 0x12, 0xff, 0x2c, 0x43,
  0xf3, 0x64, 0x33, 0x12, 0x72, 0xfe, 0x25, 0x30, 0x1d, 0x2e, 0x39, 0x12,
  0x36, 0x41, 0x57, 0xe0, 0x4c, 0x30, 0x50, 0xef, 0x27, 0x48, 0x16, 0x00,
  0x92, 0xbd, 0xff, 0xff, 0x04, 0x00, 0x00, 0x00, 0x7f, 0x00, 0x00, 0x00,
  0xf7, 0x14, 0x11, 0x12, 0x0c, 0xef, 0xe1, 0xe6, 0x21, 0x0c, 0x13, 0xf2,
  0xc5, 0xba, 0xb4, 0xc0, 0xd2, 0xfc, 0x0d, 0x21, 0x3e, 0x0b, 0x00, 0xdf,
  0xbe, 0xf2, 0x1e, 0x22, 0x21, 0x18, 0x1c, 0x14, 0x06, 0x18, 0x00, 0x0a,
  0xfd, 0xeb, 0xda, 0xe6, 0xde, 0xe6, 0xfe, 0x04, 0x1c, 0x0e, 0xf8, 0xe7,
  0xcb, 0xc0, 0xca, 0xf2, 0x0b, 0x0a, 0x01, 0xe4, 0xc9, 0xa2, 0x81, 0xa8,
  0xff, 0x30, 0x4f, 0x48, 0x31, 0xf1, 0xc0, 0xb0, 0xde, 0x1e, 0x12, 0x26,
  0x05, 0x09, 0xf2, 0x0c, 0xe6, 0x04, 0x1a, 0x11, 0xec, 0xed, 0xd6, 0xcc,
  0xda, 0xfa, 0x17, 0x38, 0x22, 0x0a, 0xdd, 0xb2, 0xbc, 0xd7, 0x0e, 0x3f,
  0x2d, 0x1a, 0xfe, 0xe2, 0x9d, 0x93, 0xbb, 0x22, 0x44, 0x56, 0x4b, 0x20,
  0xe6, 0xcd, 0xc5, 0xee, 0x13, 0x22, 0x13, 0x2c, 0x1c, 0x0d, 0x17, 0x1a,
  0x16, 0x09, 0x06, 0xf0, 0xed, 0xc7, 0xd4, 0x00, 0x1e, 0xbe, 0xff, 0xff,
  0x04, 0x00, 0x00, 0x00, 0x08, 0x00, 0x00, 0x00, 0x7f, 0x35, 0x52, 0x27,
  0x81, 0x2c, 0x80, 0x1e, 0x32, 0xbe, 0xff, 0xff, 0x04, 0x00, 0x00, 0x00,
  0x40, 0x00, 0x00, 0x00, 0x9d, 0x57, 0x81, 0x1e, 0x0d, 0xda, 0xad, 0x9c,
  0xf9, 0x7f, 0x0c, 0xf6, 0x0f, 0xc1, 0x21, 0x7f, 0x1f, 0x7b, 0x81, 0x27,
  0xd9, 0x15, 0xd4, 0x22, 0x64, 0x03, 0x0c, 0x7f, 0xef, 0x21, 0xe3, 0xd9,
  0x81, 0x00, 0xcc, 0x9b, 0x0c, 0x2d, 0x73, 0xbd, 0x7f, 0xfe, 0x0e, 0x4c,
  0xce, 0x08, 0xd0, 0x05, 0xd2, 0x81, 0xf5, 0x0f, 0x9e, 0xe9, 0x17, 0xb9,
  0x0b, 0xb1, 0x81, 0x11, 0xfe, 0x34, 0xef, 0x33, 0x7e, 0xbe, 0xff, 0xff,
  0x04, 0x00, 0x00, 0x00, 0x20, 0x00, 0x00, 0x00, 0x8a, 0x12, 0x00, 0x00,
  0x96, 0xf5, 0xff, 0xff, 0x49, 0x08, 0x00, 0x00, 0xc9, 0xf4, 0xff, 0xff,
  0xae, 0x07, 0x00, 0x00, 0xc1, 0xf0, 0xff, 0xff, 0x98, 0x0f, 0x00, 0x00,
  0xed, 0x01, 0x00, 0x00, 0xaa, 0xbe, 0xff, 0xff, 0x04, 0x00, 0x00, 0x00,
  0x7f, 0x00, 0x00, 0x00, 0x20, 0xfd, 0x0d, 0x0d, 0x39, 0x2f, 0x34, 0xfa,
  0xf5, 0x04, 0xc8, 0xe4, 0xe8, 0xcd, 0xd6, 0xc9, 0xc3, 0xde, 0xbe, 0xb1,
  0xd1, 0xce, 0x8c, 0xa3, 0xa2, 0x81, 0xe3, 0xc0, 0xe4, 0xb5, 0x9e, 0xe0,
  0xa6, 0xca, 0xfa, 0x2b, 0x1e, 0x34, 0x0c, 0x01, 0xb7, 0xcb, 0xd4, 0xfa,
  0x20, 0xf4, 0xe8, 0x4a, 0xef, 0xc1, 0xc0, 0xc8, 0xbb, 0xac, 0xd7, 0xf5,
  0xd7, 0x9c, 0xd1, 0xe4, 0x06, 0x06, 0xfc, 0xe7, 0xd4, 0xa3, 0x07, 0xd9,
  0x02, 0x0a, 0x00, 0xf9, 0xfb, 0x28, 0x1b, 0x3f, 0x31, 0x60, 0x2d, 0x4f,
  0x08, 0x03, 0x1b, 0x20, 0x0e, 0x07, 0xfd, 0x48, 0x31, 0x40, 0x2b, 0x00,
  0x04, 0xf2, 0x09, 0xfd, 0xd3, 0x40, 0x3f, 0x4e, 0x38, 0x02, 0x4b, 0x57,
  0x71, 0x40, 0x7d, 0x2a, 0x2c, 0x11, 0x4b, 0x65, 0x06, 0x1c, 0xf1, 0x07,
  0xde, 0xf5, 0x11, 0x25, 0x46, 0x4a, 0x62, 0x27, 0x21, 0x3c, 0x32, 0x00,
  0x36, 0xbf, 0xff, 0xff, 0x04, 0x00, 0x00, 0x00, 0x7f, 0x00, 0x00, 0x00,
  0xa0, 0xaa, 0xae, 0xbf, 0xb7, 0xd5, 0xdf, 0xe3, 0xc4, 0xca, 0xcc, 0xde,
  0xdf, 0xdc, 0xdb, 0xd9, 0xe7, 0xd8, 0xed, 0xdc, 0xe9, 0xfc, 0xe7, 0x05,
  0x0b, 0x14, 0x0b, 0xf1, 0xbb, 0xd0, 0xc8, 0xdd, 0xe0, 0xff, 0x25, 0x27,
  0x15, 0x11, 0x13, 0x12, 0x14, 0x13, 0x04, 0xe4, 0xd5, 0xe0, 0xff, 0x0e,
  0x47, 0x5b, 0x4b, 0x20, 0xc1, 0xb9, 0xc7, 0xe3, 0x03, 0x21, 0x2e, 0x41,
  0x2c, 0x06, 0xd2, 0xd1, 0xdd, 0xe8, 0x1e, 0x3e, 0x20, 0xfd, 0xf4, 0xc3,
  0xb6, 0xb9, 0xf2, 0xff, 0x19, 0x2f, 0x2b, 0x36, 0x44, 0x1e, 0x08, 0xfb,
  0x0c, 0x10, 0xf7, 0xfc, 0xf6, 0x18, 0x63, 0x74, 0x7f, 0x3b, 0xfc, 0xd6,
  0xcd, 0xba, 0xe1, 0x20, 0x5a, 0x6d, 0x47, 0x1d, 0xfd, 0xdc, 0xe5, 0xed,
  0xf0, 0x2a, 0x33, 0x1d, 0x01, 0xc5, 0xb0, 0xa8, 0xbb, 0xf3, 0x1a, 0x49,
  0x3e, 0x28, 0x38, 0x40, 0x2c, 0xf1, 0xec, 0x00, 0xc2, 0xbf, 0xff, 0xff,
  0x04, 0x00, 0x00, 0x00, 0x7f, 0x00, 0x00, 0x00, 0xe2, 0xdc, 0xe7, 0xed,
  0xe9, 0xe5, 0xf5, 0x03, 0xfd, 0x0d, 0x2d, 0x20, 0x02, 0xd3, 0xbd, 0xb8,
  0xc5, 0xc2, 0x06, 0xfe, 0x1b, 0xfc, 0xe4, 0xe8, 0xcb, 0xc2, 0xb1, 0xc6,
  0xb1, 0xd7, 0xf3, 0xb5, 0xe5, 0xdd, 0xee, 0xc1, 0xe1, 0xca, 0xd1, 0xca,
  0xcd, 0xcd, 0xc4, 0xbc, 0xad, 0x95, 0xc1, 0xe3, 0xf3, 0x07, 0x21, 0x28,
  0x28, 0x2d, 0x04, 0x12, 0xd0, 0xc2, 0xc4, 0xd8, 0xcb, 0xe4, 0xe3, 0xff,
  0xee, 0xf2, 0xf1, 0xb4, 0x90, 0x9d, 0x81, 0xa1, 0xa6, 0xc4, 0xd3, 0xd6,
  0xf0, 0xd6, 0xfa, 0xd3, 0xe3, 0xcd, 0xc1, 0xd5, 0xc0, 0xc9, 0x97, 0x91,
  0xc2, 0xc2, 0xdc, 0xe0, 0x00, 0x1a, 0x0d, 0x0c, 0x1e, 0x0b, 0x01, 0xe4,
  0xc8, 0xd0, 0xe2, 0xd4, 0x1e, 0x23, 0x2a, 0x39, 0x1f, 0x02, 0xed, 0xc0,
  0xbe, 0xb6, 0xd9, 0xd0, 0xf7, 0xe1, 0xf0, 0xf5, 0xed, 0x03, 0xf4, 0xf9,
  0xf4, 0xeb, 0xf4, 0x00, 0x4e, 0xc0, 0xff, 0xff, 0x04, 0x00, 0x00, 0x00,
  0x7f, 0x00, 0x00, 0x00, 0x04, 0xff, 0x04, 0xea, 0xfc, 0xef, 0xd5, 0xd2,
  0xc4, 0xc4, 0xd6, 0xf0, 0xd4, 0xeb, 0xfc, 0xfb, 0x0f, 0x2f, 0x68, 0x68,
  0x78, 0x7f, 0x63, 0x61, 0x6c, 0x70, 0x40, 0x52, 0x3a, 0xf3, 0xed, 0xc7,
  0xd5, 0xab, 0x9f, 0x85, 0x9d, 0xa2, 0xc6, 0xcb, 0xad, 0xd8, 0xd3, 0xe0,
  0xc2, 0xe7, 0xd9, 0xdc, 0xd9, 0xd1, 0xd4, 0xd6, 0xee, 0xbe, 0xcd, 0xe5,
  0xe9, 0xd0, 0xff, 0x08, 0x17, 0x3d, 0x5b, 0x56, 0x61, 0x44, 0x20, 0xfe,
  0x08, 0xec, 0xce, 0xef, 0xb3, 0xad, 0xac, 0xb4, 0xd7, 0xf8, 0x13, 0x00,
  0xf7, 0xf6, 0x20, 0x23, 0x0f, 0x02, 0x0c, 0x00, 0xbd, 0xad, 0xdc, 0xa8,
  0xad, 0xae, 0xac, 0xaf, 0xd3, 0xd8, 0x23, 0x1c, 0x14, 0x25, 0x1d, 0x29,
  0x54, 0x48, 0x48, 0x4c, 0x4e, 0x4d, 0x23, 0x17, 0x17, 0xf6, 0xcc, 0xcb,
  0xd5, 0xde, 0xd2, 0xf0, 0xf8, 0xeb, 0x0c, 0x33, 0x2d, 0x34, 0x5e, 0x00,
  0xda, 0xc0, 0xff, 0xff, 0x04, 0x00, 0x00, 0x00, 0x7f, 0x00, 0x00, 0x00,
  0xb2, 0xc4, 0xa2, 0xd5, 0xd5, 0xd6, 0xf3, 0x09, 0xdc, 0xe7, 0xf2, 0xdd,
  0xf2, 0xce, 0xc7, 0xfa, 0xd0, 0xa7, 0xa4, 0xc6, 0xa3, 0xc2, 0xcc, 0xb9,
  0xc3, 0xc8, 0xbc, 0xcd, 0xbb, 0xc1, 0xbf, 0xe8, 0xb9, 0xd8, 0xf5, 0xcd,
  0xae, 0xd7, 0xbe, 0xb9, 0xd1, 0xe7, 0xf8, 0x0a, 0xff, 0xfa, 0xcd, 0x0e,
  0xfd, 0x09, 0x17, 0xfc, 0x0f, 0xee, 0xd8, 0xd3, 0xd6, 0xdc, 0xcc, 0xed,
  0xc5, 0xb6, 0xa7, 0x90, 0xb2, 0xd3, 0xac, 0xf4, 0xc1, 0xfd, 0xb7, 0x00,
  0xda, 0xe6, 0xec, 0xe4, 0x04, 0x29, 0x14, 0x1a, 0x14, 0x27, 0xf1, 0xe1,
  0xba, 0xeb, 0xd7, 0xd1, 0xbd, 0xa0, 0x96, 0xa1, 0x81, 0xb9, 0xc3, 0xa5,
  0x9c, 0xad, 0x91, 0xba, 0xb6, 0xbe, 0xd2, 0xf2, 0xee, 0x0f, 0xe6, 0xcc,
  0xda, 0xeb, 0x18, 0x0b, 0xf6, 0x14, 0xdc, 0xe8, 0xf6, 0xe3, 0xd2, 0xe1,
  0x13, 0xfb, 0xff, 0xd4, 0xe8, 0xeb, 0xfc, 0x00, 0x66, 0xc1, 0xff, 0xff,
  0x04, 0x00, 0x00, 0x00, 0x7f, 0x00, 0x00, 0x00, 0x43, 0x54, 0x36, 0x4f,
  0x2c, 0x32, 0x0c, 0x07, 0xdc, 0xdd, 0xe1, 0xea, 0xde, 0x05, 0x01, 0x08,
  0xe8, 0xff, 0xe7, 0xe7, 0xf0, 0xd8, 0xf6, 0x01, 0x17, 0x37, 0x46, 0x62,
  0x59, 0x65, 0x7f, 0x76, 0x66, 0x6f, 0x51, 0x42, 0x44, 0x3a, 0x19, 0xf6,
  0x09, 0x0b, 0x06, 0x17, 0x0b, 0x13, 0x0f, 0xea, 0x01, 0xf0, 0xe5, 0xbb,
  0xc7, 0xbc, 0xe8, 0xe7, 0xc1, 0xc9, 0xe6, 0xcf, 0xdb, 0xd3, 0xe3, 0xcd,
  0xe3, 0xf9, 0x12, 0xfb, 0x23, 0x15, 0x34, 0x48, 0x34, 0x39, 0x2b, 0x15,
  0x0f, 0xfd, 0x12, 0xf6, 0xf8, 0xf9, 0xf2, 0xe9, 0xde, 0xd1, 0xed, 0x02,
  0xe5, 0xf3, 0xf7, 0xe2, 0xc6, 0xc8, 0xbb, 0xce, 0xf3, 0xf1, 0xf7, 0xf6,
  0xe6, 0xf5, 0xde, 0xd6, 0xc9, 0xc9, 0xd9, 0xdc, 0xff, 0xef, 0x16, 0x1a,
  0x1b, 0x19, 0x3a, 0x2c, 0x2e, 0x24, 0x25, 0x2f, 0x2e, 0x16, 0x1c, 0x1d,
  0x13, 0x13, 0xf6, 0x00, 0xf2, 0xc1, 0xff, 0xff, 0x04, 0x00, 0x00, 0x00,
  0x7f, 0x00, 0x00, 0x00, 0x2b, 0x01, 0x4d, 0x0b, 0xea, 0xec, 0xe4, 0xe7,
  0xfd, 0xfc, 0x0b, 0x2d, 0xd0, 0x11, 0xcc, 0xc5, 0xad, 0xb3, 0xe3, 0xdd,
  0xa1, 0xe1, 0xba, 0xc4, 0xc3, 0xc3, 0xa3, 0xa3, 0xba, 0xbf, 0xbd, 0xdd,
  0xc3, 0xff, 0x11, 0xe9, 0xd8, 0x11, 0xc1, 0xbc, 0xdb, 0xbb, 0xd7, 0xad,
  0xca, 0xe0, 0xb5, 0xeb, 0xd0, 0x02, 0xe1, 0xf2, 0xe4, 0xae, 0x94, 0x91,
  0x81, 0xa2, 0xcc, 0xbe, 0xdc, 0xb8, 0xa8, 0xa5, 0xb1, 0xcd, 0xe3, 0xda,
  0xc5, 0xe5, 0xe7, 0xe2, 0x16, 0x05, 0x1e, 0x52, 0xff, 0x44, 0x2f, 0x04,
  0x57, 0x0c, 0x1e, 0x23, 0xef, 0x2f, 0xdc, 0x03, 0x07, 0x06, 0xe3, 0x06,
  0xc0, 0xf0, 0x29, 0x4d, 0x66, 0x4e, 0x61, 0x2d, 0x2d, 0x29, 0x64, 0x0f,
  0x26, 0x5b, 0x54, 0x47, 0x08, 0x26, 0x19, 0x34, 0x10, 0xfc, 0xdb, 0xef,
  0x05, 0xf0, 0x16, 0xf3, 0x19, 0xe6, 0x0f, 0xcf, 0x04, 0xd5, 0x96, 0x00,
  0x7e, 0xc2, 0xff, 0xff, 0x04, 0x00, 0x00, 0x00, 0x7f, 0x00, 0x00, 0x00,
  0xdf, 0xd5, 0xe5, 0xf9, 0xec, 0xdf, 0xe8, 0xdc, 0x02, 0xe7, 0xef, 0xf1,
  0x05, 0xea, 0xf4, 0xf7, 0x08, 0x19, 0x0f, 0x04, 0x00, 0xf7, 0xd4, 0xd0,
  0xd0, 0xde, 0xca, 0xcd, 0xc6, 0xd0, 0xc5, 0xce, 0x03, 0xe8, 0xea, 0xf3,
  0xe3, 0xd4, 0xe3, 0xe6, 0xef, 0x03, 0xf1, 0xf1, 0xf3, 0xeb, 0xef, 0xda,
  0xea, 0xdd, 0xfe, 0xfa, 0xfd, 0x0a, 0xef, 0xf8, 0xf2, 0xe7, 0xf9, 0xff,
  0x09, 0xf5, 0xf2, 0xc1, 0xa1, 0x97, 0x8d, 0x81, 0xa0, 0xad, 0xb7, 0xbd,
  0xcf, 0xd6, 0xe1, 0xe9, 0xef, 0xe2, 0xe0, 0xdb, 0xcd, 0xd6, 0xdb, 0xe9,
  0xe8, 0xf1, 0xe7, 0xf0, 0xd5, 0xd1, 0xc4, 0xe0, 0xe4, 0xe8, 0x02, 0x05,
  0x03, 0x09, 0x14, 0x06, 0x06, 0x05, 0xfe, 0x01, 0xf0, 0xe8, 0xe1, 0xd3,
  0xcb, 0xdc, 0xe2, 0xe7, 0xf0, 0xe4, 0xf9, 0xef, 0xff, 0xed, 0xe6, 0xf3,
  0xd7, 0xd5, 0xc4, 0xb3, 0xcb, 0xdf, 0xdb, 0x00, 0x0a, 0xc3, 0xff, 0xff,
  0x04, 0x00, 0x00, 0x00, 0x08, 0x00, 0x00, 0x00, 0x93, 0x8b, 0x7f, 0x80,
  0xf6, 0x9d, 0xbc, 0x1d, 0x1e, 0xc3, 0xff, 0xff, 0x04, 0x00, 0x00, 0x00,
  0x40, 0x00, 0x00, 0x00, 0xd7, 0x77, 0x58, 0x00, 0xc1, 0xd8, 0xdb, 0x81,
  0x02, 0x10, 0xf9, 0xce, 0xf8, 0x81, 0x1a, 0xec, 0x89, 0x81, 0x6a, 0x34,
  0x1f, 0xc6, 0xb7, 0xb7, 0xf8, 0x19, 0xbe, 0xa0, 0xf0, 0xdd, 0x08, 0x7f,
  0xab, 0xec, 0x7f, 0x47, 0x2d, 0xb2, 0xd4, 0x97, 0x7f, 0xdf, 0xf1, 0xd1,
  0x11, 0xc2, 0x22, 0x25, 0x1f, 0x43, 0x5d, 0xd4, 0xdc, 0xc9, 0x7f, 0xc7,
  0xf3, 0x1f, 0x25, 0x5d, 0x67, 0x7f, 0x16, 0x0f, 0x6a, 0xc3, 0xff, 0xff,
  0x04, 0x00, 0x00, 0x00, 0x20, 0x00, 0x00, 0x00, 0x0d, 0x00, 0x00, 0x00,
  0x15, 0xff, 0xff, 0xff, 0xa0, 0xfb, 0xff, 0xff, 0x56, 0x04, 0x00, 0x00,
  0x05, 0xfd, 0xff, 0xff, 0x54, 0xff, 0xff, 0xff, 0xed, 0xfd, 0xff, 0xff,
  0x90, 0xeb, 0xff, 0xff, 0x96, 0xc3, 0xff, 0xff, 0x04, 0x00, 0x00, 0x00,
  0x7f, 0x00, 0x00, 0x00, 0xb6, 0xda, 0xfb, 0x19, 0x00, 0x2d, 0xe5, 0xe1,
  0xbc, 0xd5, 0xca, 0xed, 0xf9, 0x16, 0x1b, 0x09, 0x17, 0xed, 0xf0, 0xe2,
  0xf3, 0x35, 0xfd, 0x2d, 0x04, 0x1f, 0x01, 0x05, 0xf4, 0xed, 0x28, 0x08,
  0x29, 0xf1, 0x1d, 0x30, 0x6e, 0x7f, 0x6e, 0x53, 0x2a, 0x0e, 0x1d, 0x1b,
  0x30, 0x3f, 0x61, 0x61, 0x24, 0x3c, 0xc7, 0xc9, 0xe0, 0x0e, 0x04, 0x36,
  0x30, 0x1c, 0x0b, 0xf6, 0xce, 0xef, 0x25, 0x2e, 0x28, 0x02, 0xfb, 0xd8,
  0xb0, 0xe6, 0xde, 0xdb, 0x09, 0x0f, 0x04, 0x12, 0x0f, 0x27, 0x19, 0x32,
  0x2a, 0x7d, 0x30, 0x20, 0x13, 0x5d, 0x1a, 0x3a, 0x15, 0x70, 0x46, 0x0c,
  0xf8, 0x13, 0xda, 0xf8, 0xbe, 0xe7, 0x23, 0x05, 0x01, 0xe9, 0xee, 0xd3,
  0xe9, 0xe7, 0xea, 0xd6, 0xed, 0xf8, 0xdb, 0xca, 0xd4, 0xc4, 0xe2, 0xd4,
  0xe5, 0xef, 0xdc, 0xe6, 0xe3, 0x0a, 0xfc, 0x30, 0x44, 0x38, 0x2f, 0x00,
  0x22, 0xc4, 0xff, 0xff, 0x04, 0x00, 0x00, 0x00, 0x7f, 0x00, 0x00, 0x00,
  0xb7, 0x9e, 0xac, 0xcc, 0xbb, 0xc1, 0xcb, 0xc3, 0xf4, 0xe0, 0xf1, 0xc7,
  0xd6, 0xd1, 0xd3, 0xd8, 0xe3, 0x01, 0xfe, 0x0b, 0xf8, 0x0d, 0x19, 0x25,
  0x24, 0xf8, 0x0b, 0xf1, 0xf4, 0xfb, 0x08, 0xfe, 0x07, 0x1f, 0x19, 0x07,
  0x11, 0xf1, 0x01, 0xff, 0x07, 0xe5, 0xf3, 0x09, 0xeb, 0xe7, 0x0a, 0x1f,
  0x1c, 0x0b, 0x2f, 0x13, 0xdb, 0xee, 0xbb, 0xc1, 0xe4, 0xfa, 0x04, 0x36,
  0x6f, 0x5e, 0x2a, 0x12, 0x1d, 0x20, 0x14, 0x18, 0x08, 0xef, 0x00, 0x0f,
  0x20, 0x30, 0x5a, 0x53, 0x2e, 0x26, 0x26, 0x30, 0x54, 0x47, 0x3c, 0xfd,
  0x12, 0xfc, 0x1d, 0x18, 0x23, 0x11, 0x5f, 0x6e, 0x69, 0x43, 0x32, 0x2d,
  0xe1, 0xbc, 0xcb, 0x01, 0x12, 0x5f, 0x59, 0x76, 0x6c, 0x37, 0x1e, 0x09,
  0x06, 0x0d, 0x31, 0x27, 0x26, 0x10, 0x24, 0x17, 0x3f, 0x39, 0x45, 0x25,
  0x20, 0x1e, 0x64, 0x7f, 0x63, 0x39, 0x3a, 0x00, 0xae, 0xc4, 0xff, 0xff,
  0x04, 0x00, 0x00, 0x00, 0x7f, 0x00, 0x00, 0x00, 0xf3, 0xe4, 0xec, 0xf7,
  0x00, 0xdd, 0xe8, 0x0f, 0x09, 0xfc, 0x02, 0x02, 0xfc, 0x2a, 0x23, 0x2c,
  0x07, 0x15, 0x0e, 0x05, 0x0d, 0x17, 0x1b, 0x39, 0x29, 0x10, 0x09, 0xfa,
  0x03, 0xf0, 0xec, 0xfa, 0xfb, 0xf4, 0xd0, 0xdd, 0xbb, 0xb8, 0xd9, 0x11,
  0xe7, 0x03, 0xe5, 0xe9, 0xdc, 0xdb, 0xe8, 0xfc, 0xd1, 0xeb, 0xff, 0xef,
  0xfe, 0x03, 0x05, 0xf9, 0x0e, 0xed, 0x09, 0xf3, 0xed, 0xdc, 0xf3, 0xe7,
  0xe8, 0xef, 0xd4, 0xfa, 0xd2, 0xb6, 0xbd, 0xc0, 0xde, 0xe6, 0xc9, 0xb9,
  0xa1, 0xae, 0x9f, 0x95, 0xa8, 0x81, 0xaf, 0x97, 0x9c, 0xcf, 0xcf, 0xed,
  0xe3, 0xda, 0xe7, 0xd4, 0xd2, 0xf8, 0x08, 0x23, 0x25, 0x32, 0x3d, 0x48,
  0x45, 0x3a, 0x32, 0x61, 0x31, 0x21, 0x22, 0x40, 0x2b, 0x57, 0x53, 0x4a,
  0x29, 0x3f, 0x0a, 0x0b, 0x38, 0x54, 0x4e, 0x55, 0x5a, 0x47, 0x11, 0x26,
  0x02, 0x1f, 0x1e, 0x00, 0x3a, 0xc5, 0xff, 0xff, 0x04, 0x00, 0x00, 0x00,
  0x7f, 0x00, 0x00, 0x00, 0xd0, 0xd2, 0x9c, 0xe8, 0xcf, 0xe8, 0xec, 0xd9,
  0xd0, 0xaf, 0xbc, 0xc1, 0xa4, 0xd0, 0xdf, 0xea, 0xd3, 0xa0, 0xac, 0xc4,
  0xd8, 0xbe, 0xdb, 0xb7, 0xf9, 0xbb, 0x9c, 0xa9, 0xc5, 0x01, 0xd9, 0x06,
  0xbf, 0xd4, 0x81, 0x91, 0xd3, 0xe1, 0xb8, 0xe6, 0x04, 0xeb, 0xfb, 0xec,
  0x09, 0xef, 0x05, 0xec, 0xf7, 0x0c, 0xc7, 0xe5, 0xbe, 0xee, 0xf4, 0xd4,
  0xe6, 0xeb, 0xee, 0xbd, 0xc6, 0xd6, 0xf5, 0xce, 0xe1, 0xca, 0xf8, 0xfc,
  0xe0, 0x07, 0xc0, 0x07, 0xdf, 0xe4, 0xef, 0xdb, 0xf1, 0xee, 0xe4, 0xfd,
  0x0e, 0xfe, 0xfe, 0x23, 0x0f, 0xf4, 0xf1, 0x10, 0xd2, 0xfd, 0x00, 0xf6,
  0xee, 0x34, 0xe1, 0x16, 0x01, 0xc7, 0xc9, 0xd0, 0xbf, 0xd4, 0xf1, 0xba,
  0xc3, 0xc9, 0xda, 0xb0, 0xd0, 0xbf, 0xb4, 0xda, 0xe7, 0xec, 0xae, 0xe6,
  0xc9, 0xe2, 0xc4, 0xc8, 0xbc, 0x01, 0x0d, 0xf6, 0x28, 0xf7, 0x27, 0x00,
  0xc6, 0xc5, 0xff, 0xff, 0x04, 0x00, 0x00, 0x00, 0x7f, 0x00, 0x00, 0x00,
  0xaf, 0xa4, 0xd2, 0xa9, 0xbc, 0x81, 0xbc, 0xc0, 0xb2, 0xa7, 0xb1, 0xa3,
  0xcb, 0xbe, 0xb5, 0xc2, 0xcf, 0xe0, 0xcc, 0x11, 0xfb, 0xfc, 0x1e, 0x3a,
  0x27, 0x05, 0x25, 0x03, 0x16, 0xf8, 0x00, 0xdd, 0xfe, 0x1a, 0xdd, 0xf7,
  0xce, 0xa6, 0xcb, 0xa9, 0xc5, 0xb7, 0xcf, 0xc6, 0xcf, 0xe0, 0x12, 0xfb,
  0x16, 0x06, 0x0a, 0x25, 0xe9, 0x01, 0xe7, 0xf8, 0xf9, 0x09, 0x09, 0xfc,
  0xde, 0xd9, 0xd3, 0xbc, 0xfe, 0xf4, 0x00, 0xf1, 0xa5, 0xc6, 0xd1, 0xb3,
  0xcd, 0xcc, 0x0a, 0x07, 0xec, 0xdf, 0xe0, 0xe1, 0xdc, 0xce, 0xe6, 0xfb,
  0xd5, 0xc5, 0xe9, 0xeb, 0x17, 0xfa, 0x11, 0x02, 0xad, 0xe4, 0xd6, 0xc0,
  0xbc, 0xe2, 0xc8, 0xb3, 0x9b, 0xbd, 0xc7, 0xcf, 0xe4, 0xd4, 0xe6, 0xf4,
  0xf9, 0xf9, 0xfe, 0xf6, 0xee, 0xf7, 0xf0, 0xcd, 0xfe, 0xcf, 0xc4, 0xc7,
  0xb3, 0xdc, 0xb1, 0x9f, 0x9b, 0x95, 0xc0, 0x00, 0x52, 0xc6, 0xff, 0xff,
  0x04, 0x00, 0x00, 0x00, 0x7f, 0x00, 0x00, 0x00, 0x2d, 0x03, 0x20, 0x03,
  0xf1, 0xee, 0x22, 0x02, 0x00, 0x11, 0x29, 0x1c, 0x2b, 0x39, 0x35, 0x5b,
  0x3a, 0x43, 0x3b, 0x51, 0x4d, 0x59, 0x6b, 0x52, 0x7f, 0x42, 0x4e, 0x31,
  0x4f, 0x21, 0x3f, 0x1a, 0x47, 0x47, 0x03, 0xf0, 0x3b, 0x22, 0x08, 0x02,
  0x11, 0xf3, 0xfc, 0xfd, 0xf6, 0xde, 0xef, 0xe7, 0xd4, 0xf8, 0xbd, 0xea,
  0xda, 0xed, 0xe7, 0xe9, 0xf5, 0x1e, 0xe6, 0xf4, 0x21, 0xff, 0xec, 0x31,
  0x28, 0x13, 0xef, 0xe5, 0xeb, 0xe3, 0xe0, 0xdf, 0xd4, 0xf6, 0xf1, 0xd4,
  0xf7, 0xd5, 0xd5, 0xe2, 0xe8, 0xdd, 0xc0, 0xc7, 0xc3, 0xcd, 0x98, 0xc0,
  0xe9, 0xf0, 0x0a, 0xdd, 0xdf, 0xd3, 0x02, 0xd8, 0x18, 0x11, 0xfe, 0x25,
  0x4f, 0x63, 0x2e, 0x51, 0x6c, 0x4e, 0x74, 0x50, 0x73, 0x5d, 0x47, 0x2e,
  0x20, 0xed, 0x0f, 0x0c, 0x02, 0xf4, 0xd7, 0x17, 0xdd, 0xed, 0xcb, 0xdf,
  0x0d, 0xfe, 0xef, 0x00, 0xde, 0xc6, 0xff, 0xff, 0x04, 0x00, 0x00, 0x00,
  0x7f, 0x00, 0x00, 0x00, 0xf6, 0x30, 0x36, 0xe7, 0x22, 0xef, 0xfb, 0xc5,
  0xf9, 0xf2, 0xe7, 0xe6, 0xf6, 0xc3, 0xbd, 0xd0, 0x0a, 0x2f, 0xd7, 0x1e,
  0x04, 0xfb, 0x47, 0x27, 0x3f, 0x25, 0x24, 0x30, 0x2c, 0x27, 0x5a, 0x10,
  0x0d, 0x7f, 0x75, 0x68, 0x32, 0x29, 0xf9, 0x0a, 0xf7, 0x0d, 0xfc, 0xf8,
  0xf4, 0xea, 0xbe, 0x0a, 0xdb, 0xe8, 0xff, 0xe2, 0x02, 0x24, 0xfe, 0xf4,
  0x20, 0xc9, 0x07, 0xe8, 0xd9, 0xfc, 0xc9, 0xf5, 0xdd, 0xda, 0xd5, 0xcc,
  0x2a, 0xf8, 0x17, 0xad, 0xd1, 0xb5, 0xb4, 0xa9, 0xba, 0xe8, 0xbb, 0xc7,
  0x8a, 0xed, 0xcd, 0xbb, 0xbb, 0xae, 0xea, 0xa8, 0xc0, 0xca, 0xd0, 0xac,
  0xc7, 0xd5, 0xb0, 0xf7, 0xcc, 0xd0, 0xde, 0xfc, 0xdf, 0x14, 0xcb, 0xcd,
  0xbf, 0xcf, 0xe3, 0xd7, 0xb6, 0xa5, 0xf1, 0xac, 0xce, 0xc6, 0xd9, 0xdf,
  0xc0, 0xd5, 0xa6, 0xeb, 0xf3, 0xc2, 0x11, 0xae, 0xd9, 0xfe, 0xd4, 0x00,
  0x6a, 0xc7, 0xff, 0xff, 0x04, 0x00, 0x00, 0x00, 0x7f, 0x00, 0x00, 0x00,
  0x9f, 0x8a, 0x9d, 0xae, 0xb3, 0xac, 0xc7, 0xc9, 0xdd, 0xeb, 0xc1, 0xc4,
  0xc4, 0xd7, 0xea, 0x16, 0xe1, 0xd8, 0xd8, 0xe9, 0xf0, 0x19, 0x20, 0x28,
  0x41, 0x2a, 0x23, 0x17, 0xef, 0xea, 0xdf, 0xfb, 0xfd, 0x23, 0x02, 0xff,
  0xf3, 0xef, 0x01, 0x08, 0xf3, 0xf1, 0xdd, 0xde, 0xe5, 0xda, 0x08, 0xe6,
  0xe4, 0xfc, 0xf0, 0xda, 0xc8, 0xdb, 0xcf, 0xdb, 0xc1, 0xc6, 0xb2, 0xde,
  0xbe, 0xb2, 0xa1, 0xa7, 0x98, 0xa5, 0xc8, 0xc8, 0xcb, 0x92, 0x81, 0x8e,
  0x8e, 0xa1, 0x92, 0xb7, 0xd9, 0xd0, 0xd5, 0xaf, 0xcf, 0xbe, 0xe6, 0xf4,
  0xe3, 0xe5, 0xe3, 0xe5, 0xf5, 0xfb, 0xf1, 0xf9, 0xe4, 0xed, 0x0f, 0x09,
  0x0a, 0xe7, 0xe2, 0xe8, 0xee, 0xc4, 0xdb, 0xc7, 0xd6, 0xcb, 0xc6, 0xda,
  0xd8, 0xe3, 0x03, 0x09, 0x15, 0xdd, 0xee, 0xf7, 0x18, 0x17, 0x24, 0x13,
  0x1b, 0x06, 0x0d, 0x14, 0x21, 0x06, 0x1a, 0x00, 0xf6, 0xc7, 0xff, 0xff,
  0x04, 0x00, 0x00, 0x00, 0x08, 0x00, 0x00, 0x00, 0x80, 0x83, 0xe6, 0x0a,
  0x7f, 0x9f, 0xc1, 0x56, 0x0a, 0xc8, 0xff, 0xff, 0x04, 0x00, 0x00, 0x00,
  0x40, 0x00, 0x00, 0x00, 0xdf, 0xdf, 0xcc, 0x0d, 0xc6, 0x13, 0x23, 0x7f,
  0x81, 0x85, 0x6f, 0xc1, 0x4d, 0x0a, 0x4a, 0x0a, 0xd8, 0x81, 0x09, 0x11,
  0xfd, 0x2f, 0xf8, 0x32, 0xc3, 0x94, 0x81, 0x13, 0x56, 0x2e, 0x1f, 0x60,
  0xc7, 0xab, 0x81, 0x15, 0xdd, 0xe5, 0xd9, 0xf1, 0xe9, 0xeb, 0x07, 0xe1,
  0x03, 0xfc, 0xa9, 0x7f, 0x1b, 0x63, 0x7b, 0x48, 0x81, 0x8e, 0x08, 0x27,
  0xb9, 0xc8, 0xab, 0x7f, 0xfa, 0xe7, 0x0f, 0x90, 0x56, 0xc8, 0xff, 0xff,
  0x04, 0x00, 0x00, 0x00, 0x20, 0x00, 0x00, 0x00, 0x0f, 0x07, 0x00, 0x00,
  0x9f, 0xdf, 0xff, 0xff, 0x18, 0xe2, 0xff, 0xff, 0xbb, 0xfc, 0xff, 0xff,
  0x82, 0x21, 0x00, 0x00, 0xbf, 0xf2, 0xff, 0xff, 0x25, 0xf1, 0xff, 0xff,
  0x75, 0x2a, 0x00, 0x00, 0x82, 0xc8, 0xff, 0xff, 0x04, 0x00, 0x00, 0x00,
  0x18, 0x00, 0x00, 0x00, 0x2a, 0xfd, 0x48, 0x22, 0x25, 0x3f, 0x28, 0x1e,
  0xdd, 0x1e, 0x22, 0x73, 0x4a, 0x2c, 0x7f, 0x0a, 0x4a, 0xed, 0x27, 0x3b,
  0x26, 0x3d, 0x6d, 0x19, 0xa6, 0xc8, 0xff, 0xff, 0x04, 0x00, 0x00, 0x00,
  0x18, 0x00, 0x00, 0x00, 0x23, 0x43, 0x36, 0x7e, 0x2c, 0x61, 0x69, 0x28,
  0x44, 0x31, 0x1d, 0x3e, 0xfa, 0x06, 0xe2, 0x1d, 0xde, 0xdb, 0xbd, 0xbd,
  0x81, 0x88, 0xa6, 0xe4, 0xca, 0xc8, 0xff, 0xff, 0x04, 0x00, 0x00, 0x00,
  0x18, 0x00, 0x00, 0x00, 0xb0, 0xfa, 0xcb, 0xed, 0xd1, 0xc4, 0xa4, 0xb4,
  0xe9, 0xde, 0xdc, 0xb7, 0xcb, 0xbc, 0xa3, 0xf1, 0x81, 0xbc, 0xe6, 0xc7,
  0xd1, 0x9d, 0xa1, 0xb6, 0xee, 0xc8, 0xff, 0xff, 0x04, 0x00, 0x00, 0x00,
  0x18, 0x00, 0x00, 0x00, 0x3a, 0x35, 0x37, 0x00, 0x41, 0x12, 0x40, 0x20,
  0x6a, 0x37, 0x2f, 0x7f, 0x2c, 0x39, 0x52, 0x27, 0x20, 0x57, 0x60, 0xf1,
  0x0e, 0x30, 0xf4, 0xe8, 0x12, 0xc9, 0xff, 0xff, 0x04, 0x00, 0x00, 0x00,
  0x18, 0x00, 0x00, 0x00, 0xc4, 0xd2, 0xea, 0xdf, 0x81, 0xd0, 0x8a, 0x96,
  0x8c, 0xf7, 0xe2, 0xd4, 0x0e, 0x0c, 0xf6, 0x20, 0xe8, 0x08, 0xf0, 0xed,
  0x0f, 0xba, 0x0f, 0xda, 0x36, 0xc9, 0xff, 0xff, 0x04, 0x00, 0x00, 0x00,
  0x18, 0x00, 0x00, 0x00, 0x93, 0x0a, 0x82, 0x13, 0x1d, 0xd0, 0xad, 0xd7,
  0x55, 0x23, 0x7f, 0x50, 0x43, 0x3c, 0x2f, 0x2e, 0x75, 0xea, 0x28, 0x2d,
  0x46, 0x45, 0xea, 0x10, 0x5a, 0xc9, 0xff, 0xff, 0x04, 0x00, 0x00, 0x00,
  0x18, 0x00, 0x00, 0x00, 0xbb, 0x0f, 0xdc, 0xb8, 0x21, 0xa8, 0xa0, 0xcb,
  0x9d, 0x81, 0xca, 0xbe, 0xdf, 0xa6, 0xdb, 0xcb, 0xcc, 0xf6, 0x0f, 0x22,
  0xf4, 0xf4, 0xdc, 0x30, 0x7e, 0xc9, 0xff, 0xff, 0x04, 0x00, 0x00, 0x00,
  0x18, 0x00, 0x00, 0x00, 0x37, 0xfb, 0x23, 0x07, 0x39, 0x24, 0x24, 0x0c,
  0x40, 0x73, 0x7f, 0x4c, 0x37, 0x24, 0x3f, 0xf6, 0x13, 0x2c, 0x4e, 0x5d,
  0x24, 0x0d, 0xed, 0xee, 0xa2, 0xc9, 0xff, 0xff, 0x04, 0x00, 0x00, 0x00,
  0x08, 0x00, 0x00, 0x00, 0x99, 0xd6, 0x7f, 0x80, 0x26, 0x8b, 0x45, 0x9c,
  0xb6, 0xc9, 0xff, 0xff, 0x04, 0x00, 0x00, 0x00, 0x40, 0x00, 0x00, 0x00,
  0xfe, 0x7f, 0x65, 0xd1, 0xed, 0xc9, 0xc4, 0x18, 0x42, 0xc1, 0x03, 0xcc,
  0xb6, 0xf2, 0x81, 0xda, 0x7f, 0x09, 0xce, 0x05, 0x1d, 0x0f, 0x1f, 0xdc,
  0xfb, 0x14, 0xfa, 0x7f, 0xdc, 0x20, 0x7d, 0xb3, 0xf5, 0x0f, 0x7f, 0xec,
  0x1e, 0x0f, 0xed, 0xea, 0xdd, 0xc4, 0xf0, 0xcd, 0xe3, 0xf0, 0xdd, 0x7f,
  0xce, 0xdd, 0x4d, 0xcb, 0x00, 0x45, 0x1b, 0x7f, 0x15, 0x06, 0x11, 0x7f,
  0x38, 0x4b, 0xec, 0xf3, 0x02, 0xca, 0xff, 0xff, 0x04, 0x00, 0x00, 0x00,
  0x20, 0x00, 0x00, 0x00, 0x99, 0xf5, 0xff, 0xff, 0xe2, 0x16, 0x00, 0x00,
  0x48, 0xfb, 0xff, 0xff, 0x7e, 0xf1, 0xff, 0xff, 0x1d, 0xf8, 0xff, 0xff,
  0xa0, 0x0c, 0x00, 0x00, 0x35, 0xf7, 0xff, 0xff, 0xe8, 0xf0, 0xff, 0xff,
  0x2e, 0xca, 0xff, 0xff, 0x04, 0x00, 0x00, 0x00, 0x0f, 0x00, 0x00, 0x00,
  0x7f, 0x4d, 0x32, 0x39, 0xfd, 0xf8, 0xec, 0xf9, 0x3a, 0x25, 0x54, 0x40,
  0x3a, 0xe0, 0x22, 0x00, 0x4a, 0xca, 0xff, 0xff, 0x04, 0x00, 0x00, 0x00,
  0x0f, 0x00, 0x00, 0x00, 0x24, 0x28, 0x16, 0xe5, 0xfa, 0xd7, 0x4b, 0x57,
  0x7f, 0x2e, 0x06, 0x3b, 0x1d, 0xde, 0x22, 0x00, 0x66, 0xca, 0xff, 0xff,
  0x04, 0x00, 0x00, 0x00, 0x0f, 0x00, 0x00, 0x00, 0x62, 0x3a, 0x54, 0x58,
  0x7f, 0xf2, 0x52, 0xea, 0x60, 0xfc, 0x8d, 0xad, 0xd3, 0x28, 0x08, 0x00,
  0x82, 0xca, 0xff, 0xff, 0x04, 0x00, 0x00, 0x00, 0x0f, 0x00, 0x00, 0x00,
  0x59, 0x60, 0x07, 0xe9, 0xd5, 0x99, 0x07, 0x37, 0x40, 0x3a, 0x7f, 0x22,
  0x5a, 0x44, 0x2b, 0x00, 0x9e, 0xca, 0xff, 0xff, 0x04, 0x00, 0x00, 0x00,
  0x0f, 0x00, 0x00, 0x00, 0xfc, 0xcf, 0xa9, 0x81, 0xee, 0xe2, 0x07, 0xcf,
  0x01, 0xfe, 0x05, 0x0b, 0xf7, 0xce, 0xd7, 0x00, 0xba, 0xca, 0xff, 0xff,
  0x04, 0x00, 0x00, 0x00, 0x0f, 0x00, 0x00, 0x00, 0xe0, 0xd6, 0x01, 0x09,
  0x34, 0xeb, 0x81, 0xb4, 0x83, 0xcd, 0xd8, 0xbc, 0x4d, 0x4e, 0x62, 0x00,
  0xd6, 0xca, 0xff, 0xff, 0x04, 0x00, 0x00, 0x00, 0x0f, 0x00, 0x00, 0x00,
  0xe9, 0x25, 0x17, 0x11, 0x14, 0xfb, 0xad, 0x81, 0xc3, 0xae, 0x02, 0x16,
  0x0d, 0xf0, 0x08, 0x00, 0xf2, 0xca, 0xff, 0xff, 0x04, 0x00, 0x00, 0x00,
  0x0f, 0x00, 0x00, 0x00, 0x81, 0xee, 0xb8, 0x11, 0xa9, 0xaf, 0x00, 0xab,
  0x1b, 0xa3, 0xaf, 0xab, 0xe9, 0xc3, 0xf4, 0x00, 0x0e, 0xcb, 0xff, 0xff,
  0x04, 0x00, 0x00, 0x00, 0x08, 0x00, 0x00, 0x00, 0x80, 0x83, 0xa4, 0xac,
  0x7f, 0x1e, 0x4b, 0x2b, 0x22, 0xcb, 0xff, 0xff, 0x04, 0x00, 0x00, 0x00,
  0x40, 0x00, 0x00, 0x00, 0x2b, 0x2f, 0xcb, 0x81, 0xb3, 0x1e, 0xb0, 0x32,
  0x2c, 0x66, 0x25, 0x81, 0x2b, 0x98, 0x21, 0x16, 0xcd, 0x7f, 0x13, 0xfe,
  0xcb, 0x08, 0x40, 0xd7, 0xf4, 0x7f, 0xf8, 0xbb, 0xeb, 0x00, 0x24, 0x26,
  0x69, 0xae, 0x1f, 0x81, 0xef, 0x86, 0x98, 0x49, 0xb4, 0xf2, 0xbc, 0xb4,
  0x7f, 0x3d, 0xcc, 0x77, 0x7f, 0xe6, 0xfa, 0xf4, 0xfc, 0x04, 0x27, 0x11,
  0xd3, 0xda, 0xf4, 0x6b, 0x81, 0x4c, 0x59, 0xe6, 0x6e, 0xcb, 0xff, 0xff,
  0x04, 0x00, 0x00, 0x00, 0x20, 0x00, 0x00, 0x00, 0xf5, 0x09, 0x00, 0x00,
  0x8c, 0x01, 0x00, 0x00, 0x50, 0xfc, 0xff, 0xff, 0x90, 0xfc, 0xff, 0xff,
  0x6e, 0x0c, 0x00, 0x00, 0x27, 0x05, 0x00, 0x00, 0x50, 0xf6, 0xff, 0xff,
  0x63, 0x02, 0x00, 0x00, 0x9a, 0xcb, 0xff, 0xff, 0x04, 0x00, 0x00, 0x00,
  0x0f, 0x00, 0x00, 0x00, 0x95, 0xdc, 0x7f, 0x24, 0xe3, 0xba, 0x22, 0x59,
  0xee, 0xeb, 0x21, 0xde, 0x44, 0x22, 0xb9, 0x00, 0xb6, 0xcb, 0xff, 0xff,
  0x04, 0x00, 0x00, 0x00, 0x0f, 0x00, 0x00, 0x00, 0x55, 0xfe, 0x19, 0x05,
  0x7f, 0x59, 0x29, 0xeb, 0x0c, 0xfb, 0x2e, 0xe6, 0x25, 0xde, 0x1d, 0x00,
  0xd2, 0xcb, 0xff, 0xff, 0x04, 0x00, 0x00, 0x00, 0x0f, 0x00, 0x00, 0x00,
  0xf4, 0xfe, 0xfd, 0x15, 0x01, 0x22, 0xea, 0xd9, 0xb0, 0xfe, 0xa7, 0x81,
  0xa0, 0xbd, 0xa1, 0x00, 0xee, 0xcb, 0xff, 0xff, 0x04, 0x00, 0x00, 0x00,
  0x0f, 0x00, 0x00, 0x00, 0xd0, 0xe9, 0xdb, 0x8d, 0xe6, 0x88, 0xd0, 0xe3,
  0x81, 0x07, 0x3f, 0x8b, 0xce, 0xcf, 0x47, 0x00, 0x0a, 0xcc, 0xff, 0xff,
  0x04, 0x00, 0x00, 0x00, 0x0f, 0x00, 0x00, 0x00, 0x68, 0x7f, 0x61, 0xf6,
  0x5e, 0x4e, 0x26, 0x1a, 0x32, 0xc4, 0xbd, 0xc4, 0xf1, 0xfe, 0x37, 0x00,
  0x26, 0xcc, 0xff, 0xff, 0x04, 0x00, 0x00, 0x00, 0x0f, 0x00, 0x00, 0x00,
  0x5a, 0x7f, 0x62, 0xed, 0x0d, 0x0a, 0xf4, 0x4c, 0xdd, 0xd0, 0xe7, 0x2f,
  0x59, 0x4f, 0x3f, 0x00, 0x42, 0xcc, 0xff, 0xff, 0x04, 0x00, 0x00, 0x00,
  0x0f, 0x00, 0x00, 0x00, 0x3d, 0xef, 0x2d, 0x1f, 0x0b, 0xe6, 0x0a, 0xd6,
  0xd4, 0xf9, 0xfd, 0x53, 0x3b, 0x7f, 0x51, 0x00, 0x5e, 0xcc, 0xff, 0xff,
  0x04, 0x00, 0x00, 0x00, 0x0f, 0x00, 0x00, 0x00, 0xfe, 0xbf, 0xef, 0xfc,
  0x2b, 0x63, 0xa3, 0x0a, 0x01, 0xcb, 0xdb, 0xc3, 0xf1, 0xa0, 0x81, 0x00,
  0x7a, 0xcc, 0xff, 0xff, 0x04, 0x00, 0x00, 0x00, 0x08, 0x00, 0x00, 0x00,
  0xf1, 0x80, 0x7f, 0x50, 0x9e, 0xb4, 0x98, 0xf4, 0x8e, 0xcc, 0xff, 0xff,
  0x04, 0x00, 0x00, 0x00, 0x40, 0x00, 0x00, 0x00, 0x37, 0x3b, 0x03, 0xce,
  0x7f, 0x91, 0x59, 0xfd, 0x81, 0xf8, 0xc1, 0x03, 0x24, 0xec, 0x9d, 0xec,
  0x0e, 0x09, 0xd0, 0xad, 0xf1, 0x0f, 0x81, 0x21, 0x7f, 0x18, 0xc3, 0x1c,
  0xfd, 0x0f, 0x32, 0x0f, 0x7f, 0xb6, 0x48, 0xe9, 0x6a, 0x6f, 0xfe, 0xde,
  0x18, 0xbe, 0x67, 0x7f, 0xd8, 0x4f, 0x1b, 0x07, 0xf7, 0x17, 0x7f, 0x6d,
  0x57, 0xea, 0x04, 0x1f, 0x2b, 0xaf, 0xf1, 0x42, 0x67, 0xfe, 0x7f, 0xde,
  0xda, 0xcc, 0xff, 0xff, 0x04, 0x00, 0x00, 0x00, 0x20, 0x00, 0x00, 0x00,
  0x14, 0xf4, 0xff, 0xff, 0xb8, 0x0e, 0x00, 0x00, 0x08, 0x0c, 0x00, 0x00,
  0xf5, 0xf5, 0xff, 0xff, 0x41, 0xf1, 0xff, 0xff, 0x2e, 0xf9, 0xff, 0xff,
  0x4f, 0xf4, 0xff, 0xff, 0x7c, 0xf7, 0xff, 0xff, 0x06, 0xcd, 0xff, 0xff,
  0x04, 0x00, 0x00, 0x00, 0x0f, 0x00, 0x00, 0x00, 0x84, 0xf8, 0x96, 0x81,
  0x03, 0xc0, 0x19, 0x89, 0x07, 0x94, 0xc8, 0xcc, 0xb7, 0xb4, 0xf6, 0x00,
  0x22, 0xcd, 0xff, 0xff, 0x04, 0x00, 0x00, 0x00, 0x0f, 0x00, 0x00, 0x00,
  0xa8, 0xc3, 0xbb, 0x81, 0x00, 0x44, 0x66, 0xe8, 0xb0, 0xa4, 0x9c, 0xa1,
  0xbf, 0x0d, 0x5e, 0x00, 0x3e, 0xcd, 0xff, 0xff, 0x04, 0x00, 0x00, 0x00,
  0x0f, 0x00, 0x00, 0x00, 0x91, 0xee, 0x92, 0x9f, 0xa4, 0x81, 0xa7, 0x55,
  0xba, 0xdb, 0xc0, 0x13, 0xfe, 0x18, 0xfc, 0x00, 0x5a, 0xcd, 0xff, 0xff,
  0x04, 0x00, 0x00, 0x00, 0x0f, 0x00, 0x00, 0x00, 0x9c, 0x81, 0xc9, 0xae,
  0x0e, 0xc4, 0x11, 0xbb, 0xaf, 0xca, 0xbd, 0x23, 0x94, 0x07, 0x9f, 0x00,
  0x76, 0xcd, 0xff, 0xff, 0x04, 0x00, 0x00, 0x00, 0x0f, 0x00, 0x00, 0x00,
  0x29, 0x68, 0x7f, 0x44, 0x2b, 0x02, 0xed, 0xf2, 0xe3, 0x1a, 0xdd, 0x09,
  0x10, 0xdb, 0x12, 0x00, 0x92, 0xcd, 0xff, 0xff, 0x04, 0x00, 0x00, 0x00,
  0x0f, 0x00, 0x00, 0x00, 0x81, 0x9e, 0xbe, 0xbc, 0x39, 0x56, 0x05, 0x0f,
  0xdf, 0x5a, 0x6b, 0xab, 0xe0, 0x0f, 0xd4, 0x00, 0xae, 0xcd, 0xff, 0xff,
  0x04, 0x00, 0x00, 0x00, 0x0f, 0x00, 0x00, 0x00, 0x15, 0x26, 0x0f, 0xf1,
  0x02, 0x8c, 0xd2, 0x07, 0x03, 0x81, 0xec, 0x9a, 0xe2, 0x03, 0x64, 0x00,
  0xca, 0xcd, 0xff, 0xff, 0x04, 0x00, 0x00, 0x00, 0x0f, 0x00, 0x00, 0x00,
  0x9b, 0x81, 0x99, 0xae, 0xa5, 0x9d, 0xca, 0xa8, 0x88, 0x87, 0xd4, 0x00,
  0xbc, 0xa9, 0xce, 0x00, 0xe6, 0xcd, 0xff, 0xff, 0x04, 0x00, 0x00, 0x00,
  0x08, 0x00, 0x00, 0x00, 0xfd, 0xf4, 0xbf, 0xfb, 0x80, 0xa0, 0xa0, 0x7f,
  0xfa, 0xcd, 0xff, 0xff, 0x04, 0x00, 0x00, 0x00, 0x40, 0x00, 0x00, 0x00,
  0xc0, 0x02, 0x23, 0xd4, 0x7f, 0x22, 0x79, 0x1f, 0xea, 0x46, 0xe8, 0xe7,
  0x81, 0x19, 0xdd, 0x39, 0x00, 0x13, 0xa0, 0x36, 0x81, 0x0a, 0x10, 0x3c,
  0xf1, 0xe6, 0x12, 0x2d, 0x7f, 0x42, 0x30, 0x27, 0x89, 0x7b, 0x02, 0xc7,
  0x98, 0x49, 0x66, 0x7f, 0x21, 0xe7, 0x04, 0x42, 0xfb, 0x15, 0xf6, 0x7f,
  0x2c, 0xdd, 0x05, 0x18, 0x74, 0x1e, 0x26, 0x81, 0xd6, 0x27, 0xe2, 0xb9,
  0x56, 0x2e, 0x3c, 0x81, 0x46, 0xce, 0xff, 0xff, 0x04, 0x00, 0x00, 0x00,
  0x20, 0x00, 0x00, 0x00, 0xf8, 0xf4, 0xff, 0xff, 0xc1, 0xf8, 0xff, 0xff,
  0xd8, 0xf1, 0xff, 0xff, 0x19, 0xe6, 0xff, 0xff, 0xdf, 0xf9, 0xff, 0xff,
  0x69, 0xe9, 0xff, 0xff, 0x26, 0x12, 0x00, 0x00, 0x3c, 0x3a, 0x00, 0x00,
  0x72, 0xce, 0xff, 0xff, 0x04, 0x00, 0x00, 0x00, 0x40, 0x02, 0x00, 0x00,
  0x24, 0x56, 0x5a, 0x16, 0xf5, 0xfd, 0xe0, 0xe5, 0x2c, 0x5a, 0x2d, 0x16,
  0xe4, 0xfe, 0xe4, 0xd0, 0x11, 0x77, 0x2a, 0x13, 0x04, 0x07, 0xf3, 0xd5,
  0x14, 0x7d, 0x56, 0x15, 0xfa, 0x00, 0xe1, 0xf2, 0x1d, 0x7f, 0x60, 0x05,
  0x01, 0x04, 0xf2, 0xed, 0x0d, 0x5c, 0x5e, 0x10, 0x02, 0xfa, 0xf9, 0xd1,
  0x1c, 0x69, 0x26, 0x22, 0xf0, 0xed, 0xf3, 0xe0, 0x02, 0x59, 0x35, 0x0c,
  0xfd, 0xf5, 0xeb, 0xee, 0x06, 0x39, 0x24, 0x01, 0xff, 0xed, 0xf5, 0xec,
  0x57, 0xe7, 0xf7, 0x16, 0x35, 0x11, 0x2a, 0xf6, 0x77, 0xe2, 0xce, 0x1b,
  0x20, 0x0b, 0x38, 0xfe, 0x55, 0xe0, 0xe5, 0x31, 0x46, 0x1c, 0x24, 0xf0,
  0x4a, 0x04, 0xe9, 0x39, 0x45, 0xec, 0x65, 0x23, 0x5e, 0xf7, 0xcc, 0x23,
  0x6e, 0x34, 0x15, 0x03, 0x7f, 0xf2, 0xb9, 0x43, 0x43, 0x18, 0x4f, 0x25,
  0x63, 0x03, 0xdd, 0x42, 0x40, 0xf2, 0x37, 0x1b, 0x48, 0xfd, 0xda, 0x24,
  0x38, 0xe3, 0x3a, 0x1b, 0x60, 0xe0, 0xc7, 0x55, 0x54, 0xdf, 0x31, 0xfd,
  0x60, 0xf5, 0xf6, 0x12, 0x2c, 0x33, 0x31, 0xe4, 0x58, 0xfe, 0xdf, 0x19,
  0x1d, 0x2a, 0x22, 0xf4, 0x57, 0xf6, 0xf7, 0x24, 0x47, 0x28, 0x43, 0xf4,
  0x4d, 0xea, 0xf6, 0x2a, 0x2b, 0x28, 0x49, 0xf6, 0x7b, 0xf3, 0xc9, 0x3e,
  0x7f, 0x49, 0x37, 0x1a, 0x5e, 0x0e, 0xca, 0x37, 0x46, 0x25, 0x1d, 0xf7,
  0x5f, 0xe9, 0xb6, 0x54, 0x60, 0x14, 0x1d, 0x0d, 0x38, 0x0b, 0xcc, 0x4a,
  0x36, 0x02, 0x38, 0xd6, 0x68, 0xec, 0xb7, 0x5a, 0x49, 0xfe, 0x24, 0xff,
  0xdd, 0xe7, 0xf7, 0xd3, 0xfb, 0xbd, 0xe5, 0x6e, 0xdf, 0xd6, 0xf3, 0xe4,
  0xfb, 0xd6, 0xe1, 0x62, 0xe2, 0xe9, 0xe5, 0xf4, 0xf7, 0xc1, 0x06, 0x52,
  0xe8, 0xd9, 0xfd, 0xf8, 0xf3, 0xb7, 0xff, 0x4e, 0xdf, 0xc8, 0xf9, 0xdb,
  0xdf, 0x98, 0xee, 0x61, 0xe8, 0xe4, 0xec, 0xf4, 0xdc, 0xb6, 0xe5, 0x67,
  0xd1, 0xd2, 0xfd, 0xe2, 0xf7, 0xd9, 0xf2, 0x61, 0xd5, 0xe6, 0xf7, 0xfa,
  0xd1, 0xdc, 0xf6, 0x69, 0xcd, 0xe8, 0xf5, 0xed, 0xdf, 0xe6, 0xff, 0x7f,
  0x27, 0xf6, 0xe8, 0x15, 0x33, 0x5f, 0x31, 0xc8, 0x1e, 0x02, 0xdd, 0x1a,
  0x42, 0x5e, 0x3c, 0xdf, 0x2b, 0xed, 0xeb, 0xf8, 0x40, 0x6e, 0x1e, 0xf0,
  0x2d, 0x0e, 0xe3, 0xfc, 0x22, 0x7f, 0x3e, 0xe6, 0x2e, 0xf4, 0xc6, 0x14,
  0x37, 0x46, 0x27, 0xef, 0x23, 0x02, 0xe9, 0x13, 0x35, 0x63, 0x32, 0x08,
  0x33, 0xea, 0xdd, 0x22, 0x3c, 0x3e, 0x26, 0xed, 0x1c, 0xfd, 0xdc, 0x03,
  0x2a, 0x39, 0x2c, 0xf2, 0x39, 0xfd, 0xcb, 0x0b, 0x1e, 0x52, 0x12, 0xdd,
  0x02, 0xfc, 0xe4, 0xec, 0x04, 0x5a, 0xf7, 0xee, 0x04, 0xf4, 0xf6, 0x01,
  0x04, 0x50, 0xee, 0xeb, 0xef, 0x04, 0xe5, 0xff, 0xf7, 0x5f, 0xf1, 0xf9,
  0xef, 0xfb, 0xdc, 0xf2, 0xfd, 0x65, 0xfd, 0xf8, 0xef, 0xec, 0xf2, 0xe2,
  0xf1, 0x7f, 0xea, 0xed, 0xec, 0xee, 0xf5, 0xd9, 0xf3, 0x6b, 0x07, 0xed,
  0xf2, 0x01, 0xe4, 0xf9, 0x01, 0x5e, 0xf2, 0xfe, 0xe9, 0xf6, 0xef, 0xda,
  0xff, 0x70, 0x00, 0xf1, 0xe7, 0x03, 0xe2, 0xed, 0xf6, 0x61, 0xf0, 0xfb,
  0x0a, 0x62, 0x49, 0x34, 0xf9, 0xff, 0xf9, 0xbd, 0x16, 0x4a, 0x3a, 0x1b,
  0xea, 0x04, 0x01, 0xe3, 0x13, 0x76, 0x25, 0x1e, 0xf3, 0x14, 0xee, 0xea,
  0x05, 0x7f, 0x38, 0x1b, 0xfe, 0xf8, 0xe0, 0xdc, 0x28, 0x7d, 0x56, 0xfc,
  0xf6, 0x11, 0xf0, 0xeb, 0x05, 0x76, 0x2b, 0x1e, 0x09, 0x06, 0xdf, 0xe8,
  0x0a, 0x58, 0x43, 0x20, 0xf0, 0xf0, 0xf3, 0xcf, 0x22, 0x4d, 0x22, 0x1c,
  0xf5, 0xec, 0xfc, 0xcd, 0x18, 0x55, 0x2c, 0x0e, 0xfb, 0xfe, 0xf5, 0xd2,
  0xc3, 0xce, 0xc8, 0xe5, 0xe5, 0x56, 0xf9, 0xe3, 0xe6, 0xb9, 0xf8, 0xe0,
  0xe9, 0x49, 0xf6, 0xe8, 0xf1, 0xc2, 0xca, 0x04, 0xd3, 0x64, 0xe6, 0x0d,
  0xc0, 0xb8, 0xc9, 0xd8, 0xe8, 0x7e, 0xd8, 0xf0, 0xc7, 0xab, 0xc6, 0xcb,
  0xd2, 0x53, 0x01, 0xcc, 0xd7, 0x9e, 0xda, 0xf0, 0xd0, 0x5c, 0xe3, 0xe7,
  0xc6, 0xe0, 0xcc, 0xc3, 0xda, 0x70, 0xeb, 0xf8, 0xc2, 0xc2, 0xf7, 0xcc,
  0xf3, 0x64, 0xf2, 0x00, 0xc6, 0xdf, 0xff, 0xb5, 0xd9, 0x7f, 0xf2, 0xfc,
  0xbe, 0xd0, 0xff, 0xff, 0x04, 0x00, 0x00, 0x00, 0x20, 0x00, 0x00, 0x00,
  0x52, 0xf2, 0xff, 0xff, 0xd8, 0xc7, 0xff, 0xff, 0x5a, 0xb6, 0xff, 0xff,
  0x6d, 0x6d, 0x00, 0x00, 0x6f, 0xc5, 0xff, 0xff, 0x16, 0xfc, 0xff, 0xff,
  0x55, 0xf0, 0xff, 0xff, 0x4b, 0x74, 0x00, 0x00, 0xea, 0xd0, 0xff, 0xff,
  0x04, 0x00, 0x00, 0x00, 0x30, 0x00, 0x00, 0x00, 0xc6, 0x3e, 0x3a, 0x22,
  0x4f, 0xce, 0xf7, 0xd7, 0xf1, 0xe8, 0xe3, 0xd7, 0xc1, 0xc7, 0x97, 0x7f,
  0x93, 0xc3, 0xa4, 0x0a, 0x05, 0xd5, 0xc4, 0x33, 0xc3, 0xb5, 0xc6, 0xb0,
  0x06, 0x6d, 0xbb, 0x37, 0x26, 0x23, 0x43, 0x03, 0x58, 0xb1, 0xb9, 0xd1,
  0xdf, 0xd9, 0x58, 0xbf, 0xda, 0x09, 0x3d, 0xfd, 0x26, 0xd1, 0xff, 0xff,
  0x04, 0x00, 0x00, 0x00, 0x10, 0x00, 0x00, 0x00, 0xf1, 0xff, 0xff, 0xff,
  0x69, 0xff, 0xff, 0xff, 0x28, 0x01, 0x00, 0x00, 0x6a, 0x00, 0x00, 0x00,
  0x42, 0xd1, 0xff, 0xff, 0x04, 0x00, 0x00, 0x00, 0x08, 0x00, 0x00, 0x00,
  0x01, 0x00, 0x00, 0x00, 0x08, 0x00, 0x00, 0x00, 0xb4, 0xb5, 0xfe, 0xff,
  0x5a, 0xd1, 0xff, 0xff, 0x04, 0x00, 0x00, 0x00, 0x10, 0x00, 0x00, 0x00,
  0x01, 0x00, 0x00, 0x00, 0x01, 0x00, 0x00, 0x00, 0x10, 0x00, 0x00, 0x00,
  0x01, 0x00, 0x00, 0x00, 0x76, 0xd1, 0xff, 0xff, 0x04, 0x00, 0x00, 0x00,
  0x0c, 0x00, 0x00, 0x00, 0x01, 0x00, 0x00, 0x00, 0x10, 0x00, 0x00, 0x00,
  0x08, 0x00, 0x00, 0x00, 0x8e, 0xd1, 0xff, 0xff, 0x04, 0x00, 0x00, 0x00,
  0x10, 0x00, 0x00, 0x00, 0x01, 0x00, 0x00, 0x00, 0x01, 0x00, 0x00, 0x00,
  0x10, 0x00, 0x00, 0x00, 0x08, 0x00, 0x00, 0x00, 0xaa, 0xd1, 0xff, 0xff,
  0x04, 0x00, 0x00, 0x00, 0x0c, 0x00, 0x00, 0x00, 0x01, 0x00, 0x00, 0x00,
  0x10, 0x00, 0x00, 0x00, 0x01, 0x00, 0x00, 0x00, 0xc2, 0xd1, 0xff, 0xff,
  0x04, 0x00, 0x00, 0x00, 0x10, 0x00, 0x00, 0x00, 0x01, 0x00, 0x00, 0x00,
  0x01, 0x00, 0x00, 0x00, 0x90, 0x00, 0x00, 0x00, 0x01, 0x00, 0x00, 0x00,
  0xde, 0xd1, 0xff, 0xff, 0x04, 0x00, 0x00, 0x00, 0x18, 0x00, 0x00, 0x00,
  0x00, 0x00, 0x00, 0x00, 0x00, 0x00, 0x00, 0x00, 0x08, 0x00, 0x00, 0x00,
  0x08, 0x00, 0x00, 0x00, 0x00, 0x00, 0x00, 0x00, 0x00, 0x00, 0x00, 0x00,
  0x02, 0xd2, 0xff, 0xff, 0x04, 0x00, 0x00, 0x00, 0x10, 0x00, 0x00, 0x00,
  0x01, 0x00, 0x00, 0x00, 0x01, 0x00, 0x00, 0x00, 0x80, 0x00, 0x00, 0x00,
  0x08, 0x00, 0x00, 0x00, 0x1e, 0xd2, 0xff, 0xff, 0x04, 0x00, 0x00, 0x00,
  0x0c, 0x00, 0x00, 0x00, 0x01, 0x00, 0x00, 0x00, 0x80, 0x00, 0x00, 0x00,
  0x01, 0x00, 0x00, 0x00, 0x36, 0xd2, 0xff, 0xff, 0x04, 0x00, 0x00, 0x00,
  0x10, 0x00, 0x00, 0x00, 0x01, 0x00, 0x00, 0x00, 0x01, 0x00, 0x00, 0x00,
  0x80, 0x00, 0x00, 0x00, 0x01, 0x00, 0x00, 0x00, 0x52, 0xd2, 0xff, 0xff,
  0x04, 0x00, 0x00, 0x00, 0x04, 0x00, 0x00, 0x00, 0xff, 0xff, 0xff, 0xff,
  0x62, 0xd2, 0xff, 0xff, 0x04, 0x00, 0x00, 0x00, 0x0c, 0x00, 0x00, 0x00,
  0x01, 0x00, 0x00, 0x00, 0x80, 0x00, 0x00, 0x00, 0x08, 0x00, 0x00, 0x00,
  0x7a, 0xd2, 0xff, 0xff, 0x04, 0x00, 0x00, 0x00, 0x10, 0x00, 0x00, 0x00,
  0x01, 0x00, 0x00, 0x00, 0x01, 0x00, 0x00, 0x00, 0x38, 0x04, 0x00, 0x00,
  0x01, 0x00, 0x00, 0x00, 0x96, 0xd2, 0xff, 0xff, 0x04, 0x00, 0x00, 0x00,
  0x18, 0x00, 0x00, 0x00, 0x00, 0x00, 0x00, 0x00, 0x00, 0x00, 0x00, 0x00,
  0x1c, 0x00, 0x00, 0x00, 0x1c, 0x00, 0x00, 0x00, 0x00, 0x00, 0x00, 0x00,
  0x00, 0x00, 0x00, 0x00, 0xba, 0xd2, 0xff, 0xff, 0x04, 0x00, 0x00, 0x00,
  0x04, 0x00, 0x00, 0x00, 0x01, 0x00, 0x00, 0x00, 0x28, 0xb7, 0xfe, 0xff,
  0x2c, 0xb7, 0xfe, 0xff, 0x0f, 0x00, 0x00, 0x00, 0x4d, 0x4c, 0x49, 0x52,
  0x20, 0x43, 0x6f, 0x6e, 0x76, 0x65, 0x72, 0x74, 0x65, 0x64, 0x2e, 0x00,
  0x01, 0x00, 0x00, 0x00, 0x14, 0x00, 0x00, 0x00, 0x00, 0x00, 0x0e, 0x00,
  0x18, 0x00, 0x14, 0x00, 0x10, 0x00, 0x0c, 0x00, 0x08, 0x00, 0x04, 0x00,
  0x0e, 0x00, 0x00, 0x00, 0x14, 0x00, 0x00, 0x00, 0x1c, 0x00, 0x00, 0x00,
  0xc8, 0x30, 0x00, 0x00, 0xcc, 0x30, 0x00, 0x00, 0xd0, 0x30, 0x00, 0x00,
  0x04, 0x00, 0x00, 0x00, 0x6d, 0x61, 0x69, 0x6e, 0x00, 0x00, 0x00, 0x00,
  0xf6, 0x00, 0x00, 0x00, 0x90, 0x30, 0x00, 0x00, 0x60, 0x30, 0x00, 0x00,
  0x20, 0x30, 0x00, 0x00, 0xd0, 0x2f, 0x00, 0x00, 0x9c, 0x2f, 0x00, 0x00,
  0x68, 0x2f, 0x00, 0x00, 0x48, 0x2f, 0x00, 0x00, 0x14, 0x2f, 0x00, 0x00,
  0xf0, 0x2e, 0x00, 0x00, 0xbc, 0x2e, 0x00, 0x00, 0x98, 0x2e, 0x00, 0x00,
  0x64, 0x2e, 0x00, 0x00, 0x40, 0x2e, 0x00, 0x00, 0x1c, 0x2e, 0x00, 0x00,
  0xf8, 0x2d, 0x00, 0x00, 0xc4, 0x2d, 0x00, 0x00, 0xa0, 0x2d, 0x00, 0x00,
  0x6c, 0x2d, 0x00, 0x00, 0x44, 0x2d, 0x00, 0x00, 0xf0, 0x2c, 0x00, 0x00,
  0xc8, 0x2c, 0x00, 0x00, 0x6c, 0x2c, 0x00, 0x00, 0x44, 0x2c, 0x00, 0x00,
  0x04, 0x2c, 0x00, 0x00, 0xdc, 0x2b, 0x00, 0x00, 0xb4, 0x2b, 0x00, 0x00,
  0x74, 0x2b, 0x00, 0x00, 0x4c, 0x2b, 0x00, 0x00, 0x24, 0x2b, 0x00, 0x00,
  0xe4, 0x2a, 0x00, 0x00, 0xbc, 0x2a, 0x00, 0x00, 0x94, 0x2a, 0x00, 0x00,
  0x54, 0x2a, 0x00, 0x00, 0x2c, 0x2a, 0x00, 0x00, 0x04, 0x2a, 0x00, 0x00,
  0xc4, 0x29, 0x00, 0x00, 0x9c, 0x29, 0x00, 0x00, 0x74, 0x29, 0x00, 0x00,
  0x34, 0x29, 0x00, 0x00, 0x0c, 0x29, 0x00, 0x00, 0xe4, 0x28, 0x00, 0x00,
  0xa4, 0x28, 0x00, 0x00, 0x7c, 0x28, 0x00, 0x00, 0x54, 0x28, 0x00, 0x00,
  0x14, 0x28, 0x00, 0x00, 0xec, 0x27, 0x00, 0x00, 0x9c, 0x27, 0x00, 0x00,
  0x64, 0x27, 0x00, 0x00, 0x3c, 0x27, 0x00, 0x00, 0xfc, 0x26, 0x00, 0x00,
  0xc4, 0x26, 0x00, 0x00, 0x9c, 0x26, 0x00, 0x00, 0x48, 0x26, 0x00, 0x00,
  0x20, 0x26, 0x00, 0x00, 0xe0, 0x25, 0x00, 0x00, 0xb8, 0x25, 0x00, 0x00,
  0x90, 0x25, 0x00, 0x00, 0x50, 0x25, 0x00, 0x00, 0x28, 0x25, 0x00, 0x00,
  0x00, 0x25, 0x00, 0x00, 0xc0, 0x24, 0x00, 0x00, 0x98, 0x24, 0x00, 0x00,
  0x70, 0x24, 0x00, 0x00, 0x30, 0x24, 0x00, 0x00, 0x08, 0x24, 0x00, 0x00,
  0xe0, 0x23, 0x00, 0x00, 0xa0, 0x23, 0x00, 0x00, 0x78, 0x23, 0x00, 0x00,
  0x50, 0x23, 0x00, 0x00, 0x10, 0x23, 0x00, 0x00, 0xe8, 0x22, 0x00, 0x00,
  0xc0, 0x22, 0x00, 0x00, 0x80, 0x22, 0x00, 0x00, 0x58, 0x22, 0x00, 0x00,
  0x30, 0x22, 0x00, 0x00, 0xf0, 0x21, 0x00, 0x00, 0xc8, 0x21, 0x00, 0x00,
  0x78, 0x21, 0x00, 0x00, 0x40, 0x21, 0x00, 0x00, 0x18, 0x21, 0x00, 0x00,
  0xd8, 0x20, 0x00, 0x00, 0xa0, 0x20, 0x00, 0x00, 0x78, 0x20, 0x00, 0x00,
  0x24, 0x20, 0x00, 0x00, 0xfc, 0x1f, 0x00, 0x00, 0xbc, 0x1f, 0x00, 0x00,
  0x94, 0x1f, 0x00, 0x00, 0x6c, 0x1f, 0x00, 0x00, 0x2c, 0x1f, 0x00, 0x00,
  0x04, 0x1f, 0x00, 0x00, 0xdc, 0x1e, 0x00, 0x00, 0x9c, 0x1e, 0x00, 0x00,
  0x74, 0x1e, 0x00, 0x00, 0x4c, 0x1e, 0x00, 0x00, 0x0c, 0x1e, 0x00, 0x00,
  0xe4, 0x1d, 0x00, 0x00, 0xbc, 0x1d, 0x00, 0x00, 0x7c, 0x1d, 0x00, 0x00,
  0x54, 0x1d, 0x00, 0x00, 0x2c, 0x1d, 0x00, 0x00, 0xec, 0x1c, 0x00, 0x00,
  0xc4, 0x1c, 0x00, 0x00, 0x9c, 0x1c, 0x00, 0x00, 0x5c, 0x1c, 0x00, 0x00,
  0x34, 0x1c, 0x00, 0x00, 0x0c, 0x1c, 0x00, 0x00, 0xcc, 0x1b, 0x00, 0x00,
  0xa4, 0x1b, 0x00, 0x00, 0x54, 0x1b, 0x00, 0x00, 0x1c, 0x1b, 0x00, 0x00,
  0xf4, 0x1a, 0x00, 0x00, 0xb4, 0x1a, 0x00, 0x00, 0x7c, 0x1a, 0x00, 0x00,
  0x54, 0x1a, 0x00, 0x00, 0x20, 0x1a, 0x00, 0x00, 0xcc, 0x19, 0x00, 0x00,
  0xa4, 0x19, 0x00, 0x00, 0x54, 0x19, 0x00, 0x00, 0x2c, 0x19, 0x00, 0x00,
  0x04, 0x19, 0x00, 0x00, 0xc0, 0x18, 0x00, 0x00, 0x98, 0x18, 0x00, 0x00,
  0x70, 0x18, 0x00, 0x00, 0x2c, 0x18, 0x00, 0x00, 0x04, 0x18, 0x00, 0x00,
  0xdc, 0x17, 0x00, 0x00, 0x98, 0x17, 0x00, 0x00, 0x70, 0x17, 0x00, 0x00,
  0x48, 0x17, 0x00, 0x00, 0x04, 0x17, 0x00, 0x00, 0xdc, 0x16, 0x00, 0x00,
  0xb4, 0x16, 0x00, 0x00, 0x70, 0x16, 0x00, 0x00, 0x48, 0x16, 0x00, 0x00,
  0x20, 0x16, 0x00, 0x00, 0xdc, 0x15, 0x00, 0x00, 0xb4, 0x15, 0x00, 0x00,
  0x8c, 0x15, 0x00, 0x00, 0x48, 0x15, 0x00, 0x00, 0x20, 0x15, 0x00, 0x00,
  0xd0, 0x14, 0x00, 0x00, 0x98, 0x14, 0x00, 0x00, 0x70, 0x14, 0x00, 0x00,
  0x20, 0x14, 0x00, 0x00, 0xf8, 0x13, 0x00, 0x00, 0xa4, 0x13, 0x00, 0x00,
  0x7c, 0x13, 0x00, 0x00, 0x3c, 0x13, 0x00, 0x00, 0x14, 0x13, 0x00, 0x00,
  0xec, 0x12, 0x00, 0x00, 0xac, 0x12, 0x00, 0x00, 0x84, 0x12, 0x00, 0x00,
  0x5c, 0x12, 0x00, 0x00, 0x1c, 0x12, 0x00, 0x00, 0xf4, 0x11, 0x00, 0x00,
  0xcc, 0x11, 0x00, 0x00, 0x8c, 0x11, 0x00, 0x00, 0x64, 0x11, 0x00, 0x00,
  0x3c, 0x11, 0x00, 0x00, 0xfc, 0x10, 0x00, 0x00, 0xd4, 0x10, 0x00, 0x00,
  0xac, 0x10, 0x00, 0x00, 0x6c, 0x10, 0x00, 0x00, 0x44, 0x10, 0x00, 0x00,
  0x1c, 0x10, 0x00, 0x00, 0xdc, 0x0f, 0x00, 0x00, 0xb4, 0x0f, 0x00, 0x00,
  0x8c, 0x0f, 0x00, 0x00, 0x4c, 0x0f, 0x00, 0x00, 0x24, 0x0f, 0x00, 0x00,
  0xd4, 0x0e, 0x00, 0x00, 0x9c, 0x0e, 0x00, 0x00, 0x74, 0x0e, 0x00, 0x00,
  0x34, 0x0e, 0x00, 0x00, 0xfc, 0x0d, 0x00, 0x00, 0xd4, 0x0d, 0x00, 0x00,
  0x80, 0x0d, 0x00, 0x00, 0x58, 0x0d, 0x00, 0x00, 0x18, 0x0d, 0x00, 0x00,
  0xf0, 0x0c, 0x00, 0x00, 0xc8, 0x0c, 0x00, 0x00, 0x88, 0x0c, 0x00, 0x00,
  0x60, 0x0c, 0x00, 0x00, 0x38, 0x0c, 0x00, 0x00, 0xf8, 0x0b, 0x00, 0x00,
  0xd0, 0x0b, 0x00, 0x00, 0xa8, 0x0b, 0x00, 0x00, 0x68, 0x0b, 0x00, 0x00,
  0x40, 0x0b, 0x00, 0x00, 0x18, 0x0b, 0x00, 0x00, 0xd8, 0x0a, 0x00, 0x00,
  0xb0, 0x0a, 0x00, 0x00, 0x88, 0x0a, 0x00, 0x00, 0x48, 0x0a, 0x00, 0x00,
  0x20, 0x0a, 0x00, 0x00, 0xf8, 0x09, 0x00, 0x00, 0xb8, 0x09, 0x00, 0x00,
  0x90, 0x09, 0x00, 0x00, 0x68, 0x09, 0x00, 0x00, 0x28, 0x09, 0x00, 0x00,
  0x00, 0x09, 0x00, 0x00, 0xb0, 0x08, 0x00, 0x00, 0x78, 0x08, 0x00, 0x00,
  0x50, 0x08, 0x00, 0x00, 0x10, 0x08, 0x00, 0x00, 0xd8, 0x07, 0x00, 0x00,
  0xb0, 0x07, 0x00, 0x00, 0x5c, 0x07, 0x00, 0x00, 0x34, 0x07, 0x00, 0x00,
  0xf4, 0x06, 0x00, 0x00, 0xcc, 0x06, 0x00, 0x00, 0xa4, 0x06, 0x00, 0x00,
  0x64, 0x06, 0x00, 0x00, 0x3c, 0x06, 0x00, 0x00, 0x14, 0x06, 0x00, 0x00,
  0xd4, 0x05, 0x00, 0x00, 0xac, 0x05, 0x00, 0x00, 0x84, 0x05, 0x00, 0x00,
  0x44, 0x05, 0x00, 0x00, 0x1c, 0x05, 0x00, 0x00, 0xf4, 0x04, 0x00, 0x00,
  0xb4, 0x04, 0x00, 0x00, 0x8c, 0x04, 0x00, 0x00, 0x64, 0x04, 0x00, 0x00,
  0x24, 0x04, 0x00, 0x00, 0xfc, 0x03, 0x00, 0x00, 0xd4, 0x03, 0x00, 0x00,
  0x94, 0x03, 0x00, 0x00, 0x6c, 0x03, 0x00, 0x00, 0x44, 0x03, 0x00, 0x00,
  0x04, 0x03, 0x00, 0x00, 0xdc, 0x02, 0x00, 0x00, 0x8c, 0x02, 0x00, 0x00,
  0x54, 0x02, 0x00, 0x00, 0x2c, 0x02, 0x00, 0x00, 0xec, 0x01, 0x00, 0x00,
  0xb4, 0x01, 0x00, 0x00, 0x70, 0x01, 0x00, 0x00, 0x48, 0x01, 0x00, 0x00,
  0x10, 0x01, 0x00, 0x00, 0xe8, 0x00, 0x00, 0x00, 0xc4, 0x00, 0x00, 0x00,
  0x80, 0x00, 0x00, 0x00, 0x60, 0x00, 0x00, 0x00, 0x28, 0x00, 0x00, 0x00,
  0x04, 0x00, 0x00, 0x00, 0x7e, 0xd3, 0xff, 0xff, 0x0c, 0x00, 0x00, 0x00,
  0x10, 0x00, 0x00, 0x00, 0x04, 0x00, 0x00, 0x00, 0x01, 0x00, 0x00, 0x00,
  0xc2, 0x01, 0x00, 0x00, 0x01, 0x00, 0x00, 0x00, 0xc1, 0x01, 0x00, 0x00,
  0xde, 0xd3, 0xff, 0xff, 0x14, 0x00, 0x00, 0x00, 0x00, 0x00, 0x00, 0x08,
  0x10, 0x00, 0x00, 0x00, 0x14, 0x00, 0x00, 0x00, 0x0f, 0x00, 0x00, 0x00,
  0x94, 0xbb, 0xfe, 0xff, 0x01, 0x00, 0x00, 0x00, 0xc1, 0x01, 0x00, 0x00,
  0x03, 0x00, 0x00, 0x00, 0xc0, 0x01, 0x00, 0x00, 0x12, 0x00, 0x00, 0x00,
  0x11, 0x00, 0x00, 0x00, 0xa6, 0xd3, 0xff, 0xff, 0x08, 0x00, 0x00, 0x00,
  0x0c, 0x00, 0x00, 0x00, 0x01, 0x00, 0x00, 0x00, 0xc0, 0x01, 0x00, 0x00,
  0x01, 0x00, 0x00, 0x00, 0xbf, 0x01, 0x00, 0x00, 0x2e, 0xd4, 0xff, 0xff,
  0x14, 0x00, 0x00, 0x00, 0x00, 0x00, 0x00, 0x0a, 0x14, 0x00, 0x00, 0x00,
  0x18, 0x00, 0x00, 0x00, 0x0d, 0x00, 0x00, 0x00, 0x86, 0xd7, 0xff, 0xff,
  0x01, 0x00, 0x00, 0x00, 0x01, 0x00, 0x00, 0x00, 0xbf, 0x01, 0x00, 0x00,
  0x05, 0x00, 0x00, 0x00, 0xbe, 0x01, 0x00, 0x00, 0xa6, 0x00, 0x00, 0x00,
  0xa4, 0x00, 0x00, 0x00, 0xa9, 0x00, 0x00, 0x00, 0xac, 0x00, 0x00, 0x00,
  0x2e, 0xd4, 0xff, 0xff, 0x0c, 0x00, 0x00, 0x00, 0x10, 0x00, 0x00, 0x00,
  0x04, 0x00, 0x00, 0x00, 0x01, 0x00, 0x00, 0x00, 0xbe, 0x01, 0x00, 0x00,
  0x01, 0x00, 0x00, 0x00, 0xbd, 0x01, 0x00, 0x00, 0x4e, 0xd4, 0xff, 0xff,
  0x0c, 0x00, 0x00, 0x00, 0x10, 0x00, 0x00, 0x00, 0x0a, 0x00, 0x00, 0x00,
  0x01, 0x00, 0x00, 0x00, 0xbd, 0x01, 0x00, 0x00, 0x02, 0x00, 0x00, 0x00,
  0xbc, 0x01, 0x00, 0x00, 0x10, 0x00, 0x00, 0x00, 0xb2, 0xd4, 0xff, 0xff,
  0x14, 0x00, 0x00, 0x00, 0x00, 0x00, 0x00, 0x1b, 0x14, 0x00, 0x00, 0x00,
  0x18, 0x00, 0x00, 0x00, 0x06, 0x00, 0x00, 0x00, 0xee, 0xd4, 0xff, 0xff,
  0x00, 0x00, 0x00, 0x01, 0x01, 0x00, 0x00, 0x00, 0xbc, 0x01, 0x00, 0x00,
  0x02, 0x00, 0x00, 0x00, 0xbb, 0x01, 0x00, 0x00, 0x0f, 0x00, 0x00, 0x00,
  0xa6, 0xd4, 0xff, 0xff, 0x0c, 0x00, 0x00, 0x00, 0x10, 0x00, 0x00, 0x00,
  0x0a, 0x00, 0x00, 0x00, 0x01, 0x00, 0x00, 0x00, 0xbb, 0x01, 0x00, 0x00,
  0x02, 0x00, 0x00, 0x00, 0xba, 0x01, 0x00, 0x00, 0x0d, 0x00, 0x00, 0x00,
  0x0a, 0xd5, 0xff, 0xff, 0x14, 0x00, 0x00, 0x00, 0x00, 0x00, 0x00, 0x01,
  0x1c, 0x00, 0x00, 0x00, 0x20, 0x00, 0x00, 0x00, 0x0b, 0x00, 0x00, 0x00,
  0xc8, 0xee, 0xff, 0xff, 0x00, 0x00, 0x00, 0x01, 0x01, 0x00, 0x00, 0x00,
  0x01, 0x00, 0x00, 0x00, 0x01, 0x00, 0x00, 0x00, 0xba, 0x01, 0x00, 0x00,
  0x03, 0x00, 0x00, 0x00, 0xb9, 0x01, 0x00, 0x00, 0x14, 0x00, 0x00, 0x00,
  0x13, 0x00, 0x00, 0x00, 0x4a, 0xd5, 0xff, 0xff, 0x14, 0x00, 0x00, 0x00,
  0x00, 0x00, 0x00, 0x0b, 0x14, 0x00, 0x00, 0x00, 0x18, 0x00, 0x00, 0x00,
  0x0e, 0x00, 0x00, 0x00, 0x86, 0xd5, 0xff, 0xff, 0x00, 0x00, 0x00, 0x01,
  0x01, 0x00, 0x00, 0x00, 0xb9, 0x01, 0x00, 0x00, 0x02, 0x00, 0x00, 0x00,
  0x93, 0x01, 0x00, 0x00, 0xb8, 0x01, 0x00, 0x00, 0x7e, 0xd5, 0xff, 0xff,
  0x14, 0x00, 0x00, 0x00, 0x00, 0x00, 0x00, 0x01, 0x18, 0x00, 0x00, 0x00,
  0x1c, 0x00, 0x00, 0x00, 0x0b, 0x00, 0x00, 0x00, 0x2a, 0xd5, 0xff, 0xff,
  0x01, 0x00, 0x00, 0x00, 0x01, 0x00, 0x00, 0x00, 0x01, 0x00, 0x00, 0x00,
  0xb8, 0x01, 0x00, 0x00, 0x03, 0x00, 0x00, 0x00, 0xb7, 0x01, 0x00, 0x00,
  0x16, 0x00, 0x00, 0x00, 0x15, 0x00, 0x00, 0x00, 0x7a, 0xd5, 0xff, 0xff,
  0x0c, 0x00, 0x00, 0x00, 0x10, 0x00, 0x00, 0x00, 0x0a, 0x00, 0x00, 0x00,
  0x01, 0x00, 0x00, 0x00, 0xb7, 0x01, 0x00, 0x00, 0x02, 0x00, 0x00, 0x00,
  0xb6, 0x01, 0x00, 0x00, 0x0c, 0x00, 0x00, 0x00, 0xde, 0xd5, 0xff, 0xff,
  0x14, 0x00, 0x00, 0x00, 0x00, 0x00, 0x00, 0x0b, 0x14, 0x00, 0x00, 0x00,
  0x18, 0x00, 0x00, 0x00, 0x0e, 0x00, 0x00, 0x00, 0x1a, 0xd6, 0xff, 0xff,
  0x00, 0x00, 0x00, 0x01, 0x01, 0x00, 0x00, 0x00, 0xb6, 0x01, 0x00, 0x00,
  0x02, 0x00, 0x00, 0x00, 0xb5, 0x01, 0x00, 0x00, 0x17, 0x00, 0x00, 0x00,
  0x12, 0xd6, 0xff, 0xff, 0x14, 0x00, 0x00, 0x00, 0x00, 0x00, 0x00, 0x0a,
  0x14, 0x00, 0x00, 0x00, 0x18, 0x00, 0x00, 0x00, 0x0d, 0x00, 0x00, 0x00,
  0x6a, 0xd9, 0xff, 0xff, 0xff, 0xff, 0xff, 0xff, 0x01, 0x00, 0x00, 0x00,
  0xb5, 0x01, 0x00, 0x00, 0x08, 0x00, 0x00, 0x00, 0x9f, 0x01, 0x00, 0x00,
  0xa2, 0x01, 0x00, 0x00, 0xa5, 0x01, 0x00, 0x00, 0xa8, 0x01, 0x00, 0x00,
  0xab, 0x01, 0x00, 0x00, 0xae, 0x01, 0x00, 0x00, 0xb1, 0x01, 0x00, 0x00,
  0xb4, 0x01, 0x00, 0x00, 0x1e, 0xd6, 0xff, 0xff, 0x0c, 0x00, 0x00, 0x00,
  0x10, 0x00, 0x00, 0x00, 0x0a, 0x00, 0x00, 0x00, 0x01, 0x00, 0x00, 0x00,
  0xb4, 0x01, 0x00, 0x00, 0x02, 0x00, 0x00, 0x00, 0xb3, 0x01, 0x00, 0x00,
  0x0b, 0x00, 0x00, 0x00, 0x82, 0xd6, 0xff, 0xff, 0x14, 0x00, 0x00, 0x00,
  0x00, 0x00, 0x00, 0x01, 0x18, 0x00, 0x00, 0x00, 0x1c, 0x00, 0x00, 0x00,
  0x0b, 0x00, 0x00, 0x00, 0x2e, 0xd6, 0xff, 0xff, 0x01, 0x00, 0x00, 0x00,
  0x01, 0x00, 0x00, 0x00, 0x01, 0x00, 0x00, 0x00, 0xb3, 0x01, 0x00, 0x00,
  0x03, 0x00, 0x00, 0x00, 0xb2, 0x01, 0x00, 0x00, 0x18, 0x00, 0x00, 0x00,
  0x98, 0x00, 0x00, 0x00, 0x7e, 0xd6, 0xff, 0xff, 0x0c, 0x00, 0x00, 0x00,
  0x10, 0x00, 0x00, 0x00, 0x0a, 0x00, 0x00, 0x00, 0x01, 0x00, 0x00, 0x00,
  0xb2, 0x01, 0x00, 0x00, 0x02, 0x00, 0x00, 0x00, 0x9c, 0x01, 0x00, 0x00,
  0x0e, 0x00, 0x00, 0x00, 0xa2, 0xd6, 0xff, 0xff, 0x0c, 0x00, 0x00, 0x00,
  0x10, 0x00, 0x00, 0x00, 0x0a, 0x00, 0x00, 0x00, 0x01, 0x00, 0x00, 0x00,
  0xb1, 0x01, 0x00, 0x00, 0x02, 0x00, 0x00, 0x00, 0xb0, 0x01, 0x00, 0x00,
  0x0b, 0x00, 0x00, 0x00, 0x06, 0xd7, 0xff, 0xff, 0x14, 0x00, 0x00, 0x00,
  0x00, 0x00, 0x00, 0x01, 0x18, 0x00, 0x00, 0x00, 0x1c, 0x00, 0x00, 0x00,
  0x0b, 0x00, 0x00, 0x00, 0xb2, 0xd6, 0xff, 0xff, 0x01, 0x00, 0x00, 0x00,
  0x01, 0x00, 0x00, 0x00, 0x01, 0x00, 0x00, 0x00, 0xb0, 0x01, 0x00, 0x00,
  0x03, 0x00, 0x00, 0x00, 0xaf, 0x01, 0x00, 0x00, 0x19, 0x00, 0x00, 0x00,
  0x97, 0x00, 0x00, 0x00, 0x02, 0xd7, 0xff, 0xff, 0x0c, 0x00, 0x00, 0x00,
  0x10, 0x00, 0x00, 0x00, 0x0a, 0x00, 0x00, 0x00, 0x01, 0x00, 0x00, 0x00,
  0xaf, 0x01, 0x00, 0x00, 0x02, 0x00, 0x00, 0x00, 0x9b, 0x01, 0x00, 0x00,
  0x0e, 0x00, 0x00, 0x00, 0x26, 0xd7, 0xff, 0xff, 0x0c, 0x00, 0x00, 0x00,
  0x10, 0x00, 0x00, 0x00, 0x0a, 0x00, 0x00, 0x00, 0x01, 0x00, 0x00, 0x00,
  0xae, 0x01, 0x00, 0x00, 0x02, 0x00, 0x00, 0x00, 0xad, 0x01, 0x00, 0x00,
  0x0b, 0x00, 0x00, 0x00, 0x8a, 0xd7, 0xff, 0xff, 0x14, 0x00, 0x00, 0x00,
  0x00, 0x00, 0x00, 0x01, 0x18, 0x00, 0x00, 0x00, 0x1c, 0x00, 0x00, 0x00,
  0x0b, 0x00, 0x00, 0x00, 0x36, 0xd7, 0xff, 0xff, 0x01, 0x00, 0x00, 0x00,
  0x01, 0x00, 0x00, 0x00, 0x01, 0x00, 0x00, 0x00, 0xad, 0x01, 0x00, 0x00,
  0x03, 0x00, 0x00, 0x00, 0xac, 0x01, 0x00, 0x00, 0x1a, 0x00, 0x00, 0x00,
  0x96, 0x00, 0x00, 0x00, 0x86, 0xd7, 0xff, 0xff, 0x0c, 0x00, 0x00, 0x00,
  0x10, 0x00, 0x00, 0x00, 0x0a, 0x00, 0x00, 0x00, 0x01, 0x00, 0x00, 0x00,
  0xac, 0x01, 0x00, 0x00, 0x02, 0x00, 0x00, 0x00, 0x9a, 0x01, 0x00, 0x00,
  0x0e, 0x00, 0x00, 0x00, 0xaa, 0xd7, 0xff, 0xff, 0x0c, 0x00, 0x00, 0x00,
  0x10, 0x00, 0x00, 0x00, 0x0a, 0x00, 0x00, 0x00, 0x01, 0x00, 0x00, 0x00,
  0xab, 0x01, 0x00, 0x00, 0x02, 0x00, 0x00, 0x00, 0xaa, 0x01, 0x00, 0x00,
  0x0b, 0x00, 0x00, 0x00, 0x0e, 0xd8, 0xff, 0xff, 0x14, 0x00, 0x00, 0x00,
  0x00, 0x00, 0x00, 0x01, 0x18, 0x00, 0x00, 0x00, 0x1c, 0x00, 0x00, 0x00,
  0x0b, 0x00, 0x00, 0x00, 0xba, 0xd7, 0xff, 0xff, 0x01, 0x00, 0x00, 0x00,
  0x01, 0x00, 0x00, 0x00, 0x01, 0x00, 0x00, 0x00, 0xaa, 0x01, 0x00, 0x00,
  0x03, 0x00, 0x00, 0x00, 0xa9, 0x01, 0x00, 0x00, 0x1b, 0x00, 0x00, 0x00,
  0x95, 0x00, 0x00, 0x00, 0x0a, 0xd8, 0xff, 0xff, 0x0c, 0x00, 0x00, 0x00,
  0x10, 0x00, 0x00, 0x00, 0x0a, 0x00, 0x00, 0x00, 0x01, 0x00, 0x00, 0x00,
  0xa9, 0x01, 0x00, 0x00, 0x02, 0x00, 0x00, 0x00, 0x99, 0x01, 0x00, 0x00,
  0x0e, 0x00, 0x00, 0x00, 0x2e, 0xd8, 0xff, 0xff, 0x0c, 0x00, 0x00, 0x00,
  0x10, 0x00, 0x00, 0x00, 0x0a, 0x00, 0x00, 0x00, 0x01, 0x00, 0x00, 0x00,
  0xa8, 0x01, 0x00, 0x00, 0x02, 0x00, 0x00, 0x00, 0xa7, 0x01, 0x00, 0x00,
  0x0b, 0x00, 0x00, 0x00, 0x92, 0xd8, 0xff, 0xff, 0x14, 0x00, 0x00, 0x00,
  0x00, 0x00, 0x00, 0x01, 0x18, 0x00, 0x00, 0x00, 0x1c, 0x00, 0x00, 0x00,
  0x0b, 0x00, 0x00, 0x00, 0x3e, 0xd8, 0xff, 0xff, 0x01, 0x00, 0x00, 0x00,
  0x01, 0x00, 0x00, 0x00, 0x01, 0x00, 0x00, 0x00, 0xa7, 0x01, 0x00, 0x00,
  0x03, 0x00, 0x00, 0x00, 0xa6, 0x01, 0x00, 0x00, 0x1c, 0x00, 0x00, 0x00,
  0x94, 0x00, 0x00, 0x00, 0x8e, 0xd8, 0xff, 0xff, 0x0c, 0x00, 0x00, 0x00,
  0x10, 0x00, 0x00, 0x00, 0x0a, 0x00, 0x00, 0x00, 0x01, 0x00, 0x00, 0x00,
  0xa6, 0x01, 0x00, 0x00, 0x02, 0x00, 0x00, 0x00, 0x98, 0x01, 0x00, 0x00,
  0x0e, 0x00, 0x00, 0x00, 0xb2, 0xd8, 0xff, 0xff, 0x0c, 0x00, 0x00, 0x00,
  0x10, 0x00, 0x00, 0x00, 0x0a, 0x00, 0x00, 0x00, 0x01, 0x00, 0x00, 0x00,
  0xa5, 0x01, 0x00, 0x00, 0x02, 0x00, 0x00, 0x00, 0xa4, 0x01, 0x00, 0x00,
  0x0b, 0x00, 0x00, 0x00, 0x16, 0xd9, 0xff, 0xff, 0x14, 0x00, 0x00, 0x00,
  0x00, 0x00, 0x00, 0x01, 0x18, 0x00, 0x00, 0x00, 0x1c, 0x00, 0x00, 0x00,
  0x0b, 0x00, 0x00, 0x00, 0xc2, 0xd8, 0xff, 0xff, 0x01, 0x00, 0x00, 0x00,
  0x01, 0x00, 0x00, 0x00, 0x01, 0x00, 0x00, 0x00, 0xa4, 0x01, 0x00, 0x00,
  0x03, 0x00, 0x00, 0x00, 0xa3, 0x01, 0x00, 0x00, 0x1d, 0x00, 0x00, 0x00,
  0x93, 0x00, 0x00, 0x00, 0x12, 0xd9, 0xff, 0xff, 0x0c, 0x00, 0x00, 0x00,
  0x10, 0x00, 0x00, 0x00, 0x0a, 0x00, 0x00, 0x00, 0x01, 0x00, 0x00, 0x00,
  0xa3, 0x01, 0x00, 0x00, 0x02, 0x00, 0x00, 0x00, 0x97, 0x01, 0x00, 0x00,
  0x0e, 0x00, 0x00, 0x00, 0x36, 0xd9, 0xff, 0xff, 0x0c, 0x00, 0x00, 0x00,
  0x10, 0x00, 0x00, 0x00, 0x0a, 0x00, 0x00, 0x00, 0x01, 0x00, 0x00, 0x00,
  0xa2, 0x01, 0x00, 0x00, 0x02, 0x00, 0x00, 0x00, 0xa1, 0x01, 0x00, 0x00,
  0x0b, 0x00, 0x00, 0x00, 0x9a, 0xd9, 0xff, 0xff, 0x14, 0x00, 0x00, 0x00,
  0x00, 0x00, 0x00, 0x01, 0x18, 0x00, 0x00, 0x00, 0x1c, 0x00, 0x00, 0x00,
  0x0b, 0x00, 0x00, 0x00, 0x46, 0xd9, 0xff, 0xff, 0x01, 0x00, 0x00, 0x00,
  0x01, 0x00, 0x00, 0x00, 0x01, 0x00, 0x00, 0x00, 0xa1, 0x01, 0x00, 0x00,
  0x03, 0x00, 0x00, 0x00, 0xa0, 0x01, 0x00, 0x00, 0x1e, 0x00, 0x00, 0x00,
  0x92, 0x00, 0x00, 0x00, 0x96, 0xd9, 0xff, 0xff, 0x0c, 0x00, 0x00, 0x00,
  0x10, 0x00, 0x00, 0x00, 0x0a, 0x00, 0x00, 0x00, 0x01, 0x00, 0x00, 0x00,
  0xa0, 0x01, 0x00, 0x00, 0x02, 0x00, 0x00, 0x00, 0x96, 0x01, 0x00, 0x00,
  0x0e, 0x00, 0x00, 0x00, 0xba, 0xd9, 0xff, 0xff, 0x0c, 0x00, 0x00, 0x00,
  0x10, 0x00, 0x00, 0x00, 0x0a, 0x00, 0x00, 0x00, 0x01, 0x00, 0x00, 0x00,
  0x9f, 0x01, 0x00, 0x00, 0x02, 0x00, 0x00, 0x00, 0x9e, 0x01, 0x00, 0x00,
  0x0b, 0x00, 0x00, 0x00, 0x1e, 0xda, 0xff, 0xff, 0x14, 0x00, 0x00, 0x00,
  0x00, 0x00, 0x00, 0x01, 0x18, 0x00, 0x00, 0x00, 0x1c, 0x00, 0x00, 0x00,
  0x0b, 0x00, 0x00, 0x00, 0xca, 0xd9, 0xff, 0xff, 0x01, 0x00, 0x00, 0x00,
  0x01, 0x00, 0x00, 0x00, 0x01, 0x00, 0x00, 0x00, 0x9e, 0x01, 0x00, 0x00,
  0x03, 0x00, 0x00, 0x00, 0x9d, 0x01, 0x00, 0x00, 0x1f, 0x00, 0x00, 0x00,
  0x91, 0x00, 0x00, 0x00, 0x1a, 0xda, 0xff, 0xff, 0x0c, 0x00, 0x00, 0x00,
  0x10, 0x00, 0x00, 0x00, 0x0a, 0x00, 0x00, 0x00, 0x01, 0x00, 0x00, 0x00,
  0x9d, 0x01, 0x00, 0x00, 0x02, 0x00, 0x00, 0x00, 0x95, 0x01, 0x00, 0x00,
  0x0e, 0x00, 0x00, 0x00, 0x7e, 0xda, 0xff, 0xff, 0x14, 0x00, 0x00, 0x00,
  0x00, 0x00, 0x00, 0x23, 0x14, 0x00, 0x00, 0x00, 0x34, 0x00, 0x00, 0x00,
  0x0c, 0x00, 0x00, 0x00, 0xd6, 0xdd, 0xff, 0xff, 0x08, 0x00, 0x00, 0x00,
  0x08, 0x00, 0x00, 0x00, 0x95, 0x01, 0x00, 0x00, 0x96, 0x01, 0x00, 0x00,
  0x97, 0x01, 0x00, 0x00, 0x98, 0x01, 0x00, 0x00, 0x99, 0x01, 0x00, 0x00,
  0x9a, 0x01, 0x00, 0x00, 0x9b, 0x01, 0x00, 0x00, 0x9c, 0x01, 0x00, 0x00,
  0x02, 0x00, 0x00, 0x00, 0x05, 0x00, 0x00, 0x00, 0x94, 0x01, 0x00, 0x00,
  0x8e, 0xda, 0xff, 0xff, 0x0c, 0x00, 0x00, 0x00, 0x10, 0x00, 0x00, 0x00,
  0x0a, 0x00, 0x00, 0x00, 0x01, 0x00, 0x00, 0x00, 0x94, 0x01, 0x00, 0x00,
  0x02, 0x00, 0x00, 0x00, 0x93, 0x01, 0x00, 0x00, 0x0d, 0x00, 0x00, 0x00,
  0xf2, 0xda, 0xff, 0xff, 0x14, 0x00, 0x00, 0x00, 0x00, 0x00, 0x00, 0x0b,
  0x14, 0x00, 0x00, 0x00, 0x18, 0x00, 0x00, 0x00, 0x0e, 0x00, 0x00, 0x00,
  0x2e, 0xdb, 0xff, 0xff, 0x00, 0x00, 0x00, 0x01, 0x01, 0x00, 0x00, 0x00,
  0x93, 0x01, 0x00, 0x00, 0x02, 0x00, 0x00, 0x00, 0x6d, 0x01, 0x00, 0x00,
  0x92, 0x01, 0x00, 0x00, 0x26, 0xdb, 0xff, 0xff, 0x14, 0x00, 0x00, 0x00,
  0x00, 0x00, 0x00, 0x01, 0x18, 0x00, 0x00, 0x00, 0x1c, 0x00, 0x00, 0x00,
  0x0b, 0x00, 0x00, 0x00, 0xd2, 0xda, 0xff, 0xff, 0x01, 0x00, 0x00, 0x00,
  0x01, 0x00, 0x00, 0x00, 0x01, 0x00, 0x00, 0x00, 0x92, 0x01, 0x00, 0x00,
  0x03, 0x00, 0x00, 0x00, 0x91, 0x01, 0x00, 0x00, 0x21, 0x00, 0x00, 0x00,
  0x20, 0x00, 0x00, 0x00, 0x22, 0xdb, 0xff, 0xff, 0x0c, 0x00, 0x00, 0x00,
  0x10, 0x00, 0x00, 0x00, 0x0a, 0x00, 0x00, 0x00, 0x01, 0x00, 0x00, 0x00,
  0x91, 0x01, 0x00, 0x00, 0x02, 0x00, 0x00, 0x00, 0x90, 0x01, 0x00, 0x00,
  0x0c, 0x00, 0x00, 0x00, 0x86, 0xdb, 0xff, 0xff, 0x14, 0x00, 0x00, 0x00,
  0x00, 0x00, 0x00, 0x0b, 0x14, 0x00, 0x00, 0x00, 0x18, 0x00, 0x00, 0x00,
  0x0e, 0x00, 0x00, 0x00, 0xc2, 0xdb, 0xff, 0xff, 0x00, 0x00, 0x00, 0x01,
  0x01, 0x00, 0x00, 0x00, 0x90, 0x01, 0x00, 0x00, 0x02, 0x00, 0x00, 0x00,
  0x8f, 0x01, 0x00, 0x00, 0x22, 0x00, 0x00, 0x00, 0xba, 0xdb, 0xff, 0xff,
  0x14, 0x00, 0x00, 0x00, 0x00, 0x00, 0x00, 0x0a, 0x14, 0x00, 0x00, 0x00,
  0x18, 0x00, 0x00, 0x00, 0x0d, 0x00, 0x00, 0x00, 0x12, 0xdf, 0xff, 0xff,
  0xff, 0xff, 0xff, 0xff, 0x01, 0x00, 0x00, 0x00, 0x8f, 0x01, 0x00, 0x00,
  0x08, 0x00, 0x00, 0x00, 0x79, 0x01, 0x00, 0x00, 0x7c, 0x01, 0x00, 0x00,
  0x7f, 0x01, 0x00, 0x00, 0x82, 0x01, 0x00, 0x00, 0x85, 0x01, 0x00, 0x00,
  0x88, 0x01, 0x00, 0x00, 0x8b, 0x01, 0x00, 0x00, 0x8e, 0x01, 0x00, 0x00,
  0xc6, 0xdb, 0xff, 0xff, 0x0c, 0x00, 0x00, 0x00, 0x10, 0x00, 0x00, 0x00,
  0x0a, 0x00, 0x00, 0x00, 0x01, 0x00, 0x00, 0x00, 0x8e, 0x01, 0x00, 0x00,
  0x02, 0x00, 0x00, 0x00, 0x8d, 0x01, 0x00, 0x00, 0x0b, 0x00, 0x00, 0x00,
  0x2a, 0xdc, 0xff, 0xff, 0x14, 0x00, 0x00, 0x00, 0x00, 0x00, 0x00, 0x01,
  0x18, 0x00, 0x00, 0x00, 0x1c, 0x00, 0x00, 0x00, 0x0b, 0x00, 0x00, 0x00,
  0xd6, 0xdb, 0xff, 0xff, 0x01, 0x00, 0x00, 0x00, 0x01, 0x00, 0x00, 0x00,
  0x01, 0x00, 0x00, 0x00, 0x8d, 0x01, 0x00, 0x00, 0x03, 0x00, 0x00, 0x00,
  0x8c, 0x01, 0x00, 0x00, 0x23, 0x00, 0x00, 0x00, 0x90, 0x00, 0x00, 0x00,
  0x26, 0xdc, 0xff, 0xff, 0x0c, 0x00, 0x00, 0x00, 0x10, 0x00, 0x00, 0x00,
  0x0a, 0x00, 0x00, 0x00, 0x01, 0x00, 0x00, 0x00, 0x8c, 0x01, 0x00, 0x00,
  0x02, 0x00, 0x00, 0x00, 0x76, 0x01, 0x00, 0x00, 0x0e, 0x00, 0x00, 0x00,
  0x4a, 0xdc, 0xff, 0xff, 0x0c, 0x00, 0x00, 0x00, 0x10, 0x00, 0x00, 0x00,
  0x0a, 0x00, 0x00, 0x00, 0x01, 0x00, 0x00, 0x00, 0x8b, 0x01, 0x00, 0x00,
  0x02, 0x00, 0x00, 0x00, 0x8a, 0x01, 0x00, 0x00, 0x0b, 0x00, 0x00, 0x00,
  0xae, 0xdc, 0xff, 0xff, 0x14, 0x00, 0x00, 0x00, 0x00, 0x00, 0x00, 0x01,
  0x18, 0x00, 0x00, 0x00, 0x1c, 0x00, 0x00, 0x00, 0x0b, 0x00, 0x00, 0x00,
  0x5a, 0xdc, 0xff, 0xff, 0x01, 0x00, 0x00, 0x00, 0x01, 0x00, 0x00, 0x00,
  0x01, 0x00, 0x00, 0x00, 0x8a, 0x01, 0x00, 0x00, 0x03, 0x00, 0x00, 0x00,
  0x89, 0x01, 0x00, 0x00, 0x24, 0x00, 0x00, 0x00, 0x8f, 0x00, 0x00, 0x00,
  0xaa, 0xdc, 0xff, 0xff, 0x0c, 0x00, 0x00, 0x00, 0x10, 0x00, 0x00, 0x00,
  0x0a, 0x00, 0x00, 0x00, 0x01, 0x00, 0x00, 0x00, 0x89, 0x01, 0x00, 0x00,
  0x02, 0x00, 0x00, 0x00, 0x75, 0x01, 0x00, 0x00, 0x0e, 0x00, 0x00, 0x00,
  0xce, 0xdc, 0xff, 0xff, 0x0c, 0x00, 0x00, 0x00, 0x10, 0x00, 0x00, 0x00,
  0x0a, 0x00, 0x00, 0x00, 0x01, 0x00, 0x00, 0x00, 0x88, 0x01, 0x00, 0x00,
  0x02, 0x00, 0x00, 0x00, 0x87, 0x01, 0x00, 0x00, 0x0b, 0x00, 0x00, 0x00,
  0x32, 0xdd, 0xff, 0xff, 0x14, 0x00, 0x00, 0x00, 0x00, 0x00, 0x00, 0x01,
  0x18, 0x00, 0x00, 0x00, 0x1c, 0x00, 0x00, 0x00, 0x0b, 0x00, 0x00, 0x00,
  0xde, 0xdc, 0xff, 0xff, 0x01, 0x00, 0x00, 0x00, 0x01, 0x00, 0x00, 0x00,
  0x01, 0x00, 0x00, 0x00, 0x87, 0x01, 0x00, 0x00, 0x03, 0x00, 0x00, 0x00,
  0x86, 0x01, 0x00, 0x00, 0x25, 0x00, 0x00, 0x00, 0x8e, 0x00, 0x00, 0x00,
  0x2e, 0xdd, 0xff, 0xff, 0x0c, 0x00, 0x00, 0x00, 0x10, 0x00, 0x00, 0x00,
  0x0a, 0x00, 0x00, 0x00, 0x01, 0x00, 0x00, 0x00, 0x86, 0x01, 0x00, 0x00,
  0x02, 0x00, 0x00, 0x00, 0x74, 0x01, 0x00, 0x00, 0x0e, 0x00, 0x00, 0x00,
  0x52, 0xdd, 0xff, 0xff, 0x0c, 0x00, 0x00, 0x00, 0x10, 0x00, 0x00, 0x00,
  0x0a, 0x00, 0x00, 0x00, 0x01, 0x00, 0x00, 0x00, 0x85, 0x01, 0x00, 0x00,
  0x02, 0x00, 0x00, 0x00, 0x84, 0x01, 0x00, 0x00, 0x0b, 0x00, 0x00, 0x00,
  0xb6, 0xdd, 0xff, 0xff, 0x14, 0x00, 0x00, 0x00, 0x00, 0x00, 0x00, 0x01,
  0x18, 0x00, 0x00, 0x00, 0x1c, 0x00, 0x00, 0x00, 0x0b, 0x00, 0x00, 0x00,
  0x62, 0xdd, 0xff, 0xff, 0x01, 0x00, 0x00, 0x00, 0x01, 0x00, 0x00, 0x00,
  0x01, 0x00, 0x00, 0x00, 0x84, 0x01, 0x00, 0x00, 0x03, 0x00, 0x00, 0x00,
  0x83, 0x01, 0x00, 0x00, 0x26, 0x00, 0x00, 0x00, 0x8d, 0x00, 0x00, 0x00,
  0xb2, 0xdd, 0xff, 0xff, 0x0c, 0x00, 0x00, 0x00, 0x10, 0x00, 0x00, 0x00,
  0x0a, 0x00, 0x00, 0x00, 0x01, 0x00, 0x00, 0x00, 0x83, 0x01, 0x00, 0x00,
  0x02, 0x00, 0x00, 0x00, 0x73, 0x01, 0x00, 0x00, 0x0e, 0x00, 0x00, 0x00,
  0xd6, 0xdd, 0xff, 0xff, 0x0c, 0x00, 0x00, 0x00, 0x10, 0x00, 0x00, 0x00,
  0x0a, 0x00, 0x00, 0x00, 0x01, 0x00, 0x00, 0x00, 0x82, 0x01, 0x00, 0x00,
  0x02, 0x00, 0x00, 0x00, 0x81, 0x01, 0x00, 0x00, 0x0b, 0x00, 0x00, 0x00,
  0x3a, 0xde, 0xff, 0xff, 0x14, 0x00, 0x00, 0x00, 0x00, 0x00, 0x00, 0x01,
  0x18, 0x00, 0x00, 0x00, 0x1c, 0x00, 0x00, 0x00, 0x0b, 0x00, 0x00, 0x00,
  0xe6, 0xdd, 0xff, 0xff, 0x01, 0x00, 0x00, 0x00, 0x01, 0x00, 0x00, 0x00,
  0x01, 0x00, 0x00, 0x00, 0x81, 0x01, 0x00, 0x00, 0x03, 0x00, 0x00, 0x00,
  0x80, 0x01, 0x00, 0x00, 0x27, 0x00, 0x00, 0x00, 0x8c, 0x00, 0x00, 0x00,
  0x36, 0xde, 0xff, 0xff, 0x0c, 0x00, 0x00, 0x00, 0x10, 0x00, 0x00, 0x00,
  0x0a, 0x00, 0x00, 0x00, 0x01, 0x00, 0x00, 0x00, 0x80, 0x01, 0x00, 0x00,
  0x02, 0x00, 0x00, 0x00, 0x72, 0x01, 0x00, 0x00, 0x0e, 0x00, 0x00, 0x00,
  0x5a, 0xde, 0xff, 0xff, 0x0c, 0x00, 0x00, 0x00, 0x10, 0x00, 0x00, 0x00,
  0x0a, 0x00, 0x00, 0x00, 0x01, 0x00, 0x00, 0x00, 0x7f, 0x01, 0x00, 0x00,
  0x02, 0x00, 0x00, 0x00, 0x7e, 0x01, 0x00, 0x00, 0x0b, 0x00, 0x00, 0x00,
  0xbe, 0xde, 0xff, 0xff, 0x14, 0x00, 0x00, 0x00, 0x00, 0x00, 0x00, 0x01,
  0x18, 0x00, 0x00, 0x00, 0x1c, 0x00, 0x00, 0x00, 0x0b, 0x00, 0x00, 0x00,
  0x6a, 0xde, 0xff, 0xff, 0x01, 0x00, 0x00, 0x00, 0x01, 0x00, 0x00, 0x00,
  0x01, 0x00, 0x00, 0x00, 0x7e, 0x01, 0x00, 0x00, 0x03, 0x00, 0x00, 0x00,
  0x7d, 0x01, 0x00, 0x00, 0x28, 0x00, 0x00, 0x00, 0x8b, 0x00, 0x00, 0x00,
  0xba, 0xde, 0xff, 0xff, 0x0c, 0x00, 0x00, 0x00, 0x10, 0x00, 0x00, 0x00,
  0x0a, 0x00, 0x00, 0x00, 0x01, 0x00, 0x00, 0x00, 0x7d, 0x01, 0x00, 0x00,
  0x02, 0x00, 0x00, 0x00, 0x71, 0x01, 0x00, 0x00, 0x0e, 0x00, 0x00, 0x00,
  0xde, 0xde, 0xff, 0xff, 0x0c, 0x00, 0x00, 0x00, 0x10, 0x00, 0x00, 0x00,
  0x0a, 0x00, 0x00, 0x00, 0x01, 0x00, 0x00, 0x00, 0x7c, 0x01, 0x00, 0x00,
  0x02, 0x00, 0x00, 0x00, 0x7b, 0x01, 0x00, 0x00, 0x0b, 0x00, 0x00, 0x00,
  0x42, 0xdf, 0xff, 0xff, 0x14, 0x00, 0x00, 0x00, 0x00, 0x00, 0x00, 0x01,
  0x18, 0x00, 0x00, 0x00, 0x1c, 0x00, 0x00, 0x00, 0x0b, 0x00, 0x00, 0x00,
  0xee, 0xde, 0xff, 0xff, 0x01, 0x00, 0x00, 0x00, 0x01, 0x00, 0x00, 0x00,
  0x01, 0x00, 0x00, 0x00, 0x7b, 0x01, 0x00, 0x00, 0x03, 0x00, 0x00, 0x00,
  0x7a, 0x01, 0x00, 0x00, 0x29, 0x00, 0x00, 0x00, 0x8a, 0x00, 0x00, 0x00,
  0x3e, 0xdf, 0xff, 0xff, 0x0c, 0x00, 0x00, 0x00, 0x10, 0x00, 0x00, 0x00,
  0x0a, 0x00, 0x00, 0x00, 0x01, 0x00, 0x00, 0x00, 0x7a, 0x01, 0x00, 0x00,
  0x02, 0x00, 0x00, 0x00, 0x70, 0x01, 0x00, 0x00, 0x0e, 0x00, 0x00, 0x00,
  0x62, 0xdf, 0xff, 0xff, 0x0c, 0x00, 0x00, 0x00, 0x10, 0x00, 0x00, 0x00,
  0x0a, 0x00, 0x00, 0x00, 0x01, 0x00, 0x00, 0x00, 0x79, 0x01, 0x00, 0x00,
  0x02, 0x00, 0x00, 0x00, 0x78, 0x01, 0x00, 0x00, 0x0b, 0x00, 0x00, 0x00,
  0xc6, 0xdf, 0xff, 0xff, 0x14, 0x00, 0x00, 0x00, 0x00, 0x00, 0x00, 0x01,
  0x18, 0x00, 0x00, 0x00, 0x1c, 0x00, 0x00, 0x00, 0x0b, 0x00, 0x00, 0x00,
  0x72, 0xdf, 0xff, 0xff, 0x01, 0x00, 0x00, 0x00, 0x01, 0x00, 0x00, 0x00,
  0x01, 0x00, 0x00, 0x00, 0x78, 0x01, 0x00, 0x00, 0x03, 0x00, 0x00, 0x00,
  0x77, 0x01, 0x00, 0x00, 0x2a, 0x00, 0x00, 0x00, 0x89, 0x00, 0x00, 0x00,
  0xc2, 0xdf, 0xff, 0xff, 0x0c, 0x00, 0x00, 0x00, 0x10, 0x00, 0x00, 0x00,
  0x0a, 0x00, 0x00, 0x00, 0x01, 0x00, 0x00, 0x00, 0x77, 0x01, 0x00, 0x00,
  0x02, 0x00, 0x00, 0x00, 0x6f, 0x01, 0x00, 0x00, 0x0e, 0x00, 0x00, 0x00,
  0x26, 0xe0, 0xff, 0xff, 0x14, 0x00, 0x00, 0x00, 0x00, 0x00, 0x00, 0x23,
  0x14, 0x00, 0x00, 0x00, 0x34, 0x00, 0x00, 0x00, 0x0c, 0x00, 0x00, 0x00,
  0x7e, 0xe3, 0xff, 0xff, 0x08, 0x00, 0x00, 0x00, 0x08, 0x00, 0x00, 0x00,
  0x6f, 0x01, 0x00, 0x00, 0x70, 0x01, 0x00, 0x00, 0x71, 0x01, 0x00, 0x00,
  0x72, 0x01, 0x00, 0x00, 0x73, 0x01, 0x00, 0x00, 0x74, 0x01, 0x00, 0x00,
  0x75, 0x01, 0x00, 0x00, 0x76, 0x01, 0x00, 0x00, 0x02, 0x00, 0x00, 0x00,
  0x05, 0x00, 0x00, 0x00, 0x6e, 0x01, 0x00, 0x00, 0x36, 0xe0, 0xff, 0xff,
  0x0c, 0x00, 0x00, 0x00, 0x10, 0x00, 0x00, 0x00, 0x0a, 0x00, 0x00, 0x00,
  0x01, 0x00, 0x00, 0x00, 0x6e, 0x01, 0x00, 0x00, 0x02, 0x00, 0x00, 0x00,
  0x6d, 0x01, 0x00, 0x00, 0x0d, 0x00, 0x00, 0x00, 0x9a, 0xe0, 0xff, 0xff,
  0x14, 0x00, 0x00, 0x00, 0x00, 0x00, 0x00, 0x0b, 0x14, 0x00, 0x00, 0x00,
  0x18, 0x00, 0x00, 0x00, 0x0e, 0x00, 0x00, 0x00, 0xd6, 0xe0, 0xff, 0xff,
  0x00, 0x00, 0x00, 0x01, 0x01, 0x00, 0x00, 0x00, 0x6d, 0x01, 0x00, 0x00,
  0x02, 0x00, 0x00, 0x00, 0x47, 0x01, 0x00, 0x00, 0x6c, 0x01, 0x00, 0x00,
  0xce, 0xe0, 0xff, 0xff, 0x14, 0x00, 0x00, 0x00, 0x00, 0x00, 0x00, 0x01,
  0x18, 0x00, 0x00, 0x00, 0x1c, 0x00, 0x00, 0x00, 0x0b, 0x00, 0x00, 0x00,
  0x7a, 0xe0, 0xff, 0xff, 0x01, 0x00, 0x00, 0x00, 0x01, 0x00, 0x00, 0x00,
  0x01, 0x00, 0x00, 0x00, 0x6c, 0x01, 0x00, 0x00, 0x03, 0x00, 0x00, 0x00,
  0x6b, 0x01, 0x00, 0x00, 0x2c, 0x00, 0x00, 0x00, 0x2b, 0x00, 0x00, 0x00,
  0xca, 0xe0, 0xff, 0xff, 0x0c, 0x00, 0x00, 0x00, 0x10, 0x00, 0x00, 0x00,
  0x0a, 0x00, 0x00, 0x00, 0x01, 0x00, 0x00, 0x00, 0x6b, 0x01, 0x00, 0x00,
  0x02, 0x00, 0x00, 0x00, 0x6a, 0x01, 0x00, 0x00, 0x0c, 0x00, 0x00, 0x00,
  0x2e, 0xe1, 0xff, 0xff, 0x14, 0x00, 0x00, 0x00, 0x00, 0x00, 0x00, 0x0b,
  0x14, 0x00, 0x00, 0x00, 0x18, 0x00, 0x00, 0x00, 0x0e, 0x00, 0x00, 0x00,
  0x6a, 0xe1, 0xff, 0xff, 0x00, 0x00, 0x00, 0x01, 0x01, 0x00, 0x00, 0x00,
  0x6a, 0x01, 0x00, 0x00, 0x02, 0x00, 0x00, 0x00, 0x69, 0x01, 0x00, 0x00,
  0x2d, 0x00, 0x00, 0x00, 0x62, 0xe1, 0xff, 0xff, 0x14, 0x00, 0x00, 0x00,
  0x00, 0x00, 0x00, 0x0a, 0x14, 0x00, 0x00, 0x00, 0x18, 0x00, 0x00, 0x00,
  0x0d, 0x00, 0x00, 0x00, 0xba, 0xe4, 0xff, 0xff, 0xff, 0xff, 0xff, 0xff,
  0x01, 0x00, 0x00, 0x00, 0x69, 0x01, 0x00, 0x00, 0x08, 0x00, 0x00, 0x00,
  0x53, 0x01, 0x00, 0x00, 0x56, 0x01, 0x00, 0x00, 0x59, 0x01, 0x00, 0x00,
  0x5c, 0x01, 0x00, 0x00, 0x5f, 0x01, 0x00, 0x00, 0x62, 0x01, 0x00, 0x00,
  0x65, 0x01, 0x00, 0x00, 0x68, 0x01, 0x00, 0x00, 0x6e, 0xe1, 0xff, 0xff,
  0x0c, 0x00, 0x00, 0x00, 0x10, 0x00, 0x00, 0x00, 0x0a, 0x00, 0x00, 0x00,
  0x01, 0x00, 0x00, 0x00, 0x68, 0x01, 0x00, 0x00, 0x02, 0x00, 0x00, 0x00,
  0x67, 0x01, 0x00, 0x00, 0x0b, 0x00, 0x00, 0x00, 0xd2, 0xe1, 0xff, 0xff,
  0x14, 0x00, 0x00, 0x00, 0x00, 0x00, 0x00, 0x01, 0x18, 0x00, 0x00, 0x00,
  0x1c, 0x00, 0x00, 0x00, 0x0b, 0x00, 0x00, 0x00, 0x7e, 0xe1, 0xff, 0xff,
  0x01, 0x00, 0x00, 0x00, 0x01, 0x00, 0x00, 0x00, 0x01, 0x00, 0x00, 0x00,
  0x67, 0x01, 0x00, 0x00, 0x03, 0x00, 0x00, 0x00, 0x66, 0x01, 0x00, 0x00,
  0x2e, 0x00, 0x00, 0x00, 0x88, 0x00, 0x00, 0x00, 0xce, 0xe1, 0xff, 0xff,
  0x0c, 0x00, 0x00, 0x00, 0x10, 0x00, 0x00, 0x00, 0x0a, 0x00, 0x00, 0x00,
  0x01, 0x00, 0x00, 0x00, 0x66, 0x01, 0x00, 0x00, 0x02, 0x00, 0x00, 0x00,
  0x50, 0x01, 0x00, 0x00, 0x0e, 0x00, 0x00, 0x00, 0xf2, 0xe1, 0xff, 0xff,
  0x0c, 0x00, 0x00, 0x00, 0x10, 0x00, 0x00, 0x00, 0x0a, 0x00, 0x00, 0x00,
  0x01, 0x00, 0x00, 0x00, 0x65, 0x01, 0x00, 0x00, 0x02, 0x00, 0x00, 0x00,
  0x64, 0x01, 0x00, 0x00, 0x0b, 0x00, 0x00, 0x00, 0x56, 0xe2, 0xff, 0xff,
  0x14, 0x00, 0x00, 0x00, 0x00, 0x00, 0x00, 0x01, 0x18, 0x00, 0x00, 0x00,
  0x1c, 0x00, 0x00, 0x00, 0x0b, 0x00, 0x00, 0x00, 0x02, 0xe2, 0xff, 0xff,
  0x01, 0x00, 0x00, 0x00, 0x01, 0x00, 0x00, 0x00, 0x01, 0x00, 0x00, 0x00,
  0x64, 0x01, 0x00, 0x00, 0x03, 0x00, 0x00, 0x00, 0x63, 0x01, 0x00, 0x00,
  0x2f, 0x00, 0x00, 0x00, 0x87, 0x00, 0x00, 0x00, 0x52, 0xe2, 0xff, 0xff,
  0x0c, 0x00, 0x00, 0x00, 0x10, 0x00, 0x00, 0x00, 0x0a, 0x00, 0x00, 0x00,
  0x01, 0x00, 0x00, 0x00, 0x63, 0x01, 0x00, 0x00, 0x02, 0x00, 0x00, 0x00,
  0x4f, 0x01, 0x00, 0x00, 0x0e, 0x00, 0x00, 0x00, 0x76, 0xe2, 0xff, 0xff,
  0x0c, 0x00, 0x00, 0x00, 0x10, 0x00, 0x00, 0x00, 0x0a, 0x00, 0x00, 0x00,
  0x01, 0x00, 0x00, 0x00, 0x62, 0x01, 0x00, 0x00, 0x02, 0x00, 0x00, 0x00,
  0x61, 0x01, 0x00, 0x00, 0x0b, 0x00, 0x00, 0x00, 0xda, 0xe2, 0xff, 0xff,
  0x14, 0x00, 0x00, 0x00, 0x00, 0x00, 0x00, 0x01, 0x18, 0x00, 0x00, 0x00,
  0x1c, 0x00, 0x00, 0x00, 0x0b, 0x00, 0x00, 0x00, 0x86, 0xe2, 0xff, 0xff,
  0x01, 0x00, 0x00, 0x00, 0x01, 0x00, 0x00, 0x00, 0x01, 0x00, 0x00, 0x00,
  0x61, 0x01, 0x00, 0x00, 0x03, 0x00, 0x00, 0x00, 0x60, 0x01, 0x00, 0x00,
  0x30, 0x00, 0x00, 0x00, 0x86, 0x00, 0x00, 0x00, 0xd6, 0xe2, 0xff, 0xff,
  0x0c, 0x00, 0x00, 0x00, 0x10, 0x00, 0x00, 0x00, 0x0a, 0x00, 0x00, 0x00,
  0x01, 0x00, 0x00, 0x00, 0x60, 0x01, 0x00, 0x00, 0x02, 0x00, 0x00, 0x00,
  0x4e, 0x01, 0x00, 0x00, 0x0e, 0x00, 0x00, 0x00, 0xfa, 0xe2, 0xff, 0xff,
  0x0c, 0x00, 0x00, 0x00, 0x10, 0x00, 0x00, 0x00, 0x0a, 0x00, 0x00, 0x00,
  0x01, 0x00, 0x00, 0x00, 0x5f, 0x01, 0x00, 0x00, 0x02, 0x00, 0x00, 0x00,
  0x5e, 0x01, 0x00, 0x00, 0x0b, 0x00, 0x00, 0x00, 0x5e, 0xe3, 0xff, 0xff,
  0x14, 0x00, 0x00, 0x00, 0x00, 0x00, 0x00, 0x01, 0x18, 0x00, 0x00, 0x00,
  0x1c, 0x00, 0x00, 0x00, 0x0b, 0x00, 0x00, 0x00, 0x0a, 0xe3, 0xff, 0xff,
  0x01, 0x00, 0x00, 0x00, 0x01, 0x00, 0x00, 0x00, 0x01, 0x00, 0x00, 0x00,
  0x5e, 0x01, 0x00, 0x00, 0x03, 0x00, 0x00, 0x00, 0x5d, 0x01, 0x00, 0x00,
  0x31, 0x00, 0x00, 0x00, 0x85, 0x00, 0x00, 0x00, 0x5a, 0xe3, 0xff, 0xff,
  0x0c, 0x00, 0x00, 0x00, 0x10, 0x00, 0x00, 0x00, 0x0a, 0x00, 0x00, 0x00,
  0x01, 0x00, 0x00, 0x00, 0x5d, 0x01, 0x00, 0x00, 0x02, 0x00, 0x00, 0x00,
  0x4d, 0x01, 0x00, 0x00, 0x0e, 0x00, 0x00, 0x00, 0x7e, 0xe3, 0xff, 0xff,
  0x0c, 0x00, 0x00, 0x00, 0x10, 0x00, 0x00, 0x00, 0x0a, 0x00, 0x00, 0x00,
  0x01, 0x00, 0x00, 0x00, 0x5c, 0x01, 0x00, 0x00, 0x02, 0x00, 0x00, 0x00,
  0x5b, 0x01, 0x00, 0x00, 0x0b, 0x00, 0x00, 0x00, 0xe2, 0xe3, 0xff, 0xff,
  0x14, 0x00, 0x00, 0x00, 0x00, 0x00, 0x00, 0x01, 0x18, 0x00, 0x00, 0x00,
  0x1c, 0x00, 0x00, 0x00, 0x0b, 0x00, 0x00, 0x00, 0x8e, 0xe3, 0xff, 0xff,
  0x01, 0x00, 0x00, 0x00, 0x01, 0x00, 0x00, 0x00, 0x01, 0x00, 0x00, 0x00,
  0x5b, 0x01, 0x00, 0x00, 0x03, 0x00, 0x00, 0x00, 0x5a, 0x01, 0x00, 0x00,
  0x32, 0x00, 0x00, 0x00, 0x84, 0x00, 0x00, 0x00, 0xde, 0xe3, 0xff, 0xff,
  0x0c, 0x00, 0x00, 0x00, 0x10, 0x00, 0x00, 0x00, 0x0a, 0x00, 0x00, 0x00,
  0x01, 0x00, 0x00, 0x00, 0x5a, 0x01, 0x00, 0x00, 0x02, 0x00, 0x00, 0x00,
  0x4c, 0x01, 0x00, 0x00, 0x0e, 0x00, 0x00, 0x00, 0x02, 0xe4, 0xff, 0xff,
  0x0c, 0x00, 0x00, 0x00, 0x10, 0x00, 0x00, 0x00, 0x0a, 0x00, 0x00, 0x00,
  0x01, 0x00, 0x00, 0x00, 0x59, 0x01, 0x00, 0x00, 0x02, 0x00, 0x00, 0x00,
  0x58, 0x01, 0x00, 0x00, 0x0b, 0x00, 0x00, 0x00, 0x66, 0xe4, 0xff, 0xff,
  0x14, 0x00, 0x00, 0x00, 0x00, 0x00, 0x00, 0x01, 0x18, 0x00, 0x00, 0x00,
  0x1c, 0x00, 0x00, 0x00, 0x0b, 0x00, 0x00, 0x00, 0x12, 0xe4, 0xff, 0xff,
  0x01, 0x00, 0x00, 0x00, 0x01, 0x00, 0x00, 0x00, 0x01, 0x00, 0x00, 0x00,
  0x58, 0x01, 0x00, 0x00, 0x03, 0x00, 0x00, 0x00, 0x57, 0x01, 0x00, 0x00,
  0x33, 0x00, 0x00, 0x00, 0x83, 0x00, 0x00, 0x00, 0x62, 0xe4, 0xff, 0xff,
  0x0c, 0x00, 0x00, 0x00, 0x10, 0x00, 0x00, 0x00, 0x0a, 0x00, 0x00, 0x00,
  0x01, 0x00, 0x00, 0x00, 0x57, 0x01, 0x00, 0x00, 0x02, 0x00, 0x00, 0x00,
  0x4b, 0x01, 0x00, 0x00, 0x0e, 0x00, 0x00, 0x00, 0x86, 0xe4, 0xff, 0xff,
  0x0c, 0x00, 0x00, 0x00, 0x10, 0x00, 0x00, 0x00, 0x0a, 0x00, 0x00, 0x00,
  0x01, 0x00, 0x00, 0x00, 0x56, 0x01, 0x00, 0x00, 0x02, 0x00, 0x00, 0x00,
  0x55, 0x01, 0x00, 0x00, 0x0b, 0x00, 0x00, 0x00, 0xea, 0xe4, 0xff, 0xff,
  0x14, 0x00, 0x00, 0x00, 0x00, 0x00, 0x00, 0x01, 0x18, 0x00, 0x00, 0x00,
  0x1c, 0x00, 0x00, 0x00, 0x0b, 0x00, 0x00, 0x00, 0x96, 0xe4, 0xff, 0xff,
  0x01, 0x00, 0x00, 0x00, 0x01, 0x00, 0x00, 0x00, 0x01, 0x00, 0x00, 0x00,
  0x55, 0x01, 0x00, 0x00, 0x03, 0x00, 0x00, 0x00, 0x54, 0x01, 0x00, 0x00,
  0x34, 0x00, 0x00, 0x00, 0x82, 0x00, 0x00, 0x00, 0xe6, 0xe4, 0xff, 0xff,
  0x0c, 0x00, 0x00, 0x00, 0x10, 0x00, 0x00, 0x00, 0x0a, 0x00, 0x00, 0x00,
  0x01, 0x00, 0x00, 0x00, 0x54, 0x01, 0x00, 0x00, 0x02, 0x00, 0x00, 0x00,
  0x4a, 0x01, 0x00, 0x00, 0x0e, 0x00, 0x00, 0x00, 0x0a, 0xe5, 0xff, 0xff,
  0x0c, 0x00, 0x00, 0x00, 0x10, 0x00, 0x00, 0x00, 0x0a, 0x00, 0x00, 0x00,
