unsigned char converted_UOS_SHAFT_8k_converted_model_512_UOS_SHAFT_8k_model_512_int8_tflite[] = {
  0x20, 0x00, 0x00, 0x00, 0x54, 0x46, 0x4c, 0x33, 0x00, 0x00, 0x00, 0x00,
  0x14, 0x00, 0x20, 0x00, 0x1c, 0x00, 0x18, 0x00, 0x14, 0x00, 0x10, 0x00,
  0x0c, 0x00, 0x00, 0x00, 0x08, 0x00, 0x04, 0x00, 0x14, 0x00, 0x00, 0x00,
  0x1c, 0x00, 0x00, 0x00, 0x80, 0x00, 0x00, 0x00, 0xd8, 0x00, 0x00, 0x00,
  0xc4, 0x22, 0x00, 0x00, 0xd4, 0x22, 0x00, 0x00, 0xd8, 0x77, 0x01, 0x00,
  0x03, 0x00, 0x00, 0x00, 0x01, 0x00, 0x00, 0x00, 0x04, 0x00, 0x00, 0x00,
  0xa6, 0xac, 0xff, 0xff, 0x0c, 0x00, 0x00, 0x00, 0x1c, 0x00, 0x00, 0x00,
  0x38, 0x00, 0x00, 0x00, 0x0f, 0x00, 0x00, 0x00, 0x73, 0x65, 0x72, 0x76,
  0x69, 0x6e, 0x67, 0x5f, 0x64, 0x65, 0x66, 0x61, 0x75, 0x6c, 0x74, 0x00,
  0x01, 0x00, 0x00, 0x00, 0x04, 0x00, 0x00, 0x00, 0x9c, 0xff, 0xff, 0xff,
  0xc2, 0x01, 0x00, 0x00, 0x04, 0x00, 0x00, 0x00, 0x06, 0x00, 0x00, 0x00,
  0x6f, 0x75, 0x74, 0x70, 0x75, 0x74, 0x00, 0x00, 0x01, 0x00, 0x00, 0x00,
  0x04, 0x00, 0x00, 0x00, 0x72, 0xb0, 0xff, 0xff, 0x04, 0x00, 0x00, 0x00,
  0x05, 0x00, 0x00, 0x00, 0x69, 0x6e, 0x70, 0x75, 0x74, 0x00, 0x00, 0x00,
  0x02, 0x00, 0x00, 0x00, 0x34, 0x00, 0x00, 0x00, 0x04, 0x00, 0x00, 0x00,
  0xdc, 0xff, 0xff, 0xff, 0xc5, 0x01, 0x00, 0x00, 0x04, 0x00, 0x00, 0x00,
  0x13, 0x00, 0x00, 0x00, 0x43, 0x4f, 0x4e, 0x56, 0x45, 0x52, 0x53, 0x49,
  0x4f, 0x4e, 0x5f, 0x4d, 0x45, 0x54, 0x41, 0x44, 0x41, 0x54, 0x41, 0x00,
  0x08, 0x00, 0x0c, 0x00, 0x08, 0x00, 0x04, 0x00, 0x08, 0x00, 0x00, 0x00,
  0xc4, 0x01, 0x00, 0x00, 0x04, 0x00, 0x00, 0x00, 0x13, 0x00, 0x00, 0x00,
  0x6d, 0x69, 0x6e, 0x5f, 0x72, 0x75, 0x6e, 0x74, 0x69, 0x6d, 0x65, 0x5f,
  0x76, 0x65, 0x72, 0x73, 0x69, 0x6f, 0x6e, 0x00, 0xc6, 0x01, 0x00, 0x00,
  0xe8, 0x21, 0x00, 0x00, 0xe0, 0x21, 0x00, 0x00, 0xcc, 0x21, 0x00, 0x00,
  0xa4, 0x21, 0x00, 0x00, 0x84, 0x21, 0x00, 0x00, 0x68, 0x21, 0x00, 0x00,
  0x54, 0x21, 0x00, 0x00, 0x34, 0x21, 0x00, 0x00, 0x18, 0x21, 0x00, 0x00,
  0xf8, 0x20, 0x00, 0x00, 0xd0, 0x20, 0x00, 0x00, 0xb0, 0x20, 0x00, 0x00,
  0x94, 0x20, 0x00, 0x00, 0x74, 0x20, 0x00, 0x00, 0x58, 0x20, 0x00, 0x00,
  0x38, 0x20, 0x00, 0x00, 0x30, 0x20, 0x00, 0x00, 0x18, 0x20, 0x00, 0x00,
  0xe8, 0x1f, 0x00, 0x00, 0x78, 0x1f, 0x00, 0x00, 0x48, 0x1f, 0x00, 0x00,
  0xf8, 0x1c, 0x00, 0x00, 0xc8, 0x1c, 0x00, 0x00, 0x78, 0x1c, 0x00, 0x00,
  0x60, 0x1c, 0x00, 0x00, 0x48, 0x1c, 0x00, 0x00, 0x30, 0x1c, 0x00, 0x00,
  0x18, 0x1c, 0x00, 0x00, 0x00, 0x1c, 0x00, 0x00, 0xe8, 0x1b, 0x00, 0x00,
  0xd0, 0x1b, 0x00, 0x00, 0xb8, 0x1b, 0x00, 0x00, 0xa0, 0x1b, 0x00, 0x00,
  0x70, 0x1b, 0x00, 0x00, 0x20, 0x1b, 0x00, 0x00, 0x08, 0x1b, 0x00, 0x00,
  0xf0, 0x1a, 0x00, 0x00, 0xd8, 0x1a, 0x00, 0x00, 0xc0, 0x1a, 0x00, 0x00,
  0xa8, 0x1a, 0x00, 0x00, 0x90, 0x1a, 0x00, 0x00, 0x78, 0x1a, 0x00, 0x00,
  0x60, 0x1a, 0x00, 0x00, 0x48, 0x1a, 0x00, 0x00, 0x18, 0x1a, 0x00, 0x00,
  0xc8, 0x19, 0x00, 0x00, 0xb0, 0x19, 0x00, 0x00, 0x98, 0x19, 0x00, 0x00,
  0x80, 0x19, 0x00, 0x00, 0x68, 0x19, 0x00, 0x00, 0x50, 0x19, 0x00, 0x00,
  0x38, 0x19, 0x00, 0x00, 0x20, 0x19, 0x00, 0x00, 0x08, 0x19, 0x00, 0x00,
  0xf0, 0x18, 0x00, 0x00, 0xc0, 0x18, 0x00, 0x00, 0x70, 0x18, 0x00, 0x00,
  0x58, 0x18, 0x00, 0x00, 0x30, 0x18, 0x00, 0x00, 0x08, 0x18, 0x00, 0x00,
  0xe0, 0x17, 0x00, 0x00, 0xb8, 0x17, 0x00, 0x00, 0x90, 0x17, 0x00, 0x00,
  0x68, 0x17, 0x00, 0x00, 0x40, 0x17, 0x00, 0x00, 0x18, 0x17, 0x00, 0x00,
  0xe8, 0x16, 0x00, 0x00, 0x98, 0x16, 0x00, 0x00, 0x80, 0x16, 0x00, 0x00,
  0x30, 0x16, 0x00, 0x00, 0xe0, 0x15, 0x00, 0x00, 0x90, 0x15, 0x00, 0x00,
  0x40, 0x15, 0x00, 0x00, 0xf0, 0x14, 0x00, 0x00, 0xa0, 0x14, 0x00, 0x00,
  0x50, 0x14, 0x00, 0x00, 0x00, 0x14, 0x00, 0x00, 0xd0, 0x13, 0x00, 0x00,
  0x80, 0x13, 0x00, 0x00, 0x68, 0x13, 0x00, 0x00, 0x18, 0x13, 0x00, 0x00,
  0xc8, 0x12, 0x00, 0x00, 0x78, 0x12, 0x00, 0x00, 0x28, 0x12, 0x00, 0x00,
  0xd8, 0x11, 0x00, 0x00, 0x88, 0x11, 0x00, 0x00, 0x38, 0x11, 0x00, 0x00,
  0xe8, 0x10, 0x00, 0x00, 0xb8, 0x10, 0x00, 0x00, 0x68, 0x10, 0x00, 0x00,
  0x50, 0x10, 0x00, 0x00, 0x00, 0x10, 0x00, 0x00, 0xb0, 0x0f, 0x00, 0x00,
  0x60, 0x0f, 0x00, 0x00, 0x10, 0x0f, 0x00, 0x00, 0xc0, 0x0e, 0x00, 0x00,
  0x70, 0x0e, 0x00, 0x00, 0x20, 0x0e, 0x00, 0x00, 0x0c, 0x0e, 0x00, 0x00,
  0x04, 0x0e, 0x00, 0x00, 0xfc, 0x0d, 0x00, 0x00, 0xf4, 0x0d, 0x00, 0x00,
  0xec, 0x0d, 0x00, 0x00, 0xe4, 0x0d, 0x00, 0x00, 0xdc, 0x0d, 0x00, 0x00,
  0xd4, 0x0d, 0x00, 0x00, 0xcc, 0x0d, 0x00, 0x00, 0xc4, 0x0d, 0x00, 0x00,
  0xbc, 0x0d, 0x00, 0x00, 0xb4, 0x0d, 0x00, 0x00, 0xac, 0x0d, 0x00, 0x00,
  0xa4, 0x0d, 0x00, 0x00, 0x9c, 0x0d, 0x00, 0x00, 0x94, 0x0d, 0x00, 0x00,
  0x8c, 0x0d, 0x00, 0x00, 0x84, 0x0d, 0x00, 0x00, 0x7c, 0x0d, 0x00, 0x00,
  0x74, 0x0d, 0x00, 0x00, 0x6c, 0x0d, 0x00, 0x00, 0x64, 0x0d, 0x00, 0x00,
  0x5c, 0x0d, 0x00, 0x00, 0x54, 0x0d, 0x00, 0x00, 0x4c, 0x0d, 0x00, 0x00,
  0x44, 0x0d, 0x00, 0x00, 0x3c, 0x0d, 0x00, 0x00, 0x34, 0x0d, 0x00, 0x00,
  0x2c, 0x0d, 0x00, 0x00, 0x24, 0x0d, 0x00, 0x00, 0x1c, 0x0d, 0x00, 0x00,
  0x14, 0x0d, 0x00, 0x00, 0x0c, 0x0d, 0x00, 0x00, 0x04, 0x0d, 0x00, 0x00,
  0xfc, 0x0c, 0x00, 0x00, 0xf4, 0x0c, 0x00, 0x00, 0xec, 0x0c, 0x00, 0x00,
  0xe4, 0x0c, 0x00, 0x00, 0xdc, 0x0c, 0x00, 0x00, 0xd4, 0x0c, 0x00, 0x00,
  0xcc, 0x0c, 0x00, 0x00, 0xc4, 0x0c, 0x00, 0x00, 0xbc, 0x0c, 0x00, 0x00,
  0xb4, 0x0c, 0x00, 0x00, 0xac, 0x0c, 0x00, 0x00, 0xa4, 0x0c, 0x00, 0x00,
  0x9c, 0x0c, 0x00, 0x00, 0x94, 0x0c, 0x00, 0x00, 0x8c, 0x0c, 0x00, 0x00,
  0x84, 0x0c, 0x00, 0x00, 0x7c, 0x0c, 0x00, 0x00, 0x74, 0x0c, 0x00, 0x00,
  0x6c, 0x0c, 0x00, 0x00, 0x64, 0x0c, 0x00, 0x00, 0x5c, 0x0c, 0x00, 0x00,
  0x54, 0x0c, 0x00, 0x00, 0x04, 0x0c, 0x00, 0x00, 0xd4, 0x0b, 0x00, 0x00,
  0xc4, 0x09, 0x00, 0x00, 0xbc, 0x09, 0x00, 0x00, 0xb4, 0x09, 0x00, 0x00,
  0xac, 0x09, 0x00, 0x00, 0xa4, 0x09, 0x00, 0x00, 0x9c, 0x09, 0x00, 0x00,
  0x94, 0x09, 0x00, 0x00, 0x8c, 0x09, 0x00, 0x00, 0x84, 0x09, 0x00, 0x00,
  0x7c, 0x09, 0x00, 0x00, 0x74, 0x09, 0x00, 0x00, 0x6c, 0x09, 0x00, 0x00,
  0x64, 0x09, 0x00, 0x00, 0x5c, 0x09, 0x00, 0x00, 0x54, 0x09, 0x00, 0x00,
  0x4c, 0x09, 0x00, 0x00, 0x44, 0x09, 0x00, 0x00, 0x3c, 0x09, 0x00, 0x00,
  0x34, 0x09, 0x00, 0x00, 0x2c, 0x09, 0x00, 0x00, 0x24, 0x09, 0x00, 0x00,
  0x1c, 0x09, 0x00, 0x00, 0x14, 0x09, 0x00, 0x00, 0x0c, 0x09, 0x00, 0x00,
  0x04, 0x09, 0x00, 0x00, 0xfc, 0x08, 0x00, 0x00, 0xf4, 0x08, 0x00, 0x00,
  0xec, 0x08, 0x00, 0x00, 0xe4, 0x08, 0x00, 0x00, 0xdc, 0x08, 0x00, 0x00,
  0xd4, 0x08, 0x00, 0x00, 0xcc, 0x08, 0x00, 0x00, 0xc4, 0x08, 0x00, 0x00,
  0xbc, 0x08, 0x00, 0x00, 0xb4, 0x08, 0x00, 0x00, 0xac, 0x08, 0x00, 0x00,
  0xa4, 0x08, 0x00, 0x00, 0x9c, 0x08, 0x00, 0x00, 0x94, 0x08, 0x00, 0x00,
  0x8c, 0x08, 0x00, 0x00, 0x84, 0x08, 0x00, 0x00, 0x7c, 0x08, 0x00, 0x00,
  0x74, 0x08, 0x00, 0x00, 0x6c, 0x08, 0x00, 0x00, 0x64, 0x08, 0x00, 0x00,
  0x5c, 0x08, 0x00, 0x00, 0x54, 0x08, 0x00, 0x00, 0x4c, 0x08, 0x00, 0x00,
  0x44, 0x08, 0x00, 0x00, 0x3c, 0x08, 0x00, 0x00, 0x34, 0x08, 0x00, 0x00,
  0x2c, 0x08, 0x00, 0x00, 0x24, 0x08, 0x00, 0x00, 0x1c, 0x08, 0x00, 0x00,
  0x14, 0x08, 0x00, 0x00, 0x0c, 0x08, 0x00, 0x00, 0x04, 0x08, 0x00, 0x00,
  0xfc, 0x07, 0x00, 0x00, 0xf4, 0x07, 0x00, 0x00, 0xec, 0x07, 0x00, 0x00,
  0xe4, 0x07, 0x00, 0x00, 0xdc, 0x07, 0x00, 0x00, 0xd4, 0x07, 0x00, 0x00,
  0xcc, 0x07, 0x00, 0x00, 0xc4, 0x07, 0x00, 0x00, 0xbc, 0x07, 0x00, 0x00,
  0xb4, 0x07, 0x00, 0x00, 0xac, 0x07, 0x00, 0x00, 0xa4, 0x07, 0x00, 0x00,
  0x9c, 0x07, 0x00, 0x00, 0x94, 0x07, 0x00, 0x00, 0x8c, 0x07, 0x00, 0x00,
  0x84, 0x07, 0x00, 0x00, 0x7c, 0x07, 0x00, 0x00, 0x74, 0x07, 0x00, 0x00,
  0x6c, 0x07, 0x00, 0x00, 0x64, 0x07, 0x00, 0x00, 0x5c, 0x07, 0x00, 0x00,
  0x54, 0x07, 0x00, 0x00, 0x4c, 0x07, 0x00, 0x00, 0x44, 0x07, 0x00, 0x00,
  0x3c, 0x07, 0x00, 0x00, 0x34, 0x07, 0x00, 0x00, 0x2c, 0x07, 0x00, 0x00,
  0x24, 0x07, 0x00, 0x00, 0x1c, 0x07, 0x00, 0x00, 0x14, 0x07, 0x00, 0x00,
  0x0c, 0x07, 0x00, 0x00, 0x04, 0x07, 0x00, 0x00, 0xfc, 0x06, 0x00, 0x00,
  0xf4, 0x06, 0x00, 0x00, 0xec, 0x06, 0x00, 0x00, 0xe4, 0x06, 0x00, 0x00,
  0xdc, 0x06, 0x00, 0x00, 0xd4, 0x06, 0x00, 0x00, 0xcc, 0x06, 0x00, 0x00,
  0xc4, 0x06, 0x00, 0x00, 0xbc, 0x06, 0x00, 0x00, 0xb4, 0x06, 0x00, 0x00,
  0xac, 0x06, 0x00, 0x00, 0xa4, 0x06, 0x00, 0x00, 0x9c, 0x06, 0x00, 0x00,
  0x94, 0x06, 0x00, 0x00, 0x8c, 0x06, 0x00, 0x00, 0x84, 0x06, 0x00, 0x00,
  0x7c, 0x06, 0x00, 0x00, 0x74, 0x06, 0x00, 0x00, 0x6c, 0x06, 0x00, 0x00,
  0x64, 0x06, 0x00, 0x00, 0x5c, 0x06, 0x00, 0x00, 0x54, 0x06, 0x00, 0x00,
  0x4c, 0x06, 0x00, 0x00, 0x44, 0x06, 0x00, 0x00, 0x3c, 0x06, 0x00, 0x00,
  0x34, 0x06, 0x00, 0x00, 0x2c, 0x06, 0x00, 0x00, 0x24, 0x06, 0x00, 0x00,
  0x1c, 0x06, 0x00, 0x00, 0x14, 0x06, 0x00, 0x00, 0x0c, 0x06, 0x00, 0x00,
  0x04, 0x06, 0x00, 0x00, 0xfc, 0x05, 0x00, 0x00, 0xf4, 0x05, 0x00, 0x00,
  0xec, 0x05, 0x00, 0x00, 0xe4, 0x05, 0x00, 0x00, 0xdc, 0x05, 0x00, 0x00,
  0xd4, 0x05, 0x00, 0x00, 0xcc, 0x05, 0x00, 0x00, 0xc4, 0x05, 0x00, 0x00,
  0xbc, 0x05, 0x00, 0x00, 0xb4, 0x05, 0x00, 0x00, 0xac, 0x05, 0x00, 0x00,
  0xa4, 0x05, 0x00, 0x00, 0x9c, 0x05, 0x00, 0x00, 0x94, 0x05, 0x00, 0x00,
  0x8c, 0x05, 0x00, 0x00, 0x84, 0x05, 0x00, 0x00, 0x7c, 0x05, 0x00, 0x00,
  0x74, 0x05, 0x00, 0x00, 0x6c, 0x05, 0x00, 0x00, 0x64, 0x05, 0x00, 0x00,
  0x5c, 0x05, 0x00, 0x00, 0x54, 0x05, 0x00, 0x00, 0x4c, 0x05, 0x00, 0x00,
  0x44, 0x05, 0x00, 0x00, 0x3c, 0x05, 0x00, 0x00, 0x34, 0x05, 0x00, 0x00,
  0x2c, 0x05, 0x00, 0x00, 0x24, 0x05, 0x00, 0x00, 0x1c, 0x05, 0x00, 0x00,
  0x14, 0x05, 0x00, 0x00, 0x0c, 0x05, 0x00, 0x00, 0x04, 0x05, 0x00, 0x00,
  0xfc, 0x04, 0x00, 0x00, 0xf4, 0x04, 0x00, 0x00, 0xec, 0x04, 0x00, 0x00,
  0xe4, 0x04, 0x00, 0x00, 0xdc, 0x04, 0x00, 0x00, 0xd4, 0x04, 0x00, 0x00,
  0xcc, 0x04, 0x00, 0x00, 0xc4, 0x04, 0x00, 0x00, 0xbc, 0x04, 0x00, 0x00,
  0xb4, 0x04, 0x00, 0x00, 0xac, 0x04, 0x00, 0x00, 0xa4, 0x04, 0x00, 0x00,
  0x9c, 0x04, 0x00, 0x00, 0x94, 0x04, 0x00, 0x00, 0x8c, 0x04, 0x00, 0x00,
  0x84, 0x04, 0x00, 0x00, 0x7c, 0x04, 0x00, 0x00, 0x74, 0x04, 0x00, 0x00,
  0x6c, 0x04, 0x00, 0x00, 0x64, 0x04, 0x00, 0x00, 0x5c, 0x04, 0x00, 0x00,
  0x54, 0x04, 0x00, 0x00, 0x4c, 0x04, 0x00, 0x00, 0x44, 0x04, 0x00, 0x00,
  0x3c, 0x04, 0x00, 0x00, 0x34, 0x04, 0x00, 0x00, 0x2c, 0x04, 0x00, 0x00,
  0x24, 0x04, 0x00, 0x00, 0x1c, 0x04, 0x00, 0x00, 0x14, 0x04, 0x00, 0x00,
  0x0c, 0x04, 0x00, 0x00, 0x04, 0x04, 0x00, 0x00, 0xfc, 0x03, 0x00, 0x00,
  0xf4, 0x03, 0x00, 0x00, 0xec, 0x03, 0x00, 0x00, 0xe4, 0x03, 0x00, 0x00,
  0xdc, 0x03, 0x00, 0x00, 0xd4, 0x03, 0x00, 0x00, 0xcc, 0x03, 0x00, 0x00,
  0xc4, 0x03, 0x00, 0x00, 0xbc, 0x03, 0x00, 0x00, 0xb4, 0x03, 0x00, 0x00,
  0xac, 0x03, 0x00, 0x00, 0xa4, 0x03, 0x00, 0x00, 0x9c, 0x03, 0x00, 0x00,
  0x94, 0x03, 0x00, 0x00, 0x8c, 0x03, 0x00, 0x00, 0x84, 0x03, 0x00, 0x00,
  0x7c, 0x03, 0x00, 0x00, 0x74, 0x03, 0x00, 0x00, 0x6c, 0x03, 0x00, 0x00,
  0x64, 0x03, 0x00, 0x00, 0x5c, 0x03, 0x00, 0x00, 0x54, 0x03, 0x00, 0x00,
  0x4c, 0x03, 0x00, 0x00, 0x44, 0x03, 0x00, 0x00, 0x3c, 0x03, 0x00, 0x00,
  0x34, 0x03, 0x00, 0x00, 0x2c, 0x03, 0x00, 0x00, 0x24, 0x03, 0x00, 0x00,
  0x1c, 0x03, 0x00, 0x00, 0x14, 0x03, 0x00, 0x00, 0x0c, 0x03, 0x00, 0x00,
  0x04, 0x03, 0x00, 0x00, 0xfc, 0x02, 0x00, 0x00, 0xf4, 0x02, 0x00, 0x00,
  0xec, 0x02, 0x00, 0x00, 0xe4, 0x02, 0x00, 0x00, 0xdc, 0x02, 0x00, 0x00,
  0xd4, 0x02, 0x00, 0x00, 0xcc, 0x02, 0x00, 0x00, 0xc4, 0x02, 0x00, 0x00,
  0xbc, 0x02, 0x00, 0x00, 0xb4, 0x02, 0x00, 0x00, 0xac, 0x02, 0x00, 0x00,
  0xa4, 0x02, 0x00, 0x00, 0x9c, 0x02, 0x00, 0x00, 0x94, 0x02, 0x00, 0x00,
  0x8c, 0x02, 0x00, 0x00, 0x84, 0x02, 0x00, 0x00, 0x7c, 0x02, 0x00, 0x00,
  0x74, 0x02, 0x00, 0x00, 0x6c, 0x02, 0x00, 0x00, 0x64, 0x02, 0x00, 0x00,
  0x5c, 0x02, 0x00, 0x00, 0x54, 0x02, 0x00, 0x00, 0x4c, 0x02, 0x00, 0x00,
  0x44, 0x02, 0x00, 0x00, 0x3c, 0x02, 0x00, 0x00, 0x34, 0x02, 0x00, 0x00,
  0x2c, 0x02, 0x00, 0x00, 0x24, 0x02, 0x00, 0x00, 0x1c, 0x02, 0x00, 0x00,
  0x14, 0x02, 0x00, 0x00, 0x0c, 0x02, 0x00, 0x00, 0x04, 0x02, 0x00, 0x00,
  0xfc, 0x01, 0x00, 0x00, 0xf4, 0x01, 0x00, 0x00, 0xec, 0x01, 0x00, 0x00,
  0xe4, 0x01, 0x00, 0x00, 0xdc, 0x01, 0x00, 0x00, 0xd4, 0x01, 0x00, 0x00,
  0xcc, 0x01, 0x00, 0x00, 0xc4, 0x01, 0x00, 0x00, 0xbc, 0x01, 0x00, 0x00,
  0xb4, 0x01, 0x00, 0x00, 0xac, 0x01, 0x00, 0x00, 0xa4, 0x01, 0x00, 0x00,
  0x9c, 0x01, 0x00, 0x00, 0x94, 0x01, 0x00, 0x00, 0x8c, 0x01, 0x00, 0x00,
  0x84, 0x01, 0x00, 0x00, 0x7c, 0x01, 0x00, 0x00, 0x74, 0x01, 0x00, 0x00,
  0x6c, 0x01, 0x00, 0x00, 0x64, 0x01, 0x00, 0x00, 0x5c, 0x01, 0x00, 0x00,
  0x54, 0x01, 0x00, 0x00, 0x4c, 0x01, 0x00, 0x00, 0x44, 0x01, 0x00, 0x00,
  0x3c, 0x01, 0x00, 0x00, 0x34, 0x01, 0x00, 0x00, 0x2c, 0x01, 0x00, 0x00,
  0x24, 0x01, 0x00, 0x00, 0x1c, 0x01, 0x00, 0x00, 0x14, 0x01, 0x00, 0x00,
  0x0c, 0x01, 0x00, 0x00, 0x04, 0x01, 0x00, 0x00, 0xfc, 0x00, 0x00, 0x00,
  0xf4, 0x00, 0x00, 0x00, 0xec, 0x00, 0x00, 0x00, 0xe4, 0x00, 0x00, 0x00,
  0xdc, 0x00, 0x00, 0x00, 0xd4, 0x00, 0x00, 0x00, 0xcc, 0x00, 0x00, 0x00,
  0xc4, 0x00, 0x00, 0x00, 0xbc, 0x00, 0x00, 0x00, 0xb4, 0x00, 0x00, 0x00,
  0xac, 0x00, 0x00, 0x00, 0xa4, 0x00, 0x00, 0x00, 0x9c, 0x00, 0x00, 0x00,
  0x94, 0x00, 0x00, 0x00, 0x8c, 0x00, 0x00, 0x00, 0x6c, 0x00, 0x00, 0x00,
  0x04, 0x00, 0x00, 0x00, 0xfe, 0xb7, 0xff, 0xff, 0x04, 0x00, 0x00, 0x00,
  0x58, 0x00, 0x00, 0x00, 0x0c, 0x00, 0x00, 0x00, 0x08, 0x00, 0x0e, 0x00,
  0x08, 0x00, 0x04, 0x00, 0x08, 0x00, 0x00, 0x00, 0x10, 0x00, 0x00, 0x00,
  0x28, 0x00, 0x00, 0x00, 0x00, 0x00, 0x06, 0x00, 0x08, 0x00, 0x04, 0x00,
  0x06, 0x00, 0x00, 0x00, 0x04, 0x00, 0x00, 0x00, 0x01, 0x00, 0x00, 0x00,
  0xeb, 0x03, 0x00, 0x00, 0x00, 0x00, 0x0a, 0x00, 0x10, 0x00, 0x0c, 0x00,
  0x08, 0x00, 0x04, 0x00, 0x0a, 0x00, 0x00, 0x00, 0x01, 0x00, 0x00, 0x00,
  0x02, 0x00, 0x00, 0x00, 0x04, 0x00, 0x00, 0x00, 0x06, 0x00, 0x00, 0x00,
  0x32, 0x2e, 0x31, 0x33, 0x2e, 0x30, 0x00, 0x00, 0x62, 0xb8, 0xff, 0xff,
  0x04, 0x00, 0x00, 0x00, 0x10, 0x00, 0x00, 0x00, 0x32, 0x2e, 0x35, 0x2e,
  0x30, 0x00, 0x00, 0x00, 0x00, 0x00, 0x00, 0x00, 0x00, 0x00, 0x00, 0x00,
  0xc4, 0x90, 0xfe, 0xff, 0xc8, 0x90, 0xfe, 0xff, 0xcc, 0x90, 0xfe, 0xff,
  0xd0, 0x90, 0xfe, 0xff, 0xd4, 0x90, 0xfe, 0xff, 0xd8, 0x90, 0xfe, 0xff,
  0xdc, 0x90, 0xfe, 0xff, 0xe0, 0x90, 0xfe, 0xff, 0xe4, 0x90, 0xfe, 0xff,
  0xe8, 0x90, 0xfe, 0xff, 0xec, 0x90, 0xfe, 0xff, 0xf0, 0x90, 0xfe, 0xff,
  0xf4, 0x90, 0xfe, 0xff, 0xf8, 0x90, 0xfe, 0xff, 0xfc, 0x90, 0xfe, 0xff,
  0x00, 0x91, 0xfe, 0xff, 0x04, 0x91, 0xfe, 0xff, 0x08, 0x91, 0xfe, 0xff,
  0x0c, 0x91, 0xfe, 0xff, 0x10, 0x91, 0xfe, 0xff, 0x14, 0x91, 0xfe, 0xff,
  0x18, 0x91, 0xfe, 0xff, 0x1c, 0x91, 0xfe, 0xff, 0x20, 0x91, 0xfe, 0xff,
  0x24, 0x91, 0xfe, 0xff, 0x28, 0x91, 0xfe, 0xff, 0x2c, 0x91, 0xfe, 0xff,
  0x30, 0x91, 0xfe, 0xff, 0x34, 0x91, 0xfe, 0xff, 0x38, 0x91, 0xfe, 0xff,
  0x3c, 0x91, 0xfe, 0xff, 0x40, 0x91, 0xfe, 0xff, 0x44, 0x91, 0xfe, 0xff,
  0x48, 0x91, 0xfe, 0xff, 0x4c, 0x91, 0xfe, 0xff, 0x50, 0x91, 0xfe, 0xff,
  0x54, 0x91, 0xfe, 0xff, 0x58, 0x91, 0xfe, 0xff, 0x5c, 0x91, 0xfe, 0xff,
  0x60, 0x91, 0xfe, 0xff, 0x64, 0x91, 0xfe, 0xff, 0x68, 0x91, 0xfe, 0xff,
  0x6c, 0x91, 0xfe, 0xff, 0x70, 0x91, 0xfe, 0xff, 0x74, 0x91, 0xfe, 0xff,
  0x78, 0x91, 0xfe, 0xff, 0x7c, 0x91, 0xfe, 0xff, 0x80, 0x91, 0xfe, 0xff,
  0x84, 0x91, 0xfe, 0xff, 0x88, 0x91, 0xfe, 0xff, 0x8c, 0x91, 0xfe, 0xff,
  0x90, 0x91, 0xfe, 0xff, 0x94, 0x91, 0xfe, 0xff, 0x98, 0x91, 0xfe, 0xff,
  0x9c, 0x91, 0xfe, 0xff, 0xa0, 0x91, 0xfe, 0xff, 0xa4, 0x91, 0xfe, 0xff,
  0xa8, 0x91, 0xfe, 0xff, 0xac, 0x91, 0xfe, 0xff, 0xb0, 0x91, 0xfe, 0xff,
  0xb4, 0x91, 0xfe, 0xff, 0xb8, 0x91, 0xfe, 0xff, 0xbc, 0x91, 0xfe, 0xff,
  0xc0, 0x91, 0xfe, 0xff, 0xc4, 0x91, 0xfe, 0xff, 0xc8, 0x91, 0xfe, 0xff,
  0xcc, 0x91, 0xfe, 0xff, 0xd0, 0x91, 0xfe, 0xff, 0xd4, 0x91, 0xfe, 0xff,
  0xd8, 0x91, 0xfe, 0xff, 0xdc, 0x91, 0xfe, 0xff, 0xe0, 0x91, 0xfe, 0xff,
  0xe4, 0x91, 0xfe, 0xff, 0xe8, 0x91, 0xfe, 0xff, 0xec, 0x91, 0xfe, 0xff,
  0xf0, 0x91, 0xfe, 0xff, 0xf4, 0x91, 0xfe, 0xff, 0xf8, 0x91, 0xfe, 0xff,
  0xfc, 0x91, 0xfe, 0xff, 0x00, 0x92, 0xfe, 0xff, 0x04, 0x92, 0xfe, 0xff,
  0x08, 0x92, 0xfe, 0xff, 0x0c, 0x92, 0xfe, 0xff, 0x10, 0x92, 0xfe, 0xff,
  0x14, 0x92, 0xfe, 0xff, 0x18, 0x92, 0xfe, 0xff, 0x1c, 0x92, 0xfe, 0xff,
  0x20, 0x92, 0xfe, 0xff, 0x24, 0x92, 0xfe, 0xff, 0x28, 0x92, 0xfe, 0xff,
  0x2c, 0x92, 0xfe, 0xff, 0x30, 0x92, 0xfe, 0xff, 0x34, 0x92, 0xfe, 0xff,
  0x38, 0x92, 0xfe, 0xff, 0x3c, 0x92, 0xfe, 0xff, 0x40, 0x92, 0xfe, 0xff,
  0x44, 0x92, 0xfe, 0xff, 0x48, 0x92, 0xfe, 0xff, 0x4c, 0x92, 0xfe, 0xff,
  0x50, 0x92, 0xfe, 0xff, 0x54, 0x92, 0xfe, 0xff, 0x58, 0x92, 0xfe, 0xff,
  0x5c, 0x92, 0xfe, 0xff, 0x60, 0x92, 0xfe, 0xff, 0x64, 0x92, 0xfe, 0xff,
  0x68, 0x92, 0xfe, 0xff, 0x6c, 0x92, 0xfe, 0xff, 0x70, 0x92, 0xfe, 0xff,
  0x74, 0x92, 0xfe, 0xff, 0x78, 0x92, 0xfe, 0xff, 0x7c, 0x92, 0xfe, 0xff,
  0x80, 0x92, 0xfe, 0xff, 0x84, 0x92, 0xfe, 0xff, 0x88, 0x92, 0xfe, 0xff,
  0x8c, 0x92, 0xfe, 0xff, 0x90, 0x92, 0xfe, 0xff, 0x94, 0x92, 0xfe, 0xff,
  0x98, 0x92, 0xfe, 0xff, 0x9c, 0x92, 0xfe, 0xff, 0xa0, 0x92, 0xfe, 0xff,
  0xa4, 0x92, 0xfe, 0xff, 0xa8, 0x92, 0xfe, 0xff, 0xac, 0x92, 0xfe, 0xff,
  0xb0, 0x92, 0xfe, 0xff, 0xb4, 0x92, 0xfe, 0xff, 0xb8, 0x92, 0xfe, 0xff,
  0xbc, 0x92, 0xfe, 0xff, 0xc0, 0x92, 0xfe, 0xff, 0xc4, 0x92, 0xfe, 0xff,
  0xc8, 0x92, 0xfe, 0xff, 0xcc, 0x92, 0xfe, 0xff, 0xd0, 0x92, 0xfe, 0xff,
  0xd4, 0x92, 0xfe, 0xff, 0xd8, 0x92, 0xfe, 0xff, 0xdc, 0x92, 0xfe, 0xff,
  0xe0, 0x92, 0xfe, 0xff, 0xe4, 0x92, 0xfe, 0xff, 0xe8, 0x92, 0xfe, 0xff,
  0xec, 0x92, 0xfe, 0xff, 0xf0, 0x92, 0xfe, 0xff, 0xf4, 0x92, 0xfe, 0xff,
  0xf8, 0x92, 0xfe, 0xff, 0xfc, 0x92, 0xfe, 0xff, 0x00, 0x93, 0xfe, 0xff,
  0x04, 0x93, 0xfe, 0xff, 0x08, 0x93, 0xfe, 0xff, 0x0c, 0x93, 0xfe, 0xff,
  0x10, 0x93, 0xfe, 0xff, 0x14, 0x93, 0xfe, 0xff, 0x18, 0x93, 0xfe, 0xff,
  0x1c, 0x93, 0xfe, 0xff, 0x20, 0x93, 0xfe, 0xff, 0x24, 0x93, 0xfe, 0xff,
  0x28, 0x93, 0xfe, 0xff, 0x2c, 0x93, 0xfe, 0xff, 0x30, 0x93, 0xfe, 0xff,
  0x34, 0x93, 0xfe, 0xff, 0x38, 0x93, 0xfe, 0xff, 0x3c, 0x93, 0xfe, 0xff,
  0x40, 0x93, 0xfe, 0xff, 0x44, 0x93, 0xfe, 0xff, 0x48, 0x93, 0xfe, 0xff,
  0x4c, 0x93, 0xfe, 0xff, 0x50, 0x93, 0xfe, 0xff, 0x54, 0x93, 0xfe, 0xff,
  0x58, 0x93, 0xfe, 0xff, 0x5c, 0x93, 0xfe, 0xff, 0x60, 0x93, 0xfe, 0xff,
  0x64, 0x93, 0xfe, 0xff, 0x68, 0x93, 0xfe, 0xff, 0x6c, 0x93, 0xfe, 0xff,
  0x70, 0x93, 0xfe, 0xff, 0x74, 0x93, 0xfe, 0xff, 0x78, 0x93, 0xfe, 0xff,
  0x7c, 0x93, 0xfe, 0xff, 0x80, 0x93, 0xfe, 0xff, 0x84, 0x93, 0xfe, 0xff,
  0x88, 0x93, 0xfe, 0xff, 0x8c, 0x93, 0xfe, 0xff, 0x90, 0x93, 0xfe, 0xff,
  0x94, 0x93, 0xfe, 0xff, 0x98, 0x93, 0xfe, 0xff, 0x9c, 0x93, 0xfe, 0xff,
  0xa0, 0x93, 0xfe, 0xff, 0xa4, 0x93, 0xfe, 0xff, 0xa8, 0x93, 0xfe, 0xff,
  0xac, 0x93, 0xfe, 0xff, 0xb0, 0x93, 0xfe, 0xff, 0xb4, 0x93, 0xfe, 0xff,
  0xb8, 0x93, 0xfe, 0xff, 0xbc, 0x93, 0xfe, 0xff, 0xc0, 0x93, 0xfe, 0xff,
  0xc4, 0x93, 0xfe, 0xff, 0xc8, 0x93, 0xfe, 0xff, 0xcc, 0x93, 0xfe, 0xff,
  0xd0, 0x93, 0xfe, 0xff, 0xd4, 0x93, 0xfe, 0xff, 0xd8, 0x93, 0xfe, 0xff,
  0xdc, 0x93, 0xfe, 0xff, 0xe0, 0x93, 0xfe, 0xff, 0xe4, 0x93, 0xfe, 0xff,
  0xe8, 0x93, 0xfe, 0xff, 0xec, 0x93, 0xfe, 0xff, 0xf0, 0x93, 0xfe, 0xff,
  0xf4, 0x93, 0xfe, 0xff, 0xf8, 0x93, 0xfe, 0xff, 0xfc, 0x93, 0xfe, 0xff,
  0x00, 0x94, 0xfe, 0xff, 0x04, 0x94, 0xfe, 0xff, 0x08, 0x94, 0xfe, 0xff,
  0x0c, 0x94, 0xfe, 0xff, 0x10, 0x94, 0xfe, 0xff, 0x14, 0x94, 0xfe, 0xff,
  0x18, 0x94, 0xfe, 0xff, 0x1c, 0x94, 0xfe, 0xff, 0x20, 0x94, 0xfe, 0xff,
  0x24, 0x94, 0xfe, 0xff, 0x28, 0x94, 0xfe, 0xff, 0x2c, 0x94, 0xfe, 0xff,
  0x30, 0x94, 0xfe, 0xff, 0x34, 0x94, 0xfe, 0xff, 0x38, 0x94, 0xfe, 0xff,
  0x3c, 0x94, 0xfe, 0xff, 0x40, 0x94, 0xfe, 0xff, 0x44, 0x94, 0xfe, 0xff,
  0x48, 0x94, 0xfe, 0xff, 0x4c, 0x94, 0xfe, 0xff, 0x50, 0x94, 0xfe, 0xff,
  0x54, 0x94, 0xfe, 0xff, 0x58, 0x94, 0xfe, 0xff, 0x5c, 0x94, 0xfe, 0xff,
  0x60, 0x94, 0xfe, 0xff, 0x64, 0x94, 0xfe, 0xff, 0x68, 0x94, 0xfe, 0xff,
  0x6c, 0x94, 0xfe, 0xff, 0x70, 0x94, 0xfe, 0xff, 0x74, 0x94, 0xfe, 0xff,
  0x78, 0x94, 0xfe, 0xff, 0x7c, 0x94, 0xfe, 0xff, 0x80, 0x94, 0xfe, 0xff,
  0x84, 0x94, 0xfe, 0xff, 0x88, 0x94, 0xfe, 0xff, 0x8c, 0x94, 0xfe, 0xff,
  0x90, 0x94, 0xfe, 0xff, 0x94, 0x94, 0xfe, 0xff, 0x98, 0x94, 0xfe, 0xff,
  0x9c, 0x94, 0xfe, 0xff, 0xa0, 0x94, 0xfe, 0xff, 0xa4, 0x94, 0xfe, 0xff,
  0xa8, 0x94, 0xfe, 0xff, 0xac, 0x94, 0xfe, 0xff, 0xb0, 0x94, 0xfe, 0xff,
  0xb4, 0x94, 0xfe, 0xff, 0xb8, 0x94, 0xfe, 0xff, 0xbc, 0x94, 0xfe, 0xff,
  0xc0, 0x94, 0xfe, 0xff, 0xc4, 0x94, 0xfe, 0xff, 0xc8, 0x94, 0xfe, 0xff,
  0xcc, 0x94, 0xfe, 0xff, 0xd0, 0x94, 0xfe, 0xff, 0xd4, 0x94, 0xfe, 0xff,
  0xd8, 0x94, 0xfe, 0xff, 0xdc, 0x94, 0xfe, 0xff, 0xe0, 0x94, 0xfe, 0xff,
  0xe4, 0x94, 0xfe, 0xff, 0xe8, 0x94, 0xfe, 0xff, 0xec, 0x94, 0xfe, 0xff,
  0xf0, 0x94, 0xfe, 0xff, 0xf4, 0x94, 0xfe, 0xff, 0xf8, 0x94, 0xfe, 0xff,
  0xfc, 0x94, 0xfe, 0xff, 0x00, 0x95, 0xfe, 0xff, 0x04, 0x95, 0xfe, 0xff,
  0x08, 0x95, 0xfe, 0xff, 0x0c, 0x95, 0xfe, 0xff, 0x10, 0x95, 0xfe, 0xff,
  0x14, 0x95, 0xfe, 0xff, 0x18, 0x95, 0xfe, 0xff, 0x1c, 0x95, 0xfe, 0xff,
  0x20, 0x95, 0xfe, 0xff, 0x24, 0x95, 0xfe, 0xff, 0x28, 0x95, 0xfe, 0xff,
  0x2c, 0x95, 0xfe, 0xff, 0x30, 0x95, 0xfe, 0xff, 0x34, 0x95, 0xfe, 0xff,
  0x38, 0x95, 0xfe, 0xff, 0x3c, 0x95, 0xfe, 0xff, 0x40, 0x95, 0xfe, 0xff,
  0x44, 0x95, 0xfe, 0xff, 0x48, 0x95, 0xfe, 0xff, 0x4c, 0x95, 0xfe, 0xff,
  0x50, 0x95, 0xfe, 0xff, 0x54, 0x95, 0xfe, 0xff, 0x58, 0x95, 0xfe, 0xff,
  0x5c, 0x95, 0xfe, 0xff, 0x1a, 0xbd, 0xff, 0xff, 0x04, 0x00, 0x00, 0x00,
  0x00, 0x02, 0x00, 0x00, 0xf8, 0x02, 0x04, 0x00, 0xfa, 0xec, 0xfc, 0x0f,
  0x10, 0x22, 0x2a, 0x36, 0x59, 0x64, 0x72, 0x6b, 0x7f, 0x6c, 0x55, 0x60,
  0x3e, 0x4e, 0x14, 0xfb, 0x09, 0xee, 0xeb, 0xdc, 0xd9, 0xdf, 0xdf, 0xe6,
  0xf4, 0x06, 0x0b, 0x06, 0x0f, 0x15, 0x21, 0x2d, 0x21, 0x27, 0x20, 0x1c,
  0x1d, 0x13, 0x0e, 0x0f, 0x06, 0xfc, 0xff, 0x02, 0x03, 0xf4, 0xf8, 0xf2,
  0xfa, 0xf2, 0xfa, 0xf4, 0xff, 0xf4, 0x00, 0xfa, 0xed, 0xee, 0xe8, 0xf4,
  0xe9, 0xe9, 0xe4, 0xd9, 0xeb, 0xee, 0xf7, 0xeb, 0xfa, 0xf8, 0x04, 0x0a,
  0x0d, 0x17, 0x1e, 0x21, 0x12, 0x0c, 0x10, 0x12, 0x0c, 0x01, 0xfe, 0xef,
  0xd9, 0xdb, 0xbe, 0xa0, 0x8f, 0x91, 0x81, 0x89, 0xad, 0xa0, 0x97, 0xa4,
  0xc6, 0xc3, 0xcb, 0xd4, 0xd6, 0xe0, 0xe8, 0xe4, 0xe3, 0xe5, 0xed, 0xee,
  0xf1, 0xf2, 0xf3, 0xe8, 0x02, 0xff, 0x0a, 0x05, 0xfc, 0x06, 0x10, 0x04,
  0x08, 0x01, 0x05, 0x02, 0x0d, 0x0a, 0x17, 0x15, 0x19, 0x08, 0x05, 0x0d,
  0xfb, 0x18, 0xfa, 0xf8, 0xf2, 0xd6, 0xcc, 0xd8, 0xc3, 0xb3, 0x84, 0x90,
  0x81, 0x87, 0x95, 0xab, 0xaa, 0xcb, 0xc4, 0xe2, 0xf7, 0xe3, 0xfa, 0x10,
  0x12, 0x12, 0x13, 0x13, 0x20, 0x1a, 0x11, 0x15, 0x1e, 0x1c, 0x16, 0x11,
  0x11, 0x16, 0x08, 0x09, 0x06, 0x0f, 0xfc, 0x0c, 0x02, 0x02, 0xf7, 0xfa,
  0x02, 0xee, 0xf6, 0xf4, 0xe7, 0xeb, 0xf5, 0xfc, 0xf8, 0xe6, 0xea, 0xdc,
  0xdc, 0xdc, 0xc9, 0xd8, 0xdc, 0xdd, 0xd3, 0xdf, 0xe0, 0xe7, 0xdf, 0xf1,
  0xfb, 0xfd, 0xfa, 0x07, 0x10, 0x17, 0x2c, 0x2b, 0x40, 0x40, 0x59, 0x51,
  0x6a, 0x78, 0x6b, 0x7f, 0x66, 0x61, 0x67, 0x5d, 0x52, 0x54, 0x51, 0x43,
  0x38, 0x32, 0x40, 0x32, 0x3f, 0x1e, 0x36, 0x54, 0x36, 0x3d, 0x5f, 0x51,
  0x37, 0x47, 0x30, 0x36, 0x22, 0xf8, 0xfc, 0xfc, 0xe3, 0xe9, 0xe2, 0xe3,
  0xf1, 0xfa, 0xf9, 0x07, 0x15, 0x09, 0x23, 0x27, 0x35, 0x2d, 0x45, 0x34,
  0x39, 0x3b, 0x3c, 0x34, 0x02, 0xfb, 0xec, 0xce, 0xb9, 0x99, 0x98, 0x8c,
  0x9e, 0x81, 0xa3, 0x95, 0xb3, 0xd3, 0xfc, 0xf3, 0xf0, 0x1b, 0x10, 0x24,
  0x22, 0x09, 0x0c, 0x0c, 0xfd, 0xf1, 0xfd, 0xe1, 0xd9, 0xe1, 0xdb, 0xe7,
  0xea, 0xf6, 0xfa, 0xff, 0xed, 0xeb, 0xef, 0xef, 0xf7, 0xed, 0xf6, 0xef,
  0x24, 0x2f, 0x20, 0x3c, 0x43, 0x2f, 0x48, 0x45, 0x22, 0x14, 0x1b, 0x14,
  0x0d, 0x15, 0x19, 0x11, 0x2a, 0x26, 0x0d, 0x10, 0x02, 0x01, 0x03, 0xe7,
  0xee, 0xe4, 0xf1, 0xf9, 0xe9, 0xe2, 0xe6, 0xfd, 0xff, 0xf3, 0xee, 0x07,
  0x12, 0x00, 0x07, 0x0a, 0x1b, 0x34, 0x39, 0x17, 0x22, 0x24, 0x3a, 0x4d,
  0x2e, 0x4c, 0x43, 0x57, 0x67, 0x74, 0x66, 0x65, 0x7f, 0x66, 0x3f, 0x51,
  0x53, 0x2a, 0x2d, 0x18, 0x0a, 0x17, 0x1f, 0x2c, 0x20, 0x36, 0x45, 0x22,
  0x06, 0x29, 0x0b, 0x35, 0x21, 0x04, 0x2f, 0x49, 0x40, 0x27, 0x5f, 0x58,
  0x63, 0x4d, 0x7f, 0x4b, 0x59, 0x5a, 0x4e, 0x42, 0x1d, 0x35, 0x03, 0x15,
  0x0d, 0x0a, 0xde, 0xdd, 0xc9, 0x9d, 0xa2, 0xab, 0xb3, 0xac, 0xad, 0xc6,
  0xd4, 0xdc, 0x02, 0x18, 0x3c, 0x2a, 0x56, 0x64, 0x72, 0x69, 0x77, 0x4d,
  0x67, 0x52, 0x25, 0x49, 0x45, 0x45, 0x2b, 0x1a, 0x1b, 0x28, 0x3a, 0x33,
  0x24, 0x2c, 0x35, 0x1d, 0x01, 0xed, 0xd3, 0xcb, 0x9d, 0x99, 0x95, 0x87,
  0x81, 0x9a, 0x9f, 0xa2, 0xb0, 0xc4, 0xcd, 0xd8, 0xef, 0xed, 0xf0, 0xfc,
  0x04, 0x17, 0x09, 0x14, 0x20, 0x23, 0x15, 0x1f, 0x1e, 0x27, 0x2c, 0x18,
  0x0a, 0x17, 0x0c, 0x03, 0x0a, 0xf9, 0x0f, 0x03, 0x09, 0xf9, 0xf0, 0xeb,
  0xf0, 0xec, 0xf1, 0xce, 0xce, 0xc9, 0xcf, 0xcf, 0xd7, 0xd4, 0xdb, 0xdc,
  0x26, 0xbf, 0xff, 0xff, 0x04, 0x00, 0x00, 0x00, 0x20, 0x00, 0x00, 0x00,
  0xf7, 0x07, 0x00, 0x00, 0x5f, 0x41, 0x00, 0x00, 0x6d, 0x45, 0x00, 0x00,
  0x88, 0x0b, 0x00, 0x00, 0xfe, 0xb4, 0xff, 0xff, 0x51, 0x9f, 0xff, 0xff,
  0x93, 0xe6, 0xff, 0xff, 0xe0, 0x15, 0x00, 0x00, 0x52, 0xbf, 0xff, 0xff,
  0x04, 0x00, 0x00, 0x00, 0x3f, 0x00, 0x00, 0x00, 0x01, 0xf6, 0x08, 0x06,
  0xcf, 0xfa, 0xf8, 0x09, 0x36, 0x06, 0xfe, 0xf0, 0xc6, 0xb3, 0xba, 0xc8,
  0xd1, 0xcc, 0xde, 0xf9, 0xec, 0xf6, 0x18, 0x2d, 0xf1, 0xda, 0x07, 0x22,
  0x30, 0x33, 0x2b, 0x0f, 0x0d, 0x0b, 0x0b, 0x02, 0xfd, 0xf2, 0xf4, 0xf8,
  0xf3, 0x02, 0x0c, 0xef, 0xeb, 0x10, 0xde, 0x81, 0xec, 0x06, 0x27, 0x48,
  0x06, 0xf7, 0xcd, 0xb4, 0xc5, 0xc9, 0xeb, 0xe1, 0xdf, 0xf2, 0x09, 0x00,
  0xe4, 0x97, 0xfe, 0xff, 0xe8, 0x97, 0xfe, 0xff, 0xec, 0x97, 0xfe, 0xff,
  0xf0, 0x97, 0xfe, 0xff, 0xf4, 0x97, 0xfe, 0xff, 0xf8, 0x97, 0xfe, 0xff,
  0xfc, 0x97, 0xfe, 0xff, 0x00, 0x98, 0xfe, 0xff, 0x04, 0x98, 0xfe, 0xff,
  0x08, 0x98, 0xfe, 0xff, 0x0c, 0x98, 0xfe, 0xff, 0x10, 0x98, 0xfe, 0xff,
  0x14, 0x98, 0xfe, 0xff, 0x18, 0x98, 0xfe, 0xff, 0x1c, 0x98, 0xfe, 0xff,
  0x20, 0x98, 0xfe, 0xff, 0x24, 0x98, 0xfe, 0xff, 0x28, 0x98, 0xfe, 0xff,
  0x2c, 0x98, 0xfe, 0xff, 0x30, 0x98, 0xfe, 0xff, 0x34, 0x98, 0xfe, 0xff,
  0x38, 0x98, 0xfe, 0xff, 0x3c, 0x98, 0xfe, 0xff, 0x40, 0x98, 0xfe, 0xff,
  0x44, 0x98, 0xfe, 0xff, 0x48, 0x98, 0xfe, 0xff, 0x4c, 0x98, 0xfe, 0xff,
  0x50, 0x98, 0xfe, 0xff, 0x54, 0x98, 0xfe, 0xff, 0x58, 0x98, 0xfe, 0xff,
  0x5c, 0x98, 0xfe, 0xff, 0x60, 0x98, 0xfe, 0xff, 0x64, 0x98, 0xfe, 0xff,
  0x68, 0x98, 0xfe, 0xff, 0x6c, 0x98, 0xfe, 0xff, 0x70, 0x98, 0xfe, 0xff,
  0x74, 0x98, 0xfe, 0xff, 0x78, 0x98, 0xfe, 0xff, 0x7c, 0x98, 0xfe, 0xff,
  0x80, 0x98, 0xfe, 0xff, 0x84, 0x98, 0xfe, 0xff, 0x88, 0x98, 0xfe, 0xff,
  0x8c, 0x98, 0xfe, 0xff, 0x90, 0x98, 0xfe, 0xff, 0x94, 0x98, 0xfe, 0xff,
  0x98, 0x98, 0xfe, 0xff, 0x9c, 0x98, 0xfe, 0xff, 0xa0, 0x98, 0xfe, 0xff,
  0xa4, 0x98, 0xfe, 0xff, 0xa8, 0x98, 0xfe, 0xff, 0xac, 0x98, 0xfe, 0xff,
  0xb0, 0x98, 0xfe, 0xff, 0xb4, 0x98, 0xfe, 0xff, 0xb8, 0x98, 0xfe, 0xff,
  0xbc, 0x98, 0xfe, 0xff, 0x7a, 0xc0, 0xff, 0xff, 0x04, 0x00, 0x00, 0x00,
  0x04, 0x00, 0x00, 0x00, 0x00, 0x00, 0x00, 0x00, 0x8a, 0xc0, 0xff, 0xff,
  0x04, 0x00, 0x00, 0x00, 0x3f, 0x00, 0x00, 0x00, 0xe5, 0xb9, 0xdf, 0x02,
  0x03, 0x05, 0x09, 0xfb, 0xf6, 0x08, 0x0b, 0xfa, 0xfb, 0x11, 0x06, 0xfd,
  0x07, 0x02, 0xe5, 0xc9, 0xb6, 0xaa, 0xe8, 0x05, 0x02, 0x15, 0x06, 0xdf,
  0xea, 0x05, 0x05, 0x0a, 0x08, 0x03, 0xfe, 0xfb, 0x03, 0x01, 0xff, 0xfe,
  0xfe, 0x0d, 0x0b, 0xcb, 0x81, 0xdf, 0x08, 0xf3, 0x0a, 0x0b, 0xf8, 0xf9,
  0x0e, 0x09, 0xfa, 0x02, 0x03, 0x01, 0xff, 0xfb, 0xf6, 0xf2, 0xe3, 0x00,
  0xd6, 0xc0, 0xff, 0xff, 0x04, 0x00, 0x00, 0x00, 0x3f, 0x00, 0x00, 0x00,
  0xfa, 0x07, 0xf9, 0xcc, 0xce, 0xdd, 0xee, 0xfc, 0x1c, 0x22, 0x14, 0x05,
  0x06, 0x04, 0xfa, 0x00, 0x07, 0x16, 0x15, 0xfc, 0x0b, 0x05, 0xeb, 0x08,
  0x0f, 0x0b, 0x0f, 0xeb, 0xcf, 0x95, 0x81, 0xb1, 0xf1, 0x10, 0xf3, 0xcf,
  0xfa, 0x05, 0xbc, 0xbb, 0xce, 0x0e, 0x09, 0x0c, 0x1e, 0xf5, 0x9b, 0xa2,
  0xee, 0x04, 0x0b, 0x20, 0x1a, 0x02, 0x05, 0xff, 0xf5, 0x00, 0x02, 0x12,
  0x12, 0x11, 0x0f, 0x00, 0x22, 0xc1, 0xff, 0xff, 0x04, 0x00, 0x00, 0x00,
  0x3f, 0x00, 0x00, 0x00, 0x21, 0x3c, 0x29, 0x25, 0x13, 0xec, 0xd1, 0xe1,
  0xf5, 0x0b, 0x0b, 0xfa, 0xeb, 0xe7, 0xed, 0xd9, 0xd5, 0xec, 0x0e, 0x21,
  0x18, 0xf3, 0xad, 0xa2, 0xd8, 0x14, 0x1e, 0x1a, 0x14, 0xe4, 0x9e, 0x93,
  0xc4, 0x01, 0x22, 0x29, 0x24, 0x0e, 0xf8, 0xf8, 0xdf, 0xcb, 0x01, 0x5f,
  0x7f, 0x6d, 0x31, 0xf4, 0xc4, 0xb6, 0xe0, 0xff, 0x09, 0x06, 0xfd, 0xf4,
  0xf2, 0x00, 0xf7, 0xfe, 0x06, 0x1b, 0x12, 0x00, 0x6e, 0xc1, 0xff, 0xff,
  0x04, 0x00, 0x00, 0x00, 0x3f, 0x00, 0x00, 0x00, 0x09, 0x0a, 0xfa, 0xee,
  0x04, 0xf4, 0xe2, 0xed, 0xe7, 0xed, 0xf4, 0xf3, 0xdd, 0x0d, 0x16, 0xfc,
  0xe2, 0x81, 0xb6, 0x2c, 0x29, 0xf6, 0x07, 0x12, 0x12, 0x07, 0xfd, 0x02,
  0x0d, 0x11, 0x0f, 0xea, 0xe3, 0xf8, 0xfa, 0xee, 0xd7, 0xc6, 0xc1, 0xd5,
  0xf6, 0x25, 0x15, 0xf7, 0x0c, 0xf8, 0x09, 0x0e, 0xf2, 0xf8, 0xe9, 0xe5,
  0x01, 0x0b, 0xec, 0x17, 0x0f, 0xf2, 0xf5, 0xc7, 0xad, 0xdc, 0x24, 0x00,
  0xba, 0xc1, 0xff, 0xff, 0x04, 0x00, 0x00, 0x00, 0x3f, 0x00, 0x00, 0x00,
  0x02, 0x06, 0x04, 0x00, 0xf9, 0x01, 0x0a, 0x0a, 0x08, 0x18, 0x14, 0xff,
  0xbc, 0x99, 0xc3, 0xd1, 0xf4, 0x0d, 0x22, 0x16, 0x01, 0xfe, 0xfb, 0xfe,
  0xfe, 0x00, 0xfe, 0x0a, 0x10, 0x06, 0x06, 0x0d, 0x12, 0x04, 0xda, 0x81,
  0xa9, 0xec, 0xfb, 0x03, 0xfe, 0xf7, 0x00, 0x05, 0x02, 0x06, 0x02, 0x05,
  0x04, 0x06, 0x03, 0x09, 0x13, 0x16, 0x06, 0xc6, 0xbf, 0xee, 0xf5, 0xfb,
  0x11, 0x0c, 0xf7, 0x00, 0x06, 0xc2, 0xff, 0xff, 0x04, 0x00, 0x00, 0x00,
  0x3f, 0x00, 0x00, 0x00, 0x20, 0x2a, 0xf7, 0xa9, 0xb6, 0xef, 0xfb, 0x0d,
  0x04, 0xed, 0xb6, 0xf2, 0x15, 0x03, 0xd4, 0xe0, 0x0e, 0xf0, 0xd7, 0x1a,
  0x25, 0x05, 0xdb, 0xd0, 0xca, 0xd6, 0xf0, 0xfb, 0xfc, 0xf6, 0xfc, 0x23,
  0x33, 0x18, 0x04, 0x0e, 0x05, 0x02, 0x09, 0x11, 0x15, 0x09, 0x00, 0x11,
  0x1f, 0xda, 0x81, 0xb4, 0xe6, 0x0c, 0x2a, 0x13, 0xe1, 0xc3, 0xf8, 0x15,
  0xfe, 0xde, 0xff, 0x18, 0xf3, 0xd8, 0x26, 0x00, 0x52, 0xc2, 0xff, 0xff,
  0x04, 0x00, 0x00, 0x00, 0x3f, 0x00, 0x00, 0x00, 0xe9, 0xde, 0x07, 0x1a,
  0x00, 0xf3, 0xf6, 0xde, 0xbd, 0xdb, 0xfb, 0xe3, 0xde, 0xde, 0xf6, 0x10,
  0xeb, 0x81, 0xa3, 0x13, 0xfa, 0xec, 0x11, 0x14, 0x06, 0x05, 0x0c, 0xf0,
  0xea, 0x22, 0x26, 0x22, 0x1a, 0xf8, 0x01, 0xfb, 0xe8, 0xee, 0xe3, 0xea,
  0xf6, 0xf3, 0xf9, 0xe7, 0xfa, 0x1c, 0x17, 0xf6, 0x06, 0x15, 0xef, 0xcd,
  0xeb, 0x05, 0xf5, 0xfe, 0xfc, 0xf7, 0xfb, 0xe7, 0xba, 0xd3, 0x03, 0x00,
  0x9e, 0xc2, 0xff, 0xff, 0x04, 0x00, 0x00, 0x00, 0x08, 0x00, 0x00, 0x00,
  0xec, 0x7f, 0x5f, 0x18, 0xa7, 0xfe, 0xe1, 0x36, 0xb2, 0xc2, 0xff, 0xff,
  0x04, 0x00, 0x00, 0x00, 0x40, 0x00, 0x00, 0x00, 0xca, 0x1c, 0x7f, 0xfe,
  0x0e, 0x04, 0x0d, 0xdb, 0xc5, 0x81, 0xb4, 0x28, 0x14, 0xd0, 0xb9, 0x5f,
  0x2c, 0xdf, 0xf2, 0x23, 0xf1, 0x81, 0xaf, 0xeb, 0x59, 0xc0, 0x7f, 0x45,
  0xf8, 0xc0, 0x1c, 0xf7, 0x02, 0xe3, 0x0c, 0x81, 0x2e, 0x9e, 0x0b, 0x24,
  0xd0, 0x7f, 0x16, 0xc7, 0x33, 0xf8, 0x0b, 0x26, 0xf0, 0x7f, 0x8f, 0x1a,
  0x61, 0x21, 0xd1, 0x90, 0x81, 0xec, 0x10, 0xcb, 0xc1, 0xe8, 0x3b, 0xe0,
  0xfe, 0xc2, 0xff, 0xff, 0x04, 0x00, 0x00, 0x00, 0x20, 0x00, 0x00, 0x00,
  0x9c, 0x00, 0x00, 0x00, 0x8f, 0x0b, 0x00, 0x00, 0xad, 0x0e, 0x00, 0x00,
  0x20, 0xdc, 0xff, 0xff, 0xff, 0x0c, 0x00, 0x00, 0x47, 0xf9, 0xff, 0xff,
  0xf7, 0xf1, 0xff, 0xff, 0xe9, 0x0e, 0x00, 0x00, 0x2a, 0xc3, 0xff, 0xff,
  0x04, 0x00, 0x00, 0x00, 0x3f, 0x00, 0x00, 0x00, 0x3b, 0xfe, 0xd2, 0xc6,
  0x46, 0x54, 0xb5, 0xdf, 0x30, 0x12, 0xc4, 0xc6, 0x02, 0x16, 0x12, 0xe4,
  0x90, 0xb2, 0xdd, 0x00, 0xfe, 0xf1, 0xe5, 0xec, 0x1a, 0xfd, 0xf7, 0x1f,
  0x73, 0x31, 0xbb, 0x97, 0xbc, 0xe3, 0x34, 0x3a, 0x21, 0x28, 0x52, 0x33,
  0x47, 0x34, 0x0b, 0x02, 0xf9, 0xcd, 0xae, 0x3b, 0x34, 0x81, 0xf6, 0x57,
  0x19, 0xef, 0xf1, 0xf3, 0x06, 0x07, 0xc6, 0xc8, 0xdb, 0xf3, 0xe9, 0x00,
  0x76, 0xc3, 0xff, 0xff, 0x04, 0x00, 0x00, 0x00, 0x3f, 0x00, 0x00, 0x00,
  0xf1, 0x02, 0x13, 0x06, 0x18, 0x20, 0xec, 0xcb, 0xe2, 0xfb, 0xfb, 0xfc,
  0x04, 0xef, 0xbc, 0x81, 0x8f, 0xa4, 0xad, 0xc9, 0x00, 0x36, 0x11, 0x1a,
  0x2b, 0xfc, 0xe3, 0xef, 0xf0, 0x07, 0x13, 0xf9, 0xe3, 0xd2, 0xb8, 0xc6,
  0xc3, 0xad, 0xd9, 0xf4, 0xd8, 0xcb, 0x04, 0x1c, 0x0a, 0xf2, 0xe8, 0xf8,
  0xfe, 0xde, 0xdc, 0xf7, 0x0c, 0x09, 0xf3, 0x06, 0xee, 0xb4, 0x92, 0xbd,
  0xd1, 0xcf, 0xf4, 0x00, 0xc2, 0xc3, 0xff, 0xff, 0x04, 0x00, 0x00, 0x00,
  0x3f, 0x00, 0x00, 0x00, 0x1e, 0x18, 0x17, 0x04, 0xf5, 0x17, 0x2c, 0x28,
  0x10, 0xde, 0x9f, 0xb4, 0x24, 0x54, 0x35, 0x03, 0x06, 0x27, 0x25, 0x01,
  0xf6, 0xe1, 0xdd, 0x07, 0x11, 0x19, 0x50, 0x7f, 0x2d, 0xec, 0xf9, 0xfb,
  0xfe, 0x03, 0xe4, 0xd0, 0xf3, 0x3b, 0x5c, 0x43, 0x1a, 0xdd, 0xbc, 0xc8,
  0xfa, 0x06, 0x1d, 0x18, 0x2f, 0x1a, 0x30, 0x1c, 0xcb, 0x9b, 0xe1, 0x13,
  0x29, 0x25, 0xf6, 0xff, 0x14, 0xfa, 0xfc, 0x00, 0x0e, 0xc4, 0xff, 0xff,
  0x04, 0x00, 0x00, 0x00, 0x3f, 0x00, 0x00, 0x00, 0x16, 0x01, 0xf6, 0x04,
  0x19, 0x13, 0xe4, 0xea, 0xfb, 0xfb, 0x29, 0x42, 0x4f, 0x51, 0xf9, 0xb6,
  0xaa, 0xc5, 0xe8, 0x0b, 0x17, 0x0f, 0x16, 0x00, 0x0d, 0x15, 0xff, 0xf5,
  0x11, 0x30, 0x5d, 0x7f, 0x59, 0x3d, 0x13, 0xbd, 0x9f, 0xd1, 0x01, 0x1a,
  0x02, 0x00, 0x29, 0x40, 0x19, 0xff, 0x17, 0x26, 0x06, 0xec, 0x08, 0x41,
  0x46, 0x55, 0x4d, 0x3a, 0x07, 0xcc, 0xad, 0xd9, 0xf9, 0x17, 0x24, 0x00,
  0x5a, 0xc4, 0xff, 0xff, 0x04, 0x00, 0x00, 0x00, 0x3f, 0x00, 0x00, 0x00,
  0x73, 0xf5, 0xc1, 0xa5, 0xc2, 0xdb, 0x19, 0x43, 0xf8, 0x95, 0x82, 0xa6,
  0xd0, 0x02, 0x2f, 0x5e, 0x25, 0xf8, 0x08, 0x24, 0x79, 0x6c, 0x25, 0x41,
  0x11, 0x98, 0xaa, 0x06, 0x3f, 0xf1, 0xae, 0xe6, 0x26, 0x94, 0xa7, 0xc2,
  0x3d, 0x47, 0x6f, 0x68, 0x31, 0x7f, 0x1f, 0xe1, 0xcf, 0xd1, 0xe0, 0xd2,
  0xdd, 0xda, 0xa0, 0xcc, 0xc5, 0xc6, 0xbd, 0xfc, 0x44, 0x2d, 0x1d, 0xe0,
  0xc6, 0x0c, 0x62, 0x00, 0xa6, 0xc4, 0xff, 0xff, 0x04, 0x00, 0x00, 0x00,
  0x3f, 0x00, 0x00, 0x00, 0xfb, 0xed, 0xd2, 0xcf, 0xd3, 0xe3, 0xef, 0xe7,
  0x08, 0x15, 0x39, 0x4f, 0x3e, 0x2c, 0x1f, 0xe2, 0xbd, 0xb4, 0xe3, 0xdf,
  0xb7, 0xd3, 0xec, 0xe3, 0xca, 0xe2, 0xd4, 0xcc, 0xd1, 0xe2, 0xe6, 0xdd,
  0xfa, 0x13, 0x25, 0xf4, 0xd0, 0xe2, 0xde, 0xca, 0x94, 0x81, 0xad, 0xdb,
  0xf1, 0xfc, 0x05, 0xf9, 0xf5, 0xfd, 0xf1, 0x14, 0x1d, 0x31, 0x2b, 0x2c,
  0x1d, 0x0f, 0xe6, 0xb8, 0xb9, 0xb7, 0xac, 0x00, 0xf2, 0xc4, 0xff, 0xff,
  0x04, 0x00, 0x00, 0x00, 0x3f, 0x00, 0x00, 0x00, 0xc7, 0x0a, 0x05, 0x14,
  0x0a, 0xe4, 0xf1, 0xf1, 0xf4, 0xe7, 0xf3, 0xdb, 0x08, 0x2a, 0x2f, 0xfa,
  0xfc, 0x25, 0x18, 0xb3, 0x83, 0xaa, 0xe5, 0x02, 0x0a, 0xe5, 0xee, 0xc6,
  0xeb, 0x5c, 0x22, 0xc1, 0xc3, 0xbb, 0xef, 0x14, 0x32, 0x2f, 0x39, 0x1e,
  0x21, 0x8e, 0x90, 0x0a, 0x3e, 0x19, 0xb7, 0xbc, 0xd7, 0xe2, 0xe5, 0xe5,
  0xdf, 0xda, 0xf8, 0x08, 0x1f, 0x16, 0xf1, 0xf8, 0x12, 0xd9, 0x81, 0x00,
  0x3e, 0xc5, 0xff, 0xff, 0x04, 0x00, 0x00, 0x00, 0x3f, 0x00, 0x00, 0x00,
  0x10, 0x12, 0x31, 0x3f, 0xee, 0xe6, 0x16, 0x17, 0xf2, 0x02, 0xef, 0xe9,
  0xd2, 0xbd, 0xc1, 0xe4, 0xc3, 0x85, 0x81, 0xd0, 0x0a, 0x28, 0x64, 0x77,
  0x43, 0xd9, 0xbb, 0xb0, 0xb6, 0xa4, 0x90, 0xa6, 0xda, 0xc5, 0xac, 0xb6,
  0xea, 0x28, 0x19, 0xcc, 0xdc, 0x1b, 0x3e, 0x22, 0x50, 0x53, 0x55, 0x1d,
  0x06, 0x07, 0x18, 0x00, 0xf4, 0xe6, 0x0b, 0x18, 0x00, 0xeb, 0x12, 0xdf,
  0x8e, 0xa6, 0xe1, 0x00, 0x8a, 0xc5, 0xff, 0xff, 0x04, 0x00, 0x00, 0x00,
  0x08, 0x00, 0x00, 0x00, 0xb1, 0x7f, 0x80, 0xba, 0xe3, 0x50, 0x7b, 0x20,
  0x9e, 0xc5, 0xff, 0xff, 0x04, 0x00, 0x00, 0x00, 0x40, 0x00, 0x00, 0x00,
  0x81, 0xd6, 0x15, 0xb9, 0x34, 0x41, 0xfd, 0xcd, 0x50, 0x1e, 0x19, 0x37,
  0x1c, 0x7f, 0x2c, 0x66, 0x29, 0xff, 0xf8, 0x43, 0xd2, 0x7f, 0x88, 0xe8,
  0xe6, 0x5a, 0x85, 0x2c, 0x81, 0x9b, 0x61, 0x1d, 0xfb, 0xa8, 0xbb, 0x76,
  0xed, 0xe2, 0x7f, 0xcf, 0xd8, 0x8e, 0xa4, 0xc9, 0x8b, 0x2c, 0x7f, 0x73,
  0x21, 0xaf, 0x01, 0xb4, 0xca, 0x29, 0x81, 0xac, 0x81, 0x2f, 0x32, 0xe2,
  0xc5, 0x1c, 0xe2, 0x0e, 0xea, 0xc5, 0xff, 0xff, 0x04, 0x00, 0x00, 0x00,
  0x20, 0x00, 0x00, 0x00, 0x19, 0xfc, 0xff, 0xff, 0xf4, 0xc0, 0xff, 0xff,
  0xb8, 0x03, 0x00, 0x00, 0xea, 0x05, 0x00, 0x00, 0xaa, 0xfa, 0xff, 0xff,
  0x02, 0xe9, 0xff, 0xff, 0x42, 0x13, 0x00, 0x00, 0x3e, 0xfa, 0xff, 0xff,
  0x16, 0xc6, 0xff, 0xff, 0x04, 0x00, 0x00, 0x00, 0x3f, 0x00, 0x00, 0x00,
  0x24, 0x0a, 0xce, 0xca, 0x03, 0x1a, 0xf9, 0xfa, 0x12, 0x15, 0xe9, 0xe2,
  0xdd, 0x02, 0x0d, 0x09, 0xe9, 0xd5, 0xeb, 0x16, 0x20, 0x22, 0x39, 0x5a,
  0x40, 0x18, 0x15, 0x12, 0x10, 0xed, 0xc6, 0xe0, 0xff, 0x0b, 0x08, 0x0b,
  0x00, 0xee, 0xd2, 0xed, 0x08, 0x31, 0x49, 0x32, 0xe3, 0x87, 0x81, 0xd2,
  0xf0, 0xe4, 0x04, 0x0f, 0xdf, 0xbc, 0xad, 0xd4, 0xf6, 0xf8, 0x01, 0xe5,
  0xcf, 0xdc, 0xfc, 0x00, 0x62, 0xc6, 0xff, 0xff, 0x04, 0x00, 0x00, 0x00,
  0x3f, 0x00, 0x00, 0x00, 0x00, 0xfb, 0x0f, 0x11, 0xdd, 0x1c, 0x02, 0xe4,
  0xd4, 0xde, 0xf7, 0xaa, 0x94, 0xb4, 0xe5, 0xf5, 0xdc, 0xae, 0xb2, 0xad,
  0xc3, 0xd5, 0xde, 0xec, 0xed, 0xb9, 0x8c, 0x8c, 0xd1, 0xb3, 0xca, 0xa2,
  0x9a, 0xba, 0xe2, 0xd8, 0xe3, 0xe7, 0x08, 0x02, 0x21, 0x21, 0x23, 0x51,
  0x3f, 0x27, 0x29, 0x02, 0x16, 0x28, 0x06, 0x24, 0x00, 0x12, 0x09, 0x54,
  0x4b, 0x7f, 0x42, 0xf6, 0xe6, 0xec, 0xf1, 0x00, 0xae, 0xc6, 0xff, 0xff,
  0x04, 0x00, 0x00, 0x00, 0x3f, 0x00, 0x00, 0x00, 0x39, 0x0c, 0x90, 0x81,
  0xa9, 0xef, 0x27, 0x10, 0xe6, 0xbd, 0xb8, 0x9f, 0xaf, 0x9b, 0xb6, 0xaa,
  0xcf, 0xe6, 0xcd, 0xdd, 0xe0, 0x02, 0xfc, 0x03, 0x16, 0x10, 0xd0, 0x95,
  0xaa, 0xb5, 0xd2, 0xed, 0x03, 0xef, 0xe0, 0xe5, 0xe1, 0xb6, 0xdd, 0xef,
  0x0b, 0x47, 0x48, 0x15, 0xbd, 0x8b, 0x91, 0x9d, 0xcd, 0xed, 0xe2, 0xe8,
  0xfc, 0x36, 0x42, 0x1f, 0x01, 0xce, 0xc2, 0xd3, 0xde, 0xf7, 0x3b, 0x00,
  0xfa, 0xc6, 0xff, 0xff, 0x04, 0x00, 0x00, 0x00, 0x3f, 0x00, 0x00, 0x00,
  0x2f, 0x4e, 0x6d, 0x7e, 0x7f, 0x55, 0x5a, 0x2c, 0xea, 0xa2, 0x9c, 0xe2,
  0xc6, 0xa5, 0xa2, 0xb9, 0xce, 0xed, 0x0a, 0x29, 0x37, 0x4e, 0x39, 0x1d,
  0x2a, 0x34, 0x4f, 0x6d, 0x43, 0xf3, 0xd4, 0xfc, 0x21, 0x2b, 0x22, 0x1c,
  0x1a, 0x2e, 0x43, 0x3c, 0x03, 0xc2, 0xc0, 0xdc, 0x08, 0x44, 0x74, 0x6d,
  0x57, 0x46, 0x2a, 0xfc, 0xd9, 0xf2, 0x27, 0x34, 0x42, 0x34, 0x3e, 0x3a,
  0x38, 0x1e, 0xfd, 0x00, 0x46, 0xc7, 0xff, 0xff, 0x04, 0x00, 0x00, 0x00,
  0x3f, 0x00, 0x00, 0x00, 0x13, 0x01, 0x10, 0x21, 0x1f, 0x0b, 0xfd, 0xf3,
  0x02, 0xfd, 0x07, 0x1f, 0x0f, 0x37, 0x55, 0x7b, 0x7f, 0x78, 0x69, 0x45,
  0x33, 0x19, 0x02, 0xea, 0xe8, 0xec, 0x0e, 0x17, 0x15, 0x14, 0x31, 0x20,
  0x0f, 0xf7, 0xfa, 0x04, 0x24, 0x28, 0x45, 0x41, 0x14, 0x09, 0x02, 0x03,
  0x12, 0x1d, 0x2f, 0x16, 0x16, 0x20, 0x25, 0x20, 0x36, 0x43, 0x4a, 0x53,
  0x61, 0x4b, 0x1d, 0xf9, 0xdf, 0xf1, 0xda, 0x00, 0x92, 0xc7, 0xff, 0xff,
  0x04, 0x00, 0x00, 0x00, 0x3f, 0x00, 0x00, 0x00, 0xef, 0xd3, 0xd0, 0xe8,
  0xe1, 0xf6, 0x1a, 0x1e, 0x2e, 0x12, 0x05, 0xfe, 0x08, 0xf5, 0xeb, 0xd2,
  0xb7, 0xc3, 0x03, 0x18, 0x08, 0xf4, 0xf7, 0xe6, 0xe7, 0xe4, 0xfe, 0x39,
  0x3e, 0x2f, 0x22, 0xef, 0xe3, 0xf7, 0xfe, 0xe2, 0x9c, 0x81, 0x95, 0xd1,
  0x15, 0x31, 0x11, 0xdf, 0xb8, 0xc6, 0xdb, 0xe5, 0x07, 0x28, 0x43, 0x33,
  0x10, 0xfa, 0xfc, 0xe3, 0xf1, 0xd1, 0xa9, 0xba, 0xef, 0x0e, 0xfe, 0x00,
  0xde, 0xc7, 0xff, 0xff, 0x04, 0x00, 0x00, 0x00, 0x3f, 0x00, 0x00, 0x00,
  0xda, 0xd8, 0xfe, 0x24, 0x04, 0xdb, 0x02, 0x2b, 0x1a, 0xf6, 0xe7, 0xd5,
  0xaa, 0x88, 0xbe, 0xe4, 0xd7, 0x02, 0xfb, 0xf6, 0xe2, 0xd5, 0xff, 0x1c,
  0x04, 0xec, 0x13, 0x23, 0x16, 0x05, 0xff, 0xdb, 0xcc, 0xbc, 0xbc, 0x81,
  0x89, 0x9d, 0xc1, 0xa4, 0xb0, 0xc0, 0xf4, 0xe6, 0xec, 0x30, 0x36, 0x17,
  0x03, 0x14, 0x24, 0x0d, 0x07, 0xfa, 0xe2, 0xd1, 0xcf, 0xd1, 0xe9, 0x03,
  0x0a, 0x10, 0xf7, 0x00, 0x2a, 0xc8, 0xff, 0xff, 0x04, 0x00, 0x00, 0x00,
  0x3f, 0x00, 0x00, 0x00, 0x04, 0xda, 0xe2, 0x08, 0x1c, 0x14, 0x0b, 0xf4,
  0x04, 0x06, 0x04, 0x24, 0x33, 0x32, 0x13, 0xfd, 0x36, 0x5a, 0x31, 0xfb,
  0xe8, 0x04, 0xf7, 0xf6, 0xe7, 0xe2, 0xeb, 0xd7, 0xa9, 0xd0, 0xf7, 0x4b,
  0x66, 0x41, 0x5c, 0x7b, 0x7f, 0x4a, 0xff, 0xfe, 0xe4, 0xe4, 0xf5, 0xf7,
  0xe7, 0xdd, 0xf7, 0x0d, 0xdc, 0xe5, 0x12, 0x2a, 0x10, 0x08, 0x10, 0x16,
  0x1b, 0x20, 0x0d, 0x22, 0x34, 0x10, 0x05, 0x00, 0x76, 0xc8, 0xff, 0xff,
  0x04, 0x00, 0x00, 0x00, 0x08, 0x00, 0x00, 0x00, 0x13, 0xd2, 0x27, 0xc9,
  0x80, 0x22, 0x7f, 0xb3, 0x8a, 0xc8, 0xff, 0xff, 0x04, 0x00, 0x00, 0x00,
  0x40, 0x00, 0x00, 0x00, 0xd3, 0x04, 0x37, 0x05, 0x18, 0x22, 0x0c, 0x7f,
  0x29, 0x25, 0x42, 0x36, 0xee, 0xb5, 0x17, 0x7f, 0x7f, 0x17, 0xb2, 0xbd,
  0x73, 0x03, 0x34, 0x9a, 0x22, 0xd7, 0x18, 0x8c, 0x81, 0xf0, 0xe8, 0x0f,
  0x3b, 0x26, 0xf7, 0x1c, 0x45, 0x7f, 0x22, 0xe6, 0xdf, 0x01, 0x98, 0xd2,
  0xf0, 0x7f, 0xfa, 0x1f, 0x26, 0x09, 0xd2, 0xb9, 0x81, 0x3b, 0x41, 0x79,
  0x81, 0xfa, 0xec, 0x01, 0x14, 0xe6, 0x79, 0x0c, 0xd6, 0xc8, 0xff, 0xff,
  0x04, 0x00, 0x00, 0x00, 0x20, 0x00, 0x00, 0x00, 0x0c, 0xea, 0xff, 0xff,
  0xea, 0xc5, 0xff, 0xff, 0x2d, 0xe3, 0xff, 0xff, 0x7d, 0x05, 0x00, 0x00,
  0x6f, 0xd5, 0xff, 0xff, 0x64, 0xeb, 0xff, 0xff, 0xd9, 0xdc, 0xff, 0xff,
  0xe3, 0xde, 0xff, 0xff, 0x02, 0xc9, 0xff, 0xff, 0x04, 0x00, 0x00, 0x00,
  0x18, 0x00, 0x00, 0x00, 0x0a, 0x03, 0x0b, 0x09, 0x0e, 0x20, 0x2f, 0x14,
  0x15, 0x14, 0x0b, 0x3a, 0x72, 0x55, 0x4e, 0x66, 0x7f, 0x68, 0x4b, 0x4d,
  0x4f, 0x42, 0x21, 0x23, 0x26, 0xc9, 0xff, 0xff, 0x04, 0x00, 0x00, 0x00,
  0x18, 0x00, 0x00, 0x00, 0x0b, 0xfd, 0xd5, 0xee, 0x07, 0xf8, 0x22, 0x0f,
  0x45, 0x5d, 0x45, 0x7f, 0x53, 0x53, 0x61, 0x3c, 0x45, 0x6f, 0x34, 0x26,
  0xf2, 0xe8, 0x36, 0x50, 0x4a, 0xc9, 0xff, 0xff, 0x04, 0x00, 0x00, 0x00,
  0x18, 0x00, 0x00, 0x00, 0x6a, 0x55, 0x2e, 0x0b, 0xeb, 0xf1, 0xe5, 0xcc,
  0xe5, 0xe5, 0xfb, 0x0d, 0x44, 0x54, 0x6f, 0x7f, 0x54, 0x27, 0x31, 0x48,
  0x1f, 0x41, 0x2e, 0xf7, 0x6e, 0xc9, 0xff, 0xff, 0x04, 0x00, 0x00, 0x00,
  0x18, 0x00, 0x00, 0x00, 0x81, 0xdc, 0xd4, 0xe3, 0xf9, 0xfc, 0x11, 0x2a,
  0x3f, 0x41, 0x4b, 0x50, 0x43, 0x57, 0x36, 0x2d, 0x15, 0xf9, 0xe5, 0xed,
  0xeb, 0xf3, 0xe2, 0xd6, 0x92, 0xc9, 0xff, 0xff, 0x04, 0x00, 0x00, 0x00,
  0x18, 0x00, 0x00, 0x00, 0xc0, 0xd5, 0xdb, 0xda, 0xd7, 0xf0, 0xf4, 0xef,
  0x0b, 0x0f, 0xf5, 0xeb, 0xf6, 0xe6, 0xe6, 0xc8, 0x8e, 0x9e, 0xa4, 0xce,
  0x81, 0xb8, 0xb8, 0xb6, 0xb6, 0xc9, 0xff, 0xff, 0x04, 0x00, 0x00, 0x00,
  0x18, 0x00, 0x00, 0x00, 0x11, 0x19, 0xe0, 0x05, 0x11, 0xfd, 0x08, 0x27,
  0x35, 0x51, 0x68, 0x73, 0x7b, 0x7e, 0x74, 0x7f, 0x35, 0x37, 0x17, 0x04,
  0x08, 0x02, 0xdc, 0xbe, 0xda, 0xc9, 0xff, 0xff, 0x04, 0x00, 0x00, 0x00,
  0x18, 0x00, 0x00, 0x00, 0xe2, 0xda, 0xed, 0xe6, 0x04, 0x22, 0x0b, 0x20,
  0x7f, 0x5f, 0x73, 0x2c, 0x58, 0x29, 0x3a, 0x59, 0x22, 0x08, 0x18, 0x54,
  0x11, 0xdf, 0xbc, 0xb5, 0xfe, 0xc9, 0xff, 0xff, 0x04, 0x00, 0x00, 0x00,
  0x18, 0x00, 0x00, 0x00, 0x1d, 0x25, 0x19, 0x1a, 0x35, 0xdc, 0xc8, 0xcd,
  0xee, 0xe5, 0xf2, 0x05, 0x14, 0x4c, 0x3f, 0x59, 0x77, 0x61, 0x7a, 0x6c,
  0x7f, 0x4b, 0x52, 0x4b, 0x22, 0xca, 0xff, 0xff, 0x04, 0x00, 0x00, 0x00,
  0x08, 0x00, 0x00, 0x00, 0xbc, 0x80, 0xf4, 0xed, 0x7f, 0x24, 0x1f, 0x3c,
  0x36, 0xca, 0xff, 0xff, 0x04, 0x00, 0x00, 0x00, 0x40, 0x00, 0x00, 0x00,
  0x52, 0x2d, 0xd5, 0x7f, 0xe9, 0xd4, 0xf5, 0x47, 0xd9, 0xce, 0x05, 0x7f,
  0x06, 0xf0, 0xfe, 0xf0, 0xf9, 0xf9, 0xe7, 0xe4, 0x1e, 0x07, 0x7f, 0x08,
  0x7f, 0x77, 0x14, 0x01, 0x00, 0x2d, 0x06, 0x08, 0xf4, 0xca, 0x81, 0x1d,
  0x64, 0x25, 0xd6, 0xc8, 0xf2, 0xe5, 0xfc, 0x00, 0xf9, 0x7f, 0x14, 0x0e,
  0x02, 0xd7, 0x16, 0x19, 0xe7, 0x7f, 0xf6, 0x18, 0x1d, 0xed, 0x00, 0xdf,
  0x20, 0xfa, 0xfd, 0x7f, 0x82, 0xca, 0xff, 0xff, 0x04, 0x00, 0x00, 0x00,
  0x20, 0x00, 0x00, 0x00, 0x06, 0x07, 0x00, 0x00, 0x24, 0xf8, 0xff, 0xff,
  0x5e, 0xf8, 0xff, 0xff, 0x01, 0xf9, 0xff, 0xff, 0x7a, 0x12, 0x00, 0x00,
  0x4a, 0xf8, 0xff, 0xff, 0xf4, 0xf0, 0xff, 0xff, 0x51, 0xfd, 0xff, 0xff,
  0xae, 0xca, 0xff, 0xff, 0x04, 0x00, 0x00, 0x00, 0x07, 0x00, 0x00, 0x00,
  0xf6, 0x7f, 0xef, 0x68, 0x49, 0xe5, 0x39, 0x00, 0xc2, 0xca, 0xff, 0xff,
  0x04, 0x00, 0x00, 0x00, 0x07, 0x00, 0x00, 0x00, 0x2a, 0x60, 0xbc, 0x7f,
  0x07, 0xcc, 0x56, 0x00, 0xd6, 0xca, 0xff, 0xff, 0x04, 0x00, 0x00, 0x00,
  0x07, 0x00, 0x00, 0x00, 0x15, 0x18, 0x7f, 0x0b, 0x15, 0x24, 0xff, 0x00,
  0xea, 0xca, 0xff, 0xff, 0x04, 0x00, 0x00, 0x00, 0x07, 0x00, 0x00, 0x00,
  0x31, 0x7f, 0x60, 0x5d, 0x13, 0x4a, 0x39, 0x00, 0xfe, 0xca, 0xff, 0xff,
  0x04, 0x00, 0x00, 0x00, 0x07, 0x00, 0x00, 0x00, 0x1b, 0x37, 0x81, 0xc4,
  0xd3, 0x40, 0x1f, 0x00, 0x12, 0xcb, 0xff, 0xff, 0x04, 0x00, 0x00, 0x00,
  0x07, 0x00, 0x00, 0x00, 0xbd, 0x7f, 0xc2, 0xc9, 0x17, 0xd5, 0x12, 0x00,
  0x26, 0xcb, 0xff, 0xff, 0x04, 0x00, 0x00, 0x00, 0x07, 0x00, 0x00, 0x00,
  0x66, 0x01, 0x5f, 0x36, 0x8b, 0x7f, 0xd6, 0x00, 0x3a, 0xcb, 0xff, 0xff,
  0x04, 0x00, 0x00, 0x00, 0x07, 0x00, 0x00, 0x00, 0x0b, 0xef, 0x1d, 0x7f,
  0x84, 0x03, 0x01, 0x00, 0x4e, 0xcb, 0xff, 0xff, 0x04, 0x00, 0x00, 0x00,
  0x08, 0x00, 0x00, 0x00, 0xf4, 0x0b, 0xdf, 0x80, 0xfe, 0x7f, 0x09, 0x44,
  0x62, 0xcb, 0xff, 0xff, 0x04, 0x00, 0x00, 0x00, 0x40, 0x00, 0x00, 0x00,
  0xdc, 0xfe, 0x7f, 0xf1, 0x05, 0x30, 0xe9, 0x00, 0x7f, 0x2f, 0xf6, 0x5a,
  0xf8, 0xee, 0xf5, 0x1e, 0x17, 0x22, 0xb6, 0x7f, 0x0d, 0xe7, 0x14, 0x1d,
  0xfc, 0x0c, 0x81, 0x24, 0x14, 0xce, 0x61, 0x26, 0xda, 0x63, 0x1f, 0xe0,
  0xbc, 0x8d, 0x7f, 0xd3, 0x04, 0x43, 0x81, 0xea, 0x27, 0x5f, 0x60, 0x0a,
  0xf4, 0x7f, 0xd5, 0xe1, 0xf6, 0x15, 0x02, 0xf1, 0xf1, 0xbf, 0xfa, 0x55,
  0x13, 0x0e, 0xce, 0x7f, 0xae, 0xcb, 0xff, 0xff, 0x04, 0x00, 0x00, 0x00,
  0x20, 0x00, 0x00, 0x00, 0xf9, 0xfb, 0xff, 0xff, 0xb6, 0x02, 0x00, 0x00,
  0x81, 0x06, 0x00, 0x00, 0x5f, 0xfa, 0xff, 0xff, 0xc8, 0x0f, 0x00, 0x00,
  0x8b, 0x1b, 0x00, 0x00, 0x9a, 0xaf, 0xff, 0xff, 0x93, 0xff, 0xff, 0xff,
  0xda, 0xcb, 0xff, 0xff, 0x04, 0x00, 0x00, 0x00, 0x07, 0x00, 0x00, 0x00,
  0xc3, 0xc9, 0xc5, 0xd8, 0xb1, 0x81, 0xc7, 0x00, 0xee, 0xcb, 0xff, 0xff,
  0x04, 0x00, 0x00, 0x00, 0x07, 0x00, 0x00, 0x00, 0xe6, 0x81, 0xd3, 0xf4,
  0xe7, 0x1b, 0xf4, 0x00, 0x02, 0xcc, 0xff, 0xff, 0x04, 0x00, 0x00, 0x00,
  0x07, 0x00, 0x00, 0x00, 0x13, 0x1d, 0x7f, 0x00, 0x53, 0x25, 0xf8, 0x00,
  0x16, 0xcc, 0xff, 0xff, 0x04, 0x00, 0x00, 0x00, 0x07, 0x00, 0x00, 0x00,
  0x23, 0xc3, 0xf5, 0xc6, 0x81, 0xbd, 0xe4, 0x00, 0x2a, 0xcc, 0xff, 0xff,
  0x04, 0x00, 0x00, 0x00, 0x07, 0x00, 0x00, 0x00, 0xa5, 0xa4, 0xc2, 0x81,
  0xd7, 0x06, 0xce, 0x00, 0x3e, 0xcc, 0xff, 0xff, 0x04, 0x00, 0x00, 0x00,
  0x07, 0x00, 0x00, 0x00, 0xc5, 0x26, 0x07, 0xfa, 0x7f, 0xbf, 0x1e, 0x00,
  0x52, 0xcc, 0xff, 0xff, 0x04, 0x00, 0x00, 0x00, 0x07, 0x00, 0x00, 0x00,
  0x94, 0x2e, 0x81, 0xae, 0x3d, 0x9d, 0x0d, 0x00, 0x66, 0xcc, 0xff, 0xff,
  0x04, 0x00, 0x00, 0x00, 0x07, 0x00, 0x00, 0x00, 0x81, 0x9f, 0xc8, 0xef,
  0xcd, 0xc8, 0x59, 0x00, 0x7a, 0xcc, 0xff, 0xff, 0x04, 0x00, 0x00, 0x00,
  0x08, 0x00, 0x00, 0x00, 0x1a, 0x51, 0x80, 0x20, 0x68, 0x21, 0x00, 0x7f,
  0x8e, 0xcc, 0xff, 0xff, 0x04, 0x00, 0x00, 0x00, 0x40, 0x00, 0x00, 0x00,
  0xaa, 0xd5, 0x0f, 0xdf, 0xfc, 0x7f, 0x06, 0xd4, 0x35, 0xd3, 0x0c, 0x45,
  0xe0, 0x81, 0xf4, 0x07, 0xbe, 0x8b, 0x81, 0x0e, 0xd8, 0xe3, 0xfc, 0xf7,
  0x81, 0x06, 0x3d, 0x04, 0xdd, 0x35, 0x15, 0xce, 0x21, 0x08, 0xed, 0x17,
  0xac, 0x81, 0xfc, 0xef, 0xf1, 0xf1, 0xe6, 0xda, 0x5b, 0x7f, 0x26, 0x0b,
  0x4c, 0xf3, 0xd3, 0x27, 0x9c, 0xcd, 0xea, 0x81, 0xfd, 0xe6, 0x12, 0x1a,
  0x19, 0xef, 0xf0, 0x81, 0xda, 0xcc, 0xff, 0xff, 0x04, 0x00, 0x00, 0x00,
  0x20, 0x00, 0x00, 0x00, 0x88, 0xfd, 0xff, 0xff, 0x51, 0x0c, 0x00, 0x00,
  0x0a, 0x0d, 0x00, 0x00, 0x7f, 0x10, 0x00, 0x00, 0xcb, 0x0b, 0x00, 0x00,
  0x23, 0xdb, 0xff, 0xff, 0x31, 0x1a, 0x00, 0x00, 0xf4, 0x1c, 0x00, 0x00,
  0x06, 0xcd, 0xff, 0xff, 0x04, 0x00, 0x00, 0x00, 0x07, 0x00, 0x00, 0x00,
  0xb8, 0xf2, 0x81, 0x09, 0xc1, 0x01, 0x35, 0x00, 0x1a, 0xcd, 0xff, 0xff,
  0x04, 0x00, 0x00, 0x00, 0x07, 0x00, 0x00, 0x00, 0xbc, 0x81, 0xe9, 0xec,
  0x0d, 0xe7, 0x00, 0x00, 0x2e, 0xcd, 0xff, 0xff, 0x04, 0x00, 0x00, 0x00,
  0x07, 0x00, 0x00, 0x00, 0xdc, 0xf5, 0x7f, 0xa8, 0x15, 0x0c, 0xdb, 0x00,
  0x42, 0xcd, 0xff, 0xff, 0x04, 0x00, 0x00, 0x00, 0x07, 0x00, 0x00, 0x00,
  0x81, 0xb1, 0xe2, 0xc7, 0x03, 0x20, 0x36, 0x00, 0x56, 0xcd, 0xff, 0xff,
  0x04, 0x00, 0x00, 0x00, 0x07, 0x00, 0x00, 0x00, 0xea, 0x81, 0xef, 0x38,
  0xb5, 0xfc, 0xc6, 0x00, 0x6a, 0xcd, 0xff, 0xff, 0x04, 0x00, 0x00, 0x00,
  0x07, 0x00, 0x00, 0x00, 0x13, 0x26, 0x7f, 0x59, 0x68, 0x67, 0x5e, 0x00,
  0x7e, 0xcd, 0xff, 0xff, 0x04, 0x00, 0x00, 0x00, 0x07, 0x00, 0x00, 0x00,
  0xfb, 0x20, 0xf6, 0x1a, 0x00, 0xaa, 0x81, 0x00, 0x92, 0xcd, 0xff, 0xff,
  0x04, 0x00, 0x00, 0x00, 0x07, 0x00, 0x00, 0x00, 0x7f, 0x0f, 0x58, 0xa6,
  0x78, 0xd9, 0x01, 0x00, 0xa6, 0xcd, 0xff, 0xff, 0x04, 0x00, 0x00, 0x00,
  0x08, 0x00, 0x00, 0x00, 0xf3, 0x44, 0x0e, 0x74, 0x7f, 0x80, 0x10, 0x27,
  0xba, 0xcd, 0xff, 0xff, 0x04, 0x00, 0x00, 0x00, 0x40, 0x00, 0x00, 0x00,
  0xf2, 0xde, 0x68, 0x81, 0xd8, 0xf8, 0xee, 0x21, 0xfe, 0xe2, 0xff, 0x03,
  0x83, 0x81, 0xfb, 0xe9, 0x12, 0xf5, 0x7f, 0xee, 0xf2, 0x0e, 0x02, 0xf6,
  0xd9, 0xe3, 0xf8, 0x81, 0x17, 0x03, 0x0b, 0x00, 0xff, 0x03, 0xf6, 0x01,
  0xfd, 0x7f, 0x00, 0x08, 0xed, 0x13, 0xfa, 0xf7, 0x28, 0xf5, 0xfd, 0x81,
  0xf7, 0x1b, 0x7f, 0xf3, 0x18, 0x05, 0x02, 0xfa, 0xdf, 0x19, 0x2b, 0xbf,
  0xc7, 0x01, 0xe9, 0x7f, 0x06, 0xce, 0xff, 0xff, 0x04, 0x00, 0x00, 0x00,
  0x20, 0x00, 0x00, 0x00, 0x85, 0x03, 0x00, 0x00, 0x7c, 0x04, 0x00, 0x00,
  0xc2, 0x02, 0x00, 0x00, 0xc5, 0x09, 0x00, 0x00, 0x76, 0x01, 0x00, 0x00,
  0xad, 0x01, 0x00, 0x00, 0xb6, 0x02, 0x00, 0x00, 0xde, 0xff, 0xff, 0xff,
  0x32, 0xce, 0xff, 0xff, 0x04, 0x00, 0x00, 0x00, 0x40, 0x02, 0x00, 0x00,
  0xf3, 0xed, 0xeb, 0xfe, 0x4d, 0x2c, 0x07, 0xfa, 0x18, 0xed, 0xf4, 0xf6,
  0x5b, 0x0d, 0xec, 0xfe, 0x05, 0xeb, 0xec, 0xfc, 0x7f, 0x37, 0x0e, 0xf8,
  0xf9, 0xfb, 0xeb, 0xfb, 0x71, 0x32, 0x16, 0x00, 0xfd, 0xed, 0xe9, 0xfd,
  0x5f, 0x23, 0x01, 0x01, 0xff, 0xf0, 0xea, 0xff, 0x3b, 0x1c, 0x08, 0x09,
  0xf9, 0xcd, 0xef, 0x02, 0x4e, 0x23, 0x11, 0x01, 0xf9, 0xfd, 0xf0, 0xfe,
  0x2f, 0x0e, 0x13, 0x06, 0x09, 0xdd, 0xe7, 0xfd, 0x2b, 0x04, 0x0a, 0x14,
  0x16, 0x26, 0xe5, 0x13, 0xf2, 0x03, 0xd0, 0x79, 0xd3, 0x3f, 0xe1, 0x19,
  0xf7, 0x29, 0x06, 0x59, 0xec, 0x24, 0xd9, 0x0c, 0xf0, 0x05, 0xda, 0x7d,
  0xf3, 0x1b, 0xcf, 0x23, 0xfb, 0x15, 0xd8, 0x7f, 0xdb, 0x22, 0xce, 0x19,
  0x00, 0x1e, 0xe8, 0x6d, 0xe4, 0x20, 0xc4, 0x07, 0x13, 0x17, 0xf1, 0x30,
  0xe2, 0x29, 0xb6, 0x11, 0x05, 0x18, 0xe5, 0x69, 0xe2, 0x19, 0xbe, 0x11,
  0x0c, 0x1b, 0xf0, 0x05, 0xdc, 0x30, 0xd3, 0x16, 0x0b, 0x0d, 0x06, 0x0d,
  0xf5, 0x08, 0xe5, 0xfc, 0xec, 0x0a, 0xb3, 0x99, 0xe2, 0x07, 0xe9, 0x0b,
  0xfc, 0x25, 0xd8, 0x81, 0xee, 0x16, 0xe1, 0x0b, 0x00, 0x1e, 0xd2, 0x9d,
  0xf7, 0x14, 0xdb, 0x14, 0xf9, 0x29, 0xcb, 0xce, 0xfa, 0x16, 0xea, 0x11,
  0xf8, 0x24, 0xcd, 0xb1, 0x03, 0x24, 0xea, 0x14, 0xff, 0x22, 0xdd, 0xab,
  0xf5, 0x13, 0xe2, 0x07, 0xfe, 0x22, 0xd6, 0x87, 0xed, 0x10, 0xe6, 0x10,
  0xfe, 0x28, 0xc8, 0x9b, 0xf3, 0x0a, 0xda, 0x0c, 0x08, 0x2e, 0xcd, 0x8b,
  0x13, 0x59, 0xee, 0x98, 0x1f, 0xa8, 0x05, 0xbb, 0xec, 0x58, 0x06, 0xc1,
  0x14, 0xf2, 0x1b, 0xde, 0x02, 0x7f, 0x1c, 0xb9, 0x1d, 0xc2, 0xfd, 0xda,
  0x48, 0x45, 0xfc, 0xba, 0x12, 0xc3, 0xdf, 0xc6, 0x0e, 0x72, 0x48, 0xd6,
  0x1e, 0xe0, 0x12, 0x06, 0x32, 0x61, 0x2f, 0xb8, 0x1e, 0xd8, 0xf4, 0xbb,
  0x1a, 0x7d, 0x0d, 0xbf, 0x40, 0xf3, 0x00, 0xbc, 0xf0, 0x7b, 0x58, 0xd9,
  0xff, 0xf6, 0x00, 0xd9, 0x4d, 0x73, 0x56, 0xd4, 0xe8, 0xe7, 0xbe, 0x9c,
  0xc6, 0xd4, 0xf9, 0x7e, 0x7f, 0x39, 0x58, 0x1b, 0x19, 0xd5, 0x17, 0x67,
  0x58, 0x2a, 0xe6, 0x29, 0xf2, 0xc5, 0x2a, 0x6d, 0x63, 0x46, 0x1d, 0x20,
  0x1a, 0xe3, 0x38, 0x4f, 0x68, 0x28, 0x11, 0x13, 0x26, 0xe1, 0x31, 0x59,
  0x56, 0x28, 0x08, 0x19, 0x2c, 0xf2, 0x3b, 0x6b, 0x41, 0x22, 0xec, 0x38,
  0x22, 0xe2, 0x50, 0x75, 0x48, 0x30, 0x23, 0x2c, 0x31, 0xfc, 0x5b, 0x48,
  0x3e, 0x13, 0x26, 0x14, 0x48, 0xe1, 0x62, 0x5f, 0x1d, 0x1b, 0x28, 0x60,
  0x1d, 0xd5, 0xf0, 0xf2, 0xfa, 0x27, 0xea, 0xe8, 0x1b, 0xb3, 0xe5, 0xe9,
  0x00, 0x15, 0xdd, 0xed, 0x00, 0xc1, 0xef, 0xf6, 0x0b, 0x3c, 0x0f, 0xe7,
  0x0b, 0xd0, 0xe0, 0xf2, 0xfc, 0x21, 0xf7, 0xe8, 0x05, 0xa5, 0xde, 0xf0,
  0xee, 0x21, 0xf0, 0xec, 0x02, 0xb5, 0xfa, 0xfb, 0xe6, 0x1e, 0xec, 0xf2,
  0x0a, 0x81, 0xff, 0xff, 0xf2, 0x2e, 0xd6, 0xee, 0xfc, 0xc9, 0xfe, 0xfe,
  0xee, 0x21, 0xe1, 0xf7, 0x06, 0xba, 0x06, 0xf5, 0xf1, 0x18, 0xdc, 0xfb,
  0xcd, 0xea, 0x06, 0xb2, 0xa3, 0x0b, 0xec, 0x03, 0xeb, 0xe7, 0xf5, 0xce,
  0xb4, 0xfb, 0xf5, 0xfb, 0xe1, 0xf7, 0xf8, 0xd8, 0x95, 0x02, 0xff, 0x09,
  0xfb, 0xf6, 0x01, 0xdf, 0x87, 0xf9, 0xec, 0x16, 0x0d, 0xf2, 0xff, 0xe3,
  0x81, 0xfc, 0xf4, 0x0b, 0xf8, 0xf5, 0xfb, 0xe2, 0x87, 0x01, 0xff, 0x0f,
  0xf8, 0xf1, 0x0a, 0xe2, 0x92, 0x02, 0xf4, 0xfd, 0xfd, 0xec, 0xf9, 0xe7,
  0xac, 0xfd, 0xeb, 0x0e, 0xea, 0xe0, 0xf7, 0xeb, 0x86, 0xe7, 0xda, 0xef,
  0x7f, 0x1b, 0x4a, 0x5a, 0xf1, 0xd7, 0x9a, 0x31, 0x36, 0x36, 0x42, 0x3b,
  0xfd, 0x0b, 0xcc, 0x2f, 0x40, 0x20, 0x5f, 0x36, 0xdb, 0x07, 0xd1, 0x41,
  0x6d, 0x29, 0x5b, 0x2c, 0xe7, 0xff, 0xb9, 0x24, 0x4c, 0x21, 0x42, 0x31,
  0xf7, 0x07, 0xc9, 0x2b, 0x5b, 0x17, 0x48, 0x28, 0xf9, 0x11, 0xb2, 0x2c,
  0x4f, 0x12, 0x49, 0x2a, 0xe6, 0x16, 0xcd, 0x39, 0x72, 0x19, 0x1f, 0x01,
  0xfa, 0x04, 0xbe, 0xf9, 0x1f, 0x08, 0x39, 0x1e, 0xed, 0x20, 0xe5, 0x3e,
  0x7e, 0xd0, 0xff, 0xff, 0x04, 0x00, 0x00, 0x00, 0x20, 0x00, 0x00, 0x00,
  0xb1, 0xd8, 0xff, 0xff, 0x63, 0xd7, 0xff, 0xff, 0x19, 0x62, 0x00, 0x00,
  0x8f, 0x15, 0x00, 0x00, 0x7b, 0x67, 0xff, 0xff, 0x78, 0x54, 0x00, 0x00,
  0x33, 0x87, 0x00, 0x00, 0x17, 0xcb, 0xff, 0xff, 0xaa, 0xd0, 0xff, 0xff,
  0x04, 0x00, 0x00, 0x00, 0x60, 0x00, 0x00, 0x00, 0xdc, 0xb3, 0x1b, 0xf2,
  0xcd, 0x07, 0x1e, 0xe3, 0x1d, 0xcb, 0xcc, 0xf5, 0x0d, 0xf8, 0xf1, 0xef,
  0xd1, 0xf3, 0xe7, 0xd9, 0xf3, 0x3c, 0x3c, 0x14, 0xf7, 0x15, 0xdd, 0xe7,
  0xd5, 0x06, 0x1d, 0xe0, 0xe9, 0xd1, 0xcd, 0xff, 0xef, 0xe1, 0x04, 0x24,
  0xf6, 0xd1, 0xf4, 0xeb, 0xe3, 0xb7, 0xd2, 0xfe, 0xdd, 0xe0, 0xe7, 0x0e,
  0x10, 0xf0, 0xf7, 0x13, 0x14, 0x1d, 0x15, 0x03, 0x16, 0xcd, 0x1b, 0xde,
  0xf3, 0x10, 0xe1, 0xe8, 0x0b, 0xdd, 0xca, 0xff, 0x14, 0x00, 0xe7, 0xd6,
  0x17, 0x0a, 0xd3, 0x07, 0xd8, 0xa0, 0xa5, 0xff, 0xf8, 0x1a, 0xde, 0xd4,
  0x04, 0xf5, 0xdb, 0x0f, 0x26, 0x67, 0x7f, 0xdd, 0x16, 0xd1, 0xff, 0xff,
  0x04, 0x00, 0x00, 0x00, 0x20, 0x00, 0x00, 0x00, 0x23, 0xff, 0xff, 0xff,
  0x14, 0x00, 0x00, 0x00, 0x11, 0x01, 0x00, 0x00, 0x99, 0x01, 0x00, 0x00,
  0x9b, 0xff, 0xff, 0xff, 0x22, 0xff, 0xff, 0xff, 0x14, 0x01, 0x00, 0x00,
  0x60, 0xff, 0xff, 0xff, 0x42, 0xd1, 0xff, 0xff, 0x04, 0x00, 0x00, 0x00,
  0x08, 0x00, 0x00, 0x00, 0x01, 0x00, 0x00, 0x00, 0x08, 0x00, 0x00, 0x00,
  0x9c, 0xa9, 0xfe, 0xff, 0x5a, 0xd1, 0xff, 0xff, 0x04, 0x00, 0x00, 0x00,
  0x10, 0x00, 0x00, 0x00, 0x01, 0x00, 0x00, 0x00, 0x01, 0x00, 0x00, 0x00,
  0x08, 0x00, 0x00, 0x00, 0x01, 0x00, 0x00, 0x00, 0x76, 0xd1, 0xff, 0xff,
  0x04, 0x00, 0x00, 0x00, 0x0c, 0x00, 0x00, 0x00, 0x01, 0x00, 0x00, 0x00,
  0x08, 0x00, 0x00, 0x00, 0x08, 0x00, 0x00, 0x00, 0x8e, 0xd1, 0xff, 0xff,
  0x04, 0x00, 0x00, 0x00, 0x10, 0x00, 0x00, 0x00, 0x01, 0x00, 0x00, 0x00,
  0x01, 0x00, 0x00, 0x00, 0x08, 0x00, 0x00, 0x00, 0x08, 0x00, 0x00, 0x00,
  0xaa, 0xd1, 0xff, 0xff, 0x04, 0x00, 0x00, 0x00, 0x0c, 0x00, 0x00, 0x00,
  0x01, 0x00, 0x00, 0x00, 0x08, 0x00, 0x00, 0x00, 0x01, 0x00, 0x00, 0x00,
  0xc2, 0xd1, 0xff, 0xff, 0x04, 0x00, 0x00, 0x00, 0x10, 0x00, 0x00, 0x00,
  0x01, 0x00, 0x00, 0x00, 0x01, 0x00, 0x00, 0x00, 0x50, 0x00, 0x00, 0x00,
  0x01, 0x00, 0x00, 0x00, 0xde, 0xd1, 0xff, 0xff, 0x04, 0x00, 0x00, 0x00,
  0x18, 0x00, 0x00, 0x00, 0x00, 0x00, 0x00, 0x00, 0x00, 0x00, 0x00, 0x00,
  0x08, 0x00, 0x00, 0x00, 0x08, 0x00, 0x00, 0x00, 0x00, 0x00, 0x00, 0x00,
  0x00, 0x00, 0x00, 0x00, 0x02, 0xd2, 0xff, 0xff, 0x04, 0x00, 0x00, 0x00,
  0x10, 0x00, 0x00, 0x00, 0x01, 0x00, 0x00, 0x00, 0x01, 0x00, 0x00, 0x00,
  0x40, 0x00, 0x00, 0x00, 0x08, 0x00, 0x00, 0x00, 0x1e, 0xd2, 0xff, 0xff,
  0x04, 0x00, 0x00, 0x00, 0x0c, 0x00, 0x00, 0x00, 0x01, 0x00, 0x00, 0x00,
  0x40, 0x00, 0x00, 0x00, 0x01, 0x00, 0x00, 0x00, 0x36, 0xd2, 0xff, 0xff,
  0x04, 0x00, 0x00, 0x00, 0x10, 0x00, 0x00, 0x00, 0x01, 0x00, 0x00, 0x00,
  0x01, 0x00, 0x00, 0x00, 0x40, 0x00, 0x00, 0x00, 0x01, 0x00, 0x00, 0x00,
  0x52, 0xd2, 0xff, 0xff, 0x04, 0x00, 0x00, 0x00, 0x04, 0x00, 0x00, 0x00,
  0xff, 0xff, 0xff, 0xff, 0x62, 0xd2, 0xff, 0xff, 0x04, 0x00, 0x00, 0x00,
  0x0c, 0x00, 0x00, 0x00, 0x01, 0x00, 0x00, 0x00, 0x40, 0x00, 0x00, 0x00,
  0x08, 0x00, 0x00, 0x00, 0x7a, 0xd2, 0xff, 0xff, 0x04, 0x00, 0x00, 0x00,
  0x10, 0x00, 0x00, 0x00, 0x01, 0x00, 0x00, 0x00, 0x01, 0x00, 0x00, 0x00,
  0x38, 0x02, 0x00, 0x00, 0x01, 0x00, 0x00, 0x00, 0x96, 0xd2, 0xff, 0xff,
  0x04, 0x00, 0x00, 0x00, 0x18, 0x00, 0x00, 0x00, 0x00, 0x00, 0x00, 0x00,
  0x00, 0x00, 0x00, 0x00, 0x1c, 0x00, 0x00, 0x00, 0x1c, 0x00, 0x00, 0x00,
  0x00, 0x00, 0x00, 0x00, 0x00, 0x00, 0x00, 0x00, 0xba, 0xd2, 0xff, 0xff,
  0x04, 0x00, 0x00, 0x00, 0x04, 0x00, 0x00, 0x00, 0x01, 0x00, 0x00, 0x00,
  0x10, 0xab, 0xfe, 0xff, 0x14, 0xab, 0xfe, 0xff, 0x0f, 0x00, 0x00, 0x00,
  0x4d, 0x4c, 0x49, 0x52, 0x20, 0x43, 0x6f, 0x6e, 0x76, 0x65, 0x72, 0x74,
  0x65, 0x64, 0x2e, 0x00, 0x01, 0x00, 0x00, 0x00, 0x14, 0x00, 0x00, 0x00,
  0x00, 0x00, 0x0e, 0x00, 0x18, 0x00, 0x14, 0x00, 0x10, 0x00, 0x0c, 0x00,
  0x08, 0x00, 0x04, 0x00, 0x0e, 0x00, 0x00, 0x00, 0x14, 0x00, 0x00, 0x00,
  0x1c, 0x00, 0x00, 0x00, 0xc8, 0x30, 0x00, 0x00, 0xcc, 0x30, 0x00, 0x00,
  0xd0, 0x30, 0x00, 0x00, 0x04, 0x00, 0x00, 0x00, 0x6d, 0x61, 0x69, 0x6e,
  0x00, 0x00, 0x00, 0x00, 0xf6, 0x00, 0x00, 0x00, 0x90, 0x30, 0x00, 0x00,
  0x60, 0x30, 0x00, 0x00, 0x20, 0x30, 0x00, 0x00, 0xd0, 0x2f, 0x00, 0x00,
  0x9c, 0x2f, 0x00, 0x00, 0x68, 0x2f, 0x00, 0x00, 0x48, 0x2f, 0x00, 0x00,
  0x14, 0x2f, 0x00, 0x00, 0xf0, 0x2e, 0x00, 0x00, 0xbc, 0x2e, 0x00, 0x00,
  0x98, 0x2e, 0x00, 0x00, 0x64, 0x2e, 0x00, 0x00, 0x40, 0x2e, 0x00, 0x00,
  0x1c, 0x2e, 0x00, 0x00, 0xf8, 0x2d, 0x00, 0x00, 0xc4, 0x2d, 0x00, 0x00,
  0xa0, 0x2d, 0x00, 0x00, 0x6c, 0x2d, 0x00, 0x00, 0x44, 0x2d, 0x00, 0x00,
  0xf0, 0x2c, 0x00, 0x00, 0xc8, 0x2c, 0x00, 0x00, 0x6c, 0x2c, 0x00, 0x00,
  0x44, 0x2c, 0x00, 0x00, 0x04, 0x2c, 0x00, 0x00, 0xdc, 0x2b, 0x00, 0x00,
  0xb4, 0x2b, 0x00, 0x00, 0x74, 0x2b, 0x00, 0x00, 0x4c, 0x2b, 0x00, 0x00,
  0x24, 0x2b, 0x00, 0x00, 0xe4, 0x2a, 0x00, 0x00, 0xbc, 0x2a, 0x00, 0x00,
  0x94, 0x2a, 0x00, 0x00, 0x54, 0x2a, 0x00, 0x00, 0x2c, 0x2a, 0x00, 0x00,
  0x04, 0x2a, 0x00, 0x00, 0xc4, 0x29, 0x00, 0x00, 0x9c, 0x29, 0x00, 0x00,
  0x74, 0x29, 0x00, 0x00, 0x34, 0x29, 0x00, 0x00, 0x0c, 0x29, 0x00, 0x00,
  0xe4, 0x28, 0x00, 0x00, 0xa4, 0x28, 0x00, 0x00, 0x7c, 0x28, 0x00, 0x00,
  0x54, 0x28, 0x00, 0x00, 0x14, 0x28, 0x00, 0x00, 0xec, 0x27, 0x00, 0x00,
  0x9c, 0x27, 0x00, 0x00, 0x64, 0x27, 0x00, 0x00, 0x3c, 0x27, 0x00, 0x00,
  0xfc, 0x26, 0x00, 0x00, 0xc4, 0x26, 0x00, 0x00, 0x9c, 0x26, 0x00, 0x00,
  0x48, 0x26, 0x00, 0x00, 0x20, 0x26, 0x00, 0x00, 0xe0, 0x25, 0x00, 0x00,
  0xb8, 0x25, 0x00, 0x00, 0x90, 0x25, 0x00, 0x00, 0x50, 0x25, 0x00, 0x00,
  0x28, 0x25, 0x00, 0x00, 0x00, 0x25, 0x00, 0x00, 0xc0, 0x24, 0x00, 0x00,
  0x98, 0x24, 0x00, 0x00, 0x70, 0x24, 0x00, 0x00, 0x30, 0x24, 0x00, 0x00,
  0x08, 0x24, 0x00, 0x00, 0xe0, 0x23, 0x00, 0x00, 0xa0, 0x23, 0x00, 0x00,
  0x78, 0x23, 0x00, 0x00, 0x50, 0x23, 0x00, 0x00, 0x10, 0x23, 0x00, 0x00,
  0xe8, 0x22, 0x00, 0x00, 0xc0, 0x22, 0x00, 0x00, 0x80, 0x22, 0x00, 0x00,
  0x58, 0x22, 0x00, 0x00, 0x30, 0x22, 0x00, 0x00, 0xf0, 0x21, 0x00, 0x00,
  0xc8, 0x21, 0x00, 0x00, 0x78, 0x21, 0x00, 0x00, 0x40, 0x21, 0x00, 0x00,
  0x18, 0x21, 0x00, 0x00, 0xd8, 0x20, 0x00, 0x00, 0xa0, 0x20, 0x00, 0x00,
  0x78, 0x20, 0x00, 0x00, 0x24, 0x20, 0x00, 0x00, 0xfc, 0x1f, 0x00, 0x00,
  0xbc, 0x1f, 0x00, 0x00, 0x94, 0x1f, 0x00, 0x00, 0x6c, 0x1f, 0x00, 0x00,
  0x2c, 0x1f, 0x00, 0x00, 0x04, 0x1f, 0x00, 0x00, 0xdc, 0x1e, 0x00, 0x00,
  0x9c, 0x1e, 0x00, 0x00, 0x74, 0x1e, 0x00, 0x00, 0x4c, 0x1e, 0x00, 0x00,
  0x0c, 0x1e, 0x00, 0x00, 0xe4, 0x1d, 0x00, 0x00, 0xbc, 0x1d, 0x00, 0x00,
  0x7c, 0x1d, 0x00, 0x00, 0x54, 0x1d, 0x00, 0x00, 0x2c, 0x1d, 0x00, 0x00,
  0xec, 0x1c, 0x00, 0x00, 0xc4, 0x1c, 0x00, 0x00, 0x9c, 0x1c, 0x00, 0x00,
  0x5c, 0x1c, 0x00, 0x00, 0x34, 0x1c, 0x00, 0x00, 0x0c, 0x1c, 0x00, 0x00,
  0xcc, 0x1b, 0x00, 0x00, 0xa4, 0x1b, 0x00, 0x00, 0x54, 0x1b, 0x00, 0x00,
  0x1c, 0x1b, 0x00, 0x00, 0xf4, 0x1a, 0x00, 0x00, 0xb4, 0x1a, 0x00, 0x00,
  0x7c, 0x1a, 0x00, 0x00, 0x54, 0x1a, 0x00, 0x00, 0x20, 0x1a, 0x00, 0x00,
  0xcc, 0x19, 0x00, 0x00, 0xa4, 0x19, 0x00, 0x00, 0x54, 0x19, 0x00, 0x00,
  0x2c, 0x19, 0x00, 0x00, 0x04, 0x19, 0x00, 0x00, 0xc0, 0x18, 0x00, 0x00,
  0x98, 0x18, 0x00, 0x00, 0x70, 0x18, 0x00, 0x00, 0x2c, 0x18, 0x00, 0x00,
  0x04, 0x18, 0x00, 0x00, 0xdc, 0x17, 0x00, 0x00, 0x98, 0x17, 0x00, 0x00,
  0x70, 0x17, 0x00, 0x00, 0x48, 0x17, 0x00, 0x00, 0x04, 0x17, 0x00, 0x00,
  0xdc, 0x16, 0x00, 0x00, 0xb4, 0x16, 0x00, 0x00, 0x70, 0x16, 0x00, 0x00,
  0x48, 0x16, 0x00, 0x00, 0x20, 0x16, 0x00, 0x00, 0xdc, 0x15, 0x00, 0x00,
  0xb4, 0x15, 0x00, 0x00, 0x8c, 0x15, 0x00, 0x00, 0x48, 0x15, 0x00, 0x00,
  0x20, 0x15, 0x00, 0x00, 0xd0, 0x14, 0x00, 0x00, 0x98, 0x14, 0x00, 0x00,
  0x70, 0x14, 0x00, 0x00, 0x20, 0x14, 0x00, 0x00, 0xf8, 0x13, 0x00, 0x00,
  0xa4, 0x13, 0x00, 0x00, 0x7c, 0x13, 0x00, 0x00, 0x3c, 0x13, 0x00, 0x00,
  0x14, 0x13, 0x00, 0x00, 0xec, 0x12, 0x00, 0x00, 0xac, 0x12, 0x00, 0x00,
  0x84, 0x12, 0x00, 0x00, 0x5c, 0x12, 0x00, 0x00, 0x1c, 0x12, 0x00, 0x00,
  0xf4, 0x11, 0x00, 0x00, 0xcc, 0x11, 0x00, 0x00, 0x8c, 0x11, 0x00, 0x00,
  0x64, 0x11, 0x00, 0x00, 0x3c, 0x11, 0x00, 0x00, 0xfc, 0x10, 0x00, 0x00,
  0xd4, 0x10, 0x00, 0x00, 0xac, 0x10, 0x00, 0x00, 0x6c, 0x10, 0x00, 0x00,
  0x44, 0x10, 0x00, 0x00, 0x1c, 0x10, 0x00, 0x00, 0xdc, 0x0f, 0x00, 0x00,
  0xb4, 0x0f, 0x00, 0x00, 0x8c, 0x0f, 0x00, 0x00, 0x4c, 0x0f, 0x00, 0x00,
  0x24, 0x0f, 0x00, 0x00, 0xd4, 0x0e, 0x00, 0x00, 0x9c, 0x0e, 0x00, 0x00,
  0x74, 0x0e, 0x00, 0x00, 0x34, 0x0e, 0x00, 0x00, 0xfc, 0x0d, 0x00, 0x00,
  0xd4, 0x0d, 0x00, 0x00, 0x80, 0x0d, 0x00, 0x00, 0x58, 0x0d, 0x00, 0x00,
  0x18, 0x0d, 0x00, 0x00, 0xf0, 0x0c, 0x00, 0x00, 0xc8, 0x0c, 0x00, 0x00,
  0x88, 0x0c, 0x00, 0x00, 0x60, 0x0c, 0x00, 0x00, 0x38, 0x0c, 0x00, 0x00,
  0xf8, 0x0b, 0x00, 0x00, 0xd0, 0x0b, 0x00, 0x00, 0xa8, 0x0b, 0x00, 0x00,
  0x68, 0x0b, 0x00, 0x00, 0x40, 0x0b, 0x00, 0x00, 0x18, 0x0b, 0x00, 0x00,
  0xd8, 0x0a, 0x00, 0x00, 0xb0, 0x0a, 0x00, 0x00, 0x88, 0x0a, 0x00, 0x00,
  0x48, 0x0a, 0x00, 0x00, 0x20, 0x0a, 0x00, 0x00, 0xf8, 0x09, 0x00, 0x00,
  0xb8, 0x09, 0x00, 0x00, 0x90, 0x09, 0x00, 0x00, 0x68, 0x09, 0x00, 0x00,
  0x28, 0x09, 0x00, 0x00, 0x00, 0x09, 0x00, 0x00, 0xb0, 0x08, 0x00, 0x00,
  0x78, 0x08, 0x00, 0x00, 0x50, 0x08, 0x00, 0x00, 0x10, 0x08, 0x00, 0x00,
  0xd8, 0x07, 0x00, 0x00, 0xb0, 0x07, 0x00, 0x00, 0x5c, 0x07, 0x00, 0x00,
  0x34, 0x07, 0x00, 0x00, 0xf4, 0x06, 0x00, 0x00, 0xcc, 0x06, 0x00, 0x00,
  0xa4, 0x06, 0x00, 0x00, 0x64, 0x06, 0x00, 0x00, 0x3c, 0x06, 0x00, 0x00,
  0x14, 0x06, 0x00, 0x00, 0xd4, 0x05, 0x00, 0x00, 0xac, 0x05, 0x00, 0x00,
  0x84, 0x05, 0x00, 0x00, 0x44, 0x05, 0x00, 0x00, 0x1c, 0x05, 0x00, 0x00,
  0xf4, 0x04, 0x00, 0x00, 0xb4, 0x04, 0x00, 0x00, 0x8c, 0x04, 0x00, 0x00,
  0x64, 0x04, 0x00, 0x00, 0x24, 0x04, 0x00, 0x00, 0xfc, 0x03, 0x00, 0x00,
  0xd4, 0x03, 0x00, 0x00, 0x94, 0x03, 0x00, 0x00, 0x6c, 0x03, 0x00, 0x00,
  0x44, 0x03, 0x00, 0x00, 0x04, 0x03, 0x00, 0x00, 0xdc, 0x02, 0x00, 0x00,
  0x8c, 0x02, 0x00, 0x00, 0x54, 0x02, 0x00, 0x00, 0x2c, 0x02, 0x00, 0x00,
  0xec, 0x01, 0x00, 0x00, 0xb4, 0x01, 0x00, 0x00, 0x70, 0x01, 0x00, 0x00,
  0x48, 0x01, 0x00, 0x00, 0x10, 0x01, 0x00, 0x00, 0xe8, 0x00, 0x00, 0x00,
  0xc4, 0x00, 0x00, 0x00, 0x80, 0x00, 0x00, 0x00, 0x60, 0x00, 0x00, 0x00,
  0x28, 0x00, 0x00, 0x00, 0x04, 0x00, 0x00, 0x00, 0x7e, 0xd3, 0xff, 0xff,
  0x0c, 0x00, 0x00, 0x00, 0x10, 0x00, 0x00, 0x00, 0x04, 0x00, 0x00, 0x00,
  0x01, 0x00, 0x00, 0x00, 0xc2, 0x01, 0x00, 0x00, 0x01, 0x00, 0x00, 0x00,
  0xc1, 0x01, 0x00, 0x00, 0xde, 0xd3, 0xff, 0xff, 0x14, 0x00, 0x00, 0x00,
  0x00, 0x00, 0x00, 0x08, 0x10, 0x00, 0x00, 0x00, 0x14, 0x00, 0x00, 0x00,
  0x0f, 0x00, 0x00, 0x00, 0x7c, 0xaf, 0xfe, 0xff, 0x01, 0x00, 0x00, 0x00,
  0xc1, 0x01, 0x00, 0x00, 0x03, 0x00, 0x00, 0x00, 0xc0, 0x01, 0x00, 0x00,
  0x12, 0x00, 0x00, 0x00, 0x11, 0x00, 0x00, 0x00, 0xa6, 0xd3, 0xff, 0xff,
  0x08, 0x00, 0x00, 0x00, 0x0c, 0x00, 0x00, 0x00, 0x01, 0x00, 0x00, 0x00,
  0xc0, 0x01, 0x00, 0x00, 0x01, 0x00, 0x00, 0x00, 0xbf, 0x01, 0x00, 0x00,
  0x2e, 0xd4, 0xff, 0xff, 0x14, 0x00, 0x00, 0x00, 0x00, 0x00, 0x00, 0x0a,
  0x14, 0x00, 0x00, 0x00, 0x18, 0x00, 0x00, 0x00, 0x0d, 0x00, 0x00, 0x00,
  0x86, 0xd7, 0xff, 0xff, 0x01, 0x00, 0x00, 0x00, 0x01, 0x00, 0x00, 0x00,
  0xbf, 0x01, 0x00, 0x00, 0x05, 0x00, 0x00, 0x00, 0xbe, 0x01, 0x00, 0x00,
  0xa6, 0x00, 0x00, 0x00, 0xa4, 0x00, 0x00, 0x00, 0xa9, 0x00, 0x00, 0x00,
  0xac, 0x00, 0x00, 0x00, 0x2e, 0xd4, 0xff, 0xff, 0x0c, 0x00, 0x00, 0x00,
  0x10, 0x00, 0x00, 0x00, 0x04, 0x00, 0x00, 0x00, 0x01, 0x00, 0x00, 0x00,
  0xbe, 0x01, 0x00, 0x00, 0x01, 0x00, 0x00, 0x00, 0xbd, 0x01, 0x00, 0x00,
  0x4e, 0xd4, 0xff, 0xff, 0x0c, 0x00, 0x00, 0x00, 0x10, 0x00, 0x00, 0x00,
  0x0a, 0x00, 0x00, 0x00, 0x01, 0x00, 0x00, 0x00, 0xbd, 0x01, 0x00, 0x00,
  0x02, 0x00, 0x00, 0x00, 0xbc, 0x01, 0x00, 0x00, 0x10, 0x00, 0x00, 0x00,
  0xb2, 0xd4, 0xff, 0xff, 0x14, 0x00, 0x00, 0x00, 0x00, 0x00, 0x00, 0x1b,
  0x14, 0x00, 0x00, 0x00, 0x18, 0x00, 0x00, 0x00, 0x06, 0x00, 0x00, 0x00,
  0xee, 0xd4, 0xff, 0xff, 0x00, 0x00, 0x00, 0x01, 0x01, 0x00, 0x00, 0x00,
  0xbc, 0x01, 0x00, 0x00, 0x02, 0x00, 0x00, 0x00, 0xbb, 0x01, 0x00, 0x00,
  0x0f, 0x00, 0x00, 0x00, 0xa6, 0xd4, 0xff, 0xff, 0x0c, 0x00, 0x00, 0x00,
  0x10, 0x00, 0x00, 0x00, 0x0a, 0x00, 0x00, 0x00, 0x01, 0x00, 0x00, 0x00,
  0xbb, 0x01, 0x00, 0x00, 0x02, 0x00, 0x00, 0x00, 0xba, 0x01, 0x00, 0x00,
  0x0d, 0x00, 0x00, 0x00, 0x0a, 0xd5, 0xff, 0xff, 0x14, 0x00, 0x00, 0x00,
  0x00, 0x00, 0x00, 0x01, 0x1c, 0x00, 0x00, 0x00, 0x20, 0x00, 0x00, 0x00,
  0x0b, 0x00, 0x00, 0x00, 0xc8, 0xee, 0xff, 0xff, 0x00, 0x00, 0x00, 0x01,
  0x01, 0x00, 0x00, 0x00, 0x01, 0x00, 0x00, 0x00, 0x01, 0x00, 0x00, 0x00,
  0xba, 0x01, 0x00, 0x00, 0x03, 0x00, 0x00, 0x00, 0xb9, 0x01, 0x00, 0x00,
  0x14, 0x00, 0x00, 0x00, 0x13, 0x00, 0x00, 0x00, 0x4a, 0xd5, 0xff, 0xff,
  0x14, 0x00, 0x00, 0x00, 0x00, 0x00, 0x00, 0x0b, 0x14, 0x00, 0x00, 0x00,
  0x18, 0x00, 0x00, 0x00, 0x0e, 0x00, 0x00, 0x00, 0x86, 0xd5, 0xff, 0xff,
  0x00, 0x00, 0x00, 0x01, 0x01, 0x00, 0x00, 0x00, 0xb9, 0x01, 0x00, 0x00,
  0x02, 0x00, 0x00, 0x00, 0x93, 0x01, 0x00, 0x00, 0xb8, 0x01, 0x00, 0x00,
  0x7e, 0xd5, 0xff, 0xff, 0x14, 0x00, 0x00, 0x00, 0x00, 0x00, 0x00, 0x01,
  0x18, 0x00, 0x00, 0x00, 0x1c, 0x00, 0x00, 0x00, 0x0b, 0x00, 0x00, 0x00,
  0x2a, 0xd5, 0xff, 0xff, 0x01, 0x00, 0x00, 0x00, 0x01, 0x00, 0x00, 0x00,
  0x01, 0x00, 0x00, 0x00, 0xb8, 0x01, 0x00, 0x00, 0x03, 0x00, 0x00, 0x00,
  0xb7, 0x01, 0x00, 0x00, 0x16, 0x00, 0x00, 0x00, 0x15, 0x00, 0x00, 0x00,
  0x7a, 0xd5, 0xff, 0xff, 0x0c, 0x00, 0x00, 0x00, 0x10, 0x00, 0x00, 0x00,
  0x0a, 0x00, 0x00, 0x00, 0x01, 0x00, 0x00, 0x00, 0xb7, 0x01, 0x00, 0x00,
  0x02, 0x00, 0x00, 0x00, 0xb6, 0x01, 0x00, 0x00, 0x0c, 0x00, 0x00, 0x00,
  0xde, 0xd5, 0xff, 0xff, 0x14, 0x00, 0x00, 0x00, 0x00, 0x00, 0x00, 0x0b,
  0x14, 0x00, 0x00, 0x00, 0x18, 0x00, 0x00, 0x00, 0x0e, 0x00, 0x00, 0x00,
  0x1a, 0xd6, 0xff, 0xff, 0x00, 0x00, 0x00, 0x01, 0x01, 0x00, 0x00, 0x00,
  0xb6, 0x01, 0x00, 0x00, 0x02, 0x00, 0x00, 0x00, 0xb5, 0x01, 0x00, 0x00,
  0x17, 0x00, 0x00, 0x00, 0x12, 0xd6, 0xff, 0xff, 0x14, 0x00, 0x00, 0x00,
  0x00, 0x00, 0x00, 0x0a, 0x14, 0x00, 0x00, 0x00, 0x18, 0x00, 0x00, 0x00,
  0x0d, 0x00, 0x00, 0x00, 0x6a, 0xd9, 0xff, 0xff, 0xff, 0xff, 0xff, 0xff,
  0x01, 0x00, 0x00, 0x00, 0xb5, 0x01, 0x00, 0x00, 0x08, 0x00, 0x00, 0x00,
  0x9f, 0x01, 0x00, 0x00, 0xa2, 0x01, 0x00, 0x00, 0xa5, 0x01, 0x00, 0x00,
  0xa8, 0x01, 0x00, 0x00, 0xab, 0x01, 0x00, 0x00, 0xae, 0x01, 0x00, 0x00,
  0xb1, 0x01, 0x00, 0x00, 0xb4, 0x01, 0x00, 0x00, 0x1e, 0xd6, 0xff, 0xff,
  0x0c, 0x00, 0x00, 0x00, 0x10, 0x00, 0x00, 0x00, 0x0a, 0x00, 0x00, 0x00,
  0x01, 0x00, 0x00, 0x00, 0xb4, 0x01, 0x00, 0x00, 0x02, 0x00, 0x00, 0x00,
  0xb3, 0x01, 0x00, 0x00, 0x0b, 0x00, 0x00, 0x00, 0x82, 0xd6, 0xff, 0xff,
  0x14, 0x00, 0x00, 0x00, 0x00, 0x00, 0x00, 0x01, 0x18, 0x00, 0x00, 0x00,
  0x1c, 0x00, 0x00, 0x00, 0x0b, 0x00, 0x00, 0x00, 0x2e, 0xd6, 0xff, 0xff,
  0x01, 0x00, 0x00, 0x00, 0x01, 0x00, 0x00, 0x00, 0x01, 0x00, 0x00, 0x00,
  0xb3, 0x01, 0x00, 0x00, 0x03, 0x00, 0x00, 0x00, 0xb2, 0x01, 0x00, 0x00,
  0x18, 0x00, 0x00, 0x00, 0x98, 0x00, 0x00, 0x00, 0x7e, 0xd6, 0xff, 0xff,
  0x0c, 0x00, 0x00, 0x00, 0x10, 0x00, 0x00, 0x00, 0x0a, 0x00, 0x00, 0x00,
  0x01, 0x00, 0x00, 0x00, 0xb2, 0x01, 0x00, 0x00, 0x02, 0x00, 0x00, 0x00,
  0x9c, 0x01, 0x00, 0x00, 0x0e, 0x00, 0x00, 0x00, 0xa2, 0xd6, 0xff, 0xff,
  0x0c, 0x00, 0x00, 0x00, 0x10, 0x00, 0x00, 0x00, 0x0a, 0x00, 0x00, 0x00,
  0x01, 0x00, 0x00, 0x00, 0xb1, 0x01, 0x00, 0x00, 0x02, 0x00, 0x00, 0x00,
  0xb0, 0x01, 0x00, 0x00, 0x0b, 0x00, 0x00, 0x00, 0x06, 0xd7, 0xff, 0xff,
  0x14, 0x00, 0x00, 0x00, 0x00, 0x00, 0x00, 0x01, 0x18, 0x00, 0x00, 0x00,
  0x1c, 0x00, 0x00, 0x00, 0x0b, 0x00, 0x00, 0x00, 0xb2, 0xd6, 0xff, 0xff,
  0x01, 0x00, 0x00, 0x00, 0x01, 0x00, 0x00, 0x00, 0x01, 0x00, 0x00, 0x00,
  0xb0, 0x01, 0x00, 0x00, 0x03, 0x00, 0x00, 0x00, 0xaf, 0x01, 0x00, 0x00,
  0x19, 0x00, 0x00, 0x00, 0x97, 0x00, 0x00, 0x00, 0x02, 0xd7, 0xff, 0xff,
  0x0c, 0x00, 0x00, 0x00, 0x10, 0x00, 0x00, 0x00, 0x0a, 0x00, 0x00, 0x00,
  0x01, 0x00, 0x00, 0x00, 0xaf, 0x01, 0x00, 0x00, 0x02, 0x00, 0x00, 0x00,
  0x9b, 0x01, 0x00, 0x00, 0x0e, 0x00, 0x00, 0x00, 0x26, 0xd7, 0xff, 0xff,
  0x0c, 0x00, 0x00, 0x00, 0x10, 0x00, 0x00, 0x00, 0x0a, 0x00, 0x00, 0x00,
  0x01, 0x00, 0x00, 0x00, 0xae, 0x01, 0x00, 0x00, 0x02, 0x00, 0x00, 0x00,
  0xad, 0x01, 0x00, 0x00, 0x0b, 0x00, 0x00, 0x00, 0x8a, 0xd7, 0xff, 0xff,
  0x14, 0x00, 0x00, 0x00, 0x00, 0x00, 0x00, 0x01, 0x18, 0x00, 0x00, 0x00,
  0x1c, 0x00, 0x00, 0x00, 0x0b, 0x00, 0x00, 0x00, 0x36, 0xd7, 0xff, 0xff,
  0x01, 0x00, 0x00, 0x00, 0x01, 0x00, 0x00, 0x00, 0x01, 0x00, 0x00, 0x00,
  0xad, 0x01, 0x00, 0x00, 0x03, 0x00, 0x00, 0x00, 0xac, 0x01, 0x00, 0x00,
  0x1a, 0x00, 0x00, 0x00, 0x96, 0x00, 0x00, 0x00, 0x86, 0xd7, 0xff, 0xff,
  0x0c, 0x00, 0x00, 0x00, 0x10, 0x00, 0x00, 0x00, 0x0a, 0x00, 0x00, 0x00,
  0x01, 0x00, 0x00, 0x00, 0xac, 0x01, 0x00, 0x00, 0x02, 0x00, 0x00, 0x00,
  0x9a, 0x01, 0x00, 0x00, 0x0e, 0x00, 0x00, 0x00, 0xaa, 0xd7, 0xff, 0xff,
  0x0c, 0x00, 0x00, 0x00, 0x10, 0x00, 0x00, 0x00, 0x0a, 0x00, 0x00, 0x00,
  0x01, 0x00, 0x00, 0x00, 0xab, 0x01, 0x00, 0x00, 0x02, 0x00, 0x00, 0x00,
  0xaa, 0x01, 0x00, 0x00, 0x0b, 0x00, 0x00, 0x00, 0x0e, 0xd8, 0xff, 0xff,
  0x14, 0x00, 0x00, 0x00, 0x00, 0x00, 0x00, 0x01, 0x18, 0x00, 0x00, 0x00,
  0x1c, 0x00, 0x00, 0x00, 0x0b, 0x00, 0x00, 0x00, 0xba, 0xd7, 0xff, 0xff,
  0x01, 0x00, 0x00, 0x00, 0x01, 0x00, 0x00, 0x00, 0x01, 0x00, 0x00, 0x00,
  0xaa, 0x01, 0x00, 0x00, 0x03, 0x00, 0x00, 0x00, 0xa9, 0x01, 0x00, 0x00,
  0x1b, 0x00, 0x00, 0x00, 0x95, 0x00, 0x00, 0x00, 0x0a, 0xd8, 0xff, 0xff,
  0x0c, 0x00, 0x00, 0x00, 0x10, 0x00, 0x00, 0x00, 0x0a, 0x00, 0x00, 0x00,
  0x01, 0x00, 0x00, 0x00, 0xa9, 0x01, 0x00, 0x00, 0x02, 0x00, 0x00, 0x00,
  0x99, 0x01, 0x00, 0x00, 0x0e, 0x00, 0x00, 0x00, 0x2e, 0xd8, 0xff, 0xff,
  0x0c, 0x00, 0x00, 0x00, 0x10, 0x00, 0x00, 0x00, 0x0a, 0x00, 0x00, 0x00,
  0x01, 0x00, 0x00, 0x00, 0xa8, 0x01, 0x00, 0x00, 0x02, 0x00, 0x00, 0x00,
  0xa7, 0x01, 0x00, 0x00, 0x0b, 0x00, 0x00, 0x00, 0x92, 0xd8, 0xff, 0xff,
  0x14, 0x00, 0x00, 0x00, 0x00, 0x00, 0x00, 0x01, 0x18, 0x00, 0x00, 0x00,
  0x1c, 0x00, 0x00, 0x00, 0x0b, 0x00, 0x00, 0x00, 0x3e, 0xd8, 0xff, 0xff,
  0x01, 0x00, 0x00, 0x00, 0x01, 0x00, 0x00, 0x00, 0x01, 0x00, 0x00, 0x00,
  0xa7, 0x01, 0x00, 0x00, 0x03, 0x00, 0x00, 0x00, 0xa6, 0x01, 0x00, 0x00,
  0x1c, 0x00, 0x00, 0x00, 0x94, 0x00, 0x00, 0x00, 0x8e, 0xd8, 0xff, 0xff,
  0x0c, 0x00, 0x00, 0x00, 0x10, 0x00, 0x00, 0x00, 0x0a, 0x00, 0x00, 0x00,
  0x01, 0x00, 0x00, 0x00, 0xa6, 0x01, 0x00, 0x00, 0x02, 0x00, 0x00, 0x00,
  0x98, 0x01, 0x00, 0x00, 0x0e, 0x00, 0x00, 0x00, 0xb2, 0xd8, 0xff, 0xff,
  0x0c, 0x00, 0x00, 0x00, 0x10, 0x00, 0x00, 0x00, 0x0a, 0x00, 0x00, 0x00,
  0x01, 0x00, 0x00, 0x00, 0xa5, 0x01, 0x00, 0x00, 0x02, 0x00, 0x00, 0x00,
  0xa4, 0x01, 0x00, 0x00, 0x0b, 0x00, 0x00, 0x00, 0x16, 0xd9, 0xff, 0xff,
  0x14, 0x00, 0x00, 0x00, 0x00, 0x00, 0x00, 0x01, 0x18, 0x00, 0x00, 0x00,
  0x1c, 0x00, 0x00, 0x00, 0x0b, 0x00, 0x00, 0x00, 0xc2, 0xd8, 0xff, 0xff,
  0x01, 0x00, 0x00, 0x00, 0x01, 0x00, 0x00, 0x00, 0x01, 0x00, 0x00, 0x00,
  0xa4, 0x01, 0x00, 0x00, 0x03, 0x00, 0x00, 0x00, 0xa3, 0x01, 0x00, 0x00,
  0x1d, 0x00, 0x00, 0x00, 0x93, 0x00, 0x00, 0x00, 0x12, 0xd9, 0xff, 0xff,
  0x0c, 0x00, 0x00, 0x00, 0x10, 0x00, 0x00, 0x00, 0x0a, 0x00, 0x00, 0x00,
  0x01, 0x00, 0x00, 0x00, 0xa3, 0x01, 0x00, 0x00, 0x02, 0x00, 0x00, 0x00,
  0x97, 0x01, 0x00, 0x00, 0x0e, 0x00, 0x00, 0x00, 0x36, 0xd9, 0xff, 0xff,
  0x0c, 0x00, 0x00, 0x00, 0x10, 0x00, 0x00, 0x00, 0x0a, 0x00, 0x00, 0x00,
  0x01, 0x00, 0x00, 0x00, 0xa2, 0x01, 0x00, 0x00, 0x02, 0x00, 0x00, 0x00,
  0xa1, 0x01, 0x00, 0x00, 0x0b, 0x00, 0x00, 0x00, 0x9a, 0xd9, 0xff, 0xff,
  0x14, 0x00, 0x00, 0x00, 0x00, 0x00, 0x00, 0x01, 0x18, 0x00, 0x00, 0x00,
  0x1c, 0x00, 0x00, 0x00, 0x0b, 0x00, 0x00, 0x00, 0x46, 0xd9, 0xff, 0xff,
  0x01, 0x00, 0x00, 0x00, 0x01, 0x00, 0x00, 0x00, 0x01, 0x00, 0x00, 0x00,
  0xa1, 0x01, 0x00, 0x00, 0x03, 0x00, 0x00, 0x00, 0xa0, 0x01, 0x00, 0x00,
  0x1e, 0x00, 0x00, 0x00, 0x92, 0x00, 0x00, 0x00, 0x96, 0xd9, 0xff, 0xff,
  0x0c, 0x00, 0x00, 0x00, 0x10, 0x00, 0x00, 0x00, 0x0a, 0x00, 0x00, 0x00,
  0x01, 0x00, 0x00, 0x00, 0xa0, 0x01, 0x00, 0x00, 0x02, 0x00, 0x00, 0x00,
  0x96, 0x01, 0x00, 0x00, 0x0e, 0x00, 0x00, 0x00, 0xba, 0xd9, 0xff, 0xff,
  0x0c, 0x00, 0x00, 0x00, 0x10, 0x00, 0x00, 0x00, 0x0a, 0x00, 0x00, 0x00,
  0x01, 0x00, 0x00, 0x00, 0x9f, 0x01, 0x00, 0x00, 0x02, 0x00, 0x00, 0x00,
  0x9e, 0x01, 0x00, 0x00, 0x0b, 0x00, 0x00, 0x00, 0x1e, 0xda, 0xff, 0xff,
  0x14, 0x00, 0x00, 0x00, 0x00, 0x00, 0x00, 0x01, 0x18, 0x00, 0x00, 0x00,
  0x1c, 0x00, 0x00, 0x00, 0x0b, 0x00, 0x00, 0x00, 0xca, 0xd9, 0xff, 0xff,
  0x01, 0x00, 0x00, 0x00, 0x01, 0x00, 0x00, 0x00, 0x01, 0x00, 0x00, 0x00,
  0x9e, 0x01, 0x00, 0x00, 0x03, 0x00, 0x00, 0x00, 0x9d, 0x01, 0x00, 0x00,
  0x1f, 0x00, 0x00, 0x00, 0x91, 0x00, 0x00, 0x00, 0x1a, 0xda, 0xff, 0xff,
  0x0c, 0x00, 0x00, 0x00, 0x10, 0x00, 0x00, 0x00, 0x0a, 0x00, 0x00, 0x00,
  0x01, 0x00, 0x00, 0x00, 0x9d, 0x01, 0x00, 0x00, 0x02, 0x00, 0x00, 0x00,
  0x95, 0x01, 0x00, 0x00, 0x0e, 0x00, 0x00, 0x00, 0x7e, 0xda, 0xff, 0xff,
  0x14, 0x00, 0x00, 0x00, 0x00, 0x00, 0x00, 0x23, 0x14, 0x00, 0x00, 0x00,
  0x34, 0x00, 0x00, 0x00, 0x0c, 0x00, 0x00, 0x00, 0xd6, 0xdd, 0xff, 0xff,
  0x08, 0x00, 0x00, 0x00, 0x08, 0x00, 0x00, 0x00, 0x95, 0x01, 0x00, 0x00,
  0x96, 0x01, 0x00, 0x00, 0x97, 0x01, 0x00, 0x00, 0x98, 0x01, 0x00, 0x00,
  0x99, 0x01, 0x00, 0x00, 0x9a, 0x01, 0x00, 0x00, 0x9b, 0x01, 0x00, 0x00,
  0x9c, 0x01, 0x00, 0x00, 0x02, 0x00, 0x00, 0x00, 0x05, 0x00, 0x00, 0x00,
  0x94, 0x01, 0x00, 0x00, 0x8e, 0xda, 0xff, 0xff, 0x0c, 0x00, 0x00, 0x00,
  0x10, 0x00, 0x00, 0x00, 0x0a, 0x00, 0x00, 0x00, 0x01, 0x00, 0x00, 0x00,
  0x94, 0x01, 0x00, 0x00, 0x02, 0x00, 0x00, 0x00, 0x93, 0x01, 0x00, 0x00,
  0x0d, 0x00, 0x00, 0x00, 0xf2, 0xda, 0xff, 0xff, 0x14, 0x00, 0x00, 0x00,
  0x00, 0x00, 0x00, 0x0b, 0x14, 0x00, 0x00, 0x00, 0x18, 0x00, 0x00, 0x00,
  0x0e, 0x00, 0x00, 0x00, 0x2e, 0xdb, 0xff, 0xff, 0x00, 0x00, 0x00, 0x01,
  0x01, 0x00, 0x00, 0x00, 0x93, 0x01, 0x00, 0x00, 0x02, 0x00, 0x00, 0x00,
  0x6d, 0x01, 0x00, 0x00, 0x92, 0x01, 0x00, 0x00, 0x26, 0xdb, 0xff, 0xff,
  0x14, 0x00, 0x00, 0x00, 0x00, 0x00, 0x00, 0x01, 0x18, 0x00, 0x00, 0x00,
  0x1c, 0x00, 0x00, 0x00, 0x0b, 0x00, 0x00, 0x00, 0xd2, 0xda, 0xff, 0xff,
  0x01, 0x00, 0x00, 0x00, 0x01, 0x00, 0x00, 0x00, 0x01, 0x00, 0x00, 0x00,
  0x92, 0x01, 0x00, 0x00, 0x03, 0x00, 0x00, 0x00, 0x91, 0x01, 0x00, 0x00,
  0x21, 0x00, 0x00, 0x00, 0x20, 0x00, 0x00, 0x00, 0x22, 0xdb, 0xff, 0xff,
  0x0c, 0x00, 0x00, 0x00, 0x10, 0x00, 0x00, 0x00, 0x0a, 0x00, 0x00, 0x00,
  0x01, 0x00, 0x00, 0x00, 0x91, 0x01, 0x00, 0x00, 0x02, 0x00, 0x00, 0x00,
  0x90, 0x01, 0x00, 0x00, 0x0c, 0x00, 0x00, 0x00, 0x86, 0xdb, 0xff, 0xff,
  0x14, 0x00, 0x00, 0x00, 0x00, 0x00, 0x00, 0x0b, 0x14, 0x00, 0x00, 0x00,
  0x18, 0x00, 0x00, 0x00, 0x0e, 0x00, 0x00, 0x00, 0xc2, 0xdb, 0xff, 0xff,
  0x00, 0x00, 0x00, 0x01, 0x01, 0x00, 0x00, 0x00, 0x90, 0x01, 0x00, 0x00,
  0x02, 0x00, 0x00, 0x00, 0x8f, 0x01, 0x00, 0x00, 0x22, 0x00, 0x00, 0x00,
  0xba, 0xdb, 0xff, 0xff, 0x14, 0x00, 0x00, 0x00, 0x00, 0x00, 0x00, 0x0a,
  0x14, 0x00, 0x00, 0x00, 0x18, 0x00, 0x00, 0x00, 0x0d, 0x00, 0x00, 0x00,
  0x12, 0xdf, 0xff, 0xff, 0xff, 0xff, 0xff, 0xff, 0x01, 0x00, 0x00, 0x00,
  0x8f, 0x01, 0x00, 0x00, 0x08, 0x00, 0x00, 0x00, 0x79, 0x01, 0x00, 0x00,
  0x7c, 0x01, 0x00, 0x00, 0x7f, 0x01, 0x00, 0x00, 0x82, 0x01, 0x00, 0x00,
  0x85, 0x01, 0x00, 0x00, 0x88, 0x01, 0x00, 0x00, 0x8b, 0x01, 0x00, 0x00,
  0x8e, 0x01, 0x00, 0x00, 0xc6, 0xdb, 0xff, 0xff, 0x0c, 0x00, 0x00, 0x00,
  0x10, 0x00, 0x00, 0x00, 0x0a, 0x00, 0x00, 0x00, 0x01, 0x00, 0x00, 0x00,
  0x8e, 0x01, 0x00, 0x00, 0x02, 0x00, 0x00, 0x00, 0x8d, 0x01, 0x00, 0x00,
  0x0b, 0x00, 0x00, 0x00, 0x2a, 0xdc, 0xff, 0xff, 0x14, 0x00, 0x00, 0x00,
  0x00, 0x00, 0x00, 0x01, 0x18, 0x00, 0x00, 0x00, 0x1c, 0x00, 0x00, 0x00,
  0x0b, 0x00, 0x00, 0x00, 0xd6, 0xdb, 0xff, 0xff, 0x01, 0x00, 0x00, 0x00,
  0x01, 0x00, 0x00, 0x00, 0x01, 0x00, 0x00, 0x00, 0x8d, 0x01, 0x00, 0x00,
  0x03, 0x00, 0x00, 0x00, 0x8c, 0x01, 0x00, 0x00, 0x23, 0x00, 0x00, 0x00,
  0x90, 0x00, 0x00, 0x00, 0x26, 0xdc, 0xff, 0xff, 0x0c, 0x00, 0x00, 0x00,
  0x10, 0x00, 0x00, 0x00, 0x0a, 0x00, 0x00, 0x00, 0x01, 0x00, 0x00, 0x00,
  0x8c, 0x01, 0x00, 0x00, 0x02, 0x00, 0x00, 0x00, 0x76, 0x01, 0x00, 0x00,
  0x0e, 0x00, 0x00, 0x00, 0x4a, 0xdc, 0xff, 0xff, 0x0c, 0x00, 0x00, 0x00,
  0x10, 0x00, 0x00, 0x00, 0x0a, 0x00, 0x00, 0x00, 0x01, 0x00, 0x00, 0x00,
  0x8b, 0x01, 0x00, 0x00, 0x02, 0x00, 0x00, 0x00, 0x8a, 0x01, 0x00, 0x00,
  0x0b, 0x00, 0x00, 0x00, 0xae, 0xdc, 0xff, 0xff, 0x14, 0x00, 0x00, 0x00,
  0x00, 0x00, 0x00, 0x01, 0x18, 0x00, 0x00, 0x00, 0x1c, 0x00, 0x00, 0x00,
  0x0b, 0x00, 0x00, 0x00, 0x5a, 0xdc, 0xff, 0xff, 0x01, 0x00, 0x00, 0x00,
  0x01, 0x00, 0x00, 0x00, 0x01, 0x00, 0x00, 0x00, 0x8a, 0x01, 0x00, 0x00,
  0x03, 0x00, 0x00, 0x00, 0x89, 0x01, 0x00, 0x00, 0x24, 0x00, 0x00, 0x00,
  0x8f, 0x00, 0x00, 0x00, 0xaa, 0xdc, 0xff, 0xff, 0x0c, 0x00, 0x00, 0x00,
  0x10, 0x00, 0x00, 0x00, 0x0a, 0x00, 0x00, 0x00, 0x01, 0x00, 0x00, 0x00,
  0x89, 0x01, 0x00, 0x00, 0x02, 0x00, 0x00, 0x00, 0x75, 0x01, 0x00, 0x00,
  0x0e, 0x00, 0x00, 0x00, 0xce, 0xdc, 0xff, 0xff, 0x0c, 0x00, 0x00, 0x00,
  0x10, 0x00, 0x00, 0x00, 0x0a, 0x00, 0x00, 0x00, 0x01, 0x00, 0x00, 0x00,
  0x88, 0x01, 0x00, 0x00, 0x02, 0x00, 0x00, 0x00, 0x87, 0x01, 0x00, 0x00,
  0x0b, 0x00, 0x00, 0x00, 0x32, 0xdd, 0xff, 0xff, 0x14, 0x00, 0x00, 0x00,
  0x00, 0x00, 0x00, 0x01, 0x18, 0x00, 0x00, 0x00, 0x1c, 0x00, 0x00, 0x00,
  0x0b, 0x00, 0x00, 0x00, 0xde, 0xdc, 0xff, 0xff, 0x01, 0x00, 0x00, 0x00,
  0x01, 0x00, 0x00, 0x00, 0x01, 0x00, 0x00, 0x00, 0x87, 0x01, 0x00, 0x00,
  0x03, 0x00, 0x00, 0x00, 0x86, 0x01, 0x00, 0x00, 0x25, 0x00, 0x00, 0x00,
  0x8e, 0x00, 0x00, 0x00, 0x2e, 0xdd, 0xff, 0xff, 0x0c, 0x00, 0x00, 0x00,
  0x10, 0x00, 0x00, 0x00, 0x0a, 0x00, 0x00, 0x00, 0x01, 0x00, 0x00, 0x00,
  0x86, 0x01, 0x00, 0x00, 0x02, 0x00, 0x00, 0x00, 0x74, 0x01, 0x00, 0x00,
  0x0e, 0x00, 0x00, 0x00, 0x52, 0xdd, 0xff, 0xff, 0x0c, 0x00, 0x00, 0x00,
  0x10, 0x00, 0x00, 0x00, 0x0a, 0x00, 0x00, 0x00, 0x01, 0x00, 0x00, 0x00,
  0x85, 0x01, 0x00, 0x00, 0x02, 0x00, 0x00, 0x00, 0x84, 0x01, 0x00, 0x00,
  0x0b, 0x00, 0x00, 0x00, 0xb6, 0xdd, 0xff, 0xff, 0x14, 0x00, 0x00, 0x00,
  0x00, 0x00, 0x00, 0x01, 0x18, 0x00, 0x00, 0x00, 0x1c, 0x00, 0x00, 0x00,
  0x0b, 0x00, 0x00, 0x00, 0x62, 0xdd, 0xff, 0xff, 0x01, 0x00, 0x00, 0x00,
  0x01, 0x00, 0x00, 0x00, 0x01, 0x00, 0x00, 0x00, 0x84, 0x01, 0x00, 0x00,
  0x03, 0x00, 0x00, 0x00, 0x83, 0x01, 0x00, 0x00, 0x26, 0x00, 0x00, 0x00,
  0x8d, 0x00, 0x00, 0x00, 0xb2, 0xdd, 0xff, 0xff, 0x0c, 0x00, 0x00, 0x00,
  0x10, 0x00, 0x00, 0x00, 0x0a, 0x00, 0x00, 0x00, 0x01, 0x00, 0x00, 0x00,
  0x83, 0x01, 0x00, 0x00, 0x02, 0x00, 0x00, 0x00, 0x73, 0x01, 0x00, 0x00,
  0x0e, 0x00, 0x00, 0x00, 0xd6, 0xdd, 0xff, 0xff, 0x0c, 0x00, 0x00, 0x00,
  0x10, 0x00, 0x00, 0x00, 0x0a, 0x00, 0x00, 0x00, 0x01, 0x00, 0x00, 0x00,
  0x82, 0x01, 0x00, 0x00, 0x02, 0x00, 0x00, 0x00, 0x81, 0x01, 0x00, 0x00,
  0x0b, 0x00, 0x00, 0x00, 0x3a, 0xde, 0xff, 0xff, 0x14, 0x00, 0x00, 0x00,
  0x00, 0x00, 0x00, 0x01, 0x18, 0x00, 0x00, 0x00, 0x1c, 0x00, 0x00, 0x00,
  0x0b, 0x00, 0x00, 0x00, 0xe6, 0xdd, 0xff, 0xff, 0x01, 0x00, 0x00, 0x00,
  0x01, 0x00, 0x00, 0x00, 0x01, 0x00, 0x00, 0x00, 0x81, 0x01, 0x00, 0x00,
  0x03, 0x00, 0x00, 0x00, 0x80, 0x01, 0x00, 0x00, 0x27, 0x00, 0x00, 0x00,
  0x8c, 0x00, 0x00, 0x00, 0x36, 0xde, 0xff, 0xff, 0x0c, 0x00, 0x00, 0x00,
  0x10, 0x00, 0x00, 0x00, 0x0a, 0x00, 0x00, 0x00, 0x01, 0x00, 0x00, 0x00,
  0x80, 0x01, 0x00, 0x00, 0x02, 0x00, 0x00, 0x00, 0x72, 0x01, 0x00, 0x00,
  0x0e, 0x00, 0x00, 0x00, 0x5a, 0xde, 0xff, 0xff, 0x0c, 0x00, 0x00, 0x00,
  0x10, 0x00, 0x00, 0x00, 0x0a, 0x00, 0x00, 0x00, 0x01, 0x00, 0x00, 0x00,
  0x7f, 0x01, 0x00, 0x00, 0x02, 0x00, 0x00, 0x00, 0x7e, 0x01, 0x00, 0x00,
  0x0b, 0x00, 0x00, 0x00, 0xbe, 0xde, 0xff, 0xff, 0x14, 0x00, 0x00, 0x00,
  0x00, 0x00, 0x00, 0x01, 0x18, 0x00, 0x00, 0x00, 0x1c, 0x00, 0x00, 0x00,
  0x0b, 0x00, 0x00, 0x00, 0x6a, 0xde, 0xff, 0xff, 0x01, 0x00, 0x00, 0x00,
  0x01, 0x00, 0x00, 0x00, 0x01, 0x00, 0x00, 0x00, 0x7e, 0x01, 0x00, 0x00,
  0x03, 0x00, 0x00, 0x00, 0x7d, 0x01, 0x00, 0x00, 0x28, 0x00, 0x00, 0x00,
  0x8b, 0x00, 0x00, 0x00, 0xba, 0xde, 0xff, 0xff, 0x0c, 0x00, 0x00, 0x00,
  0x10, 0x00, 0x00, 0x00, 0x0a, 0x00, 0x00, 0x00, 0x01, 0x00, 0x00, 0x00,
  0x7d, 0x01, 0x00, 0x00, 0x02, 0x00, 0x00, 0x00, 0x71, 0x01, 0x00, 0x00,
  0x0e, 0x00, 0x00, 0x00, 0xde, 0xde, 0xff, 0xff, 0x0c, 0x00, 0x00, 0x00,
  0x10, 0x00, 0x00, 0x00, 0x0a, 0x00, 0x00, 0x00, 0x01, 0x00, 0x00, 0x00,
  0x7c, 0x01, 0x00, 0x00, 0x02, 0x00, 0x00, 0x00, 0x7b, 0x01, 0x00, 0x00,
  0x0b, 0x00, 0x00, 0x00, 0x42, 0xdf, 0xff, 0xff, 0x14, 0x00, 0x00, 0x00,
  0x00, 0x00, 0x00, 0x01, 0x18, 0x00, 0x00, 0x00, 0x1c, 0x00, 0x00, 0x00,
  0x0b, 0x00, 0x00, 0x00, 0xee, 0xde, 0xff, 0xff, 0x01, 0x00, 0x00, 0x00,
  0x01, 0x00, 0x00, 0x00, 0x01, 0x00, 0x00, 0x00, 0x7b, 0x01, 0x00, 0x00,
  0x03, 0x00, 0x00, 0x00, 0x7a, 0x01, 0x00, 0x00, 0x29, 0x00, 0x00, 0x00,
  0x8a, 0x00, 0x00, 0x00, 0x3e, 0xdf, 0xff, 0xff, 0x0c, 0x00, 0x00, 0x00,
  0x10, 0x00, 0x00, 0x00, 0x0a, 0x00, 0x00, 0x00, 0x01, 0x00, 0x00, 0x00,
  0x7a, 0x01, 0x00, 0x00, 0x02, 0x00, 0x00, 0x00, 0x70, 0x01, 0x00, 0x00,
  0x0e, 0x00, 0x00, 0x00, 0x62, 0xdf, 0xff, 0xff, 0x0c, 0x00, 0x00, 0x00,
  0x10, 0x00, 0x00, 0x00, 0x0a, 0x00, 0x00, 0x00, 0x01, 0x00, 0x00, 0x00,
  0x79, 0x01, 0x00, 0x00, 0x02, 0x00, 0x00, 0x00, 0x78, 0x01, 0x00, 0x00,
  0x0b, 0x00, 0x00, 0x00, 0xc6, 0xdf, 0xff, 0xff, 0x14, 0x00, 0x00, 0x00,
  0x00, 0x00, 0x00, 0x01, 0x18, 0x00, 0x00, 0x00, 0x1c, 0x00, 0x00, 0x00,
  0x0b, 0x00, 0x00, 0x00, 0x72, 0xdf, 0xff, 0xff, 0x01, 0x00, 0x00, 0x00,
  0x01, 0x00, 0x00, 0x00, 0x01, 0x00, 0x00, 0x00, 0x78, 0x01, 0x00, 0x00,
  0x03, 0x00, 0x00, 0x00, 0x77, 0x01, 0x00, 0x00, 0x2a, 0x00, 0x00, 0x00,
  0x89, 0x00, 0x00, 0x00, 0xc2, 0xdf, 0xff, 0xff, 0x0c, 0x00, 0x00, 0x00,
  0x10, 0x00, 0x00, 0x00, 0x0a, 0x00, 0x00, 0x00, 0x01, 0x00, 0x00, 0x00,
  0x77, 0x01, 0x00, 0x00, 0x02, 0x00, 0x00, 0x00, 0x6f, 0x01, 0x00, 0x00,
  0x0e, 0x00, 0x00, 0x00, 0x26, 0xe0, 0xff, 0xff, 0x14, 0x00, 0x00, 0x00,
  0x00, 0x00, 0x00, 0x23, 0x14, 0x00, 0x00, 0x00, 0x34, 0x00, 0x00, 0x00,
  0x0c, 0x00, 0x00, 0x00, 0x7e, 0xe3, 0xff, 0xff, 0x08, 0x00, 0x00, 0x00,
  0x08, 0x00, 0x00, 0x00, 0x6f, 0x01, 0x00, 0x00, 0x70, 0x01, 0x00, 0x00,
  0x71, 0x01, 0x00, 0x00, 0x72, 0x01, 0x00, 0x00, 0x73, 0x01, 0x00, 0x00,
  0x74, 0x01, 0x00, 0x00, 0x75, 0x01, 0x00, 0x00, 0x76, 0x01, 0x00, 0x00,
  0x02, 0x00, 0x00, 0x00, 0x05, 0x00, 0x00, 0x00, 0x6e, 0x01, 0x00, 0x00,
  0x36, 0xe0, 0xff, 0xff, 0x0c, 0x00, 0x00, 0x00, 0x10, 0x00, 0x00, 0x00,
  0x0a, 0x00, 0x00, 0x00, 0x01, 0x00, 0x00, 0x00, 0x6e, 0x01, 0x00, 0x00,
  0x02, 0x00, 0x00, 0x00, 0x6d, 0x01, 0x00, 0x00, 0x0d, 0x00, 0x00, 0x00,
  0x9a, 0xe0, 0xff, 0xff, 0x14, 0x00, 0x00, 0x00, 0x00, 0x00, 0x00, 0x0b,
  0x14, 0x00, 0x00, 0x00, 0x18, 0x00, 0x00, 0x00, 0x0e, 0x00, 0x00, 0x00,
  0xd6, 0xe0, 0xff, 0xff, 0x00, 0x00, 0x00, 0x01, 0x01, 0x00, 0x00, 0x00,
  0x6d, 0x01, 0x00, 0x00, 0x02, 0x00, 0x00, 0x00, 0x47, 0x01, 0x00, 0x00,
  0x6c, 0x01, 0x00, 0x00, 0xce, 0xe0, 0xff, 0xff, 0x14, 0x00, 0x00, 0x00,
  0x00, 0x00, 0x00, 0x01, 0x18, 0x00, 0x00, 0x00, 0x1c, 0x00, 0x00, 0x00,
  0x0b, 0x00, 0x00, 0x00, 0x7a, 0xe0, 0xff, 0xff, 0x01, 0x00, 0x00, 0x00,
  0x01, 0x00, 0x00, 0x00, 0x01, 0x00, 0x00, 0x00, 0x6c, 0x01, 0x00, 0x00,
  0x03, 0x00, 0x00, 0x00, 0x6b, 0x01, 0x00, 0x00, 0x2c, 0x00, 0x00, 0x00,
  0x2b, 0x00, 0x00, 0x00, 0xca, 0xe0, 0xff, 0xff, 0x0c, 0x00, 0x00, 0x00,
  0x10, 0x00, 0x00, 0x00, 0x0a, 0x00, 0x00, 0x00, 0x01, 0x00, 0x00, 0x00,
  0x6b, 0x01, 0x00, 0x00, 0x02, 0x00, 0x00, 0x00, 0x6a, 0x01, 0x00, 0x00,
  0x0c, 0x00, 0x00, 0x00, 0x2e, 0xe1, 0xff, 0xff, 0x14, 0x00, 0x00, 0x00,
  0x00, 0x00, 0x00, 0x0b, 0x14, 0x00, 0x00, 0x00, 0x18, 0x00, 0x00, 0x00,
  0x0e, 0x00, 0x00, 0x00, 0x6a, 0xe1, 0xff, 0xff, 0x00, 0x00, 0x00, 0x01,
  0x01, 0x00, 0x00, 0x00, 0x6a, 0x01, 0x00, 0x00, 0x02, 0x00, 0x00, 0x00,
  0x69, 0x01, 0x00, 0x00, 0x2d, 0x00, 0x00, 0x00, 0x62, 0xe1, 0xff, 0xff,
  0x14, 0x00, 0x00, 0x00, 0x00, 0x00, 0x00, 0x0a, 0x14, 0x00, 0x00, 0x00,
  0x18, 0x00, 0x00, 0x00, 0x0d, 0x00, 0x00, 0x00, 0xba, 0xe4, 0xff, 0xff,
  0xff, 0xff, 0xff, 0xff, 0x01, 0x00, 0x00, 0x00, 0x69, 0x01, 0x00, 0x00,
  0x08, 0x00, 0x00, 0x00, 0x53, 0x01, 0x00, 0x00, 0x56, 0x01, 0x00, 0x00,
  0x59, 0x01, 0x00, 0x00, 0x5c, 0x01, 0x00, 0x00, 0x5f, 0x01, 0x00, 0x00,
  0x62, 0x01, 0x00, 0x00, 0x65, 0x01, 0x00, 0x00, 0x68, 0x01, 0x00, 0x00,
  0x6e, 0xe1, 0xff, 0xff, 0x0c, 0x00, 0x00, 0x00, 0x10, 0x00, 0x00, 0x00,
  0x0a, 0x00, 0x00, 0x00, 0x01, 0x00, 0x00, 0x00, 0x68, 0x01, 0x00, 0x00,
  0x02, 0x00, 0x00, 0x00, 0x67, 0x01, 0x00, 0x00, 0x0b, 0x00, 0x00, 0x00,
  0xd2, 0xe1, 0xff, 0xff, 0x14, 0x00, 0x00, 0x00, 0x00, 0x00, 0x00, 0x01,
  0x18, 0x00, 0x00, 0x00, 0x1c, 0x00, 0x00, 0x00, 0x0b, 0x00, 0x00, 0x00,
  0x7e, 0xe1, 0xff, 0xff, 0x01, 0x00, 0x00, 0x00, 0x01, 0x00, 0x00, 0x00,
  0x01, 0x00, 0x00, 0x00, 0x67, 0x01, 0x00, 0x00, 0x03, 0x00, 0x00, 0x00,
  0x66, 0x01, 0x00, 0x00, 0x2e, 0x00, 0x00, 0x00, 0x88, 0x00, 0x00, 0x00,
  0xce, 0xe1, 0xff, 0xff, 0x0c, 0x00, 0x00, 0x00, 0x10, 0x00, 0x00, 0x00,
  0x0a, 0x00, 0x00, 0x00, 0x01, 0x00, 0x00, 0x00, 0x66, 0x01, 0x00, 0x00,
  0x02, 0x00, 0x00, 0x00, 0x50, 0x01, 0x00, 0x00, 0x0e, 0x00, 0x00, 0x00,
  0xf2, 0xe1, 0xff, 0xff, 0x0c, 0x00, 0x00, 0x00, 0x10, 0x00, 0x00, 0x00,
  0x0a, 0x00, 0x00, 0x00, 0x01, 0x00, 0x00, 0x00, 0x65, 0x01, 0x00, 0x00,
  0x02, 0x00, 0x00, 0x00, 0x64, 0x01, 0x00, 0x00, 0x0b, 0x00, 0x00, 0x00,
  0x56, 0xe2, 0xff, 0xff, 0x14, 0x00, 0x00, 0x00, 0x00, 0x00, 0x00, 0x01,
  0x18, 0x00, 0x00, 0x00, 0x1c, 0x00, 0x00, 0x00, 0x0b, 0x00, 0x00, 0x00,
  0x02, 0xe2, 0xff, 0xff, 0x01, 0x00, 0x00, 0x00, 0x01, 0x00, 0x00, 0x00,
  0x01, 0x00, 0x00, 0x00, 0x64, 0x01, 0x00, 0x00, 0x03, 0x00, 0x00, 0x00,
  0x63, 0x01, 0x00, 0x00, 0x2f, 0x00, 0x00, 0x00, 0x87, 0x00, 0x00, 0x00,
  0x52, 0xe2, 0xff, 0xff, 0x0c, 0x00, 0x00, 0x00, 0x10, 0x00, 0x00, 0x00,
  0x0a, 0x00, 0x00, 0x00, 0x01, 0x00, 0x00, 0x00, 0x63, 0x01, 0x00, 0x00,
  0x02, 0x00, 0x00, 0x00, 0x4f, 0x01, 0x00, 0x00, 0x0e, 0x00, 0x00, 0x00,
  0x76, 0xe2, 0xff, 0xff, 0x0c, 0x00, 0x00, 0x00, 0x10, 0x00, 0x00, 0x00,
  0x0a, 0x00, 0x00, 0x00, 0x01, 0x00, 0x00, 0x00, 0x62, 0x01, 0x00, 0x00,
  0x02, 0x00, 0x00, 0x00, 0x61, 0x01, 0x00, 0x00, 0x0b, 0x00, 0x00, 0x00,
  0xda, 0xe2, 0xff, 0xff, 0x14, 0x00, 0x00, 0x00, 0x00, 0x00, 0x00, 0x01,
  0x18, 0x00, 0x00, 0x00, 0x1c, 0x00, 0x00, 0x00, 0x0b, 0x00, 0x00, 0x00,
  0x86, 0xe2, 0xff, 0xff, 0x01, 0x00, 0x00, 0x00, 0x01, 0x00, 0x00, 0x00,
  0x01, 0x00, 0x00, 0x00, 0x61, 0x01, 0x00, 0x00, 0x03, 0x00, 0x00, 0x00,
  0x60, 0x01, 0x00, 0x00, 0x30, 0x00, 0x00, 0x00, 0x86, 0x00, 0x00, 0x00,
  0xd6, 0xe2, 0xff, 0xff, 0x0c, 0x00, 0x00, 0x00, 0x10, 0x00, 0x00, 0x00,
  0x0a, 0x00, 0x00, 0x00, 0x01, 0x00, 0x00, 0x00, 0x60, 0x01, 0x00, 0x00,
  0x02, 0x00, 0x00, 0x00, 0x4e, 0x01, 0x00, 0x00, 0x0e, 0x00, 0x00, 0x00,
  0xfa, 0xe2, 0xff, 0xff, 0x0c, 0x00, 0x00, 0x00, 0x10, 0x00, 0x00, 0x00,
  0x0a, 0x00, 0x00, 0x00, 0x01, 0x00, 0x00, 0x00, 0x5f, 0x01, 0x00, 0x00,
  0x02, 0x00, 0x00, 0x00, 0x5e, 0x01, 0x00, 0x00, 0x0b, 0x00, 0x00, 0x00,
  0x5e, 0xe3, 0xff, 0xff, 0x14, 0x00, 0x00, 0x00, 0x00, 0x00, 0x00, 0x01,
  0x18, 0x00, 0x00, 0x00, 0x1c, 0x00, 0x00, 0x00, 0x0b, 0x00, 0x00, 0x00,
  0x0a, 0xe3, 0xff, 0xff, 0x01, 0x00, 0x00, 0x00, 0x01, 0x00, 0x00, 0x00,
  0x01, 0x00, 0x00, 0x00, 0x5e, 0x01, 0x00, 0x00, 0x03, 0x00, 0x00, 0x00,
  0x5d, 0x01, 0x00, 0x00, 0x31, 0x00, 0x00, 0x00, 0x85, 0x00, 0x00, 0x00,
  0x5a, 0xe3, 0xff, 0xff, 0x0c, 0x00, 0x00, 0x00, 0x10, 0x00, 0x00, 0x00,
  0x0a, 0x00, 0x00, 0x00, 0x01, 0x00, 0x00, 0x00, 0x5d, 0x01, 0x00, 0x00,
  0x02, 0x00, 0x00, 0x00, 0x4d, 0x01, 0x00, 0x00, 0x0e, 0x00, 0x00, 0x00,
  0x7e, 0xe3, 0xff, 0xff, 0x0c, 0x00, 0x00, 0x00, 0x10, 0x00, 0x00, 0x00,
  0x0a, 0x00, 0x00, 0x00, 0x01, 0x00, 0x00, 0x00, 0x5c, 0x01, 0x00, 0x00,
  0x02, 0x00, 0x00, 0x00, 0x5b, 0x01, 0x00, 0x00, 0x0b, 0x00, 0x00, 0x00,
  0xe2, 0xe3, 0xff, 0xff, 0x14, 0x00, 0x00, 0x00, 0x00, 0x00, 0x00, 0x01,
  0x18, 0x00, 0x00, 0x00, 0x1c, 0x00, 0x00, 0x00, 0x0b, 0x00, 0x00, 0x00,
  0x8e, 0xe3, 0xff, 0xff, 0x01, 0x00, 0x00, 0x00, 0x01, 0x00, 0x00, 0x00,
  0x01, 0x00, 0x00, 0x00, 0x5b, 0x01, 0x00, 0x00, 0x03, 0x00, 0x00, 0x00,
  0x5a, 0x01, 0x00, 0x00, 0x32, 0x00, 0x00, 0x00, 0x84, 0x00, 0x00, 0x00,
  0xde, 0xe3, 0xff, 0xff, 0x0c, 0x00, 0x00, 0x00, 0x10, 0x00, 0x00, 0x00,
  0x0a, 0x00, 0x00, 0x00, 0x01, 0x00, 0x00, 0x00, 0x5a, 0x01, 0x00, 0x00,
  0x02, 0x00, 0x00, 0x00, 0x4c, 0x01, 0x00, 0x00, 0x0e, 0x00, 0x00, 0x00,
  0x02, 0xe4, 0xff, 0xff, 0x0c, 0x00, 0x00, 0x00, 0x10, 0x00, 0x00, 0x00,
  0x0a, 0x00, 0x00, 0x00, 0x01, 0x00, 0x00, 0x00, 0x59, 0x01, 0x00, 0x00,
  0x02, 0x00, 0x00, 0x00, 0x58, 0x01, 0x00, 0x00, 0x0b, 0x00, 0x00, 0x00,
  0x66, 0xe4, 0xff, 0xff, 0x14, 0x00, 0x00, 0x00, 0x00, 0x00, 0x00, 0x01,
  0x18, 0x00, 0x00, 0x00, 0x1c, 0x00, 0x00, 0x00, 0x0b, 0x00, 0x00, 0x00,
  0x12, 0xe4, 0xff, 0xff, 0x01, 0x00, 0x00, 0x00, 0x01, 0x00, 0x00, 0x00,
  0x01, 0x00, 0x00, 0x00, 0x58, 0x01, 0x00, 0x00, 0x03, 0x00, 0x00, 0x00,
  0x57, 0x01, 0x00, 0x00, 0x33, 0x00, 0x00, 0x00, 0x83, 0x00, 0x00, 0x00,
  0x62, 0xe4, 0xff, 0xff, 0x0c, 0x00, 0x00, 0x00, 0x10, 0x00, 0x00, 0x00,
  0x0a, 0x00, 0x00, 0x00, 0x01, 0x00, 0x00, 0x00, 0x57, 0x01, 0x00, 0x00,
  0x02, 0x00, 0x00, 0x00, 0x4b, 0x01, 0x00, 0x00, 0x0e, 0x00, 0x00, 0x00,
  0x86, 0xe4, 0xff, 0xff, 0x0c, 0x00, 0x00, 0x00, 0x10, 0x00, 0x00, 0x00,
  0x0a, 0x00, 0x00, 0x00, 0x01, 0x00, 0x00, 0x00, 0x56, 0x01, 0x00, 0x00,
  0x02, 0x00, 0x00, 0x00, 0x55, 0x01, 0x00, 0x00, 0x0b, 0x00, 0x00, 0x00,
  0xea, 0xe4, 0xff, 0xff, 0x14, 0x00, 0x00, 0x00, 0x00, 0x00, 0x00, 0x01,
  0x18, 0x00, 0x00, 0x00, 0x1c, 0x00, 0x00, 0x00, 0x0b, 0x00, 0x00, 0x00,
  0x96, 0xe4, 0xff, 0xff, 0x01, 0x00, 0x00, 0x00, 0x01, 0x00, 0x00, 0x00,
  0x01, 0x00, 0x00, 0x00, 0x55, 0x01, 0x00, 0x00, 0x03, 0x00, 0x00, 0x00,
  0x54, 0x01, 0x00, 0x00, 0x34, 0x00, 0x00, 0x00, 0x82, 0x00, 0x00, 0x00,
  0xe6, 0xe4, 0xff, 0xff, 0x0c, 0x00, 0x00, 0x00, 0x10, 0x00, 0x00, 0x00,
  0x0a, 0x00, 0x00, 0x00, 0x01, 0x00, 0x00, 0x00, 0x54, 0x01, 0x00, 0x00,
  0x02, 0x00, 0x00, 0x00, 0x4a, 0x01, 0x00, 0x00, 0x0e, 0x00, 0x00, 0x00,
  0x0a, 0xe5, 0xff, 0xff, 0x0c, 0x00, 0x00, 0x00, 0x10, 0x00, 0x00, 0x00,
  0x0a, 0x00, 0x00, 0x00, 0x01, 0x00, 0x00, 0x00, 0x53, 0x01, 0x00, 0x00,
  0x02, 0x00, 0x00, 0x00, 0x52, 0x01, 0x00, 0x00, 0x0b, 0x00, 0x00, 0x00,
  0x6e, 0xe5, 0xff, 0xff, 0x14, 0x00, 0x00, 0x00, 0x00, 0x00, 0x00, 0x01,
  0x18, 0x00, 0x00, 0x00, 0x1c, 0x00, 0x00, 0x00, 0x0b, 0x00, 0x00, 0x00,
  0x1a, 0xe5, 0xff, 0xff, 0x01, 0x00, 0x00, 0x00, 0x01, 0x00, 0x00, 0x00,
  0x01, 0x00, 0x00, 0x00, 0x52, 0x01, 0x00, 0x00, 0x03, 0x00, 0x00, 0x00,
  0x51, 0x01, 0x00, 0x00, 0x35, 0x00, 0x00, 0x00, 0x81, 0x00, 0x00, 0x00,
  0x6a, 0xe5, 0xff, 0xff, 0x0c, 0x00, 0x00, 0x00, 0x10, 0x00, 0x00, 0x00,
  0x0a, 0x00, 0x00, 0x00, 0x01, 0x00, 0x00, 0x00, 0x51, 0x01, 0x00, 0x00,
  0x02, 0x00, 0x00, 0x00, 0x49, 0x01, 0x00, 0x00, 0x0e, 0x00, 0x00, 0x00,
  0xce, 0xe5, 0xff, 0xff, 0x14, 0x00, 0x00, 0x00, 0x00, 0x00, 0x00, 0x23,
  0x14, 0x00, 0x00, 0x00, 0x34, 0x00, 0x00, 0x00, 0x0c, 0x00, 0x00, 0x00,
  0x26, 0xe9, 0xff, 0xff, 0x08, 0x00, 0x00, 0x00, 0x08, 0x00, 0x00, 0x00,
  0x49, 0x01, 0x00, 0x00, 0x4a, 0x01, 0x00, 0x00, 0x4b, 0x01, 0x00, 0x00,
  0x4c, 0x01, 0x00, 0x00, 0x4d, 0x01, 0x00, 0x00, 0x4e, 0x01, 0x00, 0x00,
  0x4f, 0x01, 0x00, 0x00, 0x50, 0x01, 0x00, 0x00, 0x02, 0x00, 0x00, 0x00,
  0x05, 0x00, 0x00, 0x00, 0x48, 0x01, 0x00, 0x00, 0xde, 0xe5, 0xff, 0xff,
  0x0c, 0x00, 0x00, 0x00, 0x10, 0x00, 0x00, 0x00, 0x0a, 0x00, 0x00, 0x00,
  0x01, 0x00, 0x00, 0x00, 0x48, 0x01, 0x00, 0x00, 0x02, 0x00, 0x00, 0x00,
  0x47, 0x01, 0x00, 0x00, 0x0d, 0x00, 0x00, 0x00, 0x42, 0xe6, 0xff, 0xff,
  0x20, 0x00, 0x00, 0x00, 0x00, 0x00, 0x00, 0x01, 0x28, 0x00, 0x00, 0x00,
  0x2c, 0x00, 0x00, 0x00, 0x0b, 0x00, 0x00, 0x00, 0x0c, 0x00, 0x10, 0x00,
  0x00, 0x00, 0x0c, 0x00, 0x08, 0x00, 0x07, 0x00, 0x0c, 0x00, 0x00, 0x00,
  0x00, 0x00, 0x00, 0x01, 0x01, 0x00, 0x00, 0x00, 0x01, 0x00, 0x00, 0x00,
  0x01, 0x00, 0x00, 0x00, 0x47, 0x01, 0x00, 0x00, 0x03, 0x00, 0x00, 0x00,
  0x46, 0x01, 0x00, 0x00, 0x37, 0x00, 0x00, 0x00, 0x36, 0x00, 0x00, 0x00,
  0x4e, 0xe6, 0xff, 0xff, 0x0c, 0x00, 0x00, 0x00, 0x10, 0x00, 0x00, 0x00,
  0x0a, 0x00, 0x00, 0x00, 0x01, 0x00, 0x00, 0x00, 0x46, 0x01, 0x00, 0x00,
  0x02, 0x00, 0x00, 0x00, 0x45, 0x01, 0x00, 0x00, 0x0c, 0x00, 0x00, 0x00,
  0xb2, 0xe6, 0xff, 0xff, 0x14, 0x00, 0x00, 0x00, 0x00, 0x00, 0x00, 0x0b,
  0x14, 0x00, 0x00, 0x00, 0x18, 0x00, 0x00, 0x00, 0x0e, 0x00, 0x00, 0x00,
  0xee, 0xe6, 0xff, 0xff, 0x00, 0x00, 0x00, 0x01, 0x01, 0x00, 0x00, 0x00,
  0x45, 0x01, 0x00, 0x00, 0x02, 0x00, 0x00, 0x00, 0x44, 0x01, 0x00, 0x00,
  0x38, 0x00, 0x00, 0x00, 0xe6, 0xe6, 0xff, 0xff, 0x14, 0x00, 0x00, 0x00,
  0x00, 0x00, 0x00, 0x0a, 0x14, 0x00, 0x00, 0x00, 0x18, 0x00, 0x00, 0x00,
  0x0d, 0x00, 0x00, 0x00, 0x3e, 0xea, 0xff, 0xff, 0xff, 0xff, 0xff, 0xff,
  0x01, 0x00, 0x00, 0x00, 0x44, 0x01, 0x00, 0x00, 0x08, 0x00, 0x00, 0x00,
  0x2e, 0x01, 0x00, 0x00, 0x31, 0x01, 0x00, 0x00, 0x34, 0x01, 0x00, 0x00,
  0x37, 0x01, 0x00, 0x00, 0x3a, 0x01, 0x00, 0x00, 0x3d, 0x01, 0x00, 0x00,
  0x40, 0x01, 0x00, 0x00, 0x43, 0x01, 0x00, 0x00, 0xf2, 0xe6, 0xff, 0xff,
  0x0c, 0x00, 0x00, 0x00, 0x10, 0x00, 0x00, 0x00, 0x0a, 0x00, 0x00, 0x00,
  0x01, 0x00, 0x00, 0x00, 0x43, 0x01, 0x00, 0x00, 0x02, 0x00, 0x00, 0x00,
  0x42, 0x01, 0x00, 0x00, 0x0b, 0x00, 0x00, 0x00, 0x56, 0xe7, 0xff, 0xff,
  0x14, 0x00, 0x00, 0x00, 0x00, 0x00, 0x00, 0x01, 0x1c, 0x00, 0x00, 0x00,
  0x20, 0x00, 0x00, 0x00, 0x0b, 0x00, 0x00, 0x00, 0x46, 0xfc, 0xff, 0xff,
  0x01, 0x00, 0x00, 0x00, 0x08, 0x00, 0x00, 0x00, 0x00, 0x00, 0x00, 0x01,
  0x01, 0x00, 0x00, 0x00, 0x42, 0x01, 0x00, 0x00, 0x03, 0x00, 0x00, 0x00,
  0x41, 0x01, 0x00, 0x00, 0x39, 0x00, 0x00, 0x00, 0x80, 0x00, 0x00, 0x00,
  0x56, 0xe7, 0xff, 0xff, 0x0c, 0x00, 0x00, 0x00, 0x10, 0x00, 0x00, 0x00,
  0x0a, 0x00, 0x00, 0x00, 0x01, 0x00, 0x00, 0x00, 0x41, 0x01, 0x00, 0x00,
  0x02, 0x00, 0x00, 0x00, 0x2b, 0x01, 0x00, 0x00, 0x0a, 0x00, 0x00, 0x00,
  0x7a, 0xe7, 0xff, 0xff, 0x0c, 0x00, 0x00, 0x00, 0x10, 0x00, 0x00, 0x00,
  0x0a, 0x00, 0x00, 0x00, 0x01, 0x00, 0x00, 0x00, 0x40, 0x01, 0x00, 0x00,
  0x02, 0x00, 0x00, 0x00, 0x3f, 0x01, 0x00, 0x00, 0x0b, 0x00, 0x00, 0x00,
  0xde, 0xe7, 0xff, 0xff, 0x14, 0x00, 0x00, 0x00, 0x00, 0x00, 0x00, 0x01,
  0x1c, 0x00, 0x00, 0x00, 0x20, 0x00, 0x00, 0x00, 0x0b, 0x00, 0x00, 0x00,
  0xce, 0xfc, 0xff, 0xff, 0x01, 0x00, 0x00, 0x00, 0x08, 0x00, 0x00, 0x00,
  0x00, 0x00, 0x00, 0x01, 0x01, 0x00, 0x00, 0x00, 0x3f, 0x01, 0x00, 0x00,
  0x03, 0x00, 0x00, 0x00, 0x3e, 0x01, 0x00, 0x00, 0x3a, 0x00, 0x00, 0x00,
  0x7f, 0x00, 0x00, 0x00, 0xde, 0xe7, 0xff, 0xff, 0x0c, 0x00, 0x00, 0x00,
  0x10, 0x00, 0x00, 0x00, 0x0a, 0x00, 0x00, 0x00, 0x01, 0x00, 0x00, 0x00,
  0x3e, 0x01, 0x00, 0x00, 0x02, 0x00, 0x00, 0x00, 0x2a, 0x01, 0x00, 0x00,
  0x0a, 0x00, 0x00, 0x00, 0x02, 0xe8, 0xff, 0xff, 0x0c, 0x00, 0x00, 0x00,
  0x10, 0x00, 0x00, 0x00, 0x0a, 0x00, 0x00, 0x00, 0x01, 0x00, 0x00, 0x00,
  0x3d, 0x01, 0x00, 0x00, 0x02, 0x00, 0x00, 0x00, 0x3c, 0x01, 0x00, 0x00,
  0x0b, 0x00, 0x00, 0x00, 0x66, 0xe8, 0xff, 0xff, 0x14, 0x00, 0x00, 0x00,
  0x00, 0x00, 0x00, 0x01, 0x1c, 0x00, 0x00, 0x00, 0x20, 0x00, 0x00, 0x00,
  0x0b, 0x00, 0x00, 0x00, 0x56, 0xfd, 0xff, 0xff, 0x01, 0x00, 0x00, 0x00,
  0x08, 0x00, 0x00, 0x00, 0x00, 0x00, 0x00, 0x01, 0x01, 0x00, 0x00, 0x00,
  0x3c, 0x01, 0x00, 0x00, 0x03, 0x00, 0x00, 0x00, 0x3b, 0x01, 0x00, 0x00,
  0x3b, 0x00, 0x00, 0x00, 0x7e, 0x00, 0x00, 0x00, 0x66, 0xe8, 0xff, 0xff,
  0x0c, 0x00, 0x00, 0x00, 0x10, 0x00, 0x00, 0x00, 0x0a, 0x00, 0x00, 0x00,
  0x01, 0x00, 0x00, 0x00, 0x3b, 0x01, 0x00, 0x00, 0x02, 0x00, 0x00, 0x00,
  0x29, 0x01, 0x00, 0x00, 0x0a, 0x00, 0x00, 0x00, 0x8a, 0xe8, 0xff, 0xff,
  0x0c, 0x00, 0x00, 0x00, 0x10, 0x00, 0x00, 0x00, 0x0a, 0x00, 0x00, 0x00,
  0x01, 0x00, 0x00, 0x00, 0x3a, 0x01, 0x00, 0x00, 0x02, 0x00, 0x00, 0x00,
  0x39, 0x01, 0x00, 0x00, 0x0b, 0x00, 0x00, 0x00, 0xee, 0xe8, 0xff, 0xff,
  0x14, 0x00, 0x00, 0x00, 0x00, 0x00, 0x00, 0x01, 0x1c, 0x00, 0x00, 0x00,
  0x20, 0x00, 0x00, 0x00, 0x0b, 0x00, 0x00, 0x00, 0xde, 0xfd, 0xff, 0xff,
  0x01, 0x00, 0x00, 0x00, 0x08, 0x00, 0x00, 0x00, 0x00, 0x00, 0x00, 0x01,
  0x01, 0x00, 0x00, 0x00, 0x39, 0x01, 0x00, 0x00, 0x03, 0x00, 0x00, 0x00,
  0x38, 0x01, 0x00, 0x00, 0x3c, 0x00, 0x00, 0x00, 0x7d, 0x00, 0x00, 0x00,
  0xee, 0xe8, 0xff, 0xff, 0x0c, 0x00, 0x00, 0x00, 0x10, 0x00, 0x00, 0x00,
  0x0a, 0x00, 0x00, 0x00, 0x01, 0x00, 0x00, 0x00, 0x38, 0x01, 0x00, 0x00,
  0x02, 0x00, 0x00, 0x00, 0x28, 0x01, 0x00, 0x00, 0x0a, 0x00, 0x00, 0x00,
  0x12, 0xe9, 0xff, 0xff, 0x0c, 0x00, 0x00, 0x00, 0x10, 0x00, 0x00, 0x00,
  0x0a, 0x00, 0x00, 0x00, 0x01, 0x00, 0x00, 0x00, 0x37, 0x01, 0x00, 0x00,
  0x02, 0x00, 0x00, 0x00, 0x36, 0x01, 0x00, 0x00, 0x0b, 0x00, 0x00, 0x00,
  0x76, 0xe9, 0xff, 0xff, 0x14, 0x00, 0x00, 0x00, 0x00, 0x00, 0x00, 0x01,
  0x1c, 0x00, 0x00, 0x00, 0x20, 0x00, 0x00, 0x00, 0x0b, 0x00, 0x00, 0x00,
  0x66, 0xfe, 0xff, 0xff, 0x01, 0x00, 0x00, 0x00, 0x08, 0x00, 0x00, 0x00,
  0x00, 0x00, 0x00, 0x01, 0x01, 0x00, 0x00, 0x00, 0x36, 0x01, 0x00, 0x00,
  0x03, 0x00, 0x00, 0x00, 0x35, 0x01, 0x00, 0x00, 0x3d, 0x00, 0x00, 0x00,
  0x7c, 0x00, 0x00, 0x00, 0x76, 0xe9, 0xff, 0xff, 0x0c, 0x00, 0x00, 0x00,
  0x10, 0x00, 0x00, 0x00, 0x0a, 0x00, 0x00, 0x00, 0x01, 0x00, 0x00, 0x00,
  0x35, 0x01, 0x00, 0x00, 0x02, 0x00, 0x00, 0x00, 0x27, 0x01, 0x00, 0x00,
  0x0a, 0x00, 0x00, 0x00, 0x9a, 0xe9, 0xff, 0xff, 0x0c, 0x00, 0x00, 0x00,
  0x10, 0x00, 0x00, 0x00, 0x0a, 0x00, 0x00, 0x00, 0x01, 0x00, 0x00, 0x00,
  0x34, 0x01, 0x00, 0x00, 0x02, 0x00, 0x00, 0x00, 0x33, 0x01, 0x00, 0x00,
  0x0b, 0x00, 0x00, 0x00, 0xfe, 0xe9, 0xff, 0xff, 0x14, 0x00, 0x00, 0x00,
  0x00, 0x00, 0x00, 0x01, 0x1c, 0x00, 0x00, 0x00, 0x20, 0x00, 0x00, 0x00,
  0x0b, 0x00, 0x00, 0x00, 0xee, 0xfe, 0xff, 0xff, 0x01, 0x00, 0x00, 0x00,
  0x08, 0x00, 0x00, 0x00, 0x00, 0x00, 0x00, 0x01, 0x01, 0x00, 0x00, 0x00,
  0x33, 0x01, 0x00, 0x00, 0x03, 0x00, 0x00, 0x00, 0x32, 0x01, 0x00, 0x00,
  0x3e, 0x00, 0x00, 0x00, 0x7b, 0x00, 0x00, 0x00, 0xfe, 0xe9, 0xff, 0xff,
  0x0c, 0x00, 0x00, 0x00, 0x10, 0x00, 0x00, 0x00, 0x0a, 0x00, 0x00, 0x00,
  0x01, 0x00, 0x00, 0x00, 0x32, 0x01, 0x00, 0x00, 0x02, 0x00, 0x00, 0x00,
  0x26, 0x01, 0x00, 0x00, 0x0a, 0x00, 0x00, 0x00, 0x22, 0xea, 0xff, 0xff,
  0x0c, 0x00, 0x00, 0x00, 0x10, 0x00, 0x00, 0x00, 0x0a, 0x00, 0x00, 0x00,
  0x01, 0x00, 0x00, 0x00, 0x31, 0x01, 0x00, 0x00, 0x02, 0x00, 0x00, 0x00,
  0x30, 0x01, 0x00, 0x00, 0x0b, 0x00, 0x00, 0x00, 0x86, 0xea, 0xff, 0xff,
  0x14, 0x00, 0x00, 0x00, 0x00, 0x00, 0x00, 0x01, 0x1c, 0x00, 0x00, 0x00,
  0x20, 0x00, 0x00, 0x00, 0x0b, 0x00, 0x00, 0x00, 0x76, 0xff, 0xff, 0xff,
  0x01, 0x00, 0x00, 0x00, 0x08, 0x00, 0x00, 0x00, 0x00, 0x00, 0x00, 0x01,
  0x01, 0x00, 0x00, 0x00, 0x30, 0x01, 0x00, 0x00, 0x03, 0x00, 0x00, 0x00,
  0x2f, 0x01, 0x00, 0x00, 0x3f, 0x00, 0x00, 0x00, 0x7a, 0x00, 0x00, 0x00,
  0x86, 0xea, 0xff, 0xff, 0x0c, 0x00, 0x00, 0x00, 0x10, 0x00, 0x00, 0x00,
  0x0a, 0x00, 0x00, 0x00, 0x01, 0x00, 0x00, 0x00, 0x2f, 0x01, 0x00, 0x00,
  0x02, 0x00, 0x00, 0x00, 0x25, 0x01, 0x00, 0x00, 0x0a, 0x00, 0x00, 0x00,
  0xaa, 0xea, 0xff, 0xff, 0x0c, 0x00, 0x00, 0x00, 0x10, 0x00, 0x00, 0x00,
  0x0a, 0x00, 0x00, 0x00, 0x01, 0x00, 0x00, 0x00, 0x2e, 0x01, 0x00, 0x00,
  0x02, 0x00, 0x00, 0x00, 0x2d, 0x01, 0x00, 0x00, 0x0b, 0x00, 0x00, 0x00,
  0x5a, 0xeb, 0xff, 0xff, 0x20, 0x00, 0x00, 0x00, 0x00, 0x00, 0x00, 0x01,
  0x28, 0x00, 0x00, 0x00, 0x2c, 0x00, 0x00, 0x00, 0x0b, 0x00, 0x00, 0x00,
  0x00, 0x00, 0x0a, 0x00, 0x10, 0x00, 0x0f, 0x00, 0x08, 0x00, 0x04, 0x00,
  0x0a, 0x00, 0x00, 0x00, 0x01, 0x00, 0x00, 0x00, 0x08, 0x00, 0x00, 0x00,
  0x00, 0x00, 0x00, 0x01, 0x01, 0x00, 0x00, 0x00, 0x2d, 0x01, 0x00, 0x00,
  0x03, 0x00, 0x00, 0x00, 0x2c, 0x01, 0x00, 0x00, 0x40, 0x00, 0x00, 0x00,
  0x79, 0x00, 0x00, 0x00, 0x1a, 0xeb, 0xff, 0xff, 0x0c, 0x00, 0x00, 0x00,
  0x10, 0x00, 0x00, 0x00, 0x0a, 0x00, 0x00, 0x00, 0x01, 0x00, 0x00, 0x00,
  0x2c, 0x01, 0x00, 0x00, 0x02, 0x00, 0x00, 0x00, 0x24, 0x01, 0x00, 0x00,
  0x0a, 0x00, 0x00, 0x00, 0x7e, 0xeb, 0xff, 0xff, 0x14, 0x00, 0x00, 0x00,
  0x00, 0x00, 0x00, 0x23, 0x14, 0x00, 0x00, 0x00, 0x34, 0x00, 0x00, 0x00,
  0x0c, 0x00, 0x00, 0x00, 0xd6, 0xee, 0xff, 0xff, 0x08, 0x00, 0x00, 0x00,
  0x08, 0x00, 0x00, 0x00, 0x24, 0x01, 0x00, 0x00, 0x25, 0x01, 0x00, 0x00,
  0x26, 0x01, 0x00, 0x00, 0x27, 0x01, 0x00, 0x00, 0x28, 0x01, 0x00, 0x00,
  0x29, 0x01, 0x00, 0x00, 0x2a, 0x01, 0x00, 0x00, 0x2b, 0x01, 0x00, 0x00,
  0x02, 0x00, 0x00, 0x00, 0x05, 0x00, 0x00, 0x00, 0x23, 0x01, 0x00, 0x00,
  0xce, 0xeb, 0xff, 0xff, 0x14, 0x00, 0x00, 0x00, 0x00, 0x00, 0x00, 0x16,
  0x10, 0x00, 0x00, 0x00, 0x14, 0x00, 0x00, 0x00, 0x09, 0x00, 0x00, 0x00,
