unsigned char converted_UOS_BEARING_8k_converted_model_2048_UOS_BEARING_8k_model_2048_int8_tflite[] = {
  0x20, 0x00, 0x00, 0x00, 0x54, 0x46, 0x4c, 0x33, 0x00, 0x00, 0x00, 0x00,
  0x14, 0x00, 0x20, 0x00, 0x1c, 0x00, 0x18, 0x00, 0x14, 0x00, 0x10, 0x00,
  0x0c, 0x00, 0x00, 0x00, 0x08, 0x00, 0x04, 0x00, 0x14, 0x00, 0x00, 0x00,
  0x1c, 0x00, 0x00, 0x00, 0x80, 0x00, 0x00, 0x00, 0xd8, 0x00, 0x00, 0x00,
  0xc4, 0x36, 0x00, 0x00, 0xd4, 0x36, 0x00, 0x00, 0xc0, 0x7f, 0x01, 0x00,
  0x03, 0x00, 0x00, 0x00, 0x01, 0x00, 0x00, 0x00, 0x04, 0x00, 0x00, 0x00,
  0xa6, 0x98, 0xff, 0xff, 0x0c, 0x00, 0x00, 0x00, 0x1c, 0x00, 0x00, 0x00,
  0x38, 0x00, 0x00, 0x00, 0x0f, 0x00, 0x00, 0x00, 0x73, 0x65, 0x72, 0x76,
  0x69, 0x6e, 0x67, 0x5f, 0x64, 0x65, 0x66, 0x61, 0x75, 0x6c, 0x74, 0x00,
  0x01, 0x00, 0x00, 0x00, 0x04, 0x00, 0x00, 0x00, 0x9c, 0xff, 0xff, 0xff,
  0xc2, 0x01, 0x00, 0x00, 0x04, 0x00, 0x00, 0x00, 0x06, 0x00, 0x00, 0x00,
  0x6f, 0x75, 0x74, 0x70, 0x75, 0x74, 0x00, 0x00, 0x01, 0x00, 0x00, 0x00,
  0x04, 0x00, 0x00, 0x00, 0x72, 0x9c, 0xff, 0xff, 0x04, 0x00, 0x00, 0x00,
  0x05, 0x00, 0x00, 0x00, 0x69, 0x6e, 0x70, 0x75, 0x74, 0x00, 0x00, 0x00,
  0x02, 0x00, 0x00, 0x00, 0x34, 0x00, 0x00, 0x00, 0x04, 0x00, 0x00, 0x00,
  0xdc, 0xff, 0xff, 0xff, 0xc5, 0x01, 0x00, 0x00, 0x04, 0x00, 0x00, 0x00,
  0x13, 0x00, 0x00, 0x00, 0x43, 0x4f, 0x4e, 0x56, 0x45, 0x52, 0x53, 0x49,
  0x4f, 0x4e, 0x5f, 0x4d, 0x45, 0x54, 0x41, 0x44, 0x41, 0x54, 0x41, 0x00,
  0x08, 0x00, 0x0c, 0x00, 0x08, 0x00, 0x04, 0x00, 0x08, 0x00, 0x00, 0x00,
  0xc4, 0x01, 0x00, 0x00, 0x04, 0x00, 0x00, 0x00, 0x13, 0x00, 0x00, 0x00,
  0x6d, 0x69, 0x6e, 0x5f, 0x72, 0x75, 0x6e, 0x74, 0x69, 0x6d, 0x65, 0x5f,
  0x76, 0x65, 0x72, 0x73, 0x69, 0x6f, 0x6e, 0x00, 0xc6, 0x01, 0x00, 0x00,
  0xe8, 0x35, 0x00, 0x00, 0xe0, 0x35, 0x00, 0x00, 0xcc, 0x35, 0x00, 0x00,
  0xa4, 0x35, 0x00, 0x00, 0x84, 0x35, 0x00, 0x00, 0x68, 0x35, 0x00, 0x00,
  0x54, 0x35, 0x00, 0x00, 0x34, 0x35, 0x00, 0x00, 0x18, 0x35, 0x00, 0x00,
  0xf8, 0x34, 0x00, 0x00, 0xd0, 0x34, 0x00, 0x00, 0xb0, 0x34, 0x00, 0x00,
  0x94, 0x34, 0x00, 0x00, 0x74, 0x34, 0x00, 0x00, 0x58, 0x34, 0x00, 0x00,
  0x38, 0x34, 0x00, 0x00, 0x30, 0x34, 0x00, 0x00, 0x18, 0x34, 0x00, 0x00,
  0xf8, 0x33, 0x00, 0x00, 0xb8, 0x33, 0x00, 0x00, 0x88, 0x33, 0x00, 0x00,
  0x38, 0x31, 0x00, 0x00, 0x08, 0x31, 0x00, 0x00, 0xb8, 0x30, 0x00, 0x00,
  0xa0, 0x30, 0x00, 0x00, 0x70, 0x30, 0x00, 0x00, 0x40, 0x30, 0x00, 0x00,
  0x10, 0x30, 0x00, 0x00, 0xe0, 0x2f, 0x00, 0x00, 0xb0, 0x2f, 0x00, 0x00,
  0x80, 0x2f, 0x00, 0x00, 0x50, 0x2f, 0x00, 0x00, 0x20, 0x2f, 0x00, 0x00,
  0xf0, 0x2e, 0x00, 0x00, 0xa0, 0x2e, 0x00, 0x00, 0x88, 0x2e, 0x00, 0x00,
  0x58, 0x2e, 0x00, 0x00, 0x28, 0x2e, 0x00, 0x00, 0xf8, 0x2d, 0x00, 0x00,
  0xc8, 0x2d, 0x00, 0x00, 0x98, 0x2d, 0x00, 0x00, 0x68, 0x2d, 0x00, 0x00,
  0x38, 0x2d, 0x00, 0x00, 0x08, 0x2d, 0x00, 0x00, 0xd8, 0x2c, 0x00, 0x00,
  0x88, 0x2c, 0x00, 0x00, 0x70, 0x2c, 0x00, 0x00, 0x40, 0x2c, 0x00, 0x00,
  0x10, 0x2c, 0x00, 0x00, 0xe0, 0x2b, 0x00, 0x00, 0xb0, 0x2b, 0x00, 0x00,
  0x80, 0x2b, 0x00, 0x00, 0x50, 0x2b, 0x00, 0x00, 0x20, 0x2b, 0x00, 0x00,
  0xf0, 0x2a, 0x00, 0x00, 0xc0, 0x2a, 0x00, 0x00, 0x70, 0x2a, 0x00, 0x00,
  0x58, 0x2a, 0x00, 0x00, 0x30, 0x2a, 0x00, 0x00, 0x08, 0x2a, 0x00, 0x00,
  0xe0, 0x29, 0x00, 0x00, 0xb8, 0x29, 0x00, 0x00, 0x90, 0x29, 0x00, 0x00,
  0x68, 0x29, 0x00, 0x00, 0x40, 0x29, 0x00, 0x00, 0x18, 0x29, 0x00, 0x00,
  0xe8, 0x28, 0x00, 0x00, 0x98, 0x28, 0x00, 0x00, 0x80, 0x28, 0x00, 0x00,
  0x70, 0x27, 0x00, 0x00, 0x60, 0x26, 0x00, 0x00, 0x50, 0x25, 0x00, 0x00,
  0x40, 0x24, 0x00, 0x00, 0x30, 0x23, 0x00, 0x00, 0x20, 0x22, 0x00, 0x00,
  0x10, 0x21, 0x00, 0x00, 0x00, 0x20, 0x00, 0x00, 0xd0, 0x1f, 0x00, 0x00,
  0x80, 0x1f, 0x00, 0x00, 0x68, 0x1f, 0x00, 0x00, 0x58, 0x1e, 0x00, 0x00,
  0x48, 0x1d, 0x00, 0x00, 0x38, 0x1c, 0x00, 0x00, 0x28, 0x1b, 0x00, 0x00,
  0x18, 0x1a, 0x00, 0x00, 0x08, 0x19, 0x00, 0x00, 0xf8, 0x17, 0x00, 0x00,
  0xe8, 0x16, 0x00, 0x00, 0xb8, 0x16, 0x00, 0x00, 0x68, 0x16, 0x00, 0x00,
  0x50, 0x16, 0x00, 0x00, 0x40, 0x15, 0x00, 0x00, 0x30, 0x14, 0x00, 0x00,
  0x20, 0x13, 0x00, 0x00, 0x10, 0x12, 0x00, 0x00, 0x00, 0x11, 0x00, 0x00,
  0xf0, 0x0f, 0x00, 0x00, 0xe0, 0x0e, 0x00, 0x00, 0xcc, 0x0e, 0x00, 0x00,
  0xc4, 0x0e, 0x00, 0x00, 0xbc, 0x0e, 0x00, 0x00, 0xb4, 0x0e, 0x00, 0x00,
  0xac, 0x0e, 0x00, 0x00, 0xa4, 0x0e, 0x00, 0x00, 0x9c, 0x0e, 0x00, 0x00,
  0x94, 0x0e, 0x00, 0x00, 0x8c, 0x0e, 0x00, 0x00, 0x84, 0x0e, 0x00, 0x00,
  0x7c, 0x0e, 0x00, 0x00, 0x74, 0x0e, 0x00, 0x00, 0x6c, 0x0e, 0x00, 0x00,
  0x64, 0x0e, 0x00, 0x00, 0x5c, 0x0e, 0x00, 0x00, 0x54, 0x0e, 0x00, 0x00,
  0x4c, 0x0e, 0x00, 0x00, 0x44, 0x0e, 0x00, 0x00, 0x3c, 0x0e, 0x00, 0x00,
  0x34, 0x0e, 0x00, 0x00, 0x2c, 0x0e, 0x00, 0x00, 0x24, 0x0e, 0x00, 0x00,
  0x1c, 0x0e, 0x00, 0x00, 0x14, 0x0e, 0x00, 0x00, 0x0c, 0x0e, 0x00, 0x00,
  0x04, 0x0e, 0x00, 0x00, 0xfc, 0x0d, 0x00, 0x00, 0xf4, 0x0d, 0x00, 0x00,
  0xec, 0x0d, 0x00, 0x00, 0xe4, 0x0d, 0x00, 0x00, 0xdc, 0x0d, 0x00, 0x00,
  0xd4, 0x0d, 0x00, 0x00, 0xcc, 0x0d, 0x00, 0x00, 0xc4, 0x0d, 0x00, 0x00,
  0xbc, 0x0d, 0x00, 0x00, 0xb4, 0x0d, 0x00, 0x00, 0xac, 0x0d, 0x00, 0x00,
  0xa4, 0x0d, 0x00, 0x00, 0x9c, 0x0d, 0x00, 0x00, 0x94, 0x0d, 0x00, 0x00,
  0x8c, 0x0d, 0x00, 0x00, 0x84, 0x0d, 0x00, 0x00, 0x7c, 0x0d, 0x00, 0x00,
  0x74, 0x0d, 0x00, 0x00, 0x6c, 0x0d, 0x00, 0x00, 0x64, 0x0d, 0x00, 0x00,
  0x5c, 0x0d, 0x00, 0x00, 0x54, 0x0d, 0x00, 0x00, 0x4c, 0x0d, 0x00, 0x00,
  0x44, 0x0d, 0x00, 0x00, 0x3c, 0x0d, 0x00, 0x00, 0x34, 0x0d, 0x00, 0x00,
  0x2c, 0x0d, 0x00, 0x00, 0x24, 0x0d, 0x00, 0x00, 0x1c, 0x0d, 0x00, 0x00,
  0x14, 0x0d, 0x00, 0x00, 0x04, 0x0c, 0x00, 0x00, 0xd4, 0x0b, 0x00, 0x00,
  0xc4, 0x09, 0x00, 0x00, 0xbc, 0x09, 0x00, 0x00, 0xb4, 0x09, 0x00, 0x00,
  0xac, 0x09, 0x00, 0x00, 0xa4, 0x09, 0x00, 0x00, 0x9c, 0x09, 0x00, 0x00,
  0x94, 0x09, 0x00, 0x00, 0x8c, 0x09, 0x00, 0x00, 0x84, 0x09, 0x00, 0x00,
  0x7c, 0x09, 0x00, 0x00, 0x74, 0x09, 0x00, 0x00, 0x6c, 0x09, 0x00, 0x00,
  0x64, 0x09, 0x00, 0x00, 0x5c, 0x09, 0x00, 0x00, 0x54, 0x09, 0x00, 0x00,
  0x4c, 0x09, 0x00, 0x00, 0x44, 0x09, 0x00, 0x00, 0x3c, 0x09, 0x00, 0x00,
  0x34, 0x09, 0x00, 0x00, 0x2c, 0x09, 0x00, 0x00, 0x24, 0x09, 0x00, 0x00,
  0x1c, 0x09, 0x00, 0x00, 0x14, 0x09, 0x00, 0x00, 0x0c, 0x09, 0x00, 0x00,
  0x04, 0x09, 0x00, 0x00, 0xfc, 0x08, 0x00, 0x00, 0xf4, 0x08, 0x00, 0x00,
  0xec, 0x08, 0x00, 0x00, 0xe4, 0x08, 0x00, 0x00, 0xdc, 0x08, 0x00, 0x00,
  0xd4, 0x08, 0x00, 0x00, 0xcc, 0x08, 0x00, 0x00, 0xc4, 0x08, 0x00, 0x00,
  0xbc, 0x08, 0x00, 0x00, 0xb4, 0x08, 0x00, 0x00, 0xac, 0x08, 0x00, 0x00,
  0xa4, 0x08, 0x00, 0x00, 0x9c, 0x08, 0x00, 0x00, 0x94, 0x08, 0x00, 0x00,
  0x8c, 0x08, 0x00, 0x00, 0x84, 0x08, 0x00, 0x00, 0x7c, 0x08, 0x00, 0x00,
  0x74, 0x08, 0x00, 0x00, 0x6c, 0x08, 0x00, 0x00, 0x64, 0x08, 0x00, 0x00,
  0x5c, 0x08, 0x00, 0x00, 0x54, 0x08, 0x00, 0x00, 0x4c, 0x08, 0x00, 0x00,
  0x44, 0x08, 0x00, 0x00, 0x3c, 0x08, 0x00, 0x00, 0x34, 0x08, 0x00, 0x00,
  0x2c, 0x08, 0x00, 0x00, 0x24, 0x08, 0x00, 0x00, 0x1c, 0x08, 0x00, 0x00,
  0x14, 0x08, 0x00, 0x00, 0x0c, 0x08, 0x00, 0x00, 0x04, 0x08, 0x00, 0x00,
  0xfc, 0x07, 0x00, 0x00, 0xf4, 0x07, 0x00, 0x00, 0xec, 0x07, 0x00, 0x00,
  0xe4, 0x07, 0x00, 0x00, 0xdc, 0x07, 0x00, 0x00, 0xd4, 0x07, 0x00, 0x00,
  0xcc, 0x07, 0x00, 0x00, 0xc4, 0x07, 0x00, 0x00, 0xbc, 0x07, 0x00, 0x00,
  0xb4, 0x07, 0x00, 0x00, 0xac, 0x07, 0x00, 0x00, 0xa4, 0x07, 0x00, 0x00,
  0x9c, 0x07, 0x00, 0x00, 0x94, 0x07, 0x00, 0x00, 0x8c, 0x07, 0x00, 0x00,
  0x84, 0x07, 0x00, 0x00, 0x7c, 0x07, 0x00, 0x00, 0x74, 0x07, 0x00, 0x00,
  0x6c, 0x07, 0x00, 0x00, 0x64, 0x07, 0x00, 0x00, 0x5c, 0x07, 0x00, 0x00,
  0x54, 0x07, 0x00, 0x00, 0x4c, 0x07, 0x00, 0x00, 0x44, 0x07, 0x00, 0x00,
  0x3c, 0x07, 0x00, 0x00, 0x34, 0x07, 0x00, 0x00, 0x2c, 0x07, 0x00, 0x00,
  0x24, 0x07, 0x00, 0x00, 0x1c, 0x07, 0x00, 0x00, 0x14, 0x07, 0x00, 0x00,
  0x0c, 0x07, 0x00, 0x00, 0x04, 0x07, 0x00, 0x00, 0xfc, 0x06, 0x00, 0x00,
  0xf4, 0x06, 0x00, 0x00, 0xec, 0x06, 0x00, 0x00, 0xe4, 0x06, 0x00, 0x00,
  0xdc, 0x06, 0x00, 0x00, 0xd4, 0x06, 0x00, 0x00, 0xcc, 0x06, 0x00, 0x00,
  0xc4, 0x06, 0x00, 0x00, 0xbc, 0x06, 0x00, 0x00, 0xb4, 0x06, 0x00, 0x00,
  0xac, 0x06, 0x00, 0x00, 0xa4, 0x06, 0x00, 0x00, 0x9c, 0x06, 0x00, 0x00,
  0x94, 0x06, 0x00, 0x00, 0x8c, 0x06, 0x00, 0x00, 0x84, 0x06, 0x00, 0x00,
  0x7c, 0x06, 0x00, 0x00, 0x74, 0x06, 0x00, 0x00, 0x6c, 0x06, 0x00, 0x00,
  0x64, 0x06, 0x00, 0x00, 0x5c, 0x06, 0x00, 0x00, 0x54, 0x06, 0x00, 0x00,
  0x4c, 0x06, 0x00, 0x00, 0x44, 0x06, 0x00, 0x00, 0x3c, 0x06, 0x00, 0x00,
  0x34, 0x06, 0x00, 0x00, 0x2c, 0x06, 0x00, 0x00, 0x24, 0x06, 0x00, 0x00,
  0x1c, 0x06, 0x00, 0x00, 0x14, 0x06, 0x00, 0x00, 0x0c, 0x06, 0x00, 0x00,
  0x04, 0x06, 0x00, 0x00, 0xfc, 0x05, 0x00, 0x00, 0xf4, 0x05, 0x00, 0x00,
  0xec, 0x05, 0x00, 0x00, 0xe4, 0x05, 0x00, 0x00, 0xdc, 0x05, 0x00, 0x00,
  0xd4, 0x05, 0x00, 0x00, 0xcc, 0x05, 0x00, 0x00, 0xc4, 0x05, 0x00, 0x00,
  0xbc, 0x05, 0x00, 0x00, 0xb4, 0x05, 0x00, 0x00, 0xac, 0x05, 0x00, 0x00,
  0xa4, 0x05, 0x00, 0x00, 0x9c, 0x05, 0x00, 0x00, 0x94, 0x05, 0x00, 0x00,
  0x8c, 0x05, 0x00, 0x00, 0x84, 0x05, 0x00, 0x00, 0x7c, 0x05, 0x00, 0x00,
  0x74, 0x05, 0x00, 0x00, 0x6c, 0x05, 0x00, 0x00, 0x64, 0x05, 0x00, 0x00,
  0x5c, 0x05, 0x00, 0x00, 0x54, 0x05, 0x00, 0x00, 0x4c, 0x05, 0x00, 0x00,
  0x44, 0x05, 0x00, 0x00, 0x3c, 0x05, 0x00, 0x00, 0x34, 0x05, 0x00, 0x00,
  0x2c, 0x05, 0x00, 0x00, 0x24, 0x05, 0x00, 0x00, 0x1c, 0x05, 0x00, 0x00,
  0x14, 0x05, 0x00, 0x00, 0x0c, 0x05, 0x00, 0x00, 0x04, 0x05, 0x00, 0x00,
  0xfc, 0x04, 0x00, 0x00, 0xf4, 0x04, 0x00, 0x00, 0xec, 0x04, 0x00, 0x00,
  0xe4, 0x04, 0x00, 0x00, 0xdc, 0x04, 0x00, 0x00, 0xd4, 0x04, 0x00, 0x00,
  0xcc, 0x04, 0x00, 0x00, 0xc4, 0x04, 0x00, 0x00, 0xbc, 0x04, 0x00, 0x00,
  0xb4, 0x04, 0x00, 0x00, 0xac, 0x04, 0x00, 0x00, 0xa4, 0x04, 0x00, 0x00,
  0x9c, 0x04, 0x00, 0x00, 0x94, 0x04, 0x00, 0x00, 0x8c, 0x04, 0x00, 0x00,
  0x84, 0x04, 0x00, 0x00, 0x7c, 0x04, 0x00, 0x00, 0x74, 0x04, 0x00, 0x00,
  0x6c, 0x04, 0x00, 0x00, 0x64, 0x04, 0x00, 0x00, 0x5c, 0x04, 0x00, 0x00,
  0x54, 0x04, 0x00, 0x00, 0x4c, 0x04, 0x00, 0x00, 0x44, 0x04, 0x00, 0x00,
  0x3c, 0x04, 0x00, 0x00, 0x34, 0x04, 0x00, 0x00, 0x2c, 0x04, 0x00, 0x00,
  0x24, 0x04, 0x00, 0x00, 0x1c, 0x04, 0x00, 0x00, 0x14, 0x04, 0x00, 0x00,
  0x0c, 0x04, 0x00, 0x00, 0x04, 0x04, 0x00, 0x00, 0xfc, 0x03, 0x00, 0x00,
  0xf4, 0x03, 0x00, 0x00, 0xec, 0x03, 0x00, 0x00, 0xe4, 0x03, 0x00, 0x00,
  0xdc, 0x03, 0x00, 0x00, 0xd4, 0x03, 0x00, 0x00, 0xcc, 0x03, 0x00, 0x00,
  0xc4, 0x03, 0x00, 0x00, 0xbc, 0x03, 0x00, 0x00, 0xb4, 0x03, 0x00, 0x00,
  0xac, 0x03, 0x00, 0x00, 0xa4, 0x03, 0x00, 0x00, 0x9c, 0x03, 0x00, 0x00,
  0x94, 0x03, 0x00, 0x00, 0x8c, 0x03, 0x00, 0x00, 0x84, 0x03, 0x00, 0x00,
  0x7c, 0x03, 0x00, 0x00, 0x74, 0x03, 0x00, 0x00, 0x6c, 0x03, 0x00, 0x00,
  0x64, 0x03, 0x00, 0x00, 0x5c, 0x03, 0x00, 0x00, 0x54, 0x03, 0x00, 0x00,
  0x4c, 0x03, 0x00, 0x00, 0x44, 0x03, 0x00, 0x00, 0x3c, 0x03, 0x00, 0x00,
  0x34, 0x03, 0x00, 0x00, 0x2c, 0x03, 0x00, 0x00, 0x24, 0x03, 0x00, 0x00,
  0x1c, 0x03, 0x00, 0x00, 0x14, 0x03, 0x00, 0x00, 0x0c, 0x03, 0x00, 0x00,
  0x04, 0x03, 0x00, 0x00, 0xfc, 0x02, 0x00, 0x00, 0xf4, 0x02, 0x00, 0x00,
  0xec, 0x02, 0x00, 0x00, 0xe4, 0x02, 0x00, 0x00, 0xdc, 0x02, 0x00, 0x00,
  0xd4, 0x02, 0x00, 0x00, 0xcc, 0x02, 0x00, 0x00, 0xc4, 0x02, 0x00, 0x00,
  0xbc, 0x02, 0x00, 0x00, 0xb4, 0x02, 0x00, 0x00, 0xac, 0x02, 0x00, 0x00,
  0xa4, 0x02, 0x00, 0x00, 0x9c, 0x02, 0x00, 0x00, 0x94, 0x02, 0x00, 0x00,
  0x8c, 0x02, 0x00, 0x00, 0x84, 0x02, 0x00, 0x00, 0x7c, 0x02, 0x00, 0x00,
  0x74, 0x02, 0x00, 0x00, 0x6c, 0x02, 0x00, 0x00, 0x64, 0x02, 0x00, 0x00,
  0x5c, 0x02, 0x00, 0x00, 0x54, 0x02, 0x00, 0x00, 0x4c, 0x02, 0x00, 0x00,
  0x44, 0x02, 0x00, 0x00, 0x3c, 0x02, 0x00, 0x00, 0x34, 0x02, 0x00, 0x00,
  0x2c, 0x02, 0x00, 0x00, 0x24, 0x02, 0x00, 0x00, 0x1c, 0x02, 0x00, 0x00,
  0x14, 0x02, 0x00, 0x00, 0x0c, 0x02, 0x00, 0x00, 0x04, 0x02, 0x00, 0x00,
  0xfc, 0x01, 0x00, 0x00, 0xf4, 0x01, 0x00, 0x00, 0xec, 0x01, 0x00, 0x00,
  0xe4, 0x01, 0x00, 0x00, 0xdc, 0x01, 0x00, 0x00, 0xd4, 0x01, 0x00, 0x00,
  0xcc, 0x01, 0x00, 0x00, 0xc4, 0x01, 0x00, 0x00, 0xbc, 0x01, 0x00, 0x00,
  0xb4, 0x01, 0x00, 0x00, 0xac, 0x01, 0x00, 0x00, 0xa4, 0x01, 0x00, 0x00,
  0x9c, 0x01, 0x00, 0x00, 0x94, 0x01, 0x00, 0x00, 0x8c, 0x01, 0x00, 0x00,
  0x84, 0x01, 0x00, 0x00, 0x7c, 0x01, 0x00, 0x00, 0x74, 0x01, 0x00, 0x00,
  0x6c, 0x01, 0x00, 0x00, 0x64, 0x01, 0x00, 0x00, 0x5c, 0x01, 0x00, 0x00,
  0x54, 0x01, 0x00, 0x00, 0x4c, 0x01, 0x00, 0x00, 0x44, 0x01, 0x00, 0x00,
  0x3c, 0x01, 0x00, 0x00, 0x34, 0x01, 0x00, 0x00, 0x2c, 0x01, 0x00, 0x00,
  0x24, 0x01, 0x00, 0x00, 0x1c, 0x01, 0x00, 0x00, 0x14, 0x01, 0x00, 0x00,
  0x0c, 0x01, 0x00, 0x00, 0x04, 0x01, 0x00, 0x00, 0xfc, 0x00, 0x00, 0x00,
  0xf4, 0x00, 0x00, 0x00, 0xec, 0x00, 0x00, 0x00, 0xe4, 0x00, 0x00, 0x00,
  0xdc, 0x00, 0x00, 0x00, 0xd4, 0x00, 0x00, 0x00, 0xcc, 0x00, 0x00, 0x00,
  0xc4, 0x00, 0x00, 0x00, 0xbc, 0x00, 0x00, 0x00, 0xb4, 0x00, 0x00, 0x00,
  0xac, 0x00, 0x00, 0x00, 0xa4, 0x00, 0x00, 0x00, 0x9c, 0x00, 0x00, 0x00,
  0x94, 0x00, 0x00, 0x00, 0x8c, 0x00, 0x00, 0x00, 0x6c, 0x00, 0x00, 0x00,
  0x04, 0x00, 0x00, 0x00, 0xfe, 0xa3, 0xff, 0xff, 0x04, 0x00, 0x00, 0x00,
  0x58, 0x00, 0x00, 0x00, 0x0c, 0x00, 0x00, 0x00, 0x08, 0x00, 0x0e, 0x00,
  0x08, 0x00, 0x04, 0x00, 0x08, 0x00, 0x00, 0x00, 0x10, 0x00, 0x00, 0x00,
  0x28, 0x00, 0x00, 0x00, 0x00, 0x00, 0x06, 0x00, 0x08, 0x00, 0x04, 0x00,
  0x06, 0x00, 0x00, 0x00, 0x04, 0x00, 0x00, 0x00, 0x01, 0x00, 0x00, 0x00,
  0xeb, 0x03, 0x00, 0x00, 0x00, 0x00, 0x0a, 0x00, 0x10, 0x00, 0x0c, 0x00,
  0x08, 0x00, 0x04, 0x00, 0x0a, 0x00, 0x00, 0x00, 0x01, 0x00, 0x00, 0x00,
  0x02, 0x00, 0x00, 0x00, 0x04, 0x00, 0x00, 0x00, 0x06, 0x00, 0x00, 0x00,
  0x32, 0x2e, 0x31, 0x33, 0x2e, 0x30, 0x00, 0x00, 0x62, 0xa4, 0xff, 0xff,
  0x04, 0x00, 0x00, 0x00, 0x10, 0x00, 0x00, 0x00, 0x32, 0x2e, 0x35, 0x2e,
  0x30, 0x00, 0x00, 0x00, 0x00, 0x00, 0x00, 0x00, 0x00, 0x00, 0x00, 0x00,
  0xdc, 0x88, 0xfe, 0xff, 0xe0, 0x88, 0xfe, 0xff, 0xe4, 0x88, 0xfe, 0xff,
  0xe8, 0x88, 0xfe, 0xff, 0xec, 0x88, 0xfe, 0xff, 0xf0, 0x88, 0xfe, 0xff,
  0xf4, 0x88, 0xfe, 0xff, 0xf8, 0x88, 0xfe, 0xff, 0xfc, 0x88, 0xfe, 0xff,
  0x00, 0x89, 0xfe, 0xff, 0x04, 0x89, 0xfe, 0xff, 0x08, 0x89, 0xfe, 0xff,
  0x0c, 0x89, 0xfe, 0xff, 0x10, 0x89, 0xfe, 0xff, 0x14, 0x89, 0xfe, 0xff,
  0x18, 0x89, 0xfe, 0xff, 0x1c, 0x89, 0xfe, 0xff, 0x20, 0x89, 0xfe, 0xff,
  0x24, 0x89, 0xfe, 0xff, 0x28, 0x89, 0xfe, 0xff, 0x2c, 0x89, 0xfe, 0xff,
  0x30, 0x89, 0xfe, 0xff, 0x34, 0x89, 0xfe, 0xff, 0x38, 0x89, 0xfe, 0xff,
  0x3c, 0x89, 0xfe, 0xff, 0x40, 0x89, 0xfe, 0xff, 0x44, 0x89, 0xfe, 0xff,
  0x48, 0x89, 0xfe, 0xff, 0x4c, 0x89, 0xfe, 0xff, 0x50, 0x89, 0xfe, 0xff,
  0x54, 0x89, 0xfe, 0xff, 0x58, 0x89, 0xfe, 0xff, 0x5c, 0x89, 0xfe, 0xff,
  0x60, 0x89, 0xfe, 0xff, 0x64, 0x89, 0xfe, 0xff, 0x68, 0x89, 0xfe, 0xff,
  0x6c, 0x89, 0xfe, 0xff, 0x70, 0x89, 0xfe, 0xff, 0x74, 0x89, 0xfe, 0xff,
  0x78, 0x89, 0xfe, 0xff, 0x7c, 0x89, 0xfe, 0xff, 0x80, 0x89, 0xfe, 0xff,
  0x84, 0x89, 0xfe, 0xff, 0x88, 0x89, 0xfe, 0xff, 0x8c, 0x89, 0xfe, 0xff,
  0x90, 0x89, 0xfe, 0xff, 0x94, 0x89, 0xfe, 0xff, 0x98, 0x89, 0xfe, 0xff,
  0x9c, 0x89, 0xfe, 0xff, 0xa0, 0x89, 0xfe, 0xff, 0xa4, 0x89, 0xfe, 0xff,
  0xa8, 0x89, 0xfe, 0xff, 0xac, 0x89, 0xfe, 0xff, 0xb0, 0x89, 0xfe, 0xff,
  0xb4, 0x89, 0xfe, 0xff, 0xb8, 0x89, 0xfe, 0xff, 0xbc, 0x89, 0xfe, 0xff,
  0xc0, 0x89, 0xfe, 0xff, 0xc4, 0x89, 0xfe, 0xff, 0xc8, 0x89, 0xfe, 0xff,
  0xcc, 0x89, 0xfe, 0xff, 0xd0, 0x89, 0xfe, 0xff, 0xd4, 0x89, 0xfe, 0xff,
  0xd8, 0x89, 0xfe, 0xff, 0xdc, 0x89, 0xfe, 0xff, 0xe0, 0x89, 0xfe, 0xff,
  0xe4, 0x89, 0xfe, 0xff, 0xe8, 0x89, 0xfe, 0xff, 0xec, 0x89, 0xfe, 0xff,
  0xf0, 0x89, 0xfe, 0xff, 0xf4, 0x89, 0xfe, 0xff, 0xf8, 0x89, 0xfe, 0xff,
  0xfc, 0x89, 0xfe, 0xff, 0x00, 0x8a, 0xfe, 0xff, 0x04, 0x8a, 0xfe, 0xff,
  0x08, 0x8a, 0xfe, 0xff, 0x0c, 0x8a, 0xfe, 0xff, 0x10, 0x8a, 0xfe, 0xff,
  0x14, 0x8a, 0xfe, 0xff, 0x18, 0x8a, 0xfe, 0xff, 0x1c, 0x8a, 0xfe, 0xff,
  0x20, 0x8a, 0xfe, 0xff, 0x24, 0x8a, 0xfe, 0xff, 0x28, 0x8a, 0xfe, 0xff,
  0x2c, 0x8a, 0xfe, 0xff, 0x30, 0x8a, 0xfe, 0xff, 0x34, 0x8a, 0xfe, 0xff,
  0x38, 0x8a, 0xfe, 0xff, 0x3c, 0x8a, 0xfe, 0xff, 0x40, 0x8a, 0xfe, 0xff,
  0x44, 0x8a, 0xfe, 0xff, 0x48, 0x8a, 0xfe, 0xff, 0x4c, 0x8a, 0xfe, 0xff,
  0x50, 0x8a, 0xfe, 0xff, 0x54, 0x8a, 0xfe, 0xff, 0x58, 0x8a, 0xfe, 0xff,
  0x5c, 0x8a, 0xfe, 0xff, 0x60, 0x8a, 0xfe, 0xff, 0x64, 0x8a, 0xfe, 0xff,
  0x68, 0x8a, 0xfe, 0xff, 0x6c, 0x8a, 0xfe, 0xff, 0x70, 0x8a, 0xfe, 0xff,
  0x74, 0x8a, 0xfe, 0xff, 0x78, 0x8a, 0xfe, 0xff, 0x7c, 0x8a, 0xfe, 0xff,
  0x80, 0x8a, 0xfe, 0xff, 0x84, 0x8a, 0xfe, 0xff, 0x88, 0x8a, 0xfe, 0xff,
  0x8c, 0x8a, 0xfe, 0xff, 0x90, 0x8a, 0xfe, 0xff, 0x94, 0x8a, 0xfe, 0xff,
  0x98, 0x8a, 0xfe, 0xff, 0x9c, 0x8a, 0xfe, 0xff, 0xa0, 0x8a, 0xfe, 0xff,
  0xa4, 0x8a, 0xfe, 0xff, 0xa8, 0x8a, 0xfe, 0xff, 0xac, 0x8a, 0xfe, 0xff,
  0xb0, 0x8a, 0xfe, 0xff, 0xb4, 0x8a, 0xfe, 0xff, 0xb8, 0x8a, 0xfe, 0xff,
  0xbc, 0x8a, 0xfe, 0xff, 0xc0, 0x8a, 0xfe, 0xff, 0xc4, 0x8a, 0xfe, 0xff,
  0xc8, 0x8a, 0xfe, 0xff, 0xcc, 0x8a, 0xfe, 0xff, 0xd0, 0x8a, 0xfe, 0xff,
  0xd4, 0x8a, 0xfe, 0xff, 0xd8, 0x8a, 0xfe, 0xff, 0xdc, 0x8a, 0xfe, 0xff,
  0xe0, 0x8a, 0xfe, 0xff, 0xe4, 0x8a, 0xfe, 0xff, 0xe8, 0x8a, 0xfe, 0xff,
  0xec, 0x8a, 0xfe, 0xff, 0xf0, 0x8a, 0xfe, 0xff, 0xf4, 0x8a, 0xfe, 0xff,
  0xf8, 0x8a, 0xfe, 0xff, 0xfc, 0x8a, 0xfe, 0xff, 0x00, 0x8b, 0xfe, 0xff,
  0x04, 0x8b, 0xfe, 0xff, 0x08, 0x8b, 0xfe, 0xff, 0x0c, 0x8b, 0xfe, 0xff,
  0x10, 0x8b, 0xfe, 0xff, 0x14, 0x8b, 0xfe, 0xff, 0x18, 0x8b, 0xfe, 0xff,
  0x1c, 0x8b, 0xfe, 0xff, 0x20, 0x8b, 0xfe, 0xff, 0x24, 0x8b, 0xfe, 0xff,
  0x28, 0x8b, 0xfe, 0xff, 0x2c, 0x8b, 0xfe, 0xff, 0x30, 0x8b, 0xfe, 0xff,
  0x34, 0x8b, 0xfe, 0xff, 0x38, 0x8b, 0xfe, 0xff, 0x3c, 0x8b, 0xfe, 0xff,
  0x40, 0x8b, 0xfe, 0xff, 0x44, 0x8b, 0xfe, 0xff, 0x48, 0x8b, 0xfe, 0xff,
  0x4c, 0x8b, 0xfe, 0xff, 0x50, 0x8b, 0xfe, 0xff, 0x54, 0x8b, 0xfe, 0xff,
  0x58, 0x8b, 0xfe, 0xff, 0x5c, 0x8b, 0xfe, 0xff, 0x60, 0x8b, 0xfe, 0xff,
  0x64, 0x8b, 0xfe, 0xff, 0x68, 0x8b, 0xfe, 0xff, 0x6c, 0x8b, 0xfe, 0xff,
  0x70, 0x8b, 0xfe, 0xff, 0x74, 0x8b, 0xfe, 0xff, 0x78, 0x8b, 0xfe, 0xff,
  0x7c, 0x8b, 0xfe, 0xff, 0x80, 0x8b, 0xfe, 0xff, 0x84, 0x8b, 0xfe, 0xff,
  0x88, 0x8b, 0xfe, 0xff, 0x8c, 0x8b, 0xfe, 0xff, 0x90, 0x8b, 0xfe, 0xff,
  0x94, 0x8b, 0xfe, 0xff, 0x98, 0x8b, 0xfe, 0xff, 0x9c, 0x8b, 0xfe, 0xff,
  0xa0, 0x8b, 0xfe, 0xff, 0xa4, 0x8b, 0xfe, 0xff, 0xa8, 0x8b, 0xfe, 0xff,
  0xac, 0x8b, 0xfe, 0xff, 0xb0, 0x8b, 0xfe, 0xff, 0xb4, 0x8b, 0xfe, 0xff,
  0xb8, 0x8b, 0xfe, 0xff, 0xbc, 0x8b, 0xfe, 0xff, 0xc0, 0x8b, 0xfe, 0xff,
  0xc4, 0x8b, 0xfe, 0xff, 0xc8, 0x8b, 0xfe, 0xff, 0xcc, 0x8b, 0xfe, 0xff,
  0xd0, 0x8b, 0xfe, 0xff, 0xd4, 0x8b, 0xfe, 0xff, 0xd8, 0x8b, 0xfe, 0xff,
  0xdc, 0x8b, 0xfe, 0xff, 0xe0, 0x8b, 0xfe, 0xff, 0xe4, 0x8b, 0xfe, 0xff,
  0xe8, 0x8b, 0xfe, 0xff, 0xec, 0x8b, 0xfe, 0xff, 0xf0, 0x8b, 0xfe, 0xff,
  0xf4, 0x8b, 0xfe, 0xff, 0xf8, 0x8b, 0xfe, 0xff, 0xfc, 0x8b, 0xfe, 0xff,
  0x00, 0x8c, 0xfe, 0xff, 0x04, 0x8c, 0xfe, 0xff, 0x08, 0x8c, 0xfe, 0xff,
  0x0c, 0x8c, 0xfe, 0xff, 0x10, 0x8c, 0xfe, 0xff, 0x14, 0x8c, 0xfe, 0xff,
  0x18, 0x8c, 0xfe, 0xff, 0x1c, 0x8c, 0xfe, 0xff, 0x20, 0x8c, 0xfe, 0xff,
  0x24, 0x8c, 0xfe, 0xff, 0x28, 0x8c, 0xfe, 0xff, 0x2c, 0x8c, 0xfe, 0xff,
  0x30, 0x8c, 0xfe, 0xff, 0x34, 0x8c, 0xfe, 0xff, 0x38, 0x8c, 0xfe, 0xff,
  0x3c, 0x8c, 0xfe, 0xff, 0x40, 0x8c, 0xfe, 0xff, 0x44, 0x8c, 0xfe, 0xff,
  0x48, 0x8c, 0xfe, 0xff, 0x4c, 0x8c, 0xfe, 0xff, 0x50, 0x8c, 0xfe, 0xff,
  0x54, 0x8c, 0xfe, 0xff, 0x58, 0x8c, 0xfe, 0xff, 0x5c, 0x8c, 0xfe, 0xff,
  0x60, 0x8c, 0xfe, 0xff, 0x64, 0x8c, 0xfe, 0xff, 0x68, 0x8c, 0xfe, 0xff,
  0x6c, 0x8c, 0xfe, 0xff, 0x70, 0x8c, 0xfe, 0xff, 0x74, 0x8c, 0xfe, 0xff,
  0x78, 0x8c, 0xfe, 0xff, 0x7c, 0x8c, 0xfe, 0xff, 0x80, 0x8c, 0xfe, 0xff,
  0x84, 0x8c, 0xfe, 0xff, 0x88, 0x8c, 0xfe, 0xff, 0x8c, 0x8c, 0xfe, 0xff,
  0x90, 0x8c, 0xfe, 0xff, 0x94, 0x8c, 0xfe, 0xff, 0x98, 0x8c, 0xfe, 0xff,
  0x9c, 0x8c, 0xfe, 0xff, 0xa0, 0x8c, 0xfe, 0xff, 0xa4, 0x8c, 0xfe, 0xff,
  0xa8, 0x8c, 0xfe, 0xff, 0xac, 0x8c, 0xfe, 0xff, 0xb0, 0x8c, 0xfe, 0xff,
  0xb4, 0x8c, 0xfe, 0xff, 0xb8, 0x8c, 0xfe, 0xff, 0xbc, 0x8c, 0xfe, 0xff,
  0xc0, 0x8c, 0xfe, 0xff, 0xc4, 0x8c, 0xfe, 0xff, 0xc8, 0x8c, 0xfe, 0xff,
  0xcc, 0x8c, 0xfe, 0xff, 0xd0, 0x8c, 0xfe, 0xff, 0xd4, 0x8c, 0xfe, 0xff,
  0xd8, 0x8c, 0xfe, 0xff, 0xdc, 0x8c, 0xfe, 0xff, 0xe0, 0x8c, 0xfe, 0xff,
  0xe4, 0x8c, 0xfe, 0xff, 0xe8, 0x8c, 0xfe, 0xff, 0xec, 0x8c, 0xfe, 0xff,
  0xf0, 0x8c, 0xfe, 0xff, 0xf4, 0x8c, 0xfe, 0xff, 0xf8, 0x8c, 0xfe, 0xff,
  0xfc, 0x8c, 0xfe, 0xff, 0x00, 0x8d, 0xfe, 0xff, 0x04, 0x8d, 0xfe, 0xff,
  0x08, 0x8d, 0xfe, 0xff, 0x0c, 0x8d, 0xfe, 0xff, 0x10, 0x8d, 0xfe, 0xff,
  0x14, 0x8d, 0xfe, 0xff, 0x18, 0x8d, 0xfe, 0xff, 0x1c, 0x8d, 0xfe, 0xff,
  0x20, 0x8d, 0xfe, 0xff, 0x24, 0x8d, 0xfe, 0xff, 0x28, 0x8d, 0xfe, 0xff,
  0x2c, 0x8d, 0xfe, 0xff, 0x30, 0x8d, 0xfe, 0xff, 0x34, 0x8d, 0xfe, 0xff,
  0x38, 0x8d, 0xfe, 0xff, 0x3c, 0x8d, 0xfe, 0xff, 0x40, 0x8d, 0xfe, 0xff,
  0x44, 0x8d, 0xfe, 0xff, 0x48, 0x8d, 0xfe, 0xff, 0x4c, 0x8d, 0xfe, 0xff,
  0x50, 0x8d, 0xfe, 0xff, 0x54, 0x8d, 0xfe, 0xff, 0x58, 0x8d, 0xfe, 0xff,
  0x5c, 0x8d, 0xfe, 0xff, 0x60, 0x8d, 0xfe, 0xff, 0x64, 0x8d, 0xfe, 0xff,
  0x68, 0x8d, 0xfe, 0xff, 0x6c, 0x8d, 0xfe, 0xff, 0x70, 0x8d, 0xfe, 0xff,
  0x74, 0x8d, 0xfe, 0xff, 0x1a, 0xa9, 0xff, 0xff, 0x04, 0x00, 0x00, 0x00,
  0x00, 0x02, 0x00, 0x00, 0x1f, 0x25, 0x33, 0x45, 0x22, 0x4d, 0x50, 0x2b,
  0x19, 0x2e, 0x1f, 0x28, 0x26, 0x57, 0x60, 0xef, 0x37, 0x32, 0x2f, 0x4b,
  0x25, 0x43, 0x55, 0xf6, 0xea, 0x24, 0x45, 0x2c, 0x02, 0x56, 0x46, 0xf8,
  0xee, 0x2b, 0x2f, 0x2c, 0x25, 0x67, 0x52, 0x2e, 0x1a, 0x3c, 0x58, 0x64,
  0x1d, 0x7f, 0x41, 0x3e, 0x17, 0x6d, 0x44, 0x4b, 0x5a, 0x73, 0x70, 0x50,
  0x2d, 0x7b, 0x59, 0x78, 0x67, 0x7e, 0x1d, 0x39, 0xae, 0x34, 0xf1, 0x9a,
  0x03, 0x19, 0xbc, 0xd8, 0x2b, 0xdd, 0x98, 0x22, 0x24, 0x99, 0xdd, 0x30,
  0xab, 0xfe, 0x6b, 0xeb, 0xaa, 0x45, 0x05, 0x9a, 0x39, 0x62, 0xd9, 0xb0,
  0x51, 0x08, 0x95, 0x66, 0x5c, 0xaf, 0x39, 0x21, 0xd8, 0x3a, 0x7f, 0xed,
  0xf2, 0x62, 0x2a, 0xa8, 0x12, 0x5f, 0xad, 0xde, 0x49, 0xec, 0xc1, 0x05,
  0x4a, 0xbb, 0x30, 0x23, 0xf3, 0xd7, 0xf7, 0x98, 0xb7, 0xe3, 0x01, 0xab,
  0x58, 0x1a, 0x0e, 0x3b, 0x39, 0x0f, 0x4f, 0x7f, 0x44, 0xf5, 0x53, 0x43,
  0x26, 0x1b, 0x36, 0x57, 0x36, 0x2e, 0x22, 0x41, 0xec, 0x19, 0x29, 0x40,
  0xf7, 0x2b, 0x0d, 0x07, 0x3f, 0x42, 0x2e, 0x3e, 0x01, 0x32, 0xfc, 0x29,
  0x13, 0x15, 0x4d, 0x51, 0x44, 0x42, 0x1a, 0x17, 0x45, 0x4e, 0x41, 0x4a,
  0x60, 0x45, 0x15, 0x2c, 0x29, 0x21, 0x45, 0x4a, 0x6f, 0x2a, 0x06, 0x22,
  0x29, 0x40, 0x25, 0x4c, 0x54, 0xde, 0xc1, 0x2f, 0xf3, 0xcc, 0x29, 0x38,
  0xa6, 0xe9, 0x5d, 0xd4, 0xec, 0x6e, 0x1b, 0xb6, 0x54, 0x5e, 0xba, 0x28,
  0x75, 0xe2, 0xe2, 0x50, 0xee, 0xb2, 0x7f, 0xff, 0xdc, 0x31, 0x76, 0xde,
  0xcd, 0x5f, 0xbf, 0xbc, 0x45, 0xf9, 0xc8, 0xeb, 0x21, 0xee, 0xda, 0x4c,
  0xdd, 0xd5, 0x35, 0xe6, 0xee, 0x1e, 0xe8, 0x94, 0x05, 0x06, 0xb3, 0xe4,
  0xfa, 0xf5, 0x01, 0x09, 0xff, 0xd2, 0x29, 0xfb, 0xdf, 0xe4, 0x10, 0x10,
  0x0b, 0x11, 0x38, 0xe3, 0x1f, 0x20, 0xeb, 0x44, 0x3c, 0xd4, 0x1e, 0x4d,
  0x13, 0xf0, 0x42, 0x2a, 0x0c, 0x06, 0x3c, 0xf9, 0xd5, 0x2f, 0x49, 0x4c,
  0x24, 0x01, 0x1e, 0x2b, 0x33, 0x14, 0x02, 0x7f, 0x24, 0xb2, 0x31, 0x25,
  0xd0, 0x31, 0x4d, 0x18, 0xf3, 0x16, 0xe9, 0xaf, 0xf3, 0xf1, 0xb6, 0x30,
  0xf1, 0xb5, 0xd9, 0x09, 0xa5, 0xdc, 0x11, 0xbd, 0xc6, 0xd0, 0xf0, 0xc1,
  0xa6, 0xd6, 0xbe, 0xc2, 0xa2, 0xf9, 0xfb, 0xa4, 0xb9, 0xcb, 0xef, 0xbc,
  0x00, 0xf9, 0xf2, 0xe2, 0xef, 0xd2, 0x06, 0xbe, 0xee, 0x07, 0xf7, 0xca,
  0xe8, 0xe3, 0xe8, 0x9b, 0xe6, 0xba, 0xdd, 0xcb, 0xd5, 0xba, 0xb2, 0x9a,
  0xbc, 0x9f, 0xd3, 0x9e, 0xbf, 0x83, 0x9b, 0xa0, 0x93, 0x81, 0xcd, 0x9a,
  0xe1, 0x9e, 0xb5, 0xd8, 0xcd, 0xa5, 0xe7, 0xce, 0xf8, 0xd1, 0xfb, 0x11,
  0xf7, 0x07, 0x34, 0x40, 0x34, 0xc6, 0xcc, 0xf5, 0xd9, 0xb1, 0x25, 0xce,
  0x20, 0xda, 0x15, 0xc8, 0xb3, 0xee, 0xb6, 0xbc, 0x59, 0xe2, 0xf6, 0xe9,
  0x24, 0xcf, 0x9a, 0xc8, 0x18, 0xcd, 0xb3, 0x1e, 0x1d, 0x9a, 0xb6, 0xea,
  0xa7, 0xd4, 0x28, 0x21, 0xc9, 0xf4, 0x0d, 0x81, 0x0d, 0xb3, 0x40, 0x02,
  0xb7, 0xf6, 0xf4, 0xa5, 0xe7, 0xb9, 0x9c, 0x9e, 0xf3, 0xf2, 0x9f, 0xa3,
  0xe6, 0x8b, 0x88, 0xd6, 0xdf, 0xc2, 0xb3, 0xd1, 0x1a, 0xf4, 0xe5, 0xfe,
  0x22, 0xdb, 0xfb, 0x25, 0xc9, 0x2e, 0x3f, 0xc1, 0x06, 0x42, 0xb3, 0x01,
  0x2c, 0xae, 0xfb, 0x6e, 0x9f, 0xd5, 0x6c, 0xaa, 0xba, 0x57, 0xad, 0xd5,
  0x38, 0xb3, 0xbe, 0x50, 0xf6, 0xce, 0x3c, 0xff, 0xc1, 0x0e, 0x2b, 0x81,
  0x66, 0x36, 0x8e, 0x3f, 0x06, 0xa1, 0x4d, 0x1e, 0xab, 0x0a, 0x38, 0xd1,
  0xf7, 0x1f, 0xc0, 0xfd, 0xf7, 0xbf, 0x11, 0xe9, 0x01, 0xec, 0x0f, 0x0e,
  0x26, 0xab, 0xff, 0xff, 0x04, 0x00, 0x00, 0x00, 0x20, 0x00, 0x00, 0x00,
  0x20, 0xfb, 0xff, 0xff, 0xeb, 0xf8, 0xff, 0xff, 0x8e, 0xe8, 0xff, 0xff,
  0x8c, 0x02, 0x00, 0x00, 0xb5, 0x07, 0x00, 0x00, 0x18, 0x13, 0x00, 0x00,
  0xc0, 0xfe, 0xff, 0xff, 0xf9, 0xf7, 0xff, 0xff, 0x52, 0xab, 0xff, 0xff,
  0x04, 0x00, 0x00, 0x00, 0xff, 0x00, 0x00, 0x00, 0xce, 0xdc, 0xa6, 0xac,
  0xc4, 0x9e, 0xaf, 0xc3, 0xb4, 0xc0, 0xcd, 0xdb, 0xe6, 0xcd, 0xef, 0xe7,
  0xf4, 0xed, 0xfe, 0xf0, 0x10, 0x09, 0xf5, 0x12, 0x05, 0x02, 0x0c, 0xed,
  0x07, 0x04, 0xfc, 0x08, 0xf1, 0xee, 0x05, 0x08, 0xf3, 0xec, 0x03, 0xd6,
  0xda, 0xc4, 0xc8, 0xce, 0xd3, 0xc1, 0xc1, 0xa5, 0xc5, 0xb9, 0xb4, 0x99,
  0xab, 0xae, 0xbe, 0xe4, 0xd1, 0xe8, 0xe7, 0xe9, 0xd9, 0xf1, 0x06, 0xfe,
  0x08, 0x00, 0xfd, 0xf4, 0xf2, 0x06, 0xfa, 0xf7, 0xea, 0x17, 0x02, 0x08,
  0x0d, 0xf2, 0x11, 0xea, 0xe3, 0xec, 0xe4, 0xc6, 0xca, 0xd8, 0xa4, 0xb6,
  0xcd, 0x98, 0xc3, 0x9f, 0xb1, 0xa9, 0xa0, 0xd4, 0xc2, 0xbe, 0xdb, 0xeb,
  0xf0, 0xf4, 0xe8, 0xf9, 0xf2, 0xfb, 0x02, 0xf7, 0x0d, 0x00, 0xe9, 0x04,
  0xf7, 0xed, 0x0f, 0x09, 0x00, 0xf7, 0xfc, 0xf0, 0xec, 0x0b, 0xea, 0xe5,
  0xea, 0xeb, 0xc8, 0xc5, 0xaf, 0xbc, 0xb1, 0xaf, 0xb1, 0x81, 0xae, 0x91,
  0xb2, 0xa6, 0xc8, 0xb1, 0xc5, 0xc6, 0xd1, 0xd7, 0xfc, 0xfa, 0xfd, 0xf1,
  0xf7, 0x00, 0x02, 0xfb, 0xed, 0x02, 0x0a, 0x04, 0x0e, 0xe8, 0xfa, 0x0d,
  0x09, 0xfc, 0x22, 0x18, 0x18, 0x0c, 0x12, 0x01, 0xef, 0xdd, 0xc6, 0xd7,
  0xbd, 0xc1, 0xe0, 0x9a, 0xaf, 0xbb, 0xc2, 0xa9, 0x9d, 0xbc, 0xb8, 0xda,
  0xdc, 0xf9, 0xf1, 0x03, 0x0e, 0x0a, 0xe3, 0x01, 0x18, 0x05, 0xfc, 0xf6,
  0x03, 0x17, 0xe0, 0x03, 0xfb, 0xe8, 0xfa, 0x0f, 0x09, 0x28, 0x14, 0x01,
  0x03, 0x02, 0xff, 0xda, 0xd0, 0xdb, 0xd1, 0xda, 0xc2, 0xde, 0x9e, 0xc1,
  0x94, 0xa5, 0xa9, 0xb0, 0xba, 0xd1, 0xcd, 0xd3, 0xda, 0x01, 0x05, 0xe5,
  0xfb, 0x23, 0x0b, 0xfd, 0xfa, 0x0d, 0x15, 0xe1, 0xf2, 0xfa, 0x13, 0xf9,
  0xf4, 0xf2, 0x00, 0x06, 0xe5, 0xe7, 0xed, 0xe3, 0xe1, 0xd8, 0xeb, 0x00,
  0xbc, 0x90, 0xfe, 0xff, 0xc0, 0x90, 0xfe, 0xff, 0xc4, 0x90, 0xfe, 0xff,
  0xc8, 0x90, 0xfe, 0xff, 0xcc, 0x90, 0xfe, 0xff, 0xd0, 0x90, 0xfe, 0xff,
  0xd4, 0x90, 0xfe, 0xff, 0xd8, 0x90, 0xfe, 0xff, 0xdc, 0x90, 0xfe, 0xff,
  0xe0, 0x90, 0xfe, 0xff, 0xe4, 0x90, 0xfe, 0xff, 0xe8, 0x90, 0xfe, 0xff,
  0xec, 0x90, 0xfe, 0xff, 0xf0, 0x90, 0xfe, 0xff, 0xf4, 0x90, 0xfe, 0xff,
  0xf8, 0x90, 0xfe, 0xff, 0xfc, 0x90, 0xfe, 0xff, 0x00, 0x91, 0xfe, 0xff,
  0x04, 0x91, 0xfe, 0xff, 0x08, 0x91, 0xfe, 0xff, 0x0c, 0x91, 0xfe, 0xff,
  0x10, 0x91, 0xfe, 0xff, 0x14, 0x91, 0xfe, 0xff, 0x18, 0x91, 0xfe, 0xff,
  0x1c, 0x91, 0xfe, 0xff, 0x20, 0x91, 0xfe, 0xff, 0x24, 0x91, 0xfe, 0xff,
  0x28, 0x91, 0xfe, 0xff, 0x2c, 0x91, 0xfe, 0xff, 0x30, 0x91, 0xfe, 0xff,
  0x34, 0x91, 0xfe, 0xff, 0x38, 0x91, 0xfe, 0xff, 0x3c, 0x91, 0xfe, 0xff,
  0x40, 0x91, 0xfe, 0xff, 0x44, 0x91, 0xfe, 0xff, 0x48, 0x91, 0xfe, 0xff,
  0x4c, 0x91, 0xfe, 0xff, 0x50, 0x91, 0xfe, 0xff, 0x54, 0x91, 0xfe, 0xff,
  0x58, 0x91, 0xfe, 0xff, 0x5c, 0x91, 0xfe, 0xff, 0x60, 0x91, 0xfe, 0xff,
  0x64, 0x91, 0xfe, 0xff, 0x68, 0x91, 0xfe, 0xff, 0x6c, 0x91, 0xfe, 0xff,
  0x70, 0x91, 0xfe, 0xff, 0x74, 0x91, 0xfe, 0xff, 0x78, 0x91, 0xfe, 0xff,
  0x7c, 0x91, 0xfe, 0xff, 0x80, 0x91, 0xfe, 0xff, 0x84, 0x91, 0xfe, 0xff,
  0x88, 0x91, 0xfe, 0xff, 0x8c, 0x91, 0xfe, 0xff, 0x90, 0x91, 0xfe, 0xff,
  0x94, 0x91, 0xfe, 0xff, 0x3a, 0xad, 0xff, 0xff, 0x04, 0x00, 0x00, 0x00,
  0x04, 0x00, 0x00, 0x00, 0x00, 0x00, 0x00, 0x00, 0x4a, 0xad, 0xff, 0xff,
  0x04, 0x00, 0x00, 0x00, 0xff, 0x00, 0x00, 0x00, 0x0f, 0x28, 0x11, 0x4d,
  0x1e, 0x11, 0xfe, 0xff, 0x0d, 0xf5, 0xdb, 0xcf, 0xef, 0xcd, 0xdb, 0xd1,
  0xde, 0xc6, 0xf2, 0xda, 0x00, 0xde, 0xef, 0xf1, 0xf2, 0x0f, 0x27, 0x08,
  0x14, 0xdd, 0x02, 0xed, 0xf6, 0xec, 0xeb, 0xee, 0x07, 0xf9, 0x21, 0x19,
  0x2a, 0x1c, 0x32, 0x27, 0x24, 0x40, 0x22, 0x51, 0x37, 0x35, 0x12, 0x0d,
  0xf4, 0xe2, 0xf6, 0xea, 0xe6, 0xdf, 0xf5, 0xea, 0xff, 0xee, 0x0d, 0xf1,
  0x13, 0x06, 0xd8, 0xf0, 0xc8, 0xee, 0xc2, 0xd4, 0xb3, 0xa3, 0xc7, 0xa9,
  0xc0, 0xac, 0xdd, 0xe2, 0xf6, 0xe1, 0xf3, 0xcd, 0xe6, 0xe0, 0xeb, 0xda,
  0xd7, 0xf7, 0xee, 0x04, 0xf5, 0xcd, 0xb5, 0x92, 0x88, 0xa1, 0x8a, 0x82,
  0xbd, 0xaf, 0xf2, 0xb4, 0xee, 0xf1, 0xfc, 0x23, 0xf0, 0x1c, 0x1c, 0x1d,
  0xf4, 0x1c, 0xf1, 0xf5, 0xfb, 0xd6, 0xf3, 0xcf, 0x03, 0xe3, 0xe1, 0xf0,
  0x06, 0x0d, 0x1c, 0x08, 0x27, 0x02, 0x26, 0x29, 0x0f, 0x24, 0x02, 0x1e,
  0xf1, 0x0c, 0xf5, 0xd7, 0xd9, 0xc4, 0xcb, 0xbd, 0xd3, 0xc2, 0xbc, 0xb6,
  0xeb, 0xda, 0xf8, 0xf9, 0xfe, 0x09, 0x09, 0x20, 0xfc, 0x03, 0xd8, 0xf6,
  0xeb, 0xdf, 0xfa, 0xd6, 0x19, 0xd5, 0x0f, 0x03, 0x27, 0x16, 0x40, 0x1c,
  0x47, 0x33, 0x47, 0x47, 0x30, 0x3e, 0x11, 0x4a, 0xf8, 0xfd, 0xd3, 0xf2,
  0xd7, 0xbc, 0xee, 0xb4, 0xde, 0xd0, 0xe7, 0xf0, 0x28, 0x0a, 0x0e, 0x1c,
  0x0b, 0x17, 0xfa, 0xcf, 0xba, 0xd5, 0xa1, 0xab, 0x81, 0xb9, 0xd6, 0xb2,
  0xc7, 0xc2, 0xe7, 0xec, 0x01, 0x00, 0x03, 0xe9, 0xfd, 0xf6, 0xfb, 0xf7,
  0xfe, 0xf2, 0xd4, 0xb6, 0xb1, 0xae, 0xa4, 0xa0, 0xb8, 0xa0, 0xde, 0xae,
  0xe4, 0xf0, 0xe6, 0xf7, 0xf5, 0x08, 0x27, 0x1a, 0x14, 0x10, 0x14, 0xef,
  0x03, 0x0d, 0xed, 0xeb, 0xc1, 0xec, 0xd3, 0xe3, 0x20, 0xfe, 0x22, 0x00,
  0x56, 0xae, 0xff, 0xff, 0x04, 0x00, 0x00, 0x00, 0xff, 0x00, 0x00, 0x00,
  0x03, 0x3a, 0x18, 0xd4, 0x09, 0x19, 0x01, 0xbc, 0xd8, 0xa5, 0xfb, 0xa3,
  0x0f, 0xf9, 0xbe, 0xb4, 0xe0, 0xe7, 0x09, 0xe9, 0x08, 0x29, 0xdb, 0x0b,
  0x1c, 0x2f, 0x3f, 0xfb, 0x1f, 0x28, 0x45, 0x3f, 0x17, 0x15, 0x30, 0x33,
  0x38, 0x0d, 0x42, 0xfa, 0xf8, 0xf9, 0xd8, 0x1f, 0xc5, 0xec, 0xfc, 0xef,
  0xf5, 0x09, 0xba, 0xe1, 0xc9, 0xd7, 0xd0, 0xe8, 0x0a, 0x1f, 0x1b, 0xdb,
  0x09, 0x03, 0x15, 0x02, 0x23, 0x31, 0x22, 0xf2, 0x4a, 0x25, 0x63, 0x39,
  0x7b, 0x58, 0x5b, 0x51, 0x2c, 0x58, 0x3a, 0x4f, 0x4a, 0x33, 0x21, 0x35,
  0xe6, 0x0e, 0x19, 0xfb, 0xe0, 0xda, 0xce, 0xe9, 0x2e, 0xef, 0xdb, 0xb5,
  0xb0, 0xe3, 0xb0, 0xbf, 0xe5, 0xc0, 0x06, 0xec, 0xed, 0x12, 0x20, 0xd5,
  0x27, 0x30, 0x4e, 0x2a, 0x1a, 0x45, 0x3c, 0x49, 0x4a, 0x53, 0x0d, 0x21,
  0x29, 0xfe, 0x53, 0x01, 0x2e, 0x20, 0x10, 0x2c, 0x0d, 0x1c, 0x05, 0x17,
  0x07, 0xfe, 0xfb, 0xda, 0xf9, 0xde, 0xc6, 0xf0, 0xd5, 0x04, 0xe8, 0xeb,
  0x12, 0x10, 0xfc, 0x16, 0x1a, 0x36, 0x2c, 0x1a, 0x35, 0x2d, 0x30, 0x3b,
  0x50, 0x62, 0x3f, 0x4a, 0x75, 0x4d, 0x52, 0x1b, 0x0f, 0x0b, 0x31, 0x36,
  0x12, 0x41, 0xe4, 0x2d, 0x08, 0xe9, 0x13, 0xfa, 0x2a, 0x12, 0xeb, 0xdf,
  0xc8, 0xeb, 0xbb, 0x01, 0xce, 0x11, 0xda, 0x1b, 0xfa, 0x12, 0x09, 0x32,
  0x03, 0x27, 0x3e, 0x2e, 0x50, 0x43, 0x5a, 0x46, 0x3a, 0x51, 0x5f, 0x5c,
  0x3f, 0x22, 0x28, 0x42, 0x47, 0x1c, 0x19, 0x33, 0xf7, 0x3a, 0x1b, 0x0c,
  0x27, 0xfc, 0x1b, 0x09, 0xf3, 0xe2, 0xf4, 0x16, 0xe4, 0xe3, 0xf5, 0xd2,
  0x13, 0x20, 0x0c, 0x4e, 0xf0, 0x3e, 0x4f, 0x45, 0x3f, 0x1b, 0x17, 0x46,
  0x37, 0x13, 0x7f, 0x1a, 0x69, 0x37, 0x3a, 0x14, 0x1c, 0x2b, 0x22, 0x38,
  0x13, 0x23, 0x33, 0x00, 0x62, 0xaf, 0xff, 0xff, 0x04, 0x00, 0x00, 0x00,
  0xff, 0x00, 0x00, 0x00, 0x25, 0x28, 0x20, 0x30, 0x22, 0x28, 0xff, 0xfd,
  0x23, 0xe5, 0x0a, 0x1c, 0xfe, 0x16, 0x04, 0xff, 0xd6, 0x05, 0x00, 0x04,
  0xf9, 0x2b, 0x12, 0x10, 0x1f, 0xf1, 0xdd, 0xd1, 0xfd, 0xca, 0xed, 0xb7,
  0xf0, 0xce, 0xb2, 0xab, 0xd7, 0xc5, 0xce, 0xe8, 0xf6, 0x1b, 0x0c, 0x1d,
  0x24, 0x54, 0x09, 0x34, 0x13, 0xe3, 0x06, 0xd2, 0x01, 0x42, 0x4c, 0x4d,
  0x42, 0x20, 0xe2, 0xe8, 0xeb, 0xf1, 0x06, 0x2d, 0x27, 0x08, 0xf6, 0xd2,
  0xc3, 0xcb, 0xd0, 0xd7, 0xea, 0xba, 0xb2, 0xc1, 0xac, 0xae, 0xb1, 0xb6,
  0xb1, 0xaf, 0x93, 0xbf, 0xc2, 0xd1, 0xde, 0xfc, 0x06, 0x04, 0x0c, 0xcc,
  0xe0, 0xd0, 0xdd, 0xd6, 0xff, 0x0f, 0x1a, 0xfa, 0x12, 0xcd, 0xdd, 0xeb,
  0xe2, 0x17, 0xf0, 0x02, 0x10, 0xe9, 0xff, 0xc9, 0xf2, 0xea, 0x0c, 0xe0,
  0xd8, 0xc4, 0xbf, 0xb2, 0xb7, 0xa8, 0xe1, 0xc7, 0xb3, 0xdc, 0xd6, 0xe7,
  0xe2, 0x0e, 0x46, 0x32, 0x6f, 0x03, 0x26, 0xf1, 0x05, 0x27, 0x5c, 0x4a,
  0x43, 0x40, 0x09, 0xfd, 0xe6, 0xe6, 0xe6, 0x28, 0xe2, 0x2e, 0x02, 0x00,
  0xeb, 0xe8, 0xf6, 0xe0, 0xe4, 0xf9, 0x0d, 0xd4, 0xea, 0xdb, 0xbe, 0xc7,
  0xad, 0xcb, 0xd2, 0xc4, 0xef, 0x0a, 0xf6, 0xfe, 0x33, 0xfd, 0x57, 0x30,
  0x3f, 0x1f, 0x35, 0x0b, 0x3a, 0x7f, 0x76, 0x58, 0x59, 0x23, 0x0a, 0xf8,
  0x0f, 0xf4, 0x2a, 0x16, 0x12, 0x2d, 0xfb, 0xe4, 0x03, 0xdf, 0xfa, 0xfd,
  0xe6, 0xec, 0xd2, 0xec, 0xb5, 0xbb, 0xad, 0xb9, 0xb2, 0xba, 0xb4, 0xde,
  0xbc, 0x08, 0xe0, 0x02, 0x21, 0x1a, 0x16, 0x00, 0x06, 0xff, 0xdc, 0xe2,
  0x06, 0x0c, 0x22, 0x07, 0xe9, 0xe1, 0xf5, 0xe1, 0xe1, 0x06, 0x03, 0x07,
  0x0b, 0xe3, 0x04, 0xe8, 0xfd, 0xe0, 0x20, 0x05, 0xf8, 0x0e, 0xe2, 0xe8,
  0xe9, 0xdc, 0xda, 0xd5, 0xb2, 0xcf, 0xb9, 0x00, 0x6e, 0xb0, 0xff, 0xff,
  0x04, 0x00, 0x00, 0x00, 0xff, 0x00, 0x00, 0x00, 0xef, 0xfd, 0xe9, 0xec,
  0x06, 0x21, 0x29, 0x11, 0x15, 0xec, 0x18, 0xfa, 0xf7, 0x1f, 0x26, 0x0e,
  0x2b, 0x3a, 0x4e, 0x52, 0x49, 0x03, 0x40, 0x2d, 0x31, 0x0e, 0x10, 0x35,
  0x26, 0x31, 0x1d, 0x23, 0x0a, 0x00, 0xed, 0xf2, 0x04, 0xd7, 0xe3, 0xcd,
  0xcf, 0xcc, 0xdc, 0xcb, 0xca, 0xe8, 0xfe, 0xf6, 0x02, 0x15, 0x26, 0x3d,
  0x2b, 0x10, 0x01, 0x07, 0x0c, 0x1a, 0x34, 0x22, 0x53, 0x29, 0x37, 0x2e,
  0x30, 0xf9, 0x04, 0x0e, 0x11, 0x1b, 0xf4, 0x30, 0x10, 0x0f, 0xf8, 0x06,
  0x10, 0xd3, 0xfa, 0xdb, 0xde, 0xc9, 0xd3, 0xba, 0xc5, 0xb4, 0xa6, 0xb7,
  0xb6, 0xd4, 0xe1, 0xea, 0x0a, 0x2d, 0x34, 0x1f, 0x14, 0xf6, 0x01, 0x01,
  0x0e, 0x1c, 0x19, 0x3b, 0x48, 0x38, 0x53, 0x2d, 0x04, 0x02, 0xff, 0x18,
  0x0d, 0xfa, 0x2c, 0x21, 0x38, 0x1b, 0xfe, 0x17, 0xed, 0x02, 0xca, 0xf6,
  0xe5, 0xcf, 0xc0, 0x9f, 0xde, 0xbd, 0xc6, 0xbe, 0xd6, 0xc9, 0xeb, 0xe0,
  0xf2, 0x22, 0x0a, 0xf6, 0xfc, 0xfb, 0xf1, 0xef, 0xfa, 0x16, 0x3e, 0x21,
  0x2f, 0x23, 0x40, 0x01, 0x29, 0xe8, 0x16, 0x00, 0x28, 0x32, 0x17, 0xfc,
  0xea, 0x24, 0xf5, 0xfa, 0xfe, 0xbc, 0xd6, 0xaf, 0xc6, 0xbb, 0xb8, 0x9e,
  0xb8, 0x9f, 0xd1, 0xc6, 0xd5, 0xef, 0xf1, 0xfa, 0x33, 0xfc, 0xea, 0xe5,
  0xe7, 0xf8, 0x19, 0x19, 0x17, 0x42, 0x21, 0x23, 0x21, 0x14, 0xec, 0xf3,
  0xfc, 0xf3, 0xf5, 0xfa, 0xf4, 0xfa, 0xfd, 0xf6, 0xcd, 0xe5, 0xd0, 0xbc,
  0xab, 0x99, 0xa0, 0x81, 0x84, 0x8b, 0x86, 0xa3, 0xa7, 0xa2, 0xb1, 0xd4,
  0xf8, 0xe3, 0xe5, 0xe9, 0xfe, 0xd3, 0xe5, 0xca, 0xe8, 0xea, 0x13, 0x26,
  0x1d, 0x1d, 0x17, 0x2b, 0x05, 0x05, 0x05, 0x0b, 0xf8, 0x09, 0x0a, 0x1a,
  0x15, 0x0c, 0x1a, 0xed, 0xc4, 0xdb, 0xd5, 0xc1, 0xaa, 0x94, 0xa2, 0x00,
  0x7a, 0xb1, 0xff, 0xff, 0x04, 0x00, 0x00, 0x00, 0xff, 0x00, 0x00, 0x00,
  0xf3, 0x02, 0xf4, 0x01, 0x0b, 0x1b, 0x20, 0x10, 0x09, 0x19, 0xfa, 0xe3,
  0xe1, 0xc3, 0xb6, 0xba, 0xc3, 0xe3, 0xea, 0xed, 0xfc, 0x20, 0x16, 0x37,
  0x3e, 0x38, 0x27, 0x1d, 0xf1, 0xf2, 0xce, 0xb7, 0xa9, 0xc4, 0xcb, 0xe8,
  0xd9, 0xf1, 0x08, 0xf2, 0x07, 0x02, 0x1c, 0x0c, 0xda, 0x1f, 0xf4, 0x25,
  0x14, 0xf9, 0x21, 0x03, 0x01, 0xea, 0xb9, 0xa8, 0x9f, 0x9a, 0xb3, 0xd0,
  0xe1, 0x06, 0xff, 0x09, 0x34, 0x0e, 0x1e, 0x13, 0x1c, 0x14, 0x03, 0x07,
  0xea, 0xd9, 0xb7, 0xba, 0xc9, 0xcd, 0xd7, 0xe5, 0xe6, 0x0d, 0x17, 0xf3,
  0x10, 0x29, 0x1e, 0x17, 0xf4, 0x09, 0x13, 0x25, 0x2a, 0x21, 0x2d, 0xec,
  0xdb, 0xcc, 0xc4, 0x95, 0xa8, 0x82, 0xcd, 0xca, 0xda, 0x0a, 0x00, 0x15,
  0x20, 0x3a, 0x2e, 0x40, 0x2e, 0x22, 0x01, 0xda, 0xbf, 0xba, 0xb4, 0xd1,
  0xbe, 0xe8, 0xe2, 0x09, 0xf0, 0x17, 0x0a, 0x10, 0x27, 0x1d, 0x12, 0x08,
  0xf2, 0x1f, 0x0f, 0x1e, 0x13, 0x12, 0x0b, 0xd9, 0xc2, 0xa6, 0x96, 0x94,
  0xb9, 0xcc, 0xeb, 0xdf, 0x07, 0x13, 0x23, 0x22, 0x2a, 0x30, 0x21, 0x33,
  0x1b, 0x08, 0xdc, 0xcf, 0xcc, 0xc9, 0xc7, 0xcb, 0xf5, 0xd8, 0xeb, 0x0c,
  0x14, 0x27, 0x1c, 0x18, 0x20, 0x0e, 0x1a, 0x06, 0x1c, 0x2a, 0x1c, 0x1c,
  0x03, 0xfb, 0xdc, 0xb4, 0x95, 0x81, 0x87, 0xcc, 0xbf, 0xec, 0x09, 0xf8,
  0x1a, 0x09, 0x28, 0x50, 0x5c, 0x3d, 0x1b, 0x12, 0xec, 0xda, 0xd3, 0xba,
  0xc5, 0xcf, 0xc5, 0xe2, 0xec, 0x08, 0xfc, 0xfd, 0x26, 0x1b, 0x11, 0x16,
  0x34, 0x16, 0xf4, 0x03, 0x1b, 0x2f, 0x25, 0x36, 0xfc, 0xd8, 0xb6, 0x8a,
  0xa5, 0x94, 0xb6, 0xde, 0xfe, 0x04, 0x0c, 0x29, 0x2c, 0x25, 0x2a, 0x32,
  0x2f, 0x0f, 0xfe, 0xe3, 0xeb, 0xc2, 0xa3, 0x90, 0xb4, 0xd5, 0xef, 0xce,
  0xf8, 0x1c, 0x31, 0x00, 0x86, 0xb2, 0xff, 0xff, 0x04, 0x00, 0x00, 0x00,
  0xff, 0x00, 0x00, 0x00, 0xce, 0xd4, 0xe0, 0xd3, 0xc5, 0xd4, 0xd3, 0xf9,
  0xe9, 0xc6, 0xfd, 0xe1, 0xf9, 0xec, 0xe4, 0xc1, 0xa9, 0x9c, 0xaf, 0xaa,
  0xb8, 0xb1, 0xb4, 0xd3, 0xe3, 0xde, 0xf7, 0xef, 0xfc, 0x0c, 0x01, 0xea,
  0xda, 0x09, 0xfd, 0xfe, 0xd6, 0xf2, 0xc8, 0xcd, 0xd1, 0xf2, 0xcd, 0xeb,
  0xe9, 0xee, 0xf0, 0xd9, 0xf6, 0x12, 0xec, 0xe3, 0xe0, 0xf4, 0x02, 0xe3,
  0xd6, 0xd5, 0xb5, 0x90, 0x9b, 0xbb, 0x9c, 0xbf, 0x98, 0xc1, 0xde, 0xde,
  0xfc, 0xeb, 0x01, 0xfe, 0x0e, 0xfa, 0x01, 0x12, 0x09, 0xf7, 0xe6, 0xf6,
  0x13, 0xcf, 0xe6, 0xed, 0xf5, 0xcd, 0xf8, 0xff, 0xf4, 0xf8, 0xef, 0xe6,
  0xfc, 0x07, 0x03, 0x00, 0x04, 0x01, 0xf3, 0x01, 0xc3, 0xa3, 0x9e, 0x92,
  0x89, 0x96, 0x8f, 0x93, 0x99, 0xbb, 0xd7, 0xe1, 0xf3, 0x1e, 0xf3, 0x04,
  0x1d, 0x03, 0x17, 0xf5, 0x10, 0x0c, 0xfa, 0xdd, 0xef, 0xf8, 0xd5, 0xf9,
  0xf4, 0xf1, 0x0e, 0xf5, 0xf7, 0x06, 0x13, 0xf4, 0x01, 0xfe, 0x01, 0x05,
  0x20, 0xf8, 0xd4, 0xce, 0xa1, 0xac, 0x8b, 0xa1, 0x8e, 0xa9, 0x94, 0xb1,
  0xaf, 0xcc, 0xe4, 0xe0, 0xf2, 0x0c, 0x03, 0x0e, 0xfc, 0x03, 0x0c, 0xf6,
  0xe9, 0xf7, 0x01, 0xde, 0xde, 0xdf, 0xf9, 0xeb, 0xdd, 0x1f, 0x0b, 0x14,
  0xfa, 0x05, 0xfd, 0x18, 0x10, 0xed, 0x0e, 0x0d, 0x05, 0xd8, 0xbe, 0xb7,
  0xc5, 0x90, 0x8c, 0x81, 0x9a, 0x9d, 0xb2, 0xc9, 0xbc, 0xea, 0xe8, 0xe7,
  0xee, 0x19, 0xff, 0x05, 0xfd, 0x0c, 0xf5, 0x14, 0x11, 0x08, 0xf8, 0xf0,
  0xf0, 0x03, 0xff, 0xfe, 0x0a, 0x1a, 0x29, 0x1d, 0x0c, 0x07, 0x08, 0x27,
  0x18, 0x24, 0x1b, 0x13, 0x0b, 0xea, 0xa8, 0xb2, 0xb0, 0x9a, 0x9c, 0xa6,
  0x9f, 0xb6, 0xd3, 0xc1, 0xfe, 0xd1, 0x01, 0x0f, 0xfa, 0x02, 0x0e, 0x0f,
  0xfe, 0x1e, 0x01, 0x17, 0x1a, 0x15, 0x13, 0x00, 0x92, 0xb3, 0xff, 0xff,
  0x04, 0x00, 0x00, 0x00, 0xff, 0x00, 0x00, 0x00, 0xc2, 0xc5, 0xd9, 0xdb,
  0xe2, 0xd7, 0xf7, 0xf6, 0x04, 0x0c, 0x03, 0x0b, 0x19, 0x2b, 0x26, 0x1d,
  0x16, 0x10, 0x0f, 0x0f, 0x0c, 0x09, 0x0f, 0x13, 0x1a, 0x09, 0xfc, 0x08,
  0x0c, 0x10, 0x04, 0x0b, 0x13, 0x13, 0x1e, 0x06, 0x14, 0xfe, 0xf8, 0xfb,
  0xf9, 0xf8, 0x04, 0xed, 0xf1, 0xef, 0xf2, 0xe8, 0xe8, 0xf6, 0xfb, 0x04,
  0x0b, 0x02, 0x13, 0x0c, 0x10, 0x1c, 0x0b, 0x0f, 0xf9, 0xf7, 0xe3, 0xe0,
  0xef, 0xe4, 0xeb, 0xf6, 0xe2, 0xf1, 0xdf, 0xe0, 0xf3, 0xe8, 0x08, 0xf7,
  0x0f, 0x0a, 0xf5, 0xf8, 0xfa, 0xea, 0xe5, 0xe5, 0xc2, 0x9d, 0x8c, 0x81,
  0x82, 0x8f, 0x8d, 0xb7, 0xcb, 0xc9, 0x01, 0xf9, 0xe6, 0xed, 0xe9, 0xf0,
  0xfd, 0xf0, 0xfa, 0xec, 0xfa, 0xe3, 0xed, 0xfe, 0xe9, 0xfe, 0xf1, 0xfe,
  0xf1, 0xfa, 0xeb, 0x08, 0xf5, 0x0f, 0x00, 0x11, 0x0c, 0x09, 0x0e, 0xff,
  0xf8, 0xf7, 0xf0, 0xe2, 0xdc, 0xe1, 0x94, 0xbf, 0xb2, 0xb4, 0xd7, 0xee,
  0xf4, 0x0a, 0xfb, 0x07, 0x0d, 0x1b, 0x0f, 0x0f, 0x0d, 0x05, 0xf9, 0xfd,
  0xf8, 0xfb, 0xfc, 0x06, 0xff, 0x01, 0xfb, 0x1a, 0x05, 0x12, 0x0c, 0x07,
  0x11, 0x16, 0x06, 0x19, 0x0c, 0x23, 0x14, 0x01, 0x09, 0x01, 0xf2, 0xf2,
  0xf4, 0xfb, 0xdc, 0xf2, 0xdd, 0xf1, 0xf4, 0xfb, 0x01, 0x0e, 0x17, 0x1a,
  0x1c, 0x1d, 0x12, 0x21, 0x10, 0x0e, 0x0b, 0x08, 0xfd, 0x08, 0xf9, 0xfb,
  0xf3, 0xf3, 0xff, 0xef, 0xec, 0xfb, 0xec, 0x02, 0xfe, 0x0a, 0x08, 0x10,
  0x00, 0x01, 0x04, 0x01, 0xff, 0xeb, 0xe0, 0xdc, 0xba, 0xe3, 0xb5, 0xc7,
  0xaf, 0xbf, 0xcc, 0xd7, 0xef, 0xfb, 0xfe, 0x17, 0x0d, 0x05, 0xfa, 0xfb,
  0xeb, 0xf2, 0xee, 0xec, 0xf6, 0xf3, 0xf2, 0xf2, 0xe7, 0xe9, 0xf1, 0xfb,
  0x09, 0x00, 0x08, 0x14, 0x05, 0x15, 0x0f, 0x10, 0x1c, 0x00, 0xfa, 0x00,
  0x9e, 0xb4, 0xff, 0xff, 0x04, 0x00, 0x00, 0x00, 0x08, 0x00, 0x00, 0x00,
  0x58, 0x6a, 0x80, 0x3d, 0xf5, 0x0a, 0x55, 0x7f, 0xb2, 0xb4, 0xff, 0xff,
  0x04, 0x00, 0x00, 0x00, 0x40, 0x00, 0x00, 0x00, 0x14, 0x9c, 0xf2, 0xbe,
  0x86, 0x7f, 0x17, 0xb0, 0x93, 0x0b, 0x1c, 0xe9, 0xcf, 0x93, 0x81, 0xe4,
  0xdf, 0xc3, 0x11, 0x15, 0x5c, 0xdd, 0xde, 0x7f, 0x7f, 0xd6, 0xc5, 0xf7,
  0xfb, 0x78, 0x15, 0x00, 0xf2, 0x15, 0x0f, 0x23, 0xde, 0x7f, 0xc8, 0x1c,
  0xfb, 0xf7, 0xf1, 0x53, 0xf5, 0x7f, 0xe3, 0xe4, 0xfc, 0xa4, 0xed, 0x06,
  0x39, 0xdc, 0x09, 0x81, 0xf2, 0x2e, 0xfb, 0x28, 0x0b, 0xbd, 0x21, 0x81,
  0xfe, 0xb4, 0xff, 0xff, 0x04, 0x00, 0x00, 0x00, 0x20, 0x00, 0x00, 0x00,
  0x11, 0x15, 0x00, 0x00, 0xe1, 0x26, 0x00, 0x00, 0x98, 0xf8, 0xff, 0xff,
  0x61, 0xf0, 0xff, 0xff, 0xec, 0xf9, 0xff, 0xff, 0xff, 0xf5, 0xff, 0xff,
  0xa3, 0x16, 0x00, 0x00, 0xeb, 0x12, 0x00, 0x00, 0x2a, 0xb5, 0xff, 0xff,
  0x04, 0x00, 0x00, 0x00, 0xff, 0x00, 0x00, 0x00, 0xf4, 0xf4, 0xf6, 0xd5,
  0x0f, 0xdb, 0xdb, 0xe9, 0xe1, 0xff, 0xf0, 0xc3, 0xd6, 0xf4, 0xe8, 0xea,
  0xea, 0xd1, 0xf3, 0xf0, 0x04, 0x13, 0x08, 0xed, 0x07, 0xf1, 0x1f, 0xf2,
  0x2a, 0x13, 0x05, 0x3e, 0x31, 0x32, 0x14, 0x3f, 0x46, 0x44, 0x4c, 0x59,
  0x4e, 0x4a, 0x4e, 0x43, 0x25, 0x37, 0x45, 0x47, 0x1b, 0x16, 0x25, 0xf9,
  0xd1, 0xfe, 0xbd, 0xd0, 0xdd, 0xc7, 0xd7, 0xd9, 0xe6, 0xd8, 0xc8, 0xf4,
  0xc5, 0xe2, 0xac, 0xc4, 0xca, 0xab, 0xbc, 0xd2, 0xa1, 0xa2, 0xd1, 0xe0,
  0xdf, 0xdb, 0xdd, 0xe5, 0x13, 0x03, 0xe8, 0x08, 0xe9, 0xd8, 0xdf, 0xee,
  0xdd, 0xe3, 0xd7, 0xe7, 0xcc, 0xdc, 0xab, 0xb5, 0x9f, 0xb5, 0x91, 0x8c,
  0xcc, 0xea, 0xa5, 0xd8, 0xb6, 0xdb, 0xf8, 0xd8, 0x98, 0xeb, 0xa4, 0xc5,
  0xa5, 0xbd, 0xd0, 0xc1, 0xc1, 0xe5, 0xc1, 0xdf, 0xb3, 0xc5, 0xe4, 0xec,
  0xf4, 0xf2, 0xea, 0xf2, 0xd0, 0xb5, 0xe2, 0xca, 0xa9, 0xa9, 0xcf, 0xb7,
  0x84, 0x86, 0x81, 0xbf, 0x8c, 0x84, 0x81, 0xcc, 0xc0, 0xb9, 0xcd, 0xce,
  0xd9, 0xbc, 0xbf, 0xa3, 0x8b, 0x9c, 0xc5, 0xba, 0xf1, 0xe6, 0xcf, 0xd9,
  0xd4, 0xe9, 0xf6, 0xe8, 0xda, 0x14, 0x22, 0xfc, 0xff, 0x1b, 0x19, 0x0c,
  0xf0, 0xee, 0xef, 0xf1, 0x13, 0xff, 0xec, 0xff, 0xf6, 0xe8, 0xfb, 0xdb,
  0x10, 0xe9, 0xfa, 0x15, 0xe8, 0xef, 0xf6, 0x06, 0xe1, 0xe9, 0xd3, 0xeb,
  0xea, 0xd8, 0xe6, 0xe5, 0xe8, 0xf3, 0xe5, 0xfe, 0xbf, 0xf0, 0x00, 0x00,
  0x04, 0x1f, 0xf8, 0x25, 0xff, 0x0e, 0xda, 0xed, 0xe6, 0x01, 0xf9, 0xfd,
  0xf0, 0x06, 0xf1, 0xd0, 0xce, 0xf5, 0xbb, 0x06, 0xe3, 0xeb, 0xe6, 0x09,
  0xeb, 0xe7, 0xf2, 0xde, 0xbb, 0xdc, 0xe1, 0xd2, 0xef, 0xc5, 0xd9, 0xd9,
  0xd3, 0xf7, 0xe7, 0xc5, 0xf5, 0xee, 0x0a, 0xfb, 0x0c, 0x08, 0x0c, 0x00,
  0x36, 0xb6, 0xff, 0xff, 0x04, 0x00, 0x00, 0x00, 0xff, 0x00, 0x00, 0x00,
  0x04, 0xff, 0x21, 0x42, 0x42, 0x45, 0x5f, 0x53, 0x49, 0x4d, 0x6c, 0x5c,
  0x35, 0x3f, 0x19, 0x30, 0x2b, 0x1d, 0x29, 0x0f, 0x20, 0x21, 0x00, 0xfc,
  0x01, 0x14, 0xff, 0x05, 0x12, 0xf6, 0x04, 0x02, 0x0c, 0x10, 0xf3, 0xf9,
  0xf2, 0x0f, 0xf7, 0xe7, 0xfd, 0xea, 0x0f, 0x0f, 0x25, 0x2c, 0x2b, 0x29,
  0x42, 0x47, 0x7a, 0x6e, 0x67, 0x7f, 0x61, 0x64, 0x52, 0x5a, 0x28, 0x2d,
  0x1d, 0x13, 0x1c, 0x24, 0x23, 0x1e, 0x0a, 0xf7, 0x08, 0x00, 0x1b, 0x1a,
  0xf6, 0xfb, 0x07, 0x14, 0xe9, 0xfe, 0x14, 0x0d, 0x08, 0xeb, 0x03, 0xf9,
  0xec, 0xf5, 0x08, 0x1f, 0x01, 0x32, 0x55, 0x3d, 0x28, 0x4d, 0x59, 0x42,
  0x50, 0x58, 0x40, 0x4b, 0x2d, 0x4f, 0x30, 0x27, 0x10, 0x20, 0x15, 0x11,
  0x25, 0x13, 0x2e, 0xf9, 0x05, 0x01, 0x08, 0xf5, 0xf5, 0xfa, 0xeb, 0xff,
  0xfc, 0xf3, 0xfe, 0x09, 0xf8, 0x0c, 0xf7, 0x06, 0xfb, 0xdd, 0x08, 0x0a,
  0x2e, 0x41, 0x38, 0x4d, 0x5a, 0x57, 0x5a, 0x6a, 0x5d, 0x4d, 0x23, 0x2c,
  0x31, 0x2a, 0x17, 0x12, 0x08, 0x12, 0x0c, 0x13, 0x1f, 0x03, 0x0a, 0xf9,
  0xed, 0x0d, 0xf8, 0xfa, 0xf6, 0xfa, 0xea, 0xf4, 0x0d, 0xe6, 0xde, 0xf0,
  0xe6, 0xd4, 0xee, 0xdb, 0x0a, 0xfe, 0x02, 0x25, 0x1a, 0x2f, 0x1c, 0x18,
  0x12, 0x21, 0x14, 0x26, 0x05, 0x35, 0x03, 0x07, 0x0b, 0xfd, 0x03, 0xf9,
  0x03, 0x12, 0xf0, 0xf1, 0x00, 0xeb, 0x08, 0xe7, 0xe6, 0xf0, 0xd7, 0xef,
  0xf2, 0xf8, 0xea, 0xfd, 0xe5, 0x01, 0xf8, 0xfa, 0xf8, 0xdf, 0xe3, 0xfc,
  0x01, 0x10, 0x1c, 0xf9, 0x17, 0x02, 0x0f, 0x11, 0x0c, 0x09, 0x0a, 0x0d,
  0x00, 0x19, 0xf3, 0x0f, 0xee, 0x0b, 0x13, 0xe2, 0xd5, 0xe6, 0xe9, 0xdc,
  0xe9, 0xdc, 0xd4, 0xda, 0xdd, 0xc4, 0xc9, 0xbc, 0xf4, 0xf9, 0x01, 0xd6,
  0xf2, 0xf2, 0xc2, 0x00, 0x42, 0xb7, 0xff, 0xff, 0x04, 0x00, 0x00, 0x00,
  0xff, 0x00, 0x00, 0x00, 0xde, 0xd2, 0xe5, 0xe3, 0xdb, 0xda, 0xee, 0xe9,
  0xde, 0xf7, 0xdc, 0xea, 0xdc, 0xe1, 0xe3, 0xdf, 0xfe, 0xeb, 0x19, 0xf7,
  0x11, 0x10, 0x0e, 0x1c, 0x1e, 0x22, 0x19, 0x16, 0x08, 0x1f, 0x01, 0x13,
  0x26, 0x25, 0x30, 0x28, 0x16, 0x20, 0x1c, 0xf7, 0xfb, 0x0f, 0x00, 0x08,
  0x08, 0xfc, 0xf1, 0x03, 0xfd, 0x03, 0xfa, 0x0e, 0x05, 0xfb, 0xf4, 0xf2,
  0xe1, 0xee, 0xe7, 0xde, 0xd9, 0xed, 0xe0, 0xe4, 0xe0, 0xcb, 0xdd, 0xc3,
  0xcc, 0xdf, 0xc4, 0xc4, 0xdb, 0xdc, 0xe9, 0xe4, 0xe1, 0xff, 0x12, 0x0b,
  0x03, 0xf6, 0xf9, 0xf2, 0xe3, 0xe7, 0xef, 0xcd, 0xcb, 0xd2, 0xde, 0xd6,
  0xde, 0x02, 0xd3, 0xdc, 0xe0, 0xe6, 0xde, 0xe1, 0xe4, 0xcb, 0xe8, 0xba,
  0xbe, 0xb4, 0xaa, 0xa6, 0xa3, 0xaa, 0xaf, 0x98, 0xac, 0xa9, 0xd4, 0xcc,
  0xdd, 0xd4, 0xec, 0xef, 0xee, 0xf9, 0xfa, 0xf4, 0xd5, 0xf6, 0x01, 0xed,
  0xe5, 0xeb, 0xf6, 0xd3, 0xc1, 0xce, 0xd2, 0xef, 0xd1, 0xea, 0xc4, 0xdf,
  0xf2, 0xd6, 0xf5, 0x04, 0xf5, 0xfc, 0x04, 0xf3, 0x03, 0xfb, 0x0e, 0xfb,
  0x27, 0x18, 0x24, 0x1f, 0x17, 0x27, 0x2c, 0x32, 0x35, 0x2d, 0x38, 0x1f,
  0x2b, 0x19, 0x37, 0x03, 0x1f, 0xf6, 0x0d, 0xf8, 0x06, 0xe5, 0xfd, 0xe1,
  0x14, 0x07, 0x0d, 0x0f, 0x17, 0x09, 0x2a, 0x04, 0x0e, 0x20, 0x12, 0x12,
  0x1c, 0x1c, 0x25, 0x1f, 0xfe, 0x00, 0xf5, 0xf6, 0xf3, 0xfe, 0xfa, 0xe0,
  0xc2, 0xe3, 0xe7, 0xf7, 0xf7, 0x05, 0x01, 0x00, 0xee, 0xf7, 0xff, 0xef,
  0xf9, 0xe5, 0x02, 0xcd, 0xe3, 0xc5, 0xea, 0xc7, 0xe8, 0xe7, 0xd3, 0xe4,
  0xeb, 0xe3, 0xe0, 0xdd, 0xe4, 0x05, 0xf5, 0xd0, 0xe9, 0xeb, 0xe0, 0xc6,
  0xb0, 0xc3, 0xc5, 0xad, 0x81, 0xa8, 0x82, 0x97, 0xa4, 0xb3, 0xec, 0xe9,
  0xe6, 0xe7, 0xe4, 0xef, 0xf2, 0xe4, 0xf3, 0x00, 0x4e, 0xb8, 0xff, 0xff,
  0x04, 0x00, 0x00, 0x00, 0xff, 0x00, 0x00, 0x00, 0x34, 0x1f, 0x3e, 0xfd,
  0x2b, 0x44, 0x33, 0x06, 0x09, 0x00, 0xbb, 0xb9, 0xcf, 0xd3, 0xbd, 0xd3,
  0xb7, 0xde, 0xc4, 0xc6, 0xed, 0xc8, 0xe2, 0xf4, 0xfa, 0x15, 0x02, 0x15,
  0x19, 0x24, 0x02, 0x07, 0x20, 0x2a, 0x1e, 0x23, 0x2c, 0x2a, 0x09, 0x2a,
  0xff, 0x03, 0xd7, 0xf6, 0xdc, 0xe7, 0xcb, 0xb5, 0xe6, 0xce, 0xc8, 0xb9,
  0x81, 0xae, 0xaf, 0xb9, 0x9c, 0xa4, 0xb8, 0xec, 0xc4, 0xd5, 0xc9, 0xaa,
  0xdb, 0xce, 0xe6, 0xdb, 0xee, 0xde, 0x0a, 0x18, 0x09, 0xea, 0xe9, 0xf9,
  0x21, 0x06, 0x19, 0x01, 0x06, 0xef, 0xe3, 0xe4, 0xd0, 0xc3, 0xc0, 0xd3,
  0xd7, 0xab, 0xb6, 0xbf, 0xa4, 0xbd, 0xa3, 0x89, 0x97, 0x86, 0x8b, 0xc2,
  0x97, 0xc7, 0xd4, 0xcf, 0xcc, 0xbd, 0xb6, 0xd0, 0xe6, 0xe9, 0xfe, 0x07,
  0x05, 0xf5, 0x12, 0x2c, 0xfa, 0x08, 0xf4, 0x18, 0x13, 0x1d, 0x11, 0x35,
  0x0c, 0x22, 0xff, 0x00, 0xe4, 0xf9, 0xe9, 0x0f, 0x0e, 0x17, 0xeb, 0xf6,
  0xeb, 0xd2, 0xbd, 0xb6, 0xb7, 0xa0, 0xbb, 0xc4, 0xf3, 0xdb, 0xdb, 0xe2,
  0xee, 0xd2, 0xe6, 0xf2, 0xfb, 0xfd, 0xe8, 0xfe, 0x21, 0x1c, 0x2b, 0x10,
  0x22, 0x04, 0x0b, 0x24, 0x0e, 0x18, 0x1b, 0x1a, 0xfd, 0x0c, 0xeb, 0xf9,
  0xd9, 0xfe, 0xe9, 0xdb, 0xf4, 0xfa, 0xdc, 0xec, 0xc7, 0xca, 0xdc, 0xd0,
  0xeb, 0xd6, 0xd6, 0xed, 0xe1, 0xf7, 0xe6, 0xea, 0xfa, 0xce, 0x0b, 0xff,
  0x03, 0x29, 0x17, 0x2a, 0x42, 0x0d, 0x28, 0x0d, 0xed, 0xf9, 0x0d, 0x0b,
  0x1a, 0x00, 0x0e, 0xf5, 0x05, 0xed, 0xe0, 0xd3, 0xc9, 0xc6, 0xb7, 0xd6,
  0x9d, 0xc9, 0xc2, 0xb9, 0xb6, 0xa5, 0xad, 0xd2, 0xbc, 0xc9, 0xa8, 0xcc,
  0xe4, 0xcb, 0xc0, 0xde, 0xb6, 0xdb, 0xcd, 0xc9, 0xe3, 0xd9, 0xf9, 0x00,
  0xf2, 0xdc, 0xcf, 0xd1, 0xde, 0xf7, 0xfb, 0x05, 0xf4, 0x06, 0xf3, 0x00,
  0x5a, 0xb9, 0xff, 0xff, 0x04, 0x00, 0x00, 0x00, 0xff, 0x00, 0x00, 0x00,
  0xfe, 0xe5, 0xef, 0xf7, 0xe7, 0x07, 0xff, 0xef, 0xf2, 0xee, 0xf4, 0xf1,
  0xec, 0xfc, 0xf2, 0xf0, 0xf5, 0x01, 0x06, 0x11, 0x1f, 0x34, 0x5b, 0x54,
  0x4c, 0x59, 0x36, 0x1c, 0x2b, 0x1d, 0x2f, 0x2d, 0x0c, 0x2b, 0x17, 0xf9,
  0xed, 0xfd, 0xf5, 0x04, 0xfd, 0xeb, 0xe3, 0xd0, 0xd0, 0xd1, 0xd4, 0xf6,
  0xe9, 0xf6, 0xe1, 0xe6, 0xc0, 0xb2, 0xdc, 0xd7, 0xe0, 0x05, 0xf5, 0xf9,
  0xfd, 0xfc, 0x11, 0x24, 0x36, 0x59, 0x51, 0x46, 0x29, 0x20, 0x18, 0x14,
  0x33, 0x37, 0x1e, 0x19, 0x14, 0xfa, 0xcf, 0xe2, 0xf3, 0xfa, 0xfb, 0x10,
  0x10, 0xf5, 0xe3, 0xe0, 0xf3, 0xe6, 0xe3, 0x09, 0x12, 0xef, 0xd5, 0xe7,
  0xe2, 0xec, 0xf8, 0xfd, 0xff, 0x15, 0x02, 0x09, 0x2d, 0x1e, 0x49, 0x74,
  0x65, 0x5b, 0x68, 0x3d, 0x43, 0x25, 0x10, 0x2d, 0x39, 0x0b, 0x0a, 0xf6,
  0xf6, 0xef, 0xd9, 0xe1, 0xf6, 0x01, 0x02, 0xee, 0xfc, 0xe4, 0xd0, 0xf1,
  0xfc, 0xf2, 0xf7, 0xfe, 0xfa, 0xcf, 0xec, 0xde, 0xca, 0x07, 0xe1, 0xfb,
  0x0e, 0xf9, 0xff, 0x1d, 0x46, 0x5e, 0x4f, 0x79, 0x52, 0x6a, 0x27, 0x46,
  0x5d, 0x48, 0x4f, 0x21, 0x0f, 0x05, 0x23, 0xe8, 0xeb, 0xf7, 0xef, 0xfd,
  0x21, 0xff, 0xfa, 0xe4, 0xe2, 0xf6, 0xed, 0xf1, 0xfe, 0x00, 0x02, 0xe0,
  0xd2, 0xed, 0xe5, 0xcf, 0xe7, 0x0c, 0x09, 0xff, 0x01, 0x10, 0x1f, 0x46,
  0x43, 0x7f, 0x6e, 0x58, 0x39, 0x43, 0x51, 0x53, 0x48, 0x4c, 0x29, 0x3a,
  0x1f, 0xff, 0xfe, 0xfb, 0xff, 0xf0, 0x10, 0x06, 0xf7, 0xf8, 0xee, 0xf4,
  0xec, 0xee, 0xf2, 0xfc, 0xf7, 0xf0, 0x00, 0xd2, 0xe9, 0xe1, 0xca, 0xd4,
  0xe5, 0xef, 0x05, 0x16, 0x05, 0x05, 0xfd, 0x1b, 0x3d, 0x2f, 0x40, 0x33,
  0x2c, 0x37, 0x34, 0x19, 0x1c, 0x1c, 0x19, 0xfb, 0xe7, 0xf7, 0xde, 0x05,
  0xe2, 0x0c, 0xfc, 0x00, 0x66, 0xba, 0xff, 0xff, 0x04, 0x00, 0x00, 0x00,
  0xff, 0x00, 0x00, 0x00, 0x01, 0xc8, 0xc8, 0xe4, 0x0d, 0xd7, 0xec, 0x0f,
  0x05, 0x32, 0x1c, 0x11, 0x0a, 0x1d, 0x1a, 0xf2, 0xf5, 0x07, 0x0e, 0xf7,
  0xdd, 0xfa, 0xdd, 0xe1, 0xee, 0xef, 0xe0, 0xec, 0xe6, 0xff, 0xfb, 0x07,
  0x1b, 0x03, 0x11, 0x0a, 0x2b, 0x17, 0xec, 0xf4, 0xf7, 0xe7, 0xf0, 0x04,
  0xed, 0xdd, 0x1a, 0x07, 0x24, 0xfd, 0x02, 0x25, 0x1b, 0x20, 0x0f, 0x0b,
  0x0e, 0x16, 0xfa, 0xf8, 0xf9, 0xf2, 0xf7, 0xef, 0xf0, 0xfa, 0xe0, 0xee,
  0x05, 0x15, 0xef, 0x09, 0x20, 0x07, 0x10, 0x25, 0x07, 0x21, 0x0b, 0x29,
  0x06, 0x0b, 0x16, 0x05, 0x06, 0x11, 0x00, 0x01, 0x0d, 0x0e, 0xf1, 0x1b,
  0x39, 0x2d, 0x52, 0x19, 0x14, 0x0a, 0x2f, 0x19, 0x17, 0x0a, 0x16, 0x0d,
  0x16, 0x03, 0xe3, 0x07, 0xf7, 0xf0, 0xec, 0xf1, 0xf3, 0xdc, 0xff, 0xf9,
  0x00, 0x0b, 0x13, 0x26, 0x17, 0x05, 0x0e, 0xfe, 0x03, 0x12, 0xfa, 0x02,
  0x00, 0xe8, 0x02, 0xef, 0x06, 0x0e, 0x15, 0x48, 0x30, 0x35, 0x2b, 0x1e,
  0xf9, 0x2f, 0x01, 0x06, 0x18, 0x0c, 0x0c, 0xff, 0x14, 0xfe, 0xf5, 0xe0,
  0xf8, 0xde, 0xf0, 0xf1, 0xfe, 0x14, 0xef, 0xff, 0x0b, 0x1b, 0x05, 0x04,
  0x0b, 0x16, 0x06, 0x22, 0x20, 0x2c, 0x1e, 0x0a, 0x03, 0x04, 0x10, 0x03,
  0x46, 0x4f, 0x65, 0x5f, 0x48, 0x30, 0x28, 0x26, 0x30, 0x3c, 0x2f, 0x4a,
  0x30, 0x30, 0x22, 0x19, 0x24, 0x16, 0xe3, 0x17, 0x03, 0x29, 0x0e, 0x0f,
  0x0c, 0x28, 0x1e, 0x0e, 0x0f, 0x2b, 0x19, 0xfa, 0x33, 0x04, 0x0e, 0x1b,
  0x25, 0x0f, 0x11, 0x1b, 0x1c, 0x25, 0x28, 0x40, 0x62, 0x5e, 0x71, 0x7f,
  0x6c, 0x64, 0x53, 0x3e, 0x3c, 0x45, 0x59, 0x3a, 0x45, 0x29, 0x2f, 0x12,
  0x1b, 0x0c, 0x1d, 0xfb, 0x11, 0x19, 0x0a, 0x06, 0x23, 0x14, 0x13, 0x3b,
  0x0a, 0x46, 0x42, 0x48, 0x2e, 0x2b, 0x30, 0x00, 0x72, 0xbb, 0xff, 0xff,
  0x04, 0x00, 0x00, 0x00, 0xff, 0x00, 0x00, 0x00, 0xe4, 0xaf, 0xa3, 0xa2,
  0xaf, 0xb5, 0xf3, 0xff, 0x15, 0xd3, 0xf1, 0xcf, 0x0a, 0x21, 0x39, 0x27,
  0x11, 0x1a, 0x11, 0x1d, 0x44, 0x0a, 0x06, 0x2f, 0x33, 0xed, 0x14, 0x0f,
  0x3c, 0xfe, 0x0b, 0x0b, 0x14, 0x09, 0x11, 0x0b, 0x00, 0xf5, 0xf3, 0xec,
  0x04, 0xe9, 0xb4, 0xd7, 0xcd, 0xd4, 0xe2, 0xc4, 0xf9, 0xf4, 0x34, 0x1f,
  0xfe, 0xe4, 0x14, 0x07, 0x30, 0x27, 0x21, 0x22, 0x58, 0xf1, 0x2a, 0xfe,
  0x0f, 0xf5, 0xdf, 0xdc, 0x0b, 0x03, 0xef, 0x26, 0x01, 0xea, 0x04, 0x1d,
  0x29, 0x14, 0xf2, 0xd7, 0x05, 0xd9, 0xb9, 0xe7, 0xdd, 0xdb, 0xd7, 0xe9,
  0xca, 0xbc, 0xba, 0xf2, 0xf0, 0x10, 0xfa, 0x10, 0xc1, 0xd8, 0x05, 0xec,
  0xcd, 0x0f, 0xf5, 0x14, 0xf2, 0xf3, 0xb7, 0xd4, 0xe7, 0xb1, 0xd1, 0x93,
  0xb8, 0xac, 0xf5, 0xd1, 0xe4, 0xdd, 0xbb, 0xd8, 0xb8, 0xb1, 0xa4, 0xb9,
  0xae, 0x86, 0xda, 0x81, 0xa7, 0xc3, 0x9f, 0x9b, 0x87, 0xa2, 0xc1, 0xf7,
  0xc5, 0xc6, 0x0a, 0xf0, 0xe7, 0xdb, 0xbf, 0xb0, 0x12, 0xe8, 0xe6, 0xea,
  0xe1, 0x9b, 0xb9, 0xc9, 0xbc, 0xd3, 0x9e, 0x8e, 0xbb, 0xb0, 0xd6, 0xdf,
  0xc6, 0xf2, 0xd7, 0xf3, 0xd9, 0xa3, 0x87, 0x83, 0xc4, 0xc4, 0xb9, 0x94,
  0xc2, 0xa7, 0xc0, 0xa3, 0xbe, 0xe5, 0xec, 0x03, 0x02, 0xe8, 0x0a, 0x08,
  0xff, 0xfc, 0xf9, 0xfd, 0xfb, 0xdb, 0xdb, 0xe1, 0xa2, 0xb1, 0xc2, 0xb9,
  0xcb, 0xa2, 0xa8, 0xc2, 0xb9, 0xcf, 0xea, 0xc7, 0x00, 0xcf, 0xe3, 0xc0,
  0xb7, 0xd8, 0x95, 0xb0, 0xc2, 0x99, 0xd0, 0xca, 0x9d, 0xb8, 0xa5, 0xed,
  0xc4, 0xf4, 0x50, 0xea, 0x28, 0x06, 0x15, 0xe5, 0xfc, 0xdb, 0xf3, 0x12,
  0x08, 0xd6, 0x02, 0xa0, 0xc8, 0xd0, 0x95, 0xb9, 0xc6, 0xb4, 0xb3, 0xba,
  0xd4, 0xa8, 0x88, 0x9b, 0x8d, 0x98, 0x91, 0x90, 0xae, 0x9c, 0xc7, 0x00,
  0x7e, 0xbc, 0xff, 0xff, 0x04, 0x00, 0x00, 0x00, 0xff, 0x00, 0x00, 0x00,
  0xb9, 0xb5, 0xb3, 0xa4, 0xc7, 0xd3, 0xdc, 0xcd, 0xeb, 0xe4, 0xe4, 0xe3,
  0xf5, 0xf8, 0x18, 0xf6, 0xec, 0xf6, 0xef, 0xf0, 0xe0, 0xdb, 0xfa, 0x06,
  0xe9, 0xd6, 0xd9, 0xdc, 0xd5, 0xc5, 0xae, 0xc5, 0xc4, 0xa2, 0xc2, 0xab,
  0xcc, 0x9e, 0xb7, 0xc5, 0xe2, 0xb7, 0xd5, 0xe3, 0xd3, 0xe0, 0xd4, 0x10,
  0xef, 0xd6, 0xe8, 0xf4, 0x1b, 0xf2, 0x05, 0x2f, 0x11, 0x26, 0x09, 0x10,
  0x05, 0xf7, 0x05, 0xf8, 0xfb, 0x0f, 0xff, 0x02, 0x0b, 0x06, 0xfb, 0xfe,
  0xed, 0xe8, 0xf4, 0xe9, 0xd3, 0xe3, 0xe1, 0xe1, 0xd5, 0xe0, 0xd4, 0x01,
  0xdb, 0xd6, 0xcf, 0xf7, 0xe5, 0xff, 0x04, 0x0b, 0xf9, 0xf7, 0xfc, 0x11,
  0xf4, 0x0e, 0x2b, 0x0b, 0x13, 0x21, 0xfc, 0x15, 0x11, 0x04, 0x06, 0x0f,
  0xf5, 0x00, 0xfb, 0x00, 0xfb, 0x0b, 0xe9, 0xe1, 0xe1, 0xd9, 0xc8, 0xcb,
  0xc0, 0x9e, 0x9d, 0xba, 0x9f, 0xcf, 0xc8, 0xc5, 0xb5, 0xc7, 0x9e, 0xca,
  0xab, 0xc9, 0xf7, 0xf6, 0xe8, 0xf0, 0x21, 0x09, 0xfb, 0xf6, 0xef, 0x13,
  0xf6, 0xe6, 0x13, 0xe5, 0xe5, 0xf2, 0xee, 0xf1, 0xed, 0xf1, 0xef, 0x00,
  0xeb, 0xd5, 0xd4, 0xd8, 0xba, 0x99, 0xa2, 0x8a, 0x90, 0x94, 0xbb, 0x91,
  0xa2, 0xaa, 0xab, 0xb6, 0xb7, 0xa3, 0xbb, 0xc4, 0xc2, 0xe6, 0xcc, 0xfe,
  0x0a, 0x25, 0x08, 0x1e, 0x29, 0x2e, 0x00, 0x33, 0x17, 0x29, 0x1d, 0x15,
  0x1a, 0x0b, 0x0a, 0x14, 0xe4, 0xe8, 0x01, 0xef, 0xdb, 0xd8, 0xca, 0xac,
  0xb4, 0x9e, 0xa1, 0x8f, 0xac, 0xbc, 0xb8, 0xbb, 0xc9, 0xc0, 0xc1, 0xd4,
  0xdc, 0xde, 0xe5, 0xfb, 0x11, 0x0e, 0x22, 0x2e, 0x46, 0x41, 0x2f, 0x34,
  0x3f, 0x32, 0x29, 0x2b, 0x1d, 0x2e, 0x1e, 0x09, 0x18, 0xe7, 0x1f, 0xef,
  0x07, 0xf4, 0x04, 0xe8, 0xe6, 0xcc, 0xcc, 0xa4, 0x81, 0x88, 0xa0, 0x9b,
  0xac, 0xb2, 0xa7, 0x00, 0x8a, 0xbd, 0xff, 0xff, 0x04, 0x00, 0x00, 0x00,
  0x08, 0x00, 0x00, 0x00, 0x33, 0x80, 0x5f, 0x64, 0x87, 0x85, 0x1d, 0x7f,
  0x9e, 0xbd, 0xff, 0xff, 0x04, 0x00, 0x00, 0x00, 0x40, 0x00, 0x00, 0x00,
  0x81, 0xb2, 0xae, 0x2f, 0x68, 0x55, 0x9d, 0x28, 0x36, 0x03, 0x81, 0x32,
  0x20, 0xee, 0xea, 0x60, 0x3f, 0xbb, 0xda, 0xb9, 0xf0, 0xc0, 0x70, 0x7f,
  0x08, 0x49, 0x16, 0x39, 0x32, 0x81, 0xcb, 0x9d, 0xb0, 0x38, 0xd5, 0xe1,
  0x40, 0x7f, 0x8c, 0xf4, 0x31, 0xef, 0xc8, 0xfd, 0x7f, 0x14, 0xed, 0x01,
  0xb4, 0xdf, 0x7f, 0xe0, 0xc7, 0xae, 0x06, 0xfc, 0x4d, 0x79, 0xbe, 0x4c,
  0x81, 0xfe, 0xfe, 0xc0, 0xea, 0xbd, 0xff, 0xff, 0x04, 0x00, 0x00, 0x00,
  0x20, 0x00, 0x00, 0x00, 0x58, 0x1b, 0x00, 0x00, 0xb1, 0xfc, 0xff, 0xff,
  0x74, 0xfb, 0xff, 0xff, 0xaa, 0x0d, 0x00, 0x00, 0xbe, 0x29, 0x00, 0x00,
  0x3f, 0xf5, 0xff, 0xff, 0xf2, 0x07, 0x00, 0x00, 0x7f, 0x09, 0x00, 0x00,
  0x16, 0xbe, 0xff, 0xff, 0x04, 0x00, 0x00, 0x00, 0xff, 0x00, 0x00, 0x00,
  0x68, 0x63, 0x5c, 0x4e, 0x25, 0x4d, 0x3e, 0x52, 0x5f, 0x48, 0x49, 0x53,
  0x46, 0x40, 0x36, 0x3a, 0x1f, 0x2f, 0x2e, 0x28, 0x59, 0x45, 0x57, 0x3d,
  0x40, 0x5e, 0x4f, 0x7f, 0x7d, 0x71, 0x73, 0x6f, 0x69, 0x69, 0x5d, 0x6c,
  0x65, 0x49, 0x69, 0x5f, 0x59, 0x53, 0x5e, 0x63, 0x51, 0x4d, 0x40, 0x3a,
  0x41, 0x40, 0x4d, 0x40, 0x3b, 0x3d, 0x46, 0x25, 0x2d, 0x2f, 0x06, 0xef,
  0x15, 0x13, 0x02, 0x21, 0x2a, 0x26, 0x2e, 0x45, 0x31, 0x39, 0x41, 0x44,
  0x3c, 0x39, 0x35, 0x42, 0x1f, 0x1b, 0x17, 0x11, 0x21, 0x0d, 0x21, 0x1c,
  0x12, 0x0e, 0x12, 0x00, 0xfa, 0xef, 0xec, 0xf2, 0xf2, 0x0b, 0x04, 0x0a,
  0xf4, 0xf1, 0x0b, 0xfc, 0xd9, 0xda, 0x1a, 0xee, 0x00, 0xfa, 0xff, 0x1b,
  0x1a, 0x12, 0xf7, 0xfd, 0xf9, 0x17, 0x09, 0x10, 0xfa, 0xda, 0xfc, 0xfb,
  0xed, 0xff, 0xda, 0xe0, 0xed, 0xe9, 0xee, 0xee, 0x04, 0xff, 0xed, 0xea,
  0xec, 0xe6, 0xf3, 0xdc, 0xf1, 0xf3, 0xdb, 0xe7, 0xf1, 0xe7, 0xef, 0xfa,
  0xbf, 0xf0, 0xda, 0xcc, 0xf3, 0xe7, 0xfe, 0xe1, 0xed, 0xda, 0xf2, 0xd2,
  0xd3, 0xe5, 0xdc, 0xdb, 0xb5, 0xbc, 0xc4, 0xc6, 0xd8, 0xb0, 0xe7, 0xce,
  0xfa, 0xc4, 0xdb, 0xb9, 0xde, 0xbf, 0xc2, 0xb7, 0xcd, 0xc6, 0xc7, 0xb8,
  0xda, 0xd9, 0xc3, 0xc8, 0xcc, 0xb5, 0xbf, 0xab, 0xbe, 0xca, 0xb0, 0xbc,
  0xb3, 0xba, 0xb9, 0xb9, 0xae, 0xa0, 0xb9, 0xa8, 0x95, 0xbe, 0xd8, 0xaf,
  0xc7, 0xd6, 0xc3, 0xc3, 0xcb, 0xca, 0xcc, 0xc4, 0xcc, 0xa7, 0xc9, 0xb6,
  0xa3, 0xa3, 0xd8, 0xb3, 0xc1, 0xab, 0xbf, 0xc5, 0xc2, 0xb0, 0xbd, 0x91,
  0x9e, 0xb7, 0xa1, 0xa6, 0xae, 0xa4, 0xb5, 0xac, 0xa4, 0xa4, 0xa2, 0x97,
  0xa6, 0x86, 0xa8, 0xb9, 0xbd, 0xbc, 0xc4, 0xb2, 0xc9, 0xac, 0xa4, 0xb0,
  0xa9, 0xbc, 0xa5, 0x00, 0x22, 0xbf, 0xff, 0xff, 0x04, 0x00, 0x00, 0x00,
  0xff, 0x00, 0x00, 0x00, 0x43, 0x12, 0x15, 0x30, 0xf5, 0x2d, 0x22, 0x32,
  0x1d, 0x5f, 0x39, 0x6c, 0x7f, 0x32, 0x61, 0x48, 0x6b, 0x73, 0x64, 0x46,
  0x4b, 0x6e, 0x3a, 0x3b, 0x3c, 0x22, 0x29, 0x35, 0x39, 0x58, 0x5c, 0x42,
  0x2c, 0x2b, 0x36, 0x12, 0x32, 0x13, 0x12, 0x26, 0x18, 0x02, 0xff, 0xfc,
  0xf6, 0xd8, 0xec, 0xdc, 0xc4, 0xed, 0xc9, 0xf9, 0xf2, 0x20, 0x35, 0x38,
  0x07, 0x19, 0x24, 0x35, 0x24, 0xdd, 0x0a, 0x37, 0x22, 0x09, 0x01, 0x0a,
  0xe6, 0x1b, 0x06, 0x0d, 0x1d, 0x0f, 0x0a, 0x2c, 0x2f, 0x1c, 0x29, 0xe6,
  0x1c, 0x27, 0x0c, 0x1d, 0x26, 0xf4, 0x14, 0x1e, 0xe7, 0xf7, 0xcf, 0xca,
  0xef, 0xef, 0x14, 0xf9, 0x25, 0x53, 0x51, 0x6a, 0x4e, 0x50, 0x46, 0x59,
  0x4b, 0x53, 0x35, 0x48, 0x1c, 0x13, 0x59, 0x0a, 0x41, 0x4c, 0x29, 0x29,
  0x0d, 0x52, 0x2e, 0x69, 0x45, 0x45, 0x46, 0x02, 0x02, 0x03, 0x14, 0x32,
  0x43, 0x27, 0x28, 0xf0, 0xf1, 0xed, 0x18, 0x2a, 0xf0, 0x14, 0x45, 0x18,
  0x24, 0x50, 0x31, 0x35, 0x34, 0x19, 0x2a, 0x24, 0x29, 0x24, 0x47, 0x18,
  0x3c, 0x38, 0xea, 0x16, 0xf6, 0xe4, 0x2c, 0xf7, 0x24, 0x46, 0x2a, 0x4d,
  0x45, 0x4e, 0x42, 0x13, 0x18, 0x2b, 0x1b, 0x3a, 0x2d, 0x4c, 0x04, 0x00,
  0x32, 0x07, 0x40, 0x40, 0x19, 0x4e, 0x2c, 0x3d, 0x34, 0x39, 0x35, 0x32,
  0x30, 0x2e, 0x55, 0x2d, 0x14, 0x0b, 0x2e, 0x17, 0x20, 0xe0, 0x02, 0xef,
  0x07, 0x15, 0xfc, 0x2a, 0x28, 0x2b, 0x20, 0x1a, 0x66, 0x4b, 0x4a, 0x0d,
  0x37, 0x39, 0x3e, 0x2d, 0x37, 0x2b, 0xdf, 0x36, 0xf2, 0x2c, 0x10, 0x21,
  0x1e, 0x51, 0x5c, 0x34, 0x5b, 0x3e, 0x4a, 0x2d, 0x4c, 0x41, 0x17, 0x37,
  0x32, 0x3d, 0x34, 0x17, 0x1d, 0x1e, 0xff, 0x17, 0xfc, 0x17, 0x24, 0x2d,
  0x0c, 0x27, 0x0b, 0x0f, 0xfb, 0x2b, 0x0d, 0x00, 0x2e, 0xc0, 0xff, 0xff,
  0x04, 0x00, 0x00, 0x00, 0xff, 0x00, 0x00, 0x00, 0x4f, 0x55, 0x6f, 0x42,
  0x71, 0x69, 0x7d, 0x69, 0x7f, 0x78, 0x6e, 0x57, 0x60, 0x3f, 0x4d, 0x63,
  0x3e, 0x4e, 0x33, 0x17, 0x28, 0x1e, 0x24, 0x21, 0x25, 0x1a, 0x2f, 0x0e,
  0x09, 0x15, 0xed, 0xde, 0x08, 0xe9, 0xee, 0xf9, 0xe9, 0xfe, 0xf7, 0xe2,
  0xf4, 0x13, 0xf8, 0x1f, 0x0c, 0x38, 0x0b, 0x26, 0x0b, 0x20, 0x30, 0x2c,
  0x44, 0x11, 0x18, 0x10, 0x08, 0x13, 0x1c, 0x33, 0xfa, 0x11, 0x38, 0x37,
  0x40, 0x29, 0x3b, 0x0d, 0x0a, 0x04, 0x1e, 0xf8, 0x0a, 0x0f, 0xde, 0xf7,
  0xde, 0x03, 0xfa, 0xd1, 0xef, 0xf8, 0xe7, 0xf3, 0xdc, 0x10, 0xf7, 0x13,
  0x0d, 0x1d, 0x1a, 0x05, 0x00, 0x00, 0x03, 0x14, 0x1b, 0x15, 0x13, 0x0b,
  0x05, 0x07, 0x27, 0x1d, 0x1f, 0x23, 0x14, 0x28, 0x2a, 0x25, 0x03, 0x0d,
  0x20, 0xf9, 0xff, 0x0b, 0x09, 0xf2, 0xe0, 0xf6, 0xd6, 0xd5, 0xdc, 0xfa,
  0xe7, 0x02, 0xfc, 0x01, 0xec, 0x15, 0x02, 0x1f, 0x1a, 0xfc, 0x01, 0x26,
  0x0f, 0x29, 0xe7, 0x0d, 0x11, 0x23, 0x06, 0x28, 0x2d, 0x2f, 0x27, 0x4a,
  0x46, 0x2d, 0x0d, 0x29, 0x26, 0x0f, 0x14, 0x0a, 0xe8, 0xeb, 0xe9, 0xe9,
  0xd8, 0xca, 0xd9, 0xd7, 0xce, 0xef, 0xf5, 0xfd, 0x0a, 0x1c, 0x1c, 0xff,
  0x1b, 0x1c, 0x17, 0x27, 0x1d, 0x03, 0x29, 0x20, 0x2b, 0x31, 0x1d, 0x34,
  0x25, 0x24, 0x15, 0x64, 0x31, 0x49, 0x43, 0x38, 0x43, 0x42, 0x26, 0x58,
  0x3c, 0x3b, 0x12, 0x10, 0xf4, 0x0e, 0xee, 0xee, 0xe1, 0xc8, 0xeb, 0xf4,
  0xf1, 0xdf, 0xfa, 0x11, 0xf9, 0x0d, 0xe3, 0xf8, 0xf9, 0x0b, 0x00, 0x0d,
  0x01, 0x07, 0x11, 0x08, 0xfc, 0x11, 0x10, 0x1f, 0x0e, 0x26, 0x1a, 0x35,
  0x28, 0x42, 0xfd, 0x33, 0xfd, 0x30, 0x0e, 0x1f, 0x26, 0x19, 0xf1, 0xed,
  0xdd, 0xdb, 0xe3, 0xdd, 0xe7, 0xd6, 0xb8, 0xd6, 0xb4, 0xd1, 0xce, 0x00,
  0x3a, 0xc1, 0xff, 0xff, 0x04, 0x00, 0x00, 0x00, 0xff, 0x00, 0x00, 0x00,
  0x15, 0x23, 0x1c, 0x1f, 0x20, 0x1e, 0x32, 0x29, 0x02, 0x10, 0x1c, 0x16,
  0x2c, 0x1c, 0xf9, 0x02, 0x08, 0xfb, 0x16, 0x0a, 0xfc, 0xf6, 0xf7, 0xf4,
  0xf7, 0x17, 0xf4, 0x06, 0x11, 0x12, 0xfe, 0x01, 0x1d, 0xea, 0x0d, 0xce,
  0xe4, 0xd4, 0xfa, 0xd9, 0xcb, 0xee, 0xbc, 0xfa, 0xcf, 0x05, 0xf5, 0xff,
  0xe4, 0xfc, 0x14, 0x1f, 0x06, 0x15, 0xe7, 0xfb, 0xf8, 0x03, 0x13, 0xd6,
  0xd5, 0xea, 0xfb, 0x03, 0xf2, 0xcf, 0xf0, 0x01, 0xff, 0x03, 0x0e, 0x0a,
  0xf6, 0xfe, 0x08, 0x03, 0xe6, 0x25, 0x04, 0xfa, 0xf1, 0xf1, 0xf5, 0xf9,
  0xeb, 0x11, 0xe9, 0x2d, 0xf9, 0x35, 0x43, 0x3b, 0x3d, 0x7f, 0x38, 0x39,
  0x71, 0x49, 0x3b, 0xff, 0x3a, 0x0c, 0x0d, 0x1e, 0x21, 0x01, 0x2c, 0x31,
  0x4a, 0x30, 0x11, 0x3c, 0x1c, 0x45, 0x38, 0x38, 0x67, 0x41, 0x3a, 0x1c,
  0x37, 0x2e, 0x1a, 0x36, 0x37, 0x44, 0x04, 0x46, 0x47, 0x62, 0x35, 0x6f,
  0x3d, 0x4f, 0x47, 0x28, 0x60, 0x78, 0x2c, 0x62, 0x24, 0x2d, 0x37, 0xf8,
  0x30, 0x0d, 0x5d, 0x05, 0x3f, 0x13, 0x21, 0x02, 0xd9, 0xf2, 0x09, 0x35,
  0x0c, 0x2c, 0xfa, 0xf4, 0xd7, 0xb8, 0xc5, 0xbb, 0xb3, 0xfa, 0x9b, 0x9b,
  0xb7, 0xcd, 0xae, 0xf5, 0xf9, 0x0b, 0x11, 0xb3, 0xfe, 0xf8, 0xce, 0xe0,
  0xe0, 0xe8, 0xc7, 0xc7, 0xf0, 0xcf, 0xad, 0xaa, 0xe2, 0xe7, 0xbe, 0xd6,
  0xac, 0xce, 0xd4, 0xb5, 0xc2, 0xad, 0xd8, 0xdf, 0xce, 0xba, 0xb2, 0xb7,
  0xba, 0xcc, 0xa9, 0x9b, 0xac, 0xb1, 0xc4, 0xd1, 0xa5, 0xc0, 0xb9, 0xab,
  0xaf, 0xa7, 0xd7, 0xd1, 0xb9, 0xad, 0xb9, 0x96, 0xa9, 0x82, 0xac, 0x93,
  0xb8, 0xb0, 0xca, 0x94, 0x97, 0x83, 0x86, 0xc8, 0xc7, 0xc4, 0xc3, 0xb5,
  0xd6, 0x9b, 0xc9, 0xc0, 0xb2, 0xce, 0xd1, 0xdb, 0xbc, 0xce, 0xaa, 0xb7,
  0xcf, 0xc1, 0xba, 0x00, 0x46, 0xc2, 0xff, 0xff, 0x04, 0x00, 0x00, 0x00,
  0xff, 0x00, 0x00, 0x00, 0xf9, 0x21, 0x17, 0x23, 0x02, 0xff, 0x0a, 0x14,
  0x2a, 0x1a, 0x1a, 0x03, 0x29, 0x17, 0x13, 0x0c, 0x1c, 0x15, 0x2b, 0x49,
  0x1e, 0x42, 0x37, 0x41, 0x4c, 0x0c, 0x22, 0x4b, 0x22, 0x1d, 0x23, 0x39,
  0x27, 0x1c, 0x29, 0x3e, 0x44, 0x34, 0x35, 0x2f, 0x5e, 0x18, 0x41, 0x40,
  0x32, 0x2a, 0x3b, 0x22, 0x46, 0x28, 0x37, 0x37, 0x50, 0x3b, 0x1c, 0x22,
  0x2f, 0x2e, 0x2c, 0x53, 0x3b, 0x7f, 0x41, 0x5a, 0x5e, 0x49, 0x54, 0x5b,
  0x42, 0x38, 0x46, 0x6d, 0x3d, 0x27, 0x1e, 0x2c, 0x24, 0x4b, 0x34, 0x63,
  0x49, 0x2d, 0x55, 0x21, 0x52, 0x34, 0x56, 0x3a, 0x2b, 0x01, 0x1e, 0xfb,
  0x0a, 0x23, 0x20, 0x23, 0x25, 0xde, 0x21, 0xde, 0xfd, 0x18, 0x34, 0x38,
  0x3d, 0x18, 0x3f, 0x37, 0x1d, 0x14, 0x38, 0x1d, 0x27, 0x22, 0x1e, 0x38,
  0x3e, 0xea, 0x05, 0x24, 0x1c, 0x37, 0x23, 0x4a, 0x37, 0x21, 0x19, 0x27,
  0x1e, 0x0a, 0x20, 0xe8, 0xf3, 0xf1, 0xf4, 0xe6, 0xe9, 0x0f, 0x34, 0x30,
  0x1b, 0x0a, 0x07, 0x0b, 0xfe, 0x42, 0x1f, 0x2c, 0x14, 0x14, 0x2f, 0xf3,
  0x10, 0xf8, 0x01, 0x25, 0x34, 0x2b, 0x0e, 0x07, 0x2a, 0x2e, 0x08, 0x2c,
  0x45, 0x33, 0x1e, 0x10, 0x12, 0x38, 0x1c, 0x1b, 0x2b, 0x16, 0x09, 0xf4,
  0x04, 0xe3, 0x00, 0xd9, 0xf7, 0xf3, 0xff, 0xfa, 0xd2, 0xfe, 0xeb, 0xd5,
  0x02, 0x0d, 0x35, 0xed, 0xfd, 0x04, 0xf9, 0xe2, 0xd3, 0xf6, 0x15, 0xfc,
  0x0f, 0xf5, 0xf9, 0xf5, 0x04, 0xe8, 0x03, 0x14, 0x12, 0x1b, 0xe8, 0x02,
  0xe9, 0x1c, 0x33, 0x28, 0x12, 0x13, 0xef, 0xef, 0xe7, 0xe4, 0xec, 0xda,
  0xe3, 0xc0, 0xbd, 0xd0, 0xc3, 0xdc, 0xdb, 0xd4, 0xdf, 0xee, 0xec, 0xda,
  0xdc, 0xc9, 0xcd, 0xf2, 0xe8, 0xe9, 0xed, 0xe7, 0xcf, 0xc8, 0xcf, 0xbf,
  0xe7, 0xe3, 0xd3, 0xd8, 0xd2, 0xd0, 0xfe, 0x00, 0x52, 0xc3, 0xff, 0xff,
  0x04, 0x00, 0x00, 0x00, 0xff, 0x00, 0x00, 0x00, 0xfd, 0x0d, 0xf4, 0x08,
  0xee, 0xfe, 0x10, 0x0a, 0x12, 0x1f, 0x0f, 0x11, 0x3b, 0x3b, 0x31, 0x30,
  0x49, 0x56, 0x5d, 0x32, 0x5d, 0x47, 0x34, 0x61, 0x6c, 0x6d, 0x51, 0x60,
  0x43, 0x65, 0x66, 0x6e, 0x69, 0x69, 0x63, 0x4c, 0x54, 0x3f, 0x62, 0x39,
  0x40, 0x11, 0x0c, 0xe0, 0x03, 0x18, 0x06, 0x0c, 0x25, 0x04, 0x14, 0x1e,
  0x26, 0x29, 0x37, 0x27, 0x09, 0x4f, 0x41, 0x47, 0x2f, 0x4e, 0x3e, 0x5a,
  0x58, 0x7f, 0x58, 0x4e, 0x3a, 0x37, 0x3f, 0x4d, 0x32, 0x4f, 0x4e, 0x53,
  0x30, 0x58, 0x37, 0x1b, 0x1c, 0x4c, 0x3e, 0x0c, 0xfb, 0x11, 0x06, 0x12,
  0x04, 0x0b, 0x1b, 0xe6, 0x13, 0x2d, 0x32, 0x1c, 0x58, 0x2c, 0x32, 0x36,
  0xe9, 0x20, 0x23, 0x12, 0x3f, 0x51, 0x58, 0x5c, 0x3f, 0x24, 0x02, 0x15,
  0x27, 0x36, 0x42, 0x41, 0x20, 0x1e, 0x1f, 0xf8, 0x03, 0xfd, 0xda, 0xed,
  0xfb, 0x1c, 0x0a, 0xed, 0xf2, 0xfb, 0x04, 0xdf, 0xf5, 0xf4, 0x11, 0x13,
  0xfd, 0x28, 0x23, 0x21, 0x3e, 0x20, 0x28, 0x1e, 0xf8, 0x0a, 0x07, 0x32,
  0x2d, 0x36, 0x15, 0xfe, 0x07, 0x09, 0xdb, 0x14, 0x09, 0x22, 0xf3, 0x1e,
  0x0e, 0xff, 0xd8, 0xf1, 0xe9, 0xca, 0xdf, 0x05, 0x02, 0x0f, 0x09, 0x30,
  0x0e, 0x2f, 0x17, 0x22, 0x1b, 0x35, 0x43, 0x45, 0x2a, 0x38, 0x4b, 0x20,
  0x0e, 0x22, 0x23, 0x22, 0x27, 0x30, 0x39, 0x4a, 0x3f, 0x3e, 0x30, 0x01,
  0xf5, 0xe7, 0xf4, 0xea, 0xe1, 0x01, 0x01, 0xf3, 0xf5, 0xd8, 0xc0, 0xfa,
  0xdb, 0xf1, 0xdd, 0xf6, 0xee, 0xfa, 0x1f, 0x0b, 0xf8, 0xf8, 0x0e, 0xee,
  0x1b, 0x0f, 0x22, 0x32, 0x0b, 0x1c, 0xfd, 0xf4, 0xe1, 0xd1, 0xe8, 0x02,
  0xf9, 0x18, 0x2a, 0xff, 0xfd, 0xe1, 0xec, 0xe4, 0xf6, 0xfe, 0x02, 0xe6,
  0xeb, 0xfb, 0xe6, 0xe1, 0xbc, 0xd7, 0xd2, 0xd4, 0xdf, 0xf3, 0xea, 0x00,
  0x5e, 0xc4, 0xff, 0xff, 0x04, 0x00, 0x00, 0x00, 0xff, 0x00, 0x00, 0x00,
  0x46, 0x37, 0x77, 0x51, 0x5e, 0x3d, 0x42, 0x2f, 0x34, 0x1b, 0x5d, 0x55,
  0x29, 0x4e, 0x1c, 0x16, 0x30, 0x2f, 0x38, 0x51, 0x30, 0x2c, 0x38, 0x5f,
  0x4d, 0x3e, 0x4f, 0x57, 0x2b, 0x2a, 0x12, 0x1b, 0x1b, 0x16, 0x2c, 0x2c,
  0x27, 0x18, 0xfd, 0x25, 0x10, 0x10, 0x21, 0xfe, 0xf8, 0x2a, 0x45, 0x35,
  0x1a, 0x34, 0x1f, 0x12, 0x1a, 0x07, 0x27, 0x03, 0x2a, 0xf8, 0x39, 0x06,
  0x25, 0x08, 0x19, 0x10, 0x29, 0x21, 0x19, 0x2a, 0x1a, 0x0b, 0xfd, 0x01,
  0x1b, 0x08, 0xfa, 0x0c, 0x26, 0x0b, 0x08, 0xe8, 0x0b, 0xdd, 0xed, 0x00,
  0xc8, 0x11, 0xe1, 0x1b, 0xf3, 0x16, 0x1b, 0x04, 0x21, 0x16, 0x10, 0x2f,
  0x03, 0x09, 0x1c, 0x1a, 0x20, 0x1d, 0x0e, 0x1f, 0x0d, 0x03, 0x23, 0x0b,
  0x1d, 0x1e, 0x19, 0x2b, 0x1c, 0x2e, 0x0d, 0x11, 0x15, 0x1f, 0x13, 0x07,
  0x10, 0xfe, 0x10, 0x19, 0x09, 0x16, 0xfc, 0xfd, 0xff, 0x25, 0x1c, 0xfd,
  0x0a, 0x1b, 0xfc, 0x27, 0xf4, 0x0a, 0x19, 0x09, 0x08, 0xfb, 0x0e, 0x1a,
  0x32, 0x14, 0x1b, 0x0d, 0xf2, 0x1e, 0x10, 0x28, 0xfc, 0x18, 0x26, 0x25,
  0x13, 0x09, 0x34, 0x00, 0x12, 0x28, 0x18, 0x04, 0x0e, 0x08, 0x08, 0x0b,
  0x12, 0x0f, 0xef, 0x08, 0xf1, 0xef, 0xf5, 0xea, 0xfc, 0xe4, 0xea, 0xe1,
  0xef, 0xf2, 0xe8, 0xe9, 0xef, 0xdb, 0xe7, 0xc7, 0xd9, 0xcf, 0xc0, 0xbf,
  0xb0, 0xd1, 0xdb, 0xb6, 0xdf, 0xc5, 0xb3, 0xb2, 0xbc, 0x90, 0xb7, 0xa2,
  0xb5, 0x8b, 0x98, 0x81, 0xae, 0xbd, 0xb2, 0x9d, 0x99, 0xb8, 0x8c, 0xa2,
  0x8d, 0xa3, 0xa2, 0x9f, 0xab, 0xb9, 0xab, 0x87, 0x90, 0xc6, 0x87, 0xce,
  0xa7, 0x9f, 0x9f, 0xae, 0x8a, 0xad, 0x9a, 0xa0, 0xb1, 0xbb, 0xb4, 0xbd,
  0xa0, 0xce, 0xb8, 0xa7, 0xbb, 0xda, 0xe6, 0xd5, 0xae, 0xbe, 0xda, 0xd2,
  0xc6, 0xc8, 0xd2, 0x00, 0x6a, 0xc5, 0xff, 0xff, 0x04, 0x00, 0x00, 0x00,
  0xff, 0x00, 0x00, 0x00, 0xf0, 0xd2, 0xd2, 0xf7, 0xf6, 0xd9, 0xbd, 0xc0,
  0xbd, 0xb5, 0xae, 0xb3, 0xd2, 0xfc, 0xf3, 0xef, 0xee, 0xc7, 0xe6, 0x05,
  0xec, 0xf7, 0x01, 0xfb, 0x03, 0x0c, 0xd7, 0xf3, 0x03, 0xfe, 0xfd, 0xed,
  0xf0, 0xd4, 0xe1, 0xfd, 0xe1, 0xd3, 0x04, 0xed, 0xe5, 0x07, 0xdb, 0xe5,
  0xf2, 0xf7, 0xfa, 0xce, 0xe9, 0xeb, 0xe8, 0xe0, 0xcb, 0xd1, 0x0e, 0x0e,
  0x04, 0x07, 0x19, 0x09, 0x10, 0x2c, 0x22, 0x3b, 0x47, 0x2b, 0x35, 0x41,
  0x16, 0x54, 0xf4, 0x26, 0x39, 0x19, 0xf0, 0xf8, 0xed, 0x17, 0xd7, 0xee,
  0x0f, 0xe4, 0xfd, 0x15, 0xff, 0xf6, 0xf7, 0x04, 0x03, 0xf2, 0x06, 0xe6,
  0xde, 0x0c, 0xef, 0x0c, 0x18, 0x1d, 0x0d, 0x04, 0x1e, 0x37, 0x0f, 0x23,
  0x3e, 0x33, 0x33, 0x31, 0x2f, 0x4d, 0x1c, 0x1f, 0x49, 0x0f, 0x1b, 0xca,
  0xfb, 0xdd, 0xeb, 0xf3, 0xee, 0xe4, 0xed, 0xef, 0xfd, 0xf8, 0xea, 0xf7,
  0xfa, 0x0d, 0x0c, 0x21, 0x1a, 0x27, 0x07, 0x17, 0x28, 0x26, 0x39, 0x1e,
  0x37, 0x35, 0x36, 0x42, 0x60, 0x31, 0x36, 0x61, 0x29, 0x64, 0x3b, 0x59,
  0x64, 0x48, 0x49, 0x1e, 0x19, 0xfd, 0xf8, 0xf4, 0x2b, 0xf2, 0xfa, 0x11,
  0xd9, 0x13, 0x15, 0xfe, 0x43, 0xf2, 0x4c, 0x40, 0x2a, 0x23, 0x34, 0x36,
  0x4d, 0x37, 0x34, 0x42, 0x1b, 0x3f, 0x37, 0x50, 0x66, 0x38, 0x49, 0x46,
  0x31, 0x45, 0x51, 0x3d, 0x69, 0x53, 0x7f, 0x54, 0x41, 0x53, 0x36, 0x35,
  0x31, 0x16, 0x2a, 0x14, 0x06, 0x1a, 0x32, 0x03, 0x3a, 0x0b, 0x1e, 0x1f,
  0x1c, 0x37, 0x42, 0x53, 0x54, 0x15, 0x43, 0x42, 0x2c, 0x4c, 0x4a, 0x36,
  0x73, 0x60, 0x60, 0x5c, 0x4a, 0x77, 0x5c, 0x59, 0x79, 0x4a, 0x77, 0x45,
  0x6a, 0x7f, 0x4a, 0x7f, 0x4d, 0x51, 0x53, 0x2b, 0x39, 0x19, 0x39, 0x1f,
  0x39, 0x3d, 0x2f, 0x32, 0x25, 0x30, 0x1a, 0x00, 0x76, 0xc6, 0xff, 0xff,
  0x04, 0x00, 0x00, 0x00, 0x08, 0x00, 0x00, 0x00, 0x7f, 0x80, 0xa9, 0x60,
  0xda, 0xcd, 0x2f, 0xa1, 0x8a, 0xc6, 0xff, 0xff, 0x04, 0x00, 0x00, 0x00,
  0x40, 0x00, 0x00, 0x00, 0x7f, 0xda, 0x34, 0x0f, 0x73, 0x4f, 0x8d, 0xe2,
  0x4e, 0x1c, 0x28, 0x39, 0x7f, 0x60, 0xdb, 0x1f, 0xb3, 0x44, 0x0b, 0xed,
  0xee, 0xe0, 0xa9, 0x81, 0x15, 0xbf, 0xc5, 0x7f, 0x18, 0xee, 0x28, 0xad,
  0x33, 0xc0, 0xa9, 0x8a, 0xdd, 0x7f, 0xaa, 0x0b, 0xd2, 0x39, 0xf7, 0x7f,
  0x0f, 0x6d, 0x57, 0x14, 0x6e, 0x15, 0xfe, 0x40, 0x7f, 0x22, 0x03, 0xe6,
  0xbe, 0x24, 0x33, 0xe5, 0x81, 0x98, 0xef, 0xff, 0xd6, 0xc6, 0xff, 0xff,
  0x04, 0x00, 0x00, 0x00, 0x20, 0x00, 0x00, 0x00, 0x9f, 0xe7, 0xff, 0xff,
  0x6b, 0xe4, 0xff, 0xff, 0x22, 0x18, 0x00, 0x00, 0x40, 0x00, 0x00, 0x00,
  0xdd, 0x03, 0x00, 0x00, 0x49, 0xe7, 0xff, 0xff, 0x5a, 0xf8, 0xff, 0xff,
  0xda, 0x13, 0x00, 0x00, 0x02, 0xc7, 0xff, 0xff, 0x04, 0x00, 0x00, 0x00,
  0x18, 0x00, 0x00, 0x00, 0x34, 0x33, 0x19, 0x1f, 0x0d, 0x26, 0x0c, 0x31,
  0x11, 0xde, 0x05, 0xc9, 0xd2, 0xd7, 0xdd, 0xd2, 0xeb, 0xf4, 0xf9, 0x59,
  0x33, 0x41, 0x3d, 0x7f, 0x26, 0xc7, 0xff, 0xff, 0x04, 0x00, 0x00, 0x00,
  0x18, 0x00, 0x00, 0x00, 0x3f, 0xfa, 0x3f, 0x14, 0x5d, 0x7f, 0x54, 0x45,
  0x7f, 0x2b, 0x23, 0x1d, 0x1f, 0x22, 0x1b, 0x0a, 0x1c, 0x12, 0x2c, 0x0c,
  0x45, 0x13, 0x02, 0x33, 0x4a, 0xc7, 0xff, 0xff, 0x04, 0x00, 0x00, 0x00,
  0x18, 0x00, 0x00, 0x00, 0xa8, 0xc4, 0xe5, 0x91, 0xd8, 0x99, 0x81, 0x87,
  0x89, 0x36, 0xb3, 0x2a, 0xaf, 0xaf, 0xb8, 0xcb, 0xbe, 0x1b, 0xcd, 0x19,
  0xe6, 0xca, 0xf0, 0xbc, 0x6e, 0xc7, 0xff, 0xff, 0x04, 0x00, 0x00, 0x00,
  0x18, 0x00, 0x00, 0x00, 0x01, 0xa3, 0x07, 0x90, 0x43, 0xb4, 0x6c, 0xa1,
  0x5f, 0xda, 0xfd, 0x17, 0xfc, 0xfe, 0xe9, 0x6d, 0x5e, 0x7f, 0xfe, 0x39,
  0x17, 0x44, 0x00, 0x5f, 0x92, 0xc7, 0xff, 0xff, 0x04, 0x00, 0x00, 0x00,
  0x18, 0x00, 0x00, 0x00, 0xbd, 0x81, 0xe3, 0x81, 0xac, 0x93, 0xeb, 0xc1,
  0xd4, 0xce, 0x9b, 0x07, 0x00, 0xb2, 0xe8, 0x8c, 0xeb, 0x01, 0xe8, 0x08,
  0x14, 0x2b, 0xbe, 0xc1, 0xb6, 0xc7, 0xff, 0xff, 0x04, 0x00, 0x00, 0x00,
  0x18, 0x00, 0x00, 0x00, 0xd1, 0x10, 0xe0, 0xa7, 0x81, 0xa7, 0xa7, 0xcb,
  0xbd, 0xd6, 0xb1, 0x9a, 0xde, 0x37, 0xfa, 0x0e, 0x3f, 0x06, 0xaf, 0xe0,
  0x9a, 0x08, 0x01, 0xbd, 0xda, 0xc7, 0xff, 0xff, 0x04, 0x00, 0x00, 0x00,
  0x18, 0x00, 0x00, 0x00, 0xca, 0xc3, 0x09, 0xc7, 0xd1, 0xb5, 0xca, 0x07,
  0x81, 0xda, 0x2a, 0xea, 0xd3, 0xd4, 0xbe, 0x32, 0xdb, 0xac, 0x12, 0xc3,
  0x18, 0xdd, 0xda, 0xbf, 0xfe, 0xc7, 0xff, 0xff, 0x04, 0x00, 0x00, 0x00,
  0x18, 0x00, 0x00, 0x00, 0xe8, 0xe1, 0xb7, 0x0a, 0xe6, 0xe6, 0x41, 0x30,
  0x46, 0x12, 0x0b, 0x7e, 0x44, 0x3e, 0x7f, 0x33, 0x58, 0x6d, 0x3b, 0x6f,
  0x74, 0x28, 0x1f, 0x47, 0x22, 0xc8, 0xff, 0xff, 0x04, 0x00, 0x00, 0x00,
  0x08, 0x00, 0x00, 0x00, 0xb5, 0xb8, 0x7f, 0xb2, 0x2b, 0x30, 0x7a, 0x80,
  0x36, 0xc8, 0xff, 0xff, 0x04, 0x00, 0x00, 0x00, 0x40, 0x00, 0x00, 0x00,
  0x81, 0xdb, 0xf9, 0x84, 0x1a, 0xee, 0x4c, 0x63, 0x7f, 0x53, 0x27, 0x22,
  0x8a, 0x04, 0xda, 0x1e, 0xe2, 0xde, 0xf5, 0x15, 0x01, 0x28, 0xd7, 0x81,
  0xd9, 0x81, 0x6b, 0xe0, 0xcb, 0x2e, 0xdf, 0x02, 0x45, 0x14, 0xde, 0x20,
  0xa0, 0x81, 0x0f, 0xdf, 0xfd, 0x59, 0xe9, 0x24, 0xa7, 0x81, 0x41, 0x16,
  0x7f, 0xed, 0x28, 0xc3, 0xe8, 0x00, 0x05, 0xbe, 0xaa, 0x81, 0x7c, 0x3a,
  0x00, 0x37, 0x8b, 0x3d, 0x82, 0xc8, 0xff, 0xff, 0x04, 0x00, 0x00, 0x00,
  0x20, 0x00, 0x00, 0x00, 0xe1, 0x0a, 0x00, 0x00, 0x0b, 0xeb, 0xff, 0xff,
  0xc6, 0x19, 0x00, 0x00, 0xd0, 0x09, 0x00, 0x00, 0x51, 0x0d, 0x00, 0x00,
  0x99, 0xff, 0xff, 0xff, 0xd1, 0xfb, 0xff, 0xff, 0xc1, 0x0a, 0x00, 0x00,
  0xae, 0xc8, 0xff, 0xff, 0x04, 0x00, 0x00, 0x00, 0x1f, 0x00, 0x00, 0x00,
  0xe4, 0x17, 0xf6, 0xf8, 0xde, 0x87, 0xb9, 0xc2, 0xbe, 0x0f, 0xcb, 0x06,
  0x03, 0x9c, 0xd1, 0x93, 0xfa, 0x05, 0x81, 0x10, 0xd8, 0xce, 0xf6, 0xe2,
  0xe1, 0xb4, 0x11, 0xa9, 0xd8, 0x9f, 0xb1, 0x00, 0xda, 0xc8, 0xff, 0xff,
  0x04, 0x00, 0x00, 0x00, 0x1f, 0x00, 0x00, 0x00, 0xd5, 0x81, 0xed, 0xe2,
  0xe5, 0xb4, 0xf6, 0xa6, 0xb5, 0xe1, 0xd2, 0xd3, 0xca, 0xfe, 0xed, 0xf3,
  0x37, 0x63, 0x39, 0x68, 0x56, 0x59, 0x25, 0x50, 0x2a, 0x2a, 0x48, 0x6b,
  0x5f, 0x1c, 0x25, 0x00, 0x06, 0xc9, 0xff, 0xff, 0x04, 0x00, 0x00, 0x00,
  0x1f, 0x00, 0x00, 0x00, 0x40, 0x24, 0x17, 0x02, 0xf8, 0x01, 0xe0, 0xf3,
  0xe1, 0x0f, 0xef, 0x08, 0x32, 0x3b, 0x6b, 0x72, 0x5c, 0x7f, 0x6a, 0x30,
  0x77, 0x6e, 0x2b, 0x2b, 0x42, 0x18, 0xfc, 0x29, 0x11, 0x1d, 0x08, 0x00,
  0x32, 0xc9, 0xff, 0xff, 0x04, 0x00, 0x00, 0x00, 0x1f, 0x00, 0x00, 0x00,
  0x47, 0x5b, 0x64, 0x7f, 0x42, 0x53, 0x30, 0x3d, 0x15, 0x0f, 0x06, 0xf5,
  0xe5, 0x18, 0xc3, 0xec, 0xbf, 0xb4, 0xb7, 0xbd, 0xe2, 0xc8, 0xa8, 0xe7,
  0xe0, 0xc5, 0xc4, 0xdf, 0xc5, 0xe2, 0xd2, 0x00, 0x5e, 0xc9, 0xff, 0xff,
  0x04, 0x00, 0x00, 0x00, 0x1f, 0x00, 0x00, 0x00, 0xfe, 0xba, 0xd6, 0x81,
  0xf9, 0x1a, 0xf8, 0xa3, 0xcc, 0xc4, 0xe4, 0xf8, 0x15, 0xae, 0x0a, 0x21,
  0x9f, 0x18, 0x01, 0x0a, 0xae, 0xe5, 0x17, 0x03, 0xe0, 0xa5, 0xe3, 0x04,
  0x1b, 0xda, 0xbf, 0x00, 0x8a, 0xc9, 0xff, 0xff, 0x04, 0x00, 0x00, 0x00,
  0x1f, 0x00, 0x00, 0x00, 0x75, 0x3c, 0x11, 0x55, 0x1b, 0x3e, 0x3b, 0x1c,
  0x3a, 0x0f, 0x24, 0x65, 0x61, 0x0c, 0x0e, 0x35, 0x32, 0x7f, 0x33, 0x44,
  0x1d, 0x49, 0x12, 0x38, 0xf0, 0x04, 0xe4, 0xfa, 0x07, 0xc4, 0xd3, 0x00,
  0xb6, 0xc9, 0xff, 0xff, 0x04, 0x00, 0x00, 0x00, 0x1f, 0x00, 0x00, 0x00,
  0xb8, 0x81, 0xb7, 0xd6, 0xe9, 0xcc, 0xa7, 0xa9, 0xe5, 0x0a, 0x26, 0xd6,
  0xcd, 0xba, 0x15, 0xdc, 0xd8, 0xc8, 0xbd, 0xbd, 0xe2, 0xf4, 0xba, 0xc7,
  0xaa, 0xc8, 0xde, 0xfa, 0xff, 0x34, 0x16, 0x00, 0xe2, 0xc9, 0xff, 0xff,
  0x04, 0x00, 0x00, 0x00, 0x1f, 0x00, 0x00, 0x00, 0xf3, 0x15, 0x41, 0x0b,
  0xf8, 0x04, 0xec, 0x7e, 0x54, 0x67, 0xf9, 0x5d, 0x7f, 0x69, 0x38, 0x29,
  0xef, 0x13, 0x05, 0x27, 0x19, 0xe7, 0xfe, 0x32, 0x15, 0x11, 0x4e, 0x4b,
  0x4f, 0x30, 0x38, 0x00, 0x0e, 0xca, 0xff, 0xff, 0x04, 0x00, 0x00, 0x00,
  0x08, 0x00, 0x00, 0x00, 0x7f, 0xed, 0x80, 0x10, 0x2e, 0xe1, 0x4f, 0xc7,
  0x22, 0xca, 0xff, 0xff, 0x04, 0x00, 0x00, 0x00, 0x40, 0x00, 0x00, 0x00,
  0x52, 0xbb, 0xa6, 0x4a, 0x27, 0x7f, 0x94, 0xd3, 0x34, 0xa3, 0x7f, 0x00,
  0xf1, 0xa0, 0xad, 0xe4, 0xa9, 0xfe, 0x8c, 0xdb, 0x44, 0x06, 0x1a, 0x81,
  0xc9, 0xf9, 0x20, 0x7f, 0x6f, 0x31, 0x4d, 0x58, 0x53, 0xf8, 0xeb, 0x03,
  0x14, 0x03, 0x81, 0xc8, 0x6c, 0xc1, 0x49, 0x81, 0xd7, 0x1d, 0xa7, 0xd3,
  0x0c, 0xf4, 0x12, 0xf4, 0xe8, 0xee, 0xdb, 0x7f, 0x81, 0xb9, 0xfd, 0x36,
  0x38, 0xe0, 0x11, 0x66, 0x6e, 0xca, 0xff, 0xff, 0x04, 0x00, 0x00, 0x00,
  0x20, 0x00, 0x00, 0x00, 0x67, 0x14, 0x00, 0x00, 0x40, 0x10, 0x00, 0x00,
  0xa9, 0x17, 0x00, 0x00, 0x97, 0xe2, 0xff, 0xff, 0x37, 0x11, 0x00, 0x00,
  0xa5, 0x01, 0x00, 0x00, 0x50, 0xfa, 0xff, 0xff, 0xf3, 0x05, 0x00, 0x00,
  0x9a, 0xca, 0xff, 0xff, 0x04, 0x00, 0x00, 0x00, 0x1f, 0x00, 0x00, 0x00,
  0xda, 0xa9, 0xc3, 0xde, 0xb4, 0xc9, 0xf8, 0x06, 0x19, 0xc1, 0xfd, 0xdd,
  0xe8, 0xf0, 0xb2, 0xb5, 0xcc, 0x15, 0x21, 0x27, 0x2b, 0x15, 0xf7, 0xe8,
  0x2c, 0x18, 0x06, 0xf0, 0xb6, 0x8f, 0x81, 0x00, 0xc6, 0xca, 0xff, 0xff,
  0x04, 0x00, 0x00, 0x00, 0x1f, 0x00, 0x00, 0x00, 0xf1, 0x44, 0x4d, 0x0f,
  0x1c, 0x2f, 0xe2, 0x11, 0x22, 0xde, 0xfa, 0x13, 0xfc, 0x2f, 0x60, 0x76,
  0x7f, 0x3f, 0x4b, 0x71, 0x2c, 0x0f, 0x09, 0x2a, 0x24, 0x16, 0xe1, 0x1a,
  0x04, 0x16, 0x0b, 0x00, 0xf2, 0xca, 0xff, 0xff, 0x04, 0x00, 0x00, 0x00,
  0x1f, 0x00, 0x00, 0x00, 0xeb, 0xf4, 0x8f, 0xc0, 0xc5, 0x0c, 0xee, 0x2b,
  0xe0, 0x28, 0x21, 0x14, 0x5a, 0x1a, 0xdf, 0xd6, 0x07, 0xd1, 0xd0, 0xae,
  0xdb, 0xb8, 0xf5, 0xde, 0x91, 0x81, 0xbc, 0xd6, 0xb8, 0xc6, 0xf3, 0x00,
  0x1e, 0xcb, 0xff, 0xff, 0x04, 0x00, 0x00, 0x00, 0x1f, 0x00, 0x00, 0x00,
  0x99, 0xd2, 0xeb, 0xda, 0x21, 0x03, 0x23, 0x3e, 0x06, 0x13, 0xcd, 0xd8,
  0xe8, 0x81, 0xad, 0xde, 0xb0, 0xe2, 0xdb, 0xe1, 0xd4, 0x16, 0xa1, 0x30,
  0xd9, 0x1f, 0x55, 0x0a, 0x7a, 0xf6, 0x50, 0x00, 0x4a, 0xcb, 0xff, 0xff,
  0x04, 0x00, 0x00, 0x00, 0x1f, 0x00, 0x00, 0x00, 0x5b, 0x63, 0x4b, 0x3b,
  0x6d, 0x2f, 0x56, 0x66, 0x43, 0x68, 0x7f, 0x39, 0x7b, 0x49, 0x29, 0xfd,
  0xfb, 0xd0, 0xcc, 0xc3, 0xfb, 0xd9, 0xda, 0xf3, 0x20, 0xff, 0x0f, 0x0c,
  0x57, 0x55, 0x5f, 0x00, 0x76, 0xcb, 0xff, 0xff, 0x04, 0x00, 0x00, 0x00,
  0x1f, 0x00, 0x00, 0x00, 0x1f, 0x2b, 0x16, 0x5a, 0x45, 0x3e, 0x5c, 0x7f,
  0x3e, 0x27, 0x53, 0x3e, 0x41, 0x3a, 0x65, 0x48, 0x43, 0x67, 0x47, 0x22,
  0x3a, 0xf9, 0xef, 0xf7, 0xdb, 0xde, 0xd0, 0xce, 0xe4, 0x05, 0xdf, 0x00,
  0xa2, 0xcb, 0xff, 0xff, 0x04, 0x00, 0x00, 0x00, 0x1f, 0x00, 0x00, 0x00,
  0xb8, 0x11, 0xd6, 0xe5, 0x38, 0x2c, 0xc0, 0xb2, 0x11, 0x18, 0xcc, 0xe5,
  0x81, 0xeb, 0xff, 0xcf, 0xd0, 0xc4, 0x1f, 0xfe, 0x19, 0xee, 0xf2, 0x1c,
  0x09, 0x45, 0x41, 0x42, 0x43, 0x13, 0x16, 0x00, 0xce, 0xcb, 0xff, 0xff,
  0x04, 0x00, 0x00, 0x00, 0x1f, 0x00, 0x00, 0x00, 0x9c, 0xc0, 0xa6, 0xfa,
  0xe3, 0xd2, 0xc9, 0x08, 0x9d, 0xf9, 0xf9, 0x28, 0xc5, 0xa2, 0x13, 0xc1,
  0xfd, 0xb6, 0x92, 0x81, 0x3f, 0xa3, 0x1f, 0xf7, 0x07, 0xb0, 0xb2, 0xd5,
  0x24, 0x9c, 0xd2, 0x00, 0xfa, 0xcb, 0xff, 0xff, 0x04, 0x00, 0x00, 0x00,
  0x08, 0x00, 0x00, 0x00, 0x7f, 0x80, 0xf8, 0xd6, 0xa9, 0xc2, 0xc5, 0x05,
  0x0e, 0xcc, 0xff, 0xff, 0x04, 0x00, 0x00, 0x00, 0x40, 0x00, 0x00, 0x00,
  0x2e, 0x7f, 0x5b, 0xf9, 0xe9, 0x22, 0x21, 0xa5, 0x7f, 0x6c, 0x01, 0x29,
  0xff, 0x39, 0x0e, 0x04, 0x81, 0xba, 0x06, 0x0e, 0xc7, 0x03, 0x02, 0x19,
  0x34, 0x18, 0xa6, 0x11, 0x81, 0xe2, 0xea, 0xbe, 0xa9, 0x81, 0xb1, 0x69,
  0x6a, 0x12, 0xd5, 0x64, 0x81, 0xc0, 0xdf, 0xf0, 0xf5, 0xbd, 0x32, 0xf3,
  0x07, 0xc9, 0x0f, 0xfc, 0x98, 0x81, 0xed, 0xe3, 0x03, 0xf2, 0x19, 0xee,
  0x81, 0xc7, 0x22, 0xcf, 0x5a, 0xcc, 0xff, 0xff, 0x04, 0x00, 0x00, 0x00,
  0x20, 0x00, 0x00, 0x00, 0xcc, 0xed, 0xff, 0xff, 0x3a, 0xec, 0xff, 0xff,
  0x16, 0x16, 0x00, 0x00, 0x85, 0x13, 0x00, 0x00, 0x30, 0xff, 0xff, 0xff,
  0xab, 0x23, 0x00, 0x00, 0x6b, 0x14, 0x00, 0x00, 0x10, 0x16, 0x00, 0x00,
  0x86, 0xcc, 0xff, 0xff, 0x04, 0x00, 0x00, 0x00, 0x1f, 0x00, 0x00, 0x00,
  0xe2, 0xb3, 0xd6, 0xd9, 0xca, 0xfb, 0xdf, 0xf8, 0xb2, 0x81, 0x01, 0x08,
  0xd9, 0xbf, 0x99, 0xbc, 0xc9, 0xfd, 0xa8, 0x8f, 0x8e, 0x04, 0xe8, 0xfc,
  0x1a, 0x18, 0x02, 0xe6, 0xff, 0x13, 0x4d, 0x00, 0xb2, 0xcc, 0xff, 0xff,
  0x04, 0x00, 0x00, 0x00, 0x1f, 0x00, 0x00, 0x00, 0x2d, 0x4e, 0x53, 0x5d,
  0x6d, 0x7f, 0x4e, 0x72, 0x28, 0xfb, 0x2d, 0x0a, 0x1f, 0x0b, 0xd0, 0xec,
  0xd4, 0xc3, 0xe4, 0x06, 0xf8, 0xdc, 0xd5, 0x0d, 0xdf, 0xc4, 0xce, 0x00,
  0x07, 0xf2, 0x00, 0x00, 0xde, 0xcc, 0xff, 0xff, 0x04, 0x00, 0x00, 0x00,
  0x1f, 0x00, 0x00, 0x00, 0xef, 0x05, 0xb3, 0xc7, 0x06, 0x2a, 0xc6, 0xf2,
  0x25, 0xc6, 0x0e, 0xe6, 0xc7, 0xaa, 0x81, 0x8a, 0xa6, 0xbd, 0xd7, 0xa9,
  0xcb, 0xc2, 0xb2, 0xba, 0xed, 0xfc, 0xea, 0x14, 0xc5, 0x0d, 0xbb, 0x00,
  0x0a, 0xcd, 0xff, 0xff, 0x04, 0x00, 0x00, 0x00, 0x1f, 0x00, 0x00, 0x00,
  0x77, 0x5f, 0x20, 0x7f, 0x4e, 0x31, 0x29, 0x47, 0xff, 0x06, 0x4d, 0x1e,
  0xf9, 0x42, 0x10, 0x44, 0x0c, 0x33, 0x2f, 0xfd, 0x22, 0x5c, 0x53, 0x3f,
  0x01, 0x4e, 0xfc, 0x6e, 0x29, 0x6b, 0x62, 0x00, 0x36, 0xcd, 0xff, 0xff,
  0x04, 0x00, 0x00, 0x00, 0x1f, 0x00, 0x00, 0x00, 0xc5, 0xc5, 0xf7, 0x12,
  0xfb, 0xd8, 0xd1, 0xe5, 0x05, 0xf0, 0xd1, 0xc3, 0xf5, 0x1d, 0xef, 0x37,
  0xeb, 0x03, 0x32, 0xf8, 0x4c, 0xed, 0x49, 0xef, 0x4f, 0x51, 0x16, 0x65,
  0x05, 0x7f, 0x24, 0x00, 0x62, 0xcd, 0xff, 0xff, 0x04, 0x00, 0x00, 0x00,
  0x1f, 0x00, 0x00, 0x00, 0x18, 0x36, 0x20, 0xf9, 0x13, 0x08, 0xfb, 0x17,
  0x1b, 0x30, 0x1d, 0x04, 0x1f, 0x40, 0x0b, 0xe6, 0xbc, 0xa8, 0x81, 0xd5,
  0x88, 0xb2, 0xae, 0xa0, 0x89, 0xcb, 0x95, 0xba, 0xd3, 0x94, 0xe7, 0x00,
  0x8e, 0xcd, 0xff, 0xff, 0x04, 0x00, 0x00, 0x00, 0x1f, 0x00, 0x00, 0x00,
  0x0c, 0x43, 0x0d, 0x3a, 0x23, 0x4e, 0x04, 0x37, 0x3b, 0x3c, 0x1a, 0x16,
  0x1d, 0x02, 0x10, 0x6e, 0x7f, 0x25, 0x41, 0x33, 0x15, 0x3a, 0xf5, 0x01,
  0xd7, 0xbc, 0xfa, 0xe5, 0xfc, 0xe4, 0xf1, 0x00, 0xba, 0xcd, 0xff, 0xff,
  0x04, 0x00, 0x00, 0x00, 0x1f, 0x00, 0x00, 0x00, 0x81, 0xa0, 0x0d, 0x1d,
  0x20, 0xbf, 0xc9, 0xcd, 0x1e, 0xa4, 0xb9, 0xee, 0x2e, 0x98, 0xe7, 0xfc,
  0xdf, 0xd1, 0xa2, 0xc2, 0x9a, 0xca, 0x1c, 0xa9, 0x90, 0xb4, 0x11, 0xfb,
  0x2b, 0x3b, 0xfa, 0x00, 0xe6, 0xcd, 0xff, 0xff, 0x04, 0x00, 0x00, 0x00,
  0x08, 0x00, 0x00, 0x00, 0x7f, 0xc2, 0x44, 0x80, 0xca, 0x32, 0xa6, 0x0b,
  0xfa, 0xcd, 0xff, 0xff, 0x04, 0x00, 0x00, 0x00, 0x40, 0x00, 0x00, 0x00,
  0x26, 0x8b, 0xd7, 0x7f, 0x58, 0xb0, 0xe7, 0x23, 0xb4, 0x7f, 0x23, 0xc5,
  0x68, 0x40, 0x88, 0x62, 0x1e, 0x99, 0xf8, 0x81, 0xb1, 0x14, 0x8d, 0xea,
  0x73, 0x03, 0xe6, 0xe6, 0x7f, 0xb9, 0xeb, 0xc5, 0x43, 0xd1, 0xa6, 0x81,
  0xf1, 0xff, 0xf2, 0x30, 0x26, 0xce, 0xbd, 0xae, 0x2a, 0x15, 0x81, 0x1d,
  0x0d, 0x03, 0x8e, 0x1e, 0x16, 0xf7, 0x81, 0x6c, 0xc3, 0x46, 0xed, 0x7f,
  0x9f, 0xfb, 0xcf, 0xbb, 0x46, 0xce, 0xff, 0xff, 0x04, 0x00, 0x00, 0x00,
  0x20, 0x00, 0x00, 0x00, 0xd8, 0xfe, 0xff, 0xff, 0x4f, 0x12, 0x00, 0x00,
  0xf8, 0x15, 0x00, 0x00, 0x87, 0xfa, 0xff, 0xff, 0x07, 0x08, 0x00, 0x00,
  0x9f, 0x12, 0x00, 0x00, 0x65, 0x07, 0x00, 0x00, 0x5f, 0xf7, 0xff, 0xff,
  0x72, 0xce, 0xff, 0xff, 0x04, 0x00, 0x00, 0x00, 0x40, 0x02, 0x00, 0x00,
  0x02, 0x7f, 0xd8, 0xe4, 0xc3, 0x04, 0xfc, 0xea, 0xfc, 0x68, 0xd3, 0x03,
  0xe5, 0x02, 0xfd, 0xf3, 0xf7, 0x6c, 0xf2, 0xec, 0xf0, 0xf7, 0xfd, 0xed,
  0xf7, 0x5e, 0xdc, 0xe7, 0xd3, 0xde, 0xf2, 0xe4, 0xe2, 0x5f, 0xcf, 0xe0,
  0xe2, 0xd8, 0xec, 0xeb, 0xf9, 0x70, 0xf0, 0xe5, 0xd3, 0xe9, 0xde, 0xe4,
  0xf4, 0x72, 0xec, 0xf6, 0xd9, 0xde, 0xe0, 0xee, 0xf9, 0x79, 0xf4, 0xe2,
  0xe2, 0xe9, 0xcc, 0xe9, 0xf4, 0x7e, 0xd3, 0xe1, 0xf0, 0xef, 0xec, 0xf7,
  0x16, 0xf3, 0x1c, 0x16, 0xed, 0x19, 0x00, 0x4c, 0x02, 0x07, 0x1a, 0x33,
  0xe4, 0x06, 0x17, 0x62, 0x14, 0x00, 0x24, 0x29, 0x0b, 0x1a, 0xe8, 0x7f,
  0x08, 0xf4, 0x16, 0x21, 0xe2, 0x05, 0x04, 0x67, 0x11, 0xf8, 0x15, 0xf4,
  0xf9, 0xfc, 0xe2, 0x54, 0x13, 0xf5, 0x0a, 0x12, 0x0a, 0xed, 0xec, 0x78,
  0x08, 0x0d, 0xff, 0x04, 0xdb, 0xee, 0x22, 0x61, 0xff, 0x0a, 0xf7, 0x05,
  0x0d, 0xfc, 0xf6, 0x6a, 0x15, 0xfd, 0x26, 0x1b, 0xeb, 0x1e, 0x11, 0x73,
  0x0a, 0xe4, 0x4b, 0xfb, 0xd9, 0x2e, 0xec, 0x07, 0xe0, 0xe2, 0x58, 0xd8,
  0xd6, 0x42, 0x05, 0x04, 0xd4, 0xef, 0x5e, 0xd2, 0xfa, 0x31, 0x0c, 0xf8,
  0xe3, 0xbc, 0x4d, 0xf6, 0xfe, 0x34, 0xd9, 0x12, 0xed, 0xdc, 0x7f, 0xf1,
  0xe0, 0x00, 0xea, 0xde, 0x09, 0xd0, 0x73, 0x07, 0xe5, 0x0c, 0xee, 0x09,
  0xdf, 0xc4, 0x54, 0xd4, 0xef, 0x1b, 0x06, 0xfb, 0xe0, 0xee, 0x72, 0xd2,
  0xfc, 0xfa, 0x03, 0xfc, 0xee, 0xce, 0x64, 0x09, 0xe8, 0x02, 0x03, 0xf1,
  0x16, 0x0c, 0xf1, 0x2d, 0x51, 0x55, 0xf9, 0xe1, 0x15, 0xf1, 0xd4, 0x1d,
  0x5b, 0x51, 0xf2, 0xf4, 0xfa, 0xf7, 0xe4, 0x07, 0x27, 0x3a, 0xf7, 0xee,
  0x37, 0xf8, 0xc0, 0xfa, 0x53, 0x4c, 0x1a, 0xcd, 0x15, 0x05, 0xff, 0x22,
  0x58, 0x7f, 0x0d, 0xf8, 0x12, 0xf4, 0xdf, 0x26, 0x23, 0x7b, 0x23, 0xcf,
  0x2d, 0xd2, 0xd6, 0x06, 0x2e, 0x5d, 0xf8, 0xd5, 0x12, 0xfc, 0xd9, 0x0c,
  0x48, 0x4b, 0x10, 0xe1, 0x1c, 0xf8, 0xca, 0x40, 0x22, 0x71, 0x02, 0xd7,
  0x16, 0xb1, 0x12, 0x04, 0x60, 0x21, 0x1e, 0xde, 0x3e, 0x08, 0xd6, 0x10,
  0x7f, 0x28, 0x01, 0xf0, 0xfa, 0xe5, 0xcb, 0xf5, 0x75, 0x22, 0xfc, 0xcb,
  0x19, 0xe5, 0x02, 0xfe, 0x37, 0x1d, 0x36, 0xe2, 0x1c, 0x0a, 0xfb, 0x3b,
  0x6c, 0x3d, 0xfe, 0xea, 0x35, 0xf4, 0xc6, 0xfe, 0x5c, 0x2d, 0x2f, 0xc8,
  0x11, 0xc0, 0xf4, 0x44, 0x6c, 0x41, 0x32, 0xef, 0x0a, 0xb9, 0xf0, 0x49,
  0x2a, 0x2b, 0x08, 0xd1, 0x47, 0x07, 0xe2, 0x0b, 0x70, 0x4c, 0x48, 0xcf,
  0x38, 0xb4, 0xee, 0x44, 0x7f, 0x18, 0x21, 0x14, 0x40, 0xcc, 0xed, 0x52,
  0x4f, 0x30, 0x30, 0x3c, 0x11, 0xd5, 0xd2, 0x51, 0x51, 0x03, 0x1f, 0x43,
  0x35, 0xdb, 0x91, 0x5e, 0x58, 0x25, 0x30, 0x21, 0x22, 0xba, 0x94, 0x57,
  0x62, 0x04, 0x2f, 0x30, 0x41, 0xe4, 0xd6, 0x65, 0x38, 0x1e, 0x24, 0x23,
  0x3f, 0xfb, 0xd3, 0x67, 0x39, 0x44, 0xf9, 0x39, 0x16, 0xe3, 0x9f, 0x44,
  0x73, 0x2b, 0xf0, 0x0a, 0x47, 0xec, 0xde, 0x5d, 0x33, 0x13, 0x0a, 0x14,
  0x0d, 0x0b, 0x03, 0x13, 0x1e, 0x0d, 0xee, 0x40, 0xfe, 0xf5, 0x00, 0x36,
  0xe0, 0xe7, 0x0c, 0x5d, 0x13, 0xec, 0x1b, 0x1d, 0xfc, 0x06, 0x23, 0x5e,
  0x1c, 0xf6, 0x0b, 0x38, 0xf3, 0xfa, 0xe9, 0x70, 0x00, 0x18, 0x0b, 0x15,
  0xf5, 0x12, 0x21, 0x7b, 0x15, 0xea, 0x05, 0x16, 0xe1, 0x0d, 0x25, 0x7f,
  0x19, 0x0f, 0x0e, 0x05, 0xed, 0xf8, 0x20, 0x4c, 0x18, 0xec, 0x0d, 0x17,
  0xfb, 0xd5, 0x17, 0x53, 0x11, 0x0d, 0x09, 0x1c, 0xe5, 0xec, 0xf7, 0x53,
  0x02, 0xc8, 0x6f, 0xda, 0xf9, 0x2b, 0xf8, 0xfe, 0xfa, 0xcc, 0x56, 0xe1,
  0xfb, 0x1a, 0xf0, 0xf7, 0x03, 0xc7, 0x74, 0xe5, 0xed, 0x1a, 0xe6, 0xef,
  0xee, 0xd9, 0x73, 0xee, 0xfa, 0x20, 0xf5, 0x03, 0xe9, 0xde, 0x5a, 0xd7,
  0xfb, 0x14, 0xf8, 0xf0, 0xee, 0xd0, 0x7f, 0xf9, 0xf4, 0x13, 0x02, 0xea,
  0xd8, 0xc7, 0x76, 0xfa, 0x01, 0x11, 0x07, 0xf8, 0xfc, 0xcc, 0x6a, 0xee,
  0xea, 0x03, 0xf4, 0xf2, 0xea, 0xdd, 0x62, 0x01, 0xf2, 0x10, 0xfc, 0xf9,
  0xbe, 0xd0, 0xff, 0xff, 0x04, 0x00, 0x00, 0x00, 0x20, 0x00, 0x00, 0x00,
  0xa9, 0x69, 0x00, 0x00, 0x3d, 0x81, 0xff, 0xff, 0x59, 0x34, 0x00, 0x00,
  0xb3, 0xd6, 0xff, 0xff, 0xbd, 0xe2, 0xff, 0xff, 0x98, 0x8e, 0xff, 0xff,
  0x8d, 0x97, 0xff, 0xff, 0xf6, 0x40, 0x00, 0x00, 0xea, 0xd0, 0xff, 0xff,
  0x04, 0x00, 0x00, 0x00, 0x30, 0x00, 0x00, 0x00, 0xbe, 0xbc, 0xca, 0x5b,
  0x66, 0x30, 0xc2, 0xe3, 0xd8, 0xc7, 0xf6, 0xfe, 0x7f, 0xbc, 0xd4, 0xe5,
  0xbc, 0xc2, 0xc5, 0xc9, 0xf7, 0xe7, 0xcd, 0x24, 0xd1, 0xe8, 0x71, 0xd2,
  0xb3, 0xb4, 0xcd, 0x6f, 0x15, 0x20, 0x25, 0xed, 0xd5, 0x6d, 0xf3, 0xa9,
  0xe4, 0x1a, 0x6f, 0xd2, 0xcb, 0xf4, 0x1f, 0xeb, 0x26, 0xd1, 0xff, 0xff,
  0x04, 0x00, 0x00, 0x00, 0x10, 0x00, 0x00, 0x00, 0xd5, 0xff, 0xff, 0xff,
  0x0b, 0xfe, 0xff, 0xff, 0x73, 0x00, 0x00, 0x00, 0x7a, 0x01, 0x00, 0x00,
  0x42, 0xd1, 0xff, 0xff, 0x04, 0x00, 0x00, 0x00, 0x08, 0x00, 0x00, 0x00,
  0x01, 0x00, 0x00, 0x00, 0x08, 0x00, 0x00, 0x00, 0xb4, 0xb5, 0xfe, 0xff,
  0x5a, 0xd1, 0xff, 0xff, 0x04, 0x00, 0x00, 0x00, 0x10, 0x00, 0x00, 0x00,
  0x01, 0x00, 0x00, 0x00, 0x01, 0x00, 0x00, 0x00, 0x20, 0x00, 0x00, 0x00,
  0x01, 0x00, 0x00, 0x00, 0x76, 0xd1, 0xff, 0xff, 0x04, 0x00, 0x00, 0x00,
  0x0c, 0x00, 0x00, 0x00, 0x01, 0x00, 0x00, 0x00, 0x20, 0x00, 0x00, 0x00,
  0x08, 0x00, 0x00, 0x00, 0x8e, 0xd1, 0xff, 0xff, 0x04, 0x00, 0x00, 0x00,
  0x10, 0x00, 0x00, 0x00, 0x01, 0x00, 0x00, 0x00, 0x01, 0x00, 0x00, 0x00,
  0x20, 0x00, 0x00, 0x00, 0x08, 0x00, 0x00, 0x00, 0xaa, 0xd1, 0xff, 0xff,
  0x04, 0x00, 0x00, 0x00, 0x0c, 0x00, 0x00, 0x00, 0x01, 0x00, 0x00, 0x00,
  0x20, 0x00, 0x00, 0x00, 0x01, 0x00, 0x00, 0x00, 0xc2, 0xd1, 0xff, 0xff,
  0x04, 0x00, 0x00, 0x00, 0x10, 0x00, 0x00, 0x00, 0x01, 0x00, 0x00, 0x00,
  0x01, 0x00, 0x00, 0x00, 0x10, 0x01, 0x00, 0x00, 0x01, 0x00, 0x00, 0x00,
  0xde, 0xd1, 0xff, 0xff, 0x04, 0x00, 0x00, 0x00, 0x18, 0x00, 0x00, 0x00,
  0x00, 0x00, 0x00, 0x00, 0x00, 0x00, 0x00, 0x00, 0x08, 0x00, 0x00, 0x00,
  0x08, 0x00, 0x00, 0x00, 0x00, 0x00, 0x00, 0x00, 0x00, 0x00, 0x00, 0x00,
  0x02, 0xd2, 0xff, 0xff, 0x04, 0x00, 0x00, 0x00, 0x10, 0x00, 0x00, 0x00,
  0x01, 0x00, 0x00, 0x00, 0x01, 0x00, 0x00, 0x00, 0x00, 0x01, 0x00, 0x00,
  0x08, 0x00, 0x00, 0x00, 0x1e, 0xd2, 0xff, 0xff, 0x04, 0x00, 0x00, 0x00,
  0x0c, 0x00, 0x00, 0x00, 0x01, 0x00, 0x00, 0x00, 0x00, 0x01, 0x00, 0x00,
  0x01, 0x00, 0x00, 0x00, 0x36, 0xd2, 0xff, 0xff, 0x04, 0x00, 0x00, 0x00,
  0x10, 0x00, 0x00, 0x00, 0x01, 0x00, 0x00, 0x00, 0x01, 0x00, 0x00, 0x00,
  0x00, 0x01, 0x00, 0x00, 0x01, 0x00, 0x00, 0x00, 0x52, 0xd2, 0xff, 0xff,
  0x04, 0x00, 0x00, 0x00, 0x04, 0x00, 0x00, 0x00, 0xff, 0xff, 0xff, 0xff,
  0x62, 0xd2, 0xff, 0xff, 0x04, 0x00, 0x00, 0x00, 0x0c, 0x00, 0x00, 0x00,
  0x01, 0x00, 0x00, 0x00, 0x00, 0x01, 0x00, 0x00, 0x08, 0x00, 0x00, 0x00,
  0x7a, 0xd2, 0xff, 0xff, 0x04, 0x00, 0x00, 0x00, 0x10, 0x00, 0x00, 0x00,
  0x01, 0x00, 0x00, 0x00, 0x01, 0x00, 0x00, 0x00, 0x38, 0x08, 0x00, 0x00,
  0x01, 0x00, 0x00, 0x00, 0x96, 0xd2, 0xff, 0xff, 0x04, 0x00, 0x00, 0x00,
  0x18, 0x00, 0x00, 0x00, 0x00, 0x00, 0x00, 0x00, 0x00, 0x00, 0x00, 0x00,
  0x1c, 0x00, 0x00, 0x00, 0x1c, 0x00, 0x00, 0x00, 0x00, 0x00, 0x00, 0x00,
  0x00, 0x00, 0x00, 0x00, 0xba, 0xd2, 0xff, 0xff, 0x04, 0x00, 0x00, 0x00,
  0x04, 0x00, 0x00, 0x00, 0x01, 0x00, 0x00, 0x00, 0x28, 0xb7, 0xfe, 0xff,
  0x2c, 0xb7, 0xfe, 0xff, 0x0f, 0x00, 0x00, 0x00, 0x4d, 0x4c, 0x49, 0x52,
  0x20, 0x43, 0x6f, 0x6e, 0x76, 0x65, 0x72, 0x74, 0x65, 0x64, 0x2e, 0x00,
  0x01, 0x00, 0x00, 0x00, 0x14, 0x00, 0x00, 0x00, 0x00, 0x00, 0x0e, 0x00,
  0x18, 0x00, 0x14, 0x00, 0x10, 0x00, 0x0c, 0x00, 0x08, 0x00, 0x04, 0x00,
  0x0e, 0x00, 0x00, 0x00, 0x14, 0x00, 0x00, 0x00, 0x1c, 0x00, 0x00, 0x00,
  0xc8, 0x30, 0x00, 0x00, 0xcc, 0x30, 0x00, 0x00, 0xd0, 0x30, 0x00, 0x00,
  0x04, 0x00, 0x00, 0x00, 0x6d, 0x61, 0x69, 0x6e, 0x00, 0x00, 0x00, 0x00,
  0xf6, 0x00, 0x00, 0x00, 0x90, 0x30, 0x00, 0x00, 0x60, 0x30, 0x00, 0x00,
  0x20, 0x30, 0x00, 0x00, 0xd0, 0x2f, 0x00, 0x00, 0x9c, 0x2f, 0x00, 0x00,
  0x68, 0x2f, 0x00, 0x00, 0x48, 0x2f, 0x00, 0x00, 0x14, 0x2f, 0x00, 0x00,
  0xf0, 0x2e, 0x00, 0x00, 0xbc, 0x2e, 0x00, 0x00, 0x98, 0x2e, 0x00, 0x00,
  0x64, 0x2e, 0x00, 0x00, 0x40, 0x2e, 0x00, 0x00, 0x1c, 0x2e, 0x00, 0x00,
  0xf8, 0x2d, 0x00, 0x00, 0xc4, 0x2d, 0x00, 0x00, 0xa0, 0x2d, 0x00, 0x00,
  0x6c, 0x2d, 0x00, 0x00, 0x44, 0x2d, 0x00, 0x00, 0xf0, 0x2c, 0x00, 0x00,
  0xc8, 0x2c, 0x00, 0x00, 0x6c, 0x2c, 0x00, 0x00, 0x44, 0x2c, 0x00, 0x00,
  0x04, 0x2c, 0x00, 0x00, 0xdc, 0x2b, 0x00, 0x00, 0xb4, 0x2b, 0x00, 0x00,
  0x74, 0x2b, 0x00, 0x00, 0x4c, 0x2b, 0x00, 0x00, 0x24, 0x2b, 0x00, 0x00,
  0xe4, 0x2a, 0x00, 0x00, 0xbc, 0x2a, 0x00, 0x00, 0x94, 0x2a, 0x00, 0x00,
  0x54, 0x2a, 0x00, 0x00, 0x2c, 0x2a, 0x00, 0x00, 0x04, 0x2a, 0x00, 0x00,
  0xc4, 0x29, 0x00, 0x00, 0x9c, 0x29, 0x00, 0x00, 0x74, 0x29, 0x00, 0x00,
  0x34, 0x29, 0x00, 0x00, 0x0c, 0x29, 0x00, 0x00, 0xe4, 0x28, 0x00, 0x00,
  0xa4, 0x28, 0x00, 0x00, 0x7c, 0x28, 0x00, 0x00, 0x54, 0x28, 0x00, 0x00,
  0x14, 0x28, 0x00, 0x00, 0xec, 0x27, 0x00, 0x00, 0x9c, 0x27, 0x00, 0x00,
  0x64, 0x27, 0x00, 0x00, 0x3c, 0x27, 0x00, 0x00, 0xfc, 0x26, 0x00, 0x00,
  0xc4, 0x26, 0x00, 0x00, 0x9c, 0x26, 0x00, 0x00, 0x48, 0x26, 0x00, 0x00,
  0x20, 0x26, 0x00, 0x00, 0xe0, 0x25, 0x00, 0x00, 0xb8, 0x25, 0x00, 0x00,
  0x90, 0x25, 0x00, 0x00, 0x50, 0x25, 0x00, 0x00, 0x28, 0x25, 0x00, 0x00,
  0x00, 0x25, 0x00, 0x00, 0xc0, 0x24, 0x00, 0x00, 0x98, 0x24, 0x00, 0x00,
  0x70, 0x24, 0x00, 0x00, 0x30, 0x24, 0x00, 0x00, 0x08, 0x24, 0x00, 0x00,
  0xe0, 0x23, 0x00, 0x00, 0xa0, 0x23, 0x00, 0x00, 0x78, 0x23, 0x00, 0x00,
  0x50, 0x23, 0x00, 0x00, 0x10, 0x23, 0x00, 0x00, 0xe8, 0x22, 0x00, 0x00,
  0xc0, 0x22, 0x00, 0x00, 0x80, 0x22, 0x00, 0x00, 0x58, 0x22, 0x00, 0x00,
  0x30, 0x22, 0x00, 0x00, 0xf0, 0x21, 0x00, 0x00, 0xc8, 0x21, 0x00, 0x00,
  0x78, 0x21, 0x00, 0x00, 0x40, 0x21, 0x00, 0x00, 0x18, 0x21, 0x00, 0x00,
  0xd8, 0x20, 0x00, 0x00, 0xa0, 0x20, 0x00, 0x00, 0x78, 0x20, 0x00, 0x00,
  0x24, 0x20, 0x00, 0x00, 0xfc, 0x1f, 0x00, 0x00, 0xbc, 0x1f, 0x00, 0x00,
  0x94, 0x1f, 0x00, 0x00, 0x6c, 0x1f, 0x00, 0x00, 0x2c, 0x1f, 0x00, 0x00,
  0x04, 0x1f, 0x00, 0x00, 0xdc, 0x1e, 0x00, 0x00, 0x9c, 0x1e, 0x00, 0x00,
  0x74, 0x1e, 0x00, 0x00, 0x4c, 0x1e, 0x00, 0x00, 0x0c, 0x1e, 0x00, 0x00,
  0xe4, 0x1d, 0x00, 0x00, 0xbc, 0x1d, 0x00, 0x00, 0x7c, 0x1d, 0x00, 0x00,
  0x54, 0x1d, 0x00, 0x00, 0x2c, 0x1d, 0x00, 0x00, 0xec, 0x1c, 0x00, 0x00,
  0xc4, 0x1c, 0x00, 0x00, 0x9c, 0x1c, 0x00, 0x00, 0x5c, 0x1c, 0x00, 0x00,
  0x34, 0x1c, 0x00, 0x00, 0x0c, 0x1c, 0x00, 0x00, 0xcc, 0x1b, 0x00, 0x00,
  0xa4, 0x1b, 0x00, 0x00, 0x54, 0x1b, 0x00, 0x00, 0x1c, 0x1b, 0x00, 0x00,
  0xf4, 0x1a, 0x00, 0x00, 0xb4, 0x1a, 0x00, 0x00, 0x7c, 0x1a, 0x00, 0x00,
  0x54, 0x1a, 0x00, 0x00, 0x20, 0x1a, 0x00, 0x00, 0xcc, 0x19, 0x00, 0x00,
  0xa4, 0x19, 0x00, 0x00, 0x54, 0x19, 0x00, 0x00, 0x2c, 0x19, 0x00, 0x00,
  0x04, 0x19, 0x00, 0x00, 0xc0, 0x18, 0x00, 0x00, 0x98, 0x18, 0x00, 0x00,
  0x70, 0x18, 0x00, 0x00, 0x2c, 0x18, 0x00, 0x00, 0x04, 0x18, 0x00, 0x00,
  0xdc, 0x17, 0x00, 0x00, 0x98, 0x17, 0x00, 0x00, 0x70, 0x17, 0x00, 0x00,
  0x48, 0x17, 0x00, 0x00, 0x04, 0x17, 0x00, 0x00, 0xdc, 0x16, 0x00, 0x00,
  0xb4, 0x16, 0x00, 0x00, 0x70, 0x16, 0x00, 0x00, 0x48, 0x16, 0x00, 0x00,
  0x20, 0x16, 0x00, 0x00, 0xdc, 0x15, 0x00, 0x00, 0xb4, 0x15, 0x00, 0x00,
  0x8c, 0x15, 0x00, 0x00, 0x48, 0x15, 0x00, 0x00, 0x20, 0x15, 0x00, 0x00,
  0xd0, 0x14, 0x00, 0x00, 0x98, 0x14, 0x00, 0x00, 0x70, 0x14, 0x00, 0x00,
  0x20, 0x14, 0x00, 0x00, 0xf8, 0x13, 0x00, 0x00, 0xa4, 0x13, 0x00, 0x00,
  0x7c, 0x13, 0x00, 0x00, 0x3c, 0x13, 0x00, 0x00, 0x14, 0x13, 0x00, 0x00,
  0xec, 0x12, 0x00, 0x00, 0xac, 0x12, 0x00, 0x00, 0x84, 0x12, 0x00, 0x00,
  0x5c, 0x12, 0x00, 0x00, 0x1c, 0x12, 0x00, 0x00, 0xf4, 0x11, 0x00, 0x00,
  0xcc, 0x11, 0x00, 0x00, 0x8c, 0x11, 0x00, 0x00, 0x64, 0x11, 0x00, 0x00,
  0x3c, 0x11, 0x00, 0x00, 0xfc, 0x10, 0x00, 0x00, 0xd4, 0x10, 0x00, 0x00,
  0xac, 0x10, 0x00, 0x00, 0x6c, 0x10, 0x00, 0x00, 0x44, 0x10, 0x00, 0x00,
  0x1c, 0x10, 0x00, 0x00, 0xdc, 0x0f, 0x00, 0x00, 0xb4, 0x0f, 0x00, 0x00,
  0x8c, 0x0f, 0x00, 0x00, 0x4c, 0x0f, 0x00, 0x00, 0x24, 0x0f, 0x00, 0x00,
  0xd4, 0x0e, 0x00, 0x00, 0x9c, 0x0e, 0x00, 0x00, 0x74, 0x0e, 0x00, 0x00,
  0x34, 0x0e, 0x00, 0x00, 0xfc, 0x0d, 0x00, 0x00, 0xd4, 0x0d, 0x00, 0x00,
  0x80, 0x0d, 0x00, 0x00, 0x58, 0x0d, 0x00, 0x00, 0x18, 0x0d, 0x00, 0x00,
  0xf0, 0x0c, 0x00, 0x00, 0xc8, 0x0c, 0x00, 0x00, 0x88, 0x0c, 0x00, 0x00,
  0x60, 0x0c, 0x00, 0x00, 0x38, 0x0c, 0x00, 0x00, 0xf8, 0x0b, 0x00, 0x00,
  0xd0, 0x0b, 0x00, 0x00, 0xa8, 0x0b, 0x00, 0x00, 0x68, 0x0b, 0x00, 0x00,
  0x40, 0x0b, 0x00, 0x00, 0x18, 0x0b, 0x00, 0x00, 0xd8, 0x0a, 0x00, 0x00,
  0xb0, 0x0a, 0x00, 0x00, 0x88, 0x0a, 0x00, 0x00, 0x48, 0x0a, 0x00, 0x00,
  0x20, 0x0a, 0x00, 0x00, 0xf8, 0x09, 0x00, 0x00, 0xb8, 0x09, 0x00, 0x00,
  0x90, 0x09, 0x00, 0x00, 0x68, 0x09, 0x00, 0x00, 0x28, 0x09, 0x00, 0x00,
  0x00, 0x09, 0x00, 0x00, 0xb0, 0x08, 0x00, 0x00, 0x78, 0x08, 0x00, 0x00,
  0x50, 0x08, 0x00, 0x00, 0x10, 0x08, 0x00, 0x00, 0xd8, 0x07, 0x00, 0x00,
  0xb0, 0x07, 0x00, 0x00, 0x5c, 0x07, 0x00, 0x00, 0x34, 0x07, 0x00, 0x00,
  0xf4, 0x06, 0x00, 0x00, 0xcc, 0x06, 0x00, 0x00, 0xa4, 0x06, 0x00, 0x00,
  0x64, 0x06, 0x00, 0x00, 0x3c, 0x06, 0x00, 0x00, 0x14, 0x06, 0x00, 0x00,
  0xd4, 0x05, 0x00, 0x00, 0xac, 0x05, 0x00, 0x00, 0x84, 0x05, 0x00, 0x00,
  0x44, 0x05, 0x00, 0x00, 0x1c, 0x05, 0x00, 0x00, 0xf4, 0x04, 0x00, 0x00,
  0xb4, 0x04, 0x00, 0x00, 0x8c, 0x04, 0x00, 0x00, 0x64, 0x04, 0x00, 0x00,
  0x24, 0x04, 0x00, 0x00, 0xfc, 0x03, 0x00, 0x00, 0xd4, 0x03, 0x00, 0x00,
  0x94, 0x03, 0x00, 0x00, 0x6c, 0x03, 0x00, 0x00, 0x44, 0x03, 0x00, 0x00,
  0x04, 0x03, 0x00, 0x00, 0xdc, 0x02, 0x00, 0x00, 0x8c, 0x02, 0x00, 0x00,
  0x54, 0x02, 0x00, 0x00, 0x2c, 0x02, 0x00, 0x00, 0xec, 0x01, 0x00, 0x00,
  0xb4, 0x01, 0x00, 0x00, 0x70, 0x01, 0x00, 0x00, 0x48, 0x01, 0x00, 0x00,
  0x10, 0x01, 0x00, 0x00, 0xe8, 0x00, 0x00, 0x00, 0xc4, 0x00, 0x00, 0x00,
  0x80, 0x00, 0x00, 0x00, 0x60, 0x00, 0x00, 0x00, 0x28, 0x00, 0x00, 0x00,
  0x04, 0x00, 0x00, 0x00, 0x7e, 0xd3, 0xff, 0xff, 0x0c, 0x00, 0x00, 0x00,
  0x10, 0x00, 0x00, 0x00, 0x04, 0x00, 0x00, 0x00, 0x01, 0x00, 0x00, 0x00,
  0xc2, 0x01, 0x00, 0x00, 0x01, 0x00, 0x00, 0x00, 0xc1, 0x01, 0x00, 0x00,
  0xde, 0xd3, 0xff, 0xff, 0x14, 0x00, 0x00, 0x00, 0x00, 0x00, 0x00, 0x08,
  0x10, 0x00, 0x00, 0x00, 0x14, 0x00, 0x00, 0x00, 0x0f, 0x00, 0x00, 0x00,
  0x94, 0xbb, 0xfe, 0xff, 0x01, 0x00, 0x00, 0x00, 0xc1, 0x01, 0x00, 0x00,
  0x03, 0x00, 0x00, 0x00, 0xc0, 0x01, 0x00, 0x00, 0x12, 0x00, 0x00, 0x00,
  0x11, 0x00, 0x00, 0x00, 0xa6, 0xd3, 0xff, 0xff, 0x08, 0x00, 0x00, 0x00,
  0x0c, 0x00, 0x00, 0x00, 0x01, 0x00, 0x00, 0x00, 0xc0, 0x01, 0x00, 0x00,
  0x01, 0x00, 0x00, 0x00, 0xbf, 0x01, 0x00, 0x00, 0x2e, 0xd4, 0xff, 0xff,
  0x14, 0x00, 0x00, 0x00, 0x00, 0x00, 0x00, 0x0a, 0x14, 0x00, 0x00, 0x00,
  0x18, 0x00, 0x00, 0x00, 0x0d, 0x00, 0x00, 0x00, 0x86, 0xd7, 0xff, 0xff,
  0x01, 0x00, 0x00, 0x00, 0x01, 0x00, 0x00, 0x00, 0xbf, 0x01, 0x00, 0x00,
  0x05, 0x00, 0x00, 0x00, 0xbe, 0x01, 0x00, 0x00, 0xa6, 0x00, 0x00, 0x00,
  0xa4, 0x00, 0x00, 0x00, 0xa9, 0x00, 0x00, 0x00, 0xac, 0x00, 0x00, 0x00,
  0x2e, 0xd4, 0xff, 0xff, 0x0c, 0x00, 0x00, 0x00, 0x10, 0x00, 0x00, 0x00,
  0x04, 0x00, 0x00, 0x00, 0x01, 0x00, 0x00, 0x00, 0xbe, 0x01, 0x00, 0x00,
  0x01, 0x00, 0x00, 0x00, 0xbd, 0x01, 0x00, 0x00, 0x4e, 0xd4, 0xff, 0xff,
  0x0c, 0x00, 0x00, 0x00, 0x10, 0x00, 0x00, 0x00, 0x0a, 0x00, 0x00, 0x00,
  0x01, 0x00, 0x00, 0x00, 0xbd, 0x01, 0x00, 0x00, 0x02, 0x00, 0x00, 0x00,
  0xbc, 0x01, 0x00, 0x00, 0x10, 0x00, 0x00, 0x00, 0xb2, 0xd4, 0xff, 0xff,
  0x14, 0x00, 0x00, 0x00, 0x00, 0x00, 0x00, 0x1b, 0x14, 0x00, 0x00, 0x00,
  0x18, 0x00, 0x00, 0x00, 0x06, 0x00, 0x00, 0x00, 0xee, 0xd4, 0xff, 0xff,
  0x00, 0x00, 0x00, 0x01, 0x01, 0x00, 0x00, 0x00, 0xbc, 0x01, 0x00, 0x00,
  0x02, 0x00, 0x00, 0x00, 0xbb, 0x01, 0x00, 0x00, 0x0f, 0x00, 0x00, 0x00,
  0xa6, 0xd4, 0xff, 0xff, 0x0c, 0x00, 0x00, 0x00, 0x10, 0x00, 0x00, 0x00,
  0x0a, 0x00, 0x00, 0x00, 0x01, 0x00, 0x00, 0x00, 0xbb, 0x01, 0x00, 0x00,
  0x02, 0x00, 0x00, 0x00, 0xba, 0x01, 0x00, 0x00, 0x0d, 0x00, 0x00, 0x00,
  0x0a, 0xd5, 0xff, 0xff, 0x14, 0x00, 0x00, 0x00, 0x00, 0x00, 0x00, 0x01,
  0x1c, 0x00, 0x00, 0x00, 0x20, 0x00, 0x00, 0x00, 0x0b, 0x00, 0x00, 0x00,
  0xc8, 0xee, 0xff, 0xff, 0x00, 0x00, 0x00, 0x01, 0x01, 0x00, 0x00, 0x00,
  0x01, 0x00, 0x00, 0x00, 0x01, 0x00, 0x00, 0x00, 0xba, 0x01, 0x00, 0x00,
  0x03, 0x00, 0x00, 0x00, 0xb9, 0x01, 0x00, 0x00, 0x14, 0x00, 0x00, 0x00,
  0x13, 0x00, 0x00, 0x00, 0x4a, 0xd5, 0xff, 0xff, 0x14, 0x00, 0x00, 0x00,
  0x00, 0x00, 0x00, 0x0b, 0x14, 0x00, 0x00, 0x00, 0x18, 0x00, 0x00, 0x00,
  0x0e, 0x00, 0x00, 0x00, 0x86, 0xd5, 0xff, 0xff, 0x00, 0x00, 0x00, 0x01,
  0x01, 0x00, 0x00, 0x00, 0xb9, 0x01, 0x00, 0x00, 0x02, 0x00, 0x00, 0x00,
  0x93, 0x01, 0x00, 0x00, 0xb8, 0x01, 0x00, 0x00, 0x7e, 0xd5, 0xff, 0xff,
  0x14, 0x00, 0x00, 0x00, 0x00, 0x00, 0x00, 0x01, 0x18, 0x00, 0x00, 0x00,
  0x1c, 0x00, 0x00, 0x00, 0x0b, 0x00, 0x00, 0x00, 0x2a, 0xd5, 0xff, 0xff,
  0x01, 0x00, 0x00, 0x00, 0x01, 0x00, 0x00, 0x00, 0x01, 0x00, 0x00, 0x00,
  0xb8, 0x01, 0x00, 0x00, 0x03, 0x00, 0x00, 0x00, 0xb7, 0x01, 0x00, 0x00,
  0x16, 0x00, 0x00, 0x00, 0x15, 0x00, 0x00, 0x00, 0x7a, 0xd5, 0xff, 0xff,
  0x0c, 0x00, 0x00, 0x00, 0x10, 0x00, 0x00, 0x00, 0x0a, 0x00, 0x00, 0x00,
  0x01, 0x00, 0x00, 0x00, 0xb7, 0x01, 0x00, 0x00, 0x02, 0x00, 0x00, 0x00,
  0xb6, 0x01, 0x00, 0x00, 0x0c, 0x00, 0x00, 0x00, 0xde, 0xd5, 0xff, 0xff,
  0x14, 0x00, 0x00, 0x00, 0x00, 0x00, 0x00, 0x0b, 0x14, 0x00, 0x00, 0x00,
  0x18, 0x00, 0x00, 0x00, 0x0e, 0x00, 0x00, 0x00, 0x1a, 0xd6, 0xff, 0xff,
  0x00, 0x00, 0x00, 0x01, 0x01, 0x00, 0x00, 0x00, 0xb6, 0x01, 0x00, 0x00,
  0x02, 0x00, 0x00, 0x00, 0xb5, 0x01, 0x00, 0x00, 0x17, 0x00, 0x00, 0x00,
  0x12, 0xd6, 0xff, 0xff, 0x14, 0x00, 0x00, 0x00, 0x00, 0x00, 0x00, 0x0a,
  0x14, 0x00, 0x00, 0x00, 0x18, 0x00, 0x00, 0x00, 0x0d, 0x00, 0x00, 0x00,
  0x6a, 0xd9, 0xff, 0xff, 0xff, 0xff, 0xff, 0xff, 0x01, 0x00, 0x00, 0x00,
  0xb5, 0x01, 0x00, 0x00, 0x08, 0x00, 0x00, 0x00, 0x9f, 0x01, 0x00, 0x00,
  0xa2, 0x01, 0x00, 0x00, 0xa5, 0x01, 0x00, 0x00, 0xa8, 0x01, 0x00, 0x00,
  0xab, 0x01, 0x00, 0x00, 0xae, 0x01, 0x00, 0x00, 0xb1, 0x01, 0x00, 0x00,
  0xb4, 0x01, 0x00, 0x00, 0x1e, 0xd6, 0xff, 0xff, 0x0c, 0x00, 0x00, 0x00,
  0x10, 0x00, 0x00, 0x00, 0x0a, 0x00, 0x00, 0x00, 0x01, 0x00, 0x00, 0x00,
  0xb4, 0x01, 0x00, 0x00, 0x02, 0x00, 0x00, 0x00, 0xb3, 0x01, 0x00, 0x00,
  0x0b, 0x00, 0x00, 0x00, 0x82, 0xd6, 0xff, 0xff, 0x14, 0x00, 0x00, 0x00,
  0x00, 0x00, 0x00, 0x01, 0x18, 0x00, 0x00, 0x00, 0x1c, 0x00, 0x00, 0x00,
  0x0b, 0x00, 0x00, 0x00, 0x2e, 0xd6, 0xff, 0xff, 0x01, 0x00, 0x00, 0x00,
  0x01, 0x00, 0x00, 0x00, 0x01, 0x00, 0x00, 0x00, 0xb3, 0x01, 0x00, 0x00,
  0x03, 0x00, 0x00, 0x00, 0xb2, 0x01, 0x00, 0x00, 0x18, 0x00, 0x00, 0x00,
  0x98, 0x00, 0x00, 0x00, 0x7e, 0xd6, 0xff, 0xff, 0x0c, 0x00, 0x00, 0x00,
  0x10, 0x00, 0x00, 0x00, 0x0a, 0x00, 0x00, 0x00, 0x01, 0x00, 0x00, 0x00,
  0xb2, 0x01, 0x00, 0x00, 0x02, 0x00, 0x00, 0x00, 0x9c, 0x01, 0x00, 0x00,
  0x0e, 0x00, 0x00, 0x00, 0xa2, 0xd6, 0xff, 0xff, 0x0c, 0x00, 0x00, 0x00,
  0x10, 0x00, 0x00, 0x00, 0x0a, 0x00, 0x00, 0x00, 0x01, 0x00, 0x00, 0x00,
  0xb1, 0x01, 0x00, 0x00, 0x02, 0x00, 0x00, 0x00, 0xb0, 0x01, 0x00, 0x00,
  0x0b, 0x00, 0x00, 0x00, 0x06, 0xd7, 0xff, 0xff, 0x14, 0x00, 0x00, 0x00,
  0x00, 0x00, 0x00, 0x01, 0x18, 0x00, 0x00, 0x00, 0x1c, 0x00, 0x00, 0x00,
  0x0b, 0x00, 0x00, 0x00, 0xb2, 0xd6, 0xff, 0xff, 0x01, 0x00, 0x00, 0x00,
  0x01, 0x00, 0x00, 0x00, 0x01, 0x00, 0x00, 0x00, 0xb0, 0x01, 0x00, 0x00,
  0x03, 0x00, 0x00, 0x00, 0xaf, 0x01, 0x00, 0x00, 0x19, 0x00, 0x00, 0x00,
  0x97, 0x00, 0x00, 0x00, 0x02, 0xd7, 0xff, 0xff, 0x0c, 0x00, 0x00, 0x00,
  0x10, 0x00, 0x00, 0x00, 0x0a, 0x00, 0x00, 0x00, 0x01, 0x00, 0x00, 0x00,
  0xaf, 0x01, 0x00, 0x00, 0x02, 0x00, 0x00, 0x00, 0x9b, 0x01, 0x00, 0x00,
  0x0e, 0x00, 0x00, 0x00, 0x26, 0xd7, 0xff, 0xff, 0x0c, 0x00, 0x00, 0x00,
  0x10, 0x00, 0x00, 0x00, 0x0a, 0x00, 0x00, 0x00, 0x01, 0x00, 0x00, 0x00,
  0xae, 0x01, 0x00, 0x00, 0x02, 0x00, 0x00, 0x00, 0xad, 0x01, 0x00, 0x00,
  0x0b, 0x00, 0x00, 0x00, 0x8a, 0xd7, 0xff, 0xff, 0x14, 0x00, 0x00, 0x00,
  0x00, 0x00, 0x00, 0x01, 0x18, 0x00, 0x00, 0x00, 0x1c, 0x00, 0x00, 0x00,
  0x0b, 0x00, 0x00, 0x00, 0x36, 0xd7, 0xff, 0xff, 0x01, 0x00, 0x00, 0x00,
  0x01, 0x00, 0x00, 0x00, 0x01, 0x00, 0x00, 0x00, 0xad, 0x01, 0x00, 0x00,
  0x03, 0x00, 0x00, 0x00, 0xac, 0x01, 0x00, 0x00, 0x1a, 0x00, 0x00, 0x00,
  0x96, 0x00, 0x00, 0x00, 0x86, 0xd7, 0xff, 0xff, 0x0c, 0x00, 0x00, 0x00,
  0x10, 0x00, 0x00, 0x00, 0x0a, 0x00, 0x00, 0x00, 0x01, 0x00, 0x00, 0x00,
